#version: 0.2
n g</w>
t h
n g
t r
a n
n h
c h
t i
th e</w>
r e
ng _
i n
e r
n _
e d</w>
a r
e n
o r
o n
k h
i ệ
p h
o n</w>
t o</w>
an d</w>
o u
t _
o f</w>
e s</w>
e r</w>
i n</w>
n h</w>
i ng</w>
i t
g i
a l
v à</w>
i _
á c</w>
a n</w>
q u
r o
ư ờ
nh _
h a
v i
c _
c h</w>
T h
e s
a s
a l</w>
a t
i s
u _
c ủ
củ a</w>
i l
ư ợ
o ng</w>
ớ i</w>
c ác</w>
đ ã</w>
o r</w>
ê n</w>
o m
a ti
à y</w>
l i
m ộ
l o
a t</w>
a c
u y
i s</w>
ượ c</w>
e c
m _
đ ược</w>
ạ i</w>
h o
r u
a m</w>
e n</w>
mộ t</w>
ô ng</w>
ng ườ
a s</w>
a y</w>
e t
ế n</w>
tr ong</w>
à o</w>
s i
s a
ngườ i</w>
l y</w>
en t</w>
s t
i c
ch o</w>
v e</w>
l à</w>
u r
ô ng_
u s
t s</w>
_ th
h i
v ới</w>
a _
a m
i ế
o _
f or</w>
c ó</w>
th e
e l
ư ớ
p l
i r
e a
2 0
Th e</w>
d i
á ng</w>
ữ ng</w>
o l
e m
n ă
C h
n ày</w>
v ào</w>
th at</w>
a ng</w>
u ố
h iệ
c e</w>
c on
p ro
i ề
đ ến</w>
1 9</w>
y _
er s</w>
r i
nh ững</w>
ấ t</w>
u n
th áng</w>
V i
t ed</w>
p _
ou n
t ại</w>
w it
ê n_
v iệ
V iệ
ng ày</w>
s u
ư ơ
t h</w>
e v
N am</w>
wit h</w>
t ừ</w>
ro m</w>
h à
g h
s p
n o
b e
Vi et
f rom</w>
i ể
a d
c á
Viet n
â n</w>
a g
nă m</w>
c u
t o
đ ể</w>
kh i</w>
kh ông</w>
ati on</w>
ar e</w>
n e
w h
ướ c</w>
ậ n</w>
Việ t_
p o
a b
Việt_ Nam</w>
er e</w>
c om
w as</w>
ì nh</w>
p er
à _
ằ ng</w>
ầ n</w>
c or
s t</w>
0 0</w>
o v
ấ t_
ph á
t er</w>
b ị</w>
it y</w>
c ông_
C o
t u
đ ầ
e x
on s</w>
vi ru
b ệ
s ẽ</w>
p or
i d</w>
v ề</w>
viru s</w>
b y</w>
i t</w>
N g
ha ve</w>
f f
ha s</w>
b u
’ s</w>
s ố</w>
iế t</w>
ch _
in h</w>
đ ộ
tr ườ
b á
d e
T ru
ị ch</w>
â n_
d ing</w>
H o
l u
nh i
s e
việ c</w>
b e</w>
iề u</w>
l d</w>
_th ể</w>
ơ n</w>
ứ c</w>
ti on</w>
Vietn am</w>
r a</w>
c i
a p
m ent</w>
b iết</w>
o o
h ọ
d u
i m
c ó
f ir
s o</w>
h ợ
a k
ả i</w>
w or
t er
sa id</w>
uố c</w>
Co vi
l e</w>
r ằng</w>
tr ên</w>
p e
đ ó</w>
P h
th er</w>
d o
es e</w>
pl e</w>
at e</w>
ti ế
_ l
ng_ t
có _thể</w>
h e</w>
m e
đ ị
ù ng</w>
l e
an _
p re
ea r</w>
kh o
â y</w>
s ự</w>
d ụ
or e</w>
à i</w>
c as
t ế</w>
d s</w>
h ọ</w>
i r</w>
a i</w>
ti ng</w>
2 0</w>
d ay</w>
ổ i</w>
ạ i_
tr y</w>
đ ang</w>
th à
h ơn</w>
c o
re d</w>
ạ n</w>
nh_ ph
c a
Q uốc</w>
gi a</w>
r a
an h</w>
ng h
hợ p</w>
ử _
ố ng</w>
qu ố
N h
m o
ng hiệ
à n_
c oun
d is
th ứ</w>
nhi ễ
nh ân</w>
p u
t y</w>
a y
s e</w>
sa u</w>
an y</w>
ộ i</w>
nh ận</w>
l à
w ere</w>
cor on
ộ c</w>
il l</w>
ch uy
ũ ng</w>
in c
T r
l a
0 00</w>
ả n_
o ple</w>
e al
t e
en ts</w>
on e</w>
ề n</w>
ch í
ự c</w>
ou t</w>
m e</w>
nh iều</w>
i c</w>
trườ ng_
ự c_
dụ ng</w>
ế _
họ c</w>
quố c_
- 19</w>
ha d</w>
e ar
in e</w>
i es</w>
ou ld</w>
Ch in
M ar
á c_
it s</w>
i d
on al</w>
đ ồ
ấ y</w>
kh ác</w>
ì nh_
y ear</w>
n ước</w>
Tru ng_
c ũng</w>
nh ư</w>
đ ố
c ả</w>
s o
d o</w>
gi ả
i a</w>
no t</w>
iệ u</w>
om e</w>
as t</w>
i g
I n
ươ ng</w>
pe ople</w>
w e
ô i</w>
độ ng</w>
in f
be en</w>
p ar
ế t</w>
bệ nh</w>
il li
á n</w>
gh t</w>
a in
e t</w>
20 1
ou r
_ tr
ấ p</w>
al l</w>
a virus</w>
w ill</w>
ươ ng_
vi ên</w>
ar y</w>
x u
đầ u</w>
nh ất</w>
hiệ n</w>
ha i</w>
trường_ hợp</w>
the ir</w>
ư a</w>
nhiễ m</w>
ậ t</w>
s á
re c
c ầ
coron avirus</w>
Trung_ Quốc</w>
c ả
at ed</w>
hà ng</w>
_ h
nh à_
u m
b o
ư ng</w>
wh o</w>
d ịch</w>
tr u
ư ở
ph ải</w>
qu y
ổ _
l ại</w>
ặ c</w>
es t</w>
ti es</w>
ng o
C ác</w>
al so</w>
kh á
an h
phá t_
a f
ự _
illi on</w>
' s</w>
m ới</w>
20 20</w>
t ur
u l
ườ ng</w>
b a
Th e
d ed</w>
eal th</w>
g h</w>
bệ nh_
ế t_
à n</w>
n i
Mar ch</w>
ă ng</w>
in is
v er
ê u_
ứ ng</w>
ưở ng</w>
r ou
i ến</w>
al ly</w>
e l</w>
m ore</w>
tr a
ov er
th is</w>
í nh</w>
o re
d er</w>
đầ u_
ả n</w>
in ce</w>
ờ i</w>
tr ước</w>
iể n</w>
ati onal</w>
ch ú
việ n</w>
ượ ng</w>
ho ặc</w>
es s</w>
l ớ
iề u_
x ác_
o ther</w>
t w
_ t
e m</w>
b er</w>
the y</w>
ơ i</w>
đị nh</w>
al s</w>
ol d</w>
ứ c_
ậ p_
c an</w>
ng_ c
ả ng</w>
1 0</w>
Covi d</w>
n_ th
V ào</w>
en ti
k s</w>
ho ạ
du c
ẫ n</w>
fir st</w>
â y_
m on
ậ p</w>
t uy
d -19</w>
b ắ
w n</w>
Covi d-19</w>
the o</w>
nh_ph ố</w>
an d
w hi
cas es</w>
it al</w>
ti n
C O
whi ch</w>
ou r</w>
f or
ati ons</w>
O n</w>
ch ỉ</w>
đ iều_
th ông_
qu an</w>
b ay</w>
anh _
re por
m ình</w>
tu ổi</w>
m ed</w>
m ar
ạ o</w>
quốc_ gia</w>
gi ới</w>
c ứ
mộ t_
f i
re n
là m</w>
cầ u</w>
I n</w>
V I
Q u
à i_
ụ c</w>
ọ i</w>
re a
oun d</w>
nh à</w>
ng hi
iệ n</w>
Chin a</w>
ag e</w>
m á
e b
CO VI
n ó
à ng</w>
uy _
s h
nghiệ m</w>
đố i_
tw o</w>
ỉ nh</w>
th ực_
lo c
us e</w>
or s</w>
ec ted</w>
ă n_
ử_ dụng</w>
m à</w>
e as
af ter</w>
à_ N
qu a</w>
ê m</w>
th ấy</w>
, 000</w>
đồ ng</w>
s ử_dụng</w>
G i
com p
iể m_
ò n</w>
th u
ò ng</w>
à nh</w>
d ân</w>
c ơ
ba o_
tr e
lớ n</w>
bu t</w>
cứ u</w>
r is
1 9
m ạ
A nh</w>
u d
p p
qu an_
Ng uy
an n
ti ons</w>
l ên</w>
ữ a</w>
ti ve</w>
th an</w>
ti ên</w>
cu ộc</w>
an t</w>
ị ch_
gi á
M ộ
v ì</w>
thà nh_phố</w>
l ed</w>
n_ đ
đ i</w>
ti n</w>
inc lu
cá o</w>
a u</w>
v ụ</w>
e p
si d
h is</w>
f ac
nh ưng</w>
tr ic
coun try</w>
ne w</w>
m u
g ồ
con fir
u p</w>
gồ m</w>
a r</w>
cá ch</w>
re s</w>
b ở
s ur
đ ại_
trườ ng</w>
Vietn am
ak e</w>
a m_
tr iệu</w>
b ạn</w>
an ce</w>
t ăng</w>
â m</w>
xác_ nhận</w>
bá o</w>
ờ i_
ff ic
đ ưa</w>
h ô
á i</w>
B ộ</w>
í ch</w>
ướ c_
ch ức</w>
ú c</w>
v ậ
ên_ cứu</w>
t ỉnh</w>
o u</w>
ov er</w>
Vietnam ese</w>
u_ l
ặ t</w>
li ên_
ch iế
k ing</w>
phá p</w>
in es</w>
h er</w>
đầu_ tiên</w>
s ản_
en t
ac c
s er
k iểm_
es s
b ố</w>
ay s</w>
ỗ i</w>
ă n</w>
ng_ th
m illion</w>
bở i</w>
đ á
re e</w>
giả m</w>
confir med</w>
K h
công_ ty</w>
_ s
T ro
p ati
s ho
ph ụ
sp ital</w>
b iệ
ố i</w>
c ùng</w>
ế u</w>
th ời_
lo w
ca o</w>
bao_ gồm</w>
ou s</w>
ic al</w>
c es</w>
a u
m a
c ô</w>
ị _
com m
over n
ch u
e d
K ỳ</w>
ọ ng</w>
o i</w>
g en
w ould</w>
c òn</w>
pro v
B ệ
Ho a_
n ay</w>
kh ẩ
3 0</w>
il e</w>
t es
t e</w>
th ế_
nó i</w>
n ational</w>
ab out</w>
_ n
p ri
k e</w>
đ ây</w>
y ou</w>
us t</w>
nh ân_
g r
s y
nghi ên_cứu</w>
s ed</w>
b ả
ất_ cả</w>
v ực</w>
S t
H C
i ties</w>
ar g
a ng
tr uy
s ec
cor ding</w>
c ent</w>
c a</w>
M inis
k i
b ec
ab le</w>
ti me</w>
at es</w>
ử a</w>
d ec
c on</w>
th o
re s
n ó</w>
t ới</w>
đị a_
Tro ng</w>
bệnh_ nhân</w>
b a</w>
tiế p_
ệ n</w>
Ô ng</w>
iể m</w>
u_l ịch</w>
T o
m any</w>
el l</w>
khá ch</w>
f e
ev e
n ing</w>
n ào</w>
r ic
ừ ng</w>
nghiệ p</w>
Mộ t</w>
tr ở
ngo ài</w>
ạ t</w>
ễ n_
si on</w>
xu ất</w>
gi á</w>
Bệ nh_
đ iểm</w>
ắ c</w>
Hoa_ Kỳ</w>
H an
á i_
pre s
D is
b ằng</w>
qu ar
k ed</w>
bá o_
an s</w>
us ed</w>
quy ền</w>
p a
tr i
điều_ tr
nh_ph ủ</w>
gi a
đ ề
tr ies</w>
s it
per cent</w>
i z
eve lo
tr o
kh ông_
ev er
s ti
tr iển</w>
c_ s
st ud
g ần</w>
bắ t_
V N
đ ộ</w>
v ing</w>
c en
H à_N
d ịch_
Hà_N ội</w>
I t</w>
overn ment</w>
ẩ m</w>
in v
hà nh_
h ealth</w>
d u_lịch</w>
1 5</w>
ườ ng_
í _
ch i
n ơi</w>
một_ số</w>
l is
ou t
e i
ậ t_
lo ại</w>
e _
chí nh_
s he</w>
i ng
cá ch_
The o</w>
hà nh</w>
đ o
l and</w>
á t</w>
t en
n_ t
n ed</w>
c y</w>
l ượng</w>
qu ả</w>
b li
. 000</w>
t ố
as ed</w>
báo_ cáo</w>
tr an
ec t</w>
t a
n um
ev er</w>
ặ c_
v ẫn</w>
th er
m an</w>
cách_ ly</w>
Han oi</w>
x é
t ất_cả</w>
in ter
ear s</w>
â m_
u_ vực</w>
i ên_
b ất_
xu ất_
k ết_
i_ th
c ed</w>
o c
kho ảng</w>
es ti
w i
g ây</w>
l ea
em ic</w>
th iế
H e</w>
é p</w>
or y</w>
d re
ủ _
ỏ i</w>
â u_
ă m</w>
s ome</w>
S ou
1 2</w>
sá t</w>
ph ẩm</w>
p en
cas e</w>
y_ tế</w>
r ất</w>
M ỹ</w>
inf ec
il l
hoạ t_
the m</w>
pro duc
d evelo
N e
1 4</w>
ầ n_
l ast</w>
coun tries</w>
đ ó
thế_ giới</w>
t ổ
m i
kh u_vực</w>
w om
s ch
in to</w>
v e
at er</w>
wh en</w>
repor ted</w>
mo st</w>
is t
hoạt_ động</w>
an tin
gi a_
U .</w>
y ears</w>
so ci
quar antin
hà ng_
ổ_ chức</w>
ar d</w>
_h ội</w>
phát_ triển</w>
m p
d ự_
to àn</w>
oo d</w>
c lo
ộ ng</w>
nhi ên</w>
inclu ding</w>
em ent</w>
b ộ</w>
ể n</w>
am e</w>
a ir
Chin ese</w>
ư _
d e</w>
t ình_
ph ương</w>
l ần</w>
ad e</w>
y êu_
u e</w>
p s</w>
h el
H ealth</w>
it ed</w>
ộ i_
pl ac
b et
C ông_
đối_ với</w>
tr ọng</w>
chuy ến</w>
il y</w>
tric t</w>
en ce</w>
eas e</w>
v es</w>
t ính</w>
nă ng</w>
C om
ắ c_
t or</w>
f in
bli c</w>
th ường</w>
th ree</w>
t ì
po si
kho ẻ</w>
c ould</w>
ạ ng</w>
si a</w>
a re
g overnment</w>
ati ng</w>
w s</w>
s ức_
or m
gi an</w>
be ing</w>
5 0</w>
v en
k ể</w>
n ước_
f u
o ffic
ng_t âm</w>
Y _
d er
th êm</w>
ac t</w>
20 19</w>
thà nh_
on ly</w>
num ber</w>
t ạo</w>
l l</w>
_n ữ</w>
d ays</w>
chú ng_t
A ir
s on</w>
ươ ng_t
wor ld</w>
sản_ xuất</w>
c ông</w>
t a</w>
ả y</w>
por t</w>
f li
s ố
ha t</w>
c ar
ả nh_
c l
nh iệ
là m_
an c
U S
COVI D
ấ n</w>
yêu_ cầu</w>
ki nh_
ch il
c uố
COVID -19</w>
th s</w>
k ỳ</w>
ann oun
địa_ phương</w>
th ere</w>
hô m</w>
Y_ tế</w>
ủ _t
tu ần</w>
bắt_ đầu</w>
P ro
v acc
ướ ng</w>
t ment</w>
gi ờ</w>
m an
re sp
c ity</w>
x in</w>
wh ile</w>
con t
uố ng</w>
truy ề
phụ _nữ</w>
l ý</w>
f ore</w>
a i
U n
m ọi</w>
g y</w>
a_ s
T u
l ine</w>
ac k</w>
1 1</w>
liên_ quan</w>
ha y</w>
c al
t ôi</w>
s hi
v ed</w>
tiế ng</w>
sức_ khoẻ</w>
no w</w>
develo p
đ ô
thực_ hiện</w>
ph ép</w>
ch ứng</w>
re tur
l ây_
P ar
1 0
w ay</w>
rou p</w>
di a</w>
d ự
COVI D</w>
n o</w>
ộ ng_
mar k
f ore
â u</w>
H ồ
xé t_
wor k</w>
s us
B u
t ài_
p and
Đ ại_
y ing</w>
re as
2 5</w>
ứ ng_
su ch</w>
20 0
th ì</w>
ng u
m is
t ỷ</w>
t ổ_chức</w>
i al</w>
gi ú
a v
F eb
we e
tuy ên_
tra v
m in
Feb ru
h ome</w>
s es</w>
po li
m er
ạ m</w>
f t</w>
ex p
Febru ary</w>
g ọi</w>
chuy ển</w>
c ấ
S .</w>
Ho spital</w>
el l
pand emic</w>
me d
Nh ững</w>
th or
g o
đại_ dịch</w>
en d</w>
điều_tr ị</w>
xét_ nghiệm</w>
chí nh_phủ</w>
an ds</w>
m ỗi</w>
t al
ạ n_
si nh_
k e
h ưởng</w>
chú ng</w>
Minis try</w>
à u</w>
ti c
li ke</w>
Th is</w>
c re
ồ n</w>
se ar
i o
s ince</w>
f e</w>
ố n</w>
tuyên_ bố</w>
ph òng</w>
chí nh</w>
H ai</w>
ph ần</w>
làm_ việc</w>
ti ền</w>
Dis trict</w>
ả o</w>
tr ình</w>
pu blic</w>
lo w</w>
em ber</w>
at ur
g e</w>
ff e
ô n_
u_ h
tr ở</w>
comp any</w>
c ấp</w>
1 6</w>
thời_ gian</w>
In ter
st ar
p as
nhân_ viên</w>
m inis
d es
í a</w>
Sou th</w>
ó m</w>
uố c_
pati ents</w>
bệnh_ viện</w>
o f
ig n</w>
i f</w>
biệ t</w>
Bệnh_ viện</w>
ắ ng</w>
w e</w>
c ur
M inh</w>
ng_c ấp</w>
i m</w>
f am
l ã
a y_
A c
we en</w>
to àn_
s ống</w>
re l
be fore</w>
su l
ph ía</w>
lo o
hi gh</w>
ồ i</w>
đ iệ
ch ống</w>
c ap
tr a</w>
re qu
ou gh</w>
b rea
ur ing</w>
m ay</w>
t ly</w>
o p
b or
ac cording</w>
thà nh</w>
sá ch</w>
et s</w>
c ần</w>
announ ced</w>
2 2</w>
hợ p_
h ea
ảnh_ hưởng</w>
thiế t_
t ers</w>
m ặt</w>
kh ả
_th u
ằ m</w>
w ell</w>
D e
ev en</w>
our is
cả nh_
bả o_
ấ n_
đ iều</w>
ù ng_
ê u</w>
posi tive</w>
ng uy
un e</w>
t ư</w>
o b
u res</w>
e ff
dis ease</w>
re sid
g u
so át</w>
gi ữa</w>
K ore
đ àn_
wi th
nước_ ngoài</w>
l ợ
hoạ ch</w>
ar ound</w>
H u
D u
ấ u</w>
n ên</w>
di rec
ch ết</w>
ắ t</w>
ô _
t ak
cu ng_cấp</w>
b an</w>
ati ve</w>
t ors</w>
dre n</w>
ú t</w>
un der</w>
tran s
tes ted</w>
wh ere</w>
_ quan</w>
2 1</w>
đề u</w>
tur e</w>
tho se</w>
nh au</w>
Nguy en</w>
y s</w>
má y</w>
khẩ u</w>
g ì</w>
d ẫn</w>
i_ ph
bet ween</w>
ễ n</w>
đàn_ ông</w>
R e
A f
2 4</w>
u s</w>
phá t</w>
th am_
ng s</w>
d ùng</w>
t ử_
giú p</w>
1 .
re gi
nh ập_
a use</w>
_l a</w>
1 3</w>
đ ình</w>
th ese</w>
oo k</w>
loc al</w>
ch ế</w>
ừ a</w>
ậ u</w>
t al</w>
quốc_ tế</w>
o_ d
m ức</w>
A n
đô _la</w>
k iến</w>
a il
Un ited</w>
ả ng_
th rou
r it
ex per
d ư
1 7</w>
mạ nh</w>
l arg
f ol
ã _hội</w>
kh ỏi</w>
h u
b us
au thor
T i
v ong</w>
re sear
k iện</w>
M C</w>
ử a_
đ ặc_
tr al</w>
m ô
m s</w>
The y</w>
A l
tr á
do wn</w>
r on
in d
on d</w>
n_ pháp</w>
l ập</w>
ấ n_đ
oo l</w>
ngườ i_
n ếu</w>
S he</w>
bá n</w>
Nguy ễn_
ỷ _
tử_ vong</w>
tro l</w>
1 ,
ấn_đ ề</w>
m p</w>
m ain
th ể</w>
s ó
nhiễ m_
tr ực_
pati ent</w>
g an
b le</w>
ò ng_
vậ y</w>
iề n</w>
gh ts</w>
st s</w>
w ar
ver s
bec ause</w>
f ound</w>
biệ n_pháp</w>
b ỏ</w>
C ity</w>
v ấn_đề</w>
tr ẻ</w>
quarantin e</w>
gia_ đình</w>
an u
_s ở</w>
ế_ hoạch</w>
chil dren</w>
d y</w>
brea k</w>
an ts</w>
Th u
m as
h ã
c ol
ap p
ườ i</w>
đ ường</w>
ther n</w>
om s</w>
g ro
sur e</w>
par tment</w>
ng uy_
i l</w>
h ệ</w>
1 8</w>
x ã_hội</w>
pri l</w>
l es</w>
kiểm_ soát</w>
ch ang
A pril</w>
2 3</w>
ế n_
ạ c</w>
re sul
or t</w>
o per
me as
h uy
đ ổi</w>
si g
l an</w>
i an</w>
ho á</w>
M o
HC MC</w>
s el
m il
ch ặ
Q uốc_
hi ể
_ ch
u_ tr
u m</w>
phát_ hiện</w>
nh óm</w>
m ang</w>
lo gy</w>
g re
f ic
chuy ên_
a_s ẻ</w>
J ap
le g
ac ti
F ac
chi a_sẻ</w>
L an</w>
2 7</w>
w ever</w>
th ị_
rea d</w>
má y_
ho àn_
h ình</w>
h um
_ năng</w>
ứ a</w>
ương_t ính</w>
vacc ine</w>
tì m</w>
t ục</w>
d ương_tính</w>
ă ng_
wom an</w>
mark et</w>
l ines</w>
co n_
c er
HC M</w>
f our</w>
en s</w>
ch ưa</w>
Tru mp</w>
ắ n</w>
em p
C en
v ật</w>
t ouris
sp ec
ser vi
med ical</w>
Nh ật_
Ng o
tuy ến</w>
sa me</w>
ho spital</w>
M al
t ake</w>
id e</w>
Ph á
A u
ố i_
Th ái_
đá nh_
m it
dịch_ vụ</w>
tố t</w>
m ents</w>
T ha
ý _
throu gh</w>
kh í</w>
author ities</w>
lo y
cu ̉
b illion</w>
Ch í
thông_ tin</w>
m ade</w>
củ a</w>
T uy_
L o
2 8</w>
sa ng</w>
em b
d ea
Tuy_ nhiên</w>
th uốc</w>
ne t</w>
n s</w>
cuố i</w>
v ùng</w>
thu ộc</w>
m ake</w>
U ni
B ản</w>
kiểm_ tra</w>
a in</w>
quy ết_
gi ữ</w>
d uring</w>
sy st
s k
prov ince</w>
m_ đố
lo b
iệ u_
h ệ
giả i_
anu ary</w>
J anuary</w>
t ập_
s inh</w>
k ế_hoạch</w>
ever al</w>
e red</w>
c ơ</w>
H àn_
ũ _
m uố
chiế c</w>
c ri
at h</w>
wor k
es day</w>
cấ m</w>
a ir</w>
2 6</w>
ơ n_
to tal</w>
m ak
C on
đ ặt</w>
s ing</w>
c -
W h
I s
ệ nh</w>
ẵ ng</w>
x úc</w>
ng_c ửa</w>
il i
a o</w>
a ff
Fac eb
đ ất</w>
kh iến</w>
b iến</w>
O n
A s</w>
A n</w>
mu a</w>
el s</w>
du e</w>
_th ành</w>
S au</w>
Gi á
ả i_
x ảy</w>
tru ng_
su b
qu y_
it e</w>
bus in
b iển</w>
Hàn_ Quốc</w>
ỉ _
đó ng_cửa</w>
t old</w>
k no
ar ri
Faceb ook</w>
Bu t</w>
ử_ nghiệm</w>
y p
ric e</w>
kh uy
d ro
trở _thành</w>
su p
out break</w>
infec tion</w>
hel p</w>
Nhật_ Bản</w>
Nh ưng</w>
sp read</w>
al l
Ac cording</w>
201 8</w>
ồ ng</w>
ẻ _
po pu
j ust</w>
cả nh</w>
ain st</w>
N ational</w>
A mer
0 ,000</w>
ộng_ đồng</w>
tổ ng_
th ay_
la r</w>
d r
ag ainst</w>
Đ à_N
ă m_
y our</w>
vers ity</w>
un ity</w>
ti z
te ch
soci al</w>
s áng</w>
ph ương_
m iền</w>
l ư
inf orm
cả m_
b ản</w>
Amer ic
Đà_N ẵng</w>
ti êu_
th ử_nghiệm</w>
er al</w>
b ased</w>
ặ p</w>
độ ng_
sti ll</w>
dụ c</w>
di ễn</w>
W or
Pro v
g et</w>
ch âu_
b à</w>
I tal
quyết_ định</w>
mon th</w>
im por
1 5
quan_ trọng</w>
p er</w>
ngh ệ</w>
n or
lã nh_
as s
are as</w>
H ọ</w>
ì n</w>
tr ac
h ỗ
b iể
ắ c-
sch ool</w>
ren t</w>
mạ ng</w>
không_ thể</w>
US D</w>
S e
2 .
ô n</w>
s s</w>
muố n</w>
ch o_
Prov ince</w>
ph ản_
m at
khá ch_
k iế
hi gh
ch ed</w>
_th ống</w>
ọ n</w>
à y_
t ên</w>
coron a</w>
chúng_t a</w>
b r
A r
v er</w>
tr ạng</w>
resp on
ou s
on om
inform ation</w>
fu l</w>
fol low
1 00</w>
í ch_
à ng_
us ing</w>
cá i</w>
đặc_ biệt</w>
t ự_
l iệu</w>
khả _năng</w>
c ộng_đồng</w>
ầ u</w>
truyề n_th
s ự_
e ly</w>
d em
b ên</w>
In d
tru ng_tâm</w>
sa ys</w>
ng ăn_
j o
fam ily</w>
ec ts</w>
c_s ĩ</w>
T ổ
4 0</w>
tru c
thông_ báo</w>
ngo ái</w>
ea ch</w>
công_ bố</w>
_tr ợ</w>
S a
J o
ê m_
tre at
thị_ trường</w>
t àu</w>
inc reas
V in
đầu_ tư</w>
ver y</w>
v ệ</w>
stud ents</w>
sid e</w>
re ad
nă m_
n ữa</w>
do anh_
d ù</w>
c ửa_
ổ i_
ạ m_
đồ ng_
v ị</w>
t ác</w>
inf ected</w>
hỗ _trợ</w>
dịch_ bệnh</w>
a_ học</w>
T P</w>
ắc- xin</w>
đ ạo</w>
sec ond</w>
b ri
tr iệu_
f ood</w>
d et
a d</w>
ị _tr
đo àn</w>
á p_
s everal</w>
om e
kết_ quả</w>
inter national</w>
fi ve</w>
b ùng_
a i_
x e</w>
vi de
pro c
ol s</w>
k é
g an</w>
bo th</w>
R es
un der
pro vi
ngu ồn</w>
ma j
m inh</w>
lo gi
I r
per son</w>
kinh_ tế</w>
d i_
chuyên_ gia</w>
B a
ê _
e p</w>
_l iệu</w>
P o
ẩ n</w>
trav el</w>
th en</w>
hệ _thống</w>
g g
dự ng</w>
J u
ti c</w>
sh ould</w>
s ản</w>
for m
1 8
sản_ phẩm</w>
rec ei
plac e</w>
Ho wever</w>
ả nh</w>
w hat</w>
triệu_ chứng</w>
ti l</w>
th ing</w>
b l
b i
Ng ười</w>
Minis ter</w>
đề _
th ương_
pro t
l ev
is su
h ạn_
M on
ọ c</w>
đ ất_
tr ưởng</w>
tiếp_ xúc</w>
li m
công_ c
x uống</w>
u ro
t on</w>
of f</w>
ng er</w>
m es</w>
ương_ trình</w>
vậ n_
tiếp_ tục</w>
ent ly</w>
d ers</w>
công_ dân</w>
cont act</w>
b é</w>
Bệnh_ nhân</w>
ạ nh</w>
ã i</w>
tru ng</w>
m_đố c</w>
m ất</w>
l ệnh</w>
gan iz
b an_
ụ c_
ố c</w>
ẻ_ em</w>
th ức</w>
shi p</w>
s ân_
re g
mon ths</w>
con tin
chặ n</w>
ch ủ_
c am
St ates</w>
S A
bá c_sĩ</w>
b ack</w>
Mal ay
ph ân_
c al</w>
ati on
Uni versity</w>
L i
Air lines</w>
A s
ặ ng</w>
ản_ lý</w>
l in
hã ng</w>
gia o</w>
ec onom
Th anh</w>
N ăm</w>
v ài</w>
t en</w>
ph òng_
par t</w>
gh i_
c are</w>
VN D
Kh i</w>
v ắc-xin</w>
un til</w>
k il
ch ất_
bùng_ phát</w>
19 9
hiệ u</w>
enti al</w>
Qu ang</w>
ó n</w>
tr al
se t</w>
poli ce</w>
ph o
kiế m</w>
im m
h ed</w>
cơ _quan</w>
com e</w>
al ity</w>
D i
ur e</w>
tr ùng</w>
tham_ gia</w>
li fe</w>
i als</w>
e o</w>
cơ _sở</w>
ch í</w>
c_s inh</w>
2 ,
stud y</w>
po s
em s</w>
dư ới</w>
cá _
ci al</w>
Ne w</w>
C ha
thay_ đổi</w>
kh ó
i f
com pl
b er
at a</w>
Kore a</w>
ở _
ả m_
is e</w>
ủ_t ướng</w>
Đại_ học</w>
xác_ định</w>
người_ dân</w>
cho_ phép</w>
Ch ú
v en</w>
t ương_
c ổ_
b ài</w>
B ắc_
3 1</w>
treat ment</w>
to p</w>
tiế p</w>
ing s</w>
Tru ng_tâm</w>
đ ủ</w>
á u</w>
wom en</w>
ris k</w>
r e</w>
p _th
meas ures</w>
g roup</w>
f ul
chính_ quyền</w>
at ory</w>
Ir an</w>
A us
wee k</w>
tr ẻ_em</w>
sus pen
p ol
ne x
kho a_học</w>
kh u</w>
d ân_
N am_
H O</w>
C u
B a</w>
201 6</w>
w ays</w>
năm_ ngoái</w>
ng ành</w>
nex t</w>
di d</w>
Việ t</w>
F r
0 %</w>
ây_ dựng</w>
tình_ trạng</w>
th ers</w>
repor t</w>
kno wn</w>
cal led</w>
N inh</w>
L a
C am
w ater</w>
tr ận</w>
qu á
pre v
pas se
or ies</w>
lob al</w>
hạn_ chế</w>
chúng_t ôi</w>
ch ers</w>
W HO</w>
201 7</w>
ủ ng_
đo ạn</w>
u ng</w>
t em
o w
mp t
il ity</w>
hiệ n_
fli ght</w>
công_ nghệ</w>
Ph ili
ã n</w>
r ộng</w>
on line</w>
nhiễm_ bệnh</w>
n_ l
es t
at t
ar ly</w>
am s</w>
V ũ_
T ư</w>
í t</w>
t ác_
syst em</w>
si an</w>
do c
ci tiz
cen tral</w>
_l ượng</w>
ậ n_
đ ạt</w>
s tr
ic e</w>
fac e</w>
emp loy
cửa_ hàng</w>
bảo_ vệ</w>
ử i</w>
ù a</w>
vide o</w>
v i</w>
n_ s
m or
l ong</w>
i gh
Malay sia</w>
6 0</w>
2 9</w>
me dia</w>
l ands</w>
họ c_sinh</w>
e g
d uy
b ro
_l ại</w>
E uro
õ i</w>
x ây_dựng</w>
work ers</w>
tổng_ số</w>
m ẹ</w>
h ạn</w>
b ốn</w>
b ình</w>
T ại</w>
Phili pp
J une</w>
De partment</w>
​ ​
u_ quả</w>
huy ện</w>
cu ộ
b ình_
P e
7 0</w>
ắ p</w>
ó ng</w>
with out</w>
trở _lại</w>
s ou
s ci
ist an</w>
g ửi</w>
et y</w>
S E
y ếu</w>
t ự</w>
t es</w>
k ỹ
h ội</w>
giá o_
bu il
an ti
SA R
đất_ nước</w>
đ ường_
à o_
toàn_ cầu</w>
t ừng</w>
t est</w>
s ha
p e</w>
ngh ĩ
ng ừa</w>
ng ers</w>
is h
hành_ khách</w>
gro w
eas es</w>
S a</w>
N or
L ong</w>
I V</w>
s en
qu ận</w>
qu ản_lý</w>
m y</w>
iế u</w>
g ái</w>
f ri
e y</w>
bu ộc</w>
an_ toàn</w>
T ôi</w>
Ng a</w>
Công_ ty</w>
C ô</w>
A I</w>
ỷ _l
trực_ tuyến</w>
nh ỏ</w>
mis sion</w>
không_ khí</w>
hi m</w>
h an</w>
de ath</w>
Jap an</w>
j ect</w>
doanh_ nghiệp</w>
d iện</w>
c àng</w>
Inter national</w>
Chí nh_phủ</w>
ặ t_
st ate</w>
m ắc</w>
m ov
con trol</w>
am ong</w>
Ital y</w>
G er
5 00</w>
ạ ch</w>
đ ứng</w>
Đ ức</w>
ú c_
h ại</w>
fore ign</w>
al low
U S</w>
D a</w>
ặc_ dù</w>
ti onal</w>
sân_ bay</w>
su ng</w>
per s
ov ered</w>
nguy_ cơ</w>
i_ trường</w>
h ộ</w>
h ou
ch ương_trình</w>
b ur
al e</w>
S u
ã o</w>
t ay</w>
sp it
s ome
or der</w>
nghi êm_
mpt oms</w>
lu ận</w>
l ater</w>
i ous</w>
_ Ch
Th ủ_tướng</w>
ộ _
Â u</w>
resid ent</w>
re cor
m ẫ
in s</w>
ho w</w>
d ru
ch ủ
Đ iều</w>
w er</w>
u_ t
truy ền</w>
sit e</w>
ngăn_ chặn</w>
ch arg
S ing
B à</w>
0 .000</w>
vi s
ti ề
th ấp</w>
tech no
resear ch</w>
ph im</w>
n er</w>
maj or</w>
m en</w>
g ó
er ing</w>
e qu
di tion</w>
ac k
ac e</w>
Thái_ Lan</w>
Qu ảng_
I f</w>
v al
th ị
ta in</w>
sp o
re le
o ff
nhiệ t_
nh ằm</w>
man ag
m ối</w>
im p
ch ứng_
as e</w>
X u
Ju ly</w>
G oo
Co V</w>
wor king</w>
ti mes</w>
li er</w>
l at
infec tions</w>
ear ly</w>
d ata</w>
bo dy</w>
Ti k
Ne w
Aus tral
ượ t</w>
y ou
ven tion</w>
u_ th
servi ces</w>
on d
lây_ nhiễm</w>
gen cy</w>
g ặp</w>
g o</w>
cá_ nhân</w>
comp an
c anc
R us
Philipp ines</w>
M ay</w>
st o
s truc
s ay</w>
o_d õi</w>
mi ễn_
h ình_
ch ăm_
Phá p</w>
C an
2 5
é t</w>
u_tr ang</w>
sti tu
m ở_
h ear
dự_ kiến</w>
cảnh_ sát</w>
Sing a
ur ity</w>
ph iếu</w>
o s</w>
n_th o
n ổi_
cu l
bec ome</w>
Tru ng</w>
S áu</w>
Mộ t_
M ai</w>
H án</w>
B ình_
B o
ủ_t ịch</w>
ắ m</w>
u han</w>
sho w
sel f</w>
quan_ chức</w>
o_ động</w>
ir d</w>
inv es
h ar
h al
g le</w>
du ce</w>
dea ths</w>
c ame</w>
_tr ưởng</w>
W uhan</w>
E x
Đ ông</w>
xuất_ hiện</w>
vi sit
truyề n_
só c</w>
retur ned</w>
pro f
o k</w>
fli ghts</w>
e ting</w>
direc tor</w>
d ài</w>
ch ất</w>
ch o
c lu
ad ded</w>
ị_tr í</w>
x e_
the o_dõi</w>
on es
lây_ lan</w>
l y
as hi
Au g
v òng</w>
tì m_
sy mptoms</w>
quố c</w>
por e</w>
l úc</w>
l ess</w>
khẩ u_trang</w>
e vi
bả o</w>
Th à
Singa pore</w>
N ếu</w>
M e
H IV</w>
Goo gle</w>
20 0</w>
thông_ qua</w>
si ble</w>
n ec
hea d</w>
c our
Wor ld</w>
ố _
Đ ông_
máy_ bay</w>
kh u
k ý</w>
id enti
e ther</w>
_Ch í_
W e</w>
Vũ_ Hán</w>
L iên_
Hồ _Chí_
Aug ust</w>
v ị_trí</w>
v ăn_
ng_th ống</w>
l ing</w>
d anh_
công_ việc</w>
c k</w>
anh_ ch
Hồ_Chí_ Minh</w>
F ri
điệ n_tho
w as
w a
số _lượng</w>
kho ản</w>
hàng_ không</w>
de red</w>
ch ọn</w>
xuất_ khẩu</w>
ti m</w>
ro ss</w>
ri ê
in k</w>
h ồ
exp ected</w>
ca used</w>
as ked</w>
điều_tr a</w>
â ng</w>
x em</w>
vi ron
thành_ viên</w>
tak en</w>
produc ts</w>
our s</w>
l ời</w>
họ p</w>
ho spit
công_c ộng</w>
an other</w>
Tik To
N o
F or
ẩ n_
độ i</w>
w at
th ể
si ve</w>
nh ật</w>
n am</w>
ind us
i on</w>
ec tive</w>
di ffe
ch es</w>
at ten
_ kh
TikTo k</w>
T ây_
K i
Ind ones
C hi
B inh</w>
ẳ ng</w>
ạ y</w>
đ ông</w>
v el</w>
u al</w>
tra ng_
t ain
sự_ kiện</w>
st at
pu ty</w>
po sed</w>
n ess</w>
f un
dis c
compan ies</w>
R o
F or</w>
C ol
1 6
’ t</w>
Đ ây</w>
sus p
nguy ên_
n ’t</w>
in st
f l
ess es</w>
chăm_ sóc</w>
c la
b re
Ph u
C E
po in
passe ngers</w>
p r
ch ức_
al i
N ang</w>
3 .
ả o_
sup port</w>
s tre
s m
re st
nor thern</w>
khuy ến_
inclu de</w>
g a
esti g
bắ c</w>
b ang</w>
an k</w>
ad a</w>
ề u</w>
ù _
te am</w>
t yp
o _th
ng ày_
n ằm</w>
n ông_
m emb
le ar
h e
ghi_ nhận</w>
dự a</w>
M i
H iệ
Gi ang</w>
ừ a_
đ ảm_
popu l
di ed</w>
b iên_
ag es</w>
VN D</w>
Ho a</w>
H ong</w>
Fri day</w>
Chú ng_t
Af ter</w>
1 4
ứng_ dụng</w>
ị u</w>
th ough</w>
pu t</w>
ngh ĩ</w>
il and</w>
d ành</w>
comm unity</w>
ci es</w>
Tha iland</w>
T e
S on</w>
P ri
G en
thiết_ bị</w>
qu á</w>
par ti
mu ch</w>
le ast</w>
clo se</w>
chang e</w>
c ây</w>
ầ u_h
ầu_h ết</w>
ầ m</w>
đ ời</w>
t ừ
quarantin ed</w>
mô i_trường</w>
m ùa</w>
i ti
do anh</w>
car ri
c ứ</w>
ó ng_
sch o
quy ết</w>
ph ó</w>
n ers</w>
mẫ u</w>
li c
is ol
impor t
g en</w>
el ec
di vi
cur ren
Th ế_
L u
ỷ_l ệ</w>
đ ợ
đ iện</w>
vi e
trá nh</w>
tr ả</w>
si x</w>
qu án</w>
nhà_ nghiên_cứu</w>
ne ed</w>
minis try</w>
con cer
ch ing</w>
busin ess</w>
are a</w>
Com m
A t</w>
ấ u_
x e
pp ed</w>
on es</w>
ol u
n u
is h</w>
dự_ án</w>
19 8
Đ ộ</w>
th ăm</w>
t ấn</w>
sa o</w>
ni ght</w>
mas ks</w>
lu ật</w>
hum an</w>
chuy ện</w>
c r
_ S
Mon day</w>
D an
A sia</w>
ư_ dân</w>
ô_ nhiễm</w>
u ation</w>
regi on</w>
nh ập</w>
l ab
k ết</w>
develop ed</w>
cu st
c e
Indones ia</w>
ữ _liệu</w>
read y</w>
ph ần_
ous ly</w>
m ục_
m ắt</w>
h ỏi</w>
follow ing</w>
en cy</w>
em er
bắ t</w>
Ng ày</w>
N hà
G u
E ng
Ch i</w>
C or
A d
w ide</w>
v u
t ấn_
requ i
quan_ hệ</w>
or ganiz
n ội_
is t</w>
inv ol
in d</w>
ex am
d en</w>
citiz ens</w>
c ăn_
b ab
H a</w>
ầ u_
w ea
s al
por ts</w>
phụ c_
n '
n' t</w>
hàng_ đầu</w>
ever y</w>
c k
ar m
ac ross</w>
Z eal
ạ p</w>
đảm_ bảo</w>
ì _
tập_ trung</w>
tiế n_
th ở</w>
scho ols</w>
s is</w>
offic ials</w>
o x
o thers</w>
nghĩ a</w>
ng ing</w>
l ấy</w>
iệ t_
g lobal</w>
en ter
e es</w>
dis t
con_ người</w>
bất_ kỳ</w>
I D
A p
ứ _
ĩ nh_
á nh</w>
vậ t_
u p
tìm_ kiếm</w>
tr anh</w>
ti êu</w>
techno logy</w>
ngh ị</w>
mon ey</w>
m ust</w>
l ý_
h ồi</w>
_thu ật</w>
_l ực</w>
Th ere</w>
P re
New _
Hồ ng_
z e</w>
tran sp
t_ nhất</w>
sinh_ viên</w>
s ent</w>
p i
ng ại</w>
má u</w>
mak ing</w>
l it
hiệ u_quả</w>
fi ed</w>
_tr ình</w>
On e</w>
w ho
tr ị</w>
thực_ phẩm</w>
r a_
if ic</w>
h ạ
gia i_
clo sed</w>
ci d
ch ỉ_
atur e</w>
_l ý</w>
W ed
H y
B ri
su pp
p ment</w>
nh u_
n âng</w>
memb ers</w>
m ại</w>
lợ i_
gi ấ
g ood</w>
ar s</w>
S un
N i
Một_ số</w>
ở _h
ồ n_
v ọng</w>
t ỷ_lệ</w>
ph ổi</w>
o wn</w>
nổi_ tiếng</w>
ngo ại_
n ữ</w>
n ation
m ón</w>
f ur
f er
cảnh_ báo</w>
cap ital</w>
Zeal and</w>
Wed n
3 ,
truyền_th ông</w>
tiế t</w>
tic al</w>
th ường_
sá u</w>
su m
s our
prev ent</w>
nhà_ khoa_học</w>
n_th iết</w>
m ở</w>
larg est</w>
iz ed</w>
e f</w>
ag o</w>
Wedn esday</w>
S am
3 00</w>
đ ô</w>
trường_ học</w>
th i</w>
st an
se e</w>
reg ul
per io
or ts</w>
mor ning</w>
h y
f ar</w>
cầ n_thiết</w>
chu ẩn_
am es</w>
SE A
P ati
P ak
đ ẩ
t ương_t
sci enti
rec ent</w>
ph ạt</w>
mit ted</w>
ma in</w>
l ực</w>
l ate</w>
ha pp
do es</w>
d u_
_n ên</w>
S o
ớ m</w>
un i
s ớm</w>
rel ated</w>
pre vi
n ặng</w>
inv estig
giai_ đoạn</w>
gi ả</w>
es p
di tional</w>
ca o_
a ng_
V ăn_
V an</w>
đ ứa</w>
đ ồ</w>
th ải</w>
tes ting</w>
sho w</w>
ng ay</w>
ne y</w>
ic ro
giá m_đốc</w>
exper i
develop ment</w>
châu_ Âu</w>
P resident</w>
ữ u</w>
ậ m_
độ c_
đ ảo</w>
í t_nhất</w>
y o</w>
v al</w>
trở _nên</w>
resul ts</w>
pol lu
ng ờ</w>
l d
kh í
i ally</w>
cơ _thể</w>
ẳ ng_
ắ t_
th ird</w>
t ư_
pro gr
ph i_
no vel</w>
n_t ử</w>
lis t</w>
khẩ n_
fe w</w>
be li
Y ou
S ec
P u
N hi
Inter net</w>
H à_
1 7
Ấ n_
s h</w>
p ast</w>
offic ial</w>
n on
m ent
leg al</w>
larg e</w>
hoàn_ toàn</w>
hi t</w>
en ds</w>
compl et
chuẩn_ bị</w>
Th ese</w>
điện_tho ại</w>
x ế
x ã</w>
te e</w>
produc tion</w>
ph ổ_
inc es</w>
chủ ng</w>
M any</w>
H o</w>
B ắc</w>
201 5</w>
ố ng_
́ ng</w>
us ers</w>
quy_ định</w>
o_d ài</w>
loo d</w>
giá o</w>
exper ts</w>
eal th
e du
b iế
ain ed</w>
Wh en</w>
Sun day</w>
C D
wee ks</w>
w ard</w>
t á
re ased</w>
r y</w>
nó ng</w>
nhu_ cầu</w>
ne g
m et
lo t</w>
khẩn_ cấp</w>
is ed</w>
increas e</w>
h ours</w>
gi ớ
danh_ sách</w>
ch ịu</w>
b ản_
_kh ăn</w>
Y or
Thà nh_phố</w>
S ome</w>
Austral ia</w>
As soci
điệ n_tử</w>
đ ấu</w>
sur ve
su c
s ử</w>
s even</w>
re main
phổ_ biến</w>
ngh ỉ</w>
l ễ</w>
khó _khăn</w>
hal f</w>
f il
esti m
en viron
divi du
d ữ_liệu</w>
ci ties</w>
Tu esday</w>
S y
Ấn_ Độ</w>
áp_ dụng</w>
vi ol
to án</w>
ti ện</w>
retur ning</w>
nhiệ m</w>
ne ws</w>
lis hed</w>
lis h</w>
kinh_ doanh</w>
kh ai</w>
ha ving</w>
ep id
c ố_
b as
_s inh</w>
Tr ường_
K ho
D ong</w>
Cen ter</w>
x a</w>
tr ải</w>
thời_ điểm</w>
res s</w>
re st</w>
prov inces</w>
pl ans</w>
nghiêm_ trọng</w>
me di
m ul
kho a</w>
k êu_
import ant</w>
i_ cùng</w>
họ c_
gen er
ep t
con tr
_tr ị</w>
đánh_ giá</w>
xé t</w>
u ally</w>
tri bu
ter rit
r ate</w>
qu ay</w>
nhà_ máy</w>
mon it
m ặt_
li ke
la un
kêu_ gọi</w>
khách_ hàng</w>
dec is
d a</w>
ch ấ
acti vi
S atur
O r
4 .
ộ _trưởng</w>
ạ ch_
động_ vật</w>
đ ình_
đ áng</w>
uy ên</w>
touris ts</w>
th ổ</w>
tes ts</w>
t el
phản_ ứng</w>
ngh ìn</w>
lo ài</w>
hành_ động</w>
d om
con si
ap prov
an im
ac coun
Việ c</w>
T im
Pati ent</w>
Ho àng_
Fr ance</w>
ệ t</w>
điều_ hành</w>
đ á</w>
tri al</w>
t ối</w>
t âm</w>
st ay</w>
sa f
r an
ni ên</w>
nh anh</w>
lớ p</w>
la o_động</w>
iể n_
hiể u</w>
go ing</w>
g s</w>
di es</w>
cá nh</w>
cla im
ch ủ</w>
c ơn</w>
bor der</w>
biên_ giới</w>
K ong</w>
0 0
ụ _
ỗ _lực</w>
you ng</w>
vi c
v ấn</w>
th u_h
show ed</w>
r ừng</w>
pl an
oo ds</w>
l an
in dividu
g ốc</w>
g et
c ro
c oo
T ra
Quốc_ gia</w>
Pe ople</w>
C ơ
ọ t</w>
ve ly</w>
v an
th ời</w>
t ăng_
t le</w>
s ạn</w>
ri ght</w>
r ời</w>
po st
n er
miễn_ dịch</w>
ké o_dài</w>
h ist
c ửa</w>
c an
av o
al ities</w>
af f</w>
Việ n</w>
Se a</w>
Kore an</w>
Americ an</w>
3 6</w>
đình_ chỉ</w>
v o
u es</w>
tấn_ công</w>
trav el
tr ị_
thành_ lập</w>
st u
s co
s _
resear chers</w>
perio d</w>
o_th ông</w>
ngh i_
ng_th ời</w>
me eting</w>
lãnh_ thổ</w>
k m</w>
g n
for m</w>
ffic ul
en e
en d
ear lier</w>
di fficul
d ụ</w>
d ri
cust om
ch _th
bu ổi</w>
ann ed</w>
aff ected</w>
a ur
Satur day</w>
SAR S</w>
Nhà _
ẹ p</w>
ư_ vậy</w>
đ ơn_
with in</w>
we b</w>
tak ing</w>
suspen ded</w>
su gg
r o</w>
p ur
m id
like ly</w>
l ịch_
hiể m</w>
h a</w>
gi r
f ail
chính_ thức</w>
Ch ủ_
B i
A ll</w>
ở i_
ướ ng_
í_ dụ</w>
to ok</w>
resul t</w>
pl ay
p ris
p il
ne e
hợp_ pháp</w>
ho l
giả i_th
fur ther</w>
chiế n_
L e
In dia</w>
3 9</w>
3 5</w>
2 6
ệ t_
đại_ học</w>
Ú c</w>
w ent</w>
t í
t or
st aff</w>
sec urity</w>
rec ently</w>
phương_ tiện</w>
or ig
on ed</w>
nh ạc</w>
n ỗ_lực</w>
lev el</w>
khách_ sạn</w>
il ities</w>
ig g
gi ải</w>
e ng
diffe rent</w>
d es</w>
b lood</w>
Chúng_t ôi</w>
đẩ y</w>
ú ng</w>
v ốn</w>
un ic
tương_t ự</w>
thiế u</w>
s ẵ
ra in</w>
quá _trình</w>
op en</w>
ng roup</w>
ne arly</w>
mi ght</w>
m_ sát</w>
lý_ do</w>
l or
id ed</w>
ic k
gia o_
ful ly</w>
ei ght</w>
com ing</w>
cl as
c ư</w>
ai l</w>
Vi ngroup</w>
O b
D ương</w>
A F
4 00</w>
ệ _
đối_ mặt</w>
đ u
vi ce</w>
tr í</w>
pro ject</w>
p ric
o pen
nă ng_
k ế</w>
g ed</w>
Yor k</w>
Nhi ều</w>
Jo h
B ảy</w>
wor th</w>
w in
tr ăm</w>
tiế p_th
su ất</w>
so ft</w>
recor ded</w>
plac es</w>
ph á</w>
ng e</w>
n ền</w>
indus try</w>
ho ãn</w>
ch ec
bả y</w>
ar i
activi ties</w>
Re u
A SEA
4 3</w>
thành_ công</w>
stitu te</w>
phòng_ ngừa</w>
neg ative</w>
mo ve</w>
m ưa</w>
h ội_
f ree</w>
ec tion</w>
công_ nghiệp</w>
c ực</w>
b ia</w>
ati c</w>
al le
ag ed</w>
a way</w>
Sa ig
S ept
R i
P ac
F ore
ASEA N</w>
ử _lý</w>
ở_h ữu</w>
đợ t</w>
z er
x ử_lý</w>
vi ết</w>
trung_ bình</w>
res tric
popul ation</w>
kh ủng_
it h</w>
inc reased</w>
en ing</w>
cả m</w>
contin ue</w>
c ận</w>
c el
bet ter</w>
b ổ_
Sept ember</w>
Can ada</w>
A sian</w>
ỏ ng</w>
ạ o_
ạ c_
riê ng</w>
ren ts</w>
pl es</w>
ph í</w>
o m</w>
nh ư_vậy</w>
it ary</w>
fi el
f a
econom ic</w>
anh _th
To k
St ate</w>
K ông</w>
G o
D a
ậm_ chí</w>
ú _
á y</w>
x uyên</w>
tre ated</w>
rele ased</w>
la w</w>
kh ó</w>
hành_ vi</w>
gia_ tăng</w>
equ i
du_ khách</w>
doc tors</w>
dem and</w>
cảm_ thấy</w>
cuố i_cùng</w>
ch iều</w>
c ập</w>
c ạnh</w>
anc ing</w>
_th ế</w>
Th ị_
N ó</w>
N gh
Con trol</w>
CE O</w>
B ộ_trưởng</w>
9 0</w>
̀ ng</w>
pl as
nh ìn</w>
nh anh_ch
nhanh_ch óng</w>
ng ton</w>
ne w
lãnh_ đạo</w>
l ập_
l l
ir e</w>
i j
hospit als</w>
hear t</w>
h ầu_hết</w>
g ame</w>
ev ents</w>
dru g</w>
cổ_ phiếu</w>
chil d</w>
charg ed</w>
allow ed</w>
Reu ters</w>
Ph ó</w>
P r
B ra
ể n_
đ êm</w>
we b
tác_ động</w>
saf ety</w>
resid ents</w>
recei ved</w>
po wer</w>
par t
nhập_ khẩu</w>
n am
man u
iệ m</w>
iể u</w>
hợp_ tác</w>
h ướng_
gi ống</w>
d ence</w>
an y
an ese</w>
Pri me</w>
Hồng_ Kông</w>
Gen eral</w>
Cen tral</w>
was te</w>
tr ang</w>
tr ai</w>
th re
s day</w>
qu ality</w>
ph one</w>
or t
minis tr
kiểm_ dịch</w>
in e
gi ven</w>
est ab
en ted</w>
d am
chất_ lượng</w>
chu ng</w>
ch ứa</w>
Tr ước</w>
N ov
M ed
K im</w>
CD C</w>
4 5</w>
vi êm</w>
trị_ giá</w>
re duc
qu ân_
ond on</w>
of ten</w>
ngày_ càng</w>
nguy ên</w>
gr ad
giá m_sát</w>
co i</w>
cen ter</w>
c ra
an a</w>
W ashi
T w
Ph u</w>
Ph i</w>
L ondon</w>
H ải_
201 4</w>
ự a</w>
x a
vi si
ur sday</w>
thu_h út</w>
th u_
respon se</w>
repor ts</w>
non -
n inh</w>
ment al</w>
h om
dis eases</w>
cơ _
ch i_ph
b ir
Tok yo</w>
Th ursday</w>
T ất_cả</w>
Saig on</w>
S h
Rus sia</w>
Ngo ại_
M an
Eng lish</w>
3 4</w>
ỡ ng</w>
vi a</w>
th ậm_chí</w>
si ons</w>
n ửa</w>
li ving</w>
l ộ</w>
esp ec
espec ially</w>
ep t</w>
d ge</w>
co st</w>
at ely</w>
ain s</w>
a z
a ver
_ ngại</w>
Par is</w>
B C</w>
Af ric
Đ ài_
ì_ vậy</w>
v ô_
the ast</w>
th ủ_
th iệt_
susp ected</w>
suc c
servi ce</w>
pric es</w>
pho ng_
ph y
on al
nhà_ sản_xuất</w>
ng_ l
lợ i</w>
lo ạt</w>
inter net</w>
giải_ quyết</w>
giá _trị</w>
g ắng</w>
es ted</w>
employ ees</w>
duc ation</w>
d ạng</w>
căn_ bệnh</w>
Res ear
O c
An d</w>
ý t</w>
trực_ tiếp</w>
thị t</w>
th ích</w>
sm all</w>
se e
pu b
ic s</w>
hel d</w>
f ish
di tions</w>
d ừng</w>
chu ỗi</w>
ch iến</w>
bu ýt</w>
Washi ngton</w>
Tổ ng_thống</w>
T ừ</w>
Jap anese</w>
In stitute</w>
3 0
vi r
th anh_
t ích</w>
pollu tion</w>
pa rents</w>
p rice</w>
m ặc_dù</w>
fin d</w>
ell ing</w>
di ngs</w>
dec ided</w>
cố_ gắng</w>
cuộ c_
bre ak
ab ility</w>
V ới</w>
US $</w>
A ir</w>
us es</w>
tr ò</w>
tr ái_
to o</w>
stat ement</w>
s ev
pos sible</w>
pl an</w>
n_đ o
loc k
kh ởi_
k now</w>
i_ph ạm</w>
h i</w>
de partment</w>
ch ia</w>
U N
The _
Pak istan</w>
Pac ific</w>
Nh a</w>
Ger many</w>
G overnment</w>
D ec
B ar
8 0</w>
. .</w>
ực_ lượng</w>
ước_ tính</w>
đồ ng_thời</w>
điều_ kiện</w>
đ ới</w>
đ ơn</w>
y êu</w>
w an</w>
v àng</w>
thương_ mại</w>
th u</w>
t âm_
số t</w>
s ức</w>
s ơ
ru n
ren ce</w>
popu lar</w>
p ay</w>
n ạn</w>
lịch_ sử</w>
logi cal</w>
l as
col l
c á</w>
U K</w>
T o</w>
T ai
M icro
Is ra
Bri ti
Ap ple</w>
5 %</w>
ằ ng_
địa_ điểm</w>
war ds</w>
v enti
tiến_ hành</w>
t ờ</w>
star ted</w>
star t</w>
sit uation</w>
proc ess</w>
po t
mo ther</w>
l ai</w>
ir atory</w>
in j
hướng_ dẫn</w>
gi ết</w>
e or
decis ion</w>
d ầu</w>
chi_ph í</w>
c ư_dân</w>
ain ing</w>
Dan ang</w>
Bra z
B ình</w>
1 ,000</w>
ầ n_đ
xuất_ viện</w>
xe_ buýt</w>
wor ks</w>
w ant</w>
tình_ dục</w>
tem per
si êu_
sa m
re pres
pri v
ph ạm</w>
low er</w>
high est</w>
ffe e</w>
fe el</w>
f ever</w>
epid emic</w>
en ough</w>
duy ệt</w>
d ự</w>
c ậu</w>
bất_ cứ</w>
b ac
aver age</w>
at s</w>
al ready</w>
T V</w>
Com p
ĩnh_ vực</w>
v ừa</w>
v i_phạm</w>
truyền_th ống</w>
tr illion</w>
to day</w>
si mil
s qu
no ted</w>
manu fac
k ỷ</w>
in te
i_ l
hoàn_ thành</w>
g ra
g overn
fir m</w>
fac ilities</w>
emer gency</w>
d ate</w>
ac y</w>
ac tion</w>
_tr ì</w>
W ith</w>
V à</w>
Micro soft</w>
Kh ông</w>
D o
ạn_ nhân</w>
ượ ng_
đị a</w>
đó ng</w>
ài_ ra</w>
uố t</w>
tăng_ trưởng</w>
trans mission</w>
ter n</w>
ter m</w>
t ội</w>
su per
provi de</w>
pil o
phương_ pháp</w>
mở_ rộng</w>
một_ cách</w>
m a</w>
m .</w>
lea ding</w>
k a</w>
j ects</w>
grow th</w>
g ar
con trac
comm on</w>
ch i</w>
ca use</w>
bổ_ sung</w>
bất_ hợp_pháp</w>
busin esses</w>
be gan</w>
b ão</w>
b est</w>
b ed</w>
at ures</w>
Thế_ giới</w>
Ng hi
Hiệ p_
B e
Air port</w>
ức_ độ</w>
í_ nghiệm</w>
v i_
tur al</w>
p ical</w>
out side</w>
o il</w>
ni fic
nhập_ cảnh</w>
nh_ m
manag ement</w>
li ve</w>
l ĩnh_vực</w>
kh ắp</w>
ke y</w>
i_th iện</w>
g ạo</w>
c lim
biể u_t
be g
b ảng</w>
av ail
al ong</w>
_h ấp</w>
Ngo ài_ra</w>
Nam_ Á</w>
E ar
Ch o</w>
A m
1 2
đố i</w>
đá nh</w>
ân_ hàng</w>
to à</w>
tic s</w>
th ink</w>
territ ories</w>
t ích_
t ea
st oc
scienti sts</w>
pres s</w>
pre sid
pp ing</w>
plac ed</w>
ng ôn_
n_đ ổi</w>
lư u_
lev els</w>
khu ẩn</w>
h ealth
ever y
esti c</w>
ea d</w>
de puty</w>
d ic
cả i_thiện</w>
curren tly</w>
cl in
ch i_
c ru
b ar
ap pro
am a</w>
a ch</w>
_h ậu</w>
Th anh_
S p
Phá t_
Euro pe</w>
4 ,
. m.</w>
ủ i_
ỏ _
vận_ chuyển</w>
to ber</w>
s w
s trong</w>
r ing</w>
phá p_
nh u
nghi_ ngờ</w>
ne igh
m_ xét</w>
li ves</w>
i_ph ục</w>
dân_ số</w>
d en
ca r</w>
biể u</w>
al most</w>
You Tu
Oc tober</w>
Lo an</w>
Cơ _quan</w>
3 3</w>
0 .
ủi_ ro</w>
ễ _
ẩ m_
đ ẹp</w>
á o</w>
tiếp_th eo</w>
th úc_
t ons</w>
ph ê_
ph ê</w>
n e</w>
n ation</w>
lo _ngại</w>
l á</w>
in ation</w>
g ấp</w>
f o
evi dence</w>
duy _trì</w>
dist ancing</w>
d ấu_
d a
cid ent</w>
chiế m</w>
c ố</w>
at ors</w>
ap p</w>
an_ ninh</w>
ad dition</w>
T ổ_chức</w>
E m
Ch ủ_tịch</w>
3 7</w>
sig nific
pl ant</w>
phy si
n ối</w>
lab or
l s</w>
iệ t</w>
hô _hấp</w>
grow ing</w>
con ditions</w>
chính_ sách</w>
ca u
c_s ống</w>
bri nging</w>
b ằng_
b igg
anh_th u</w>
YouTu be</w>
St ar
S ự</w>
S -
M y
C up</w>
Briti sh</w>
5 .
đề_ xuất</w>
đá ng_
à u_
vis a</w>
v y</w>
v es
tr ình_
tiế t_
thông_ minh</w>
t ập</w>
stud ent</w>
star ting</w>
sou thern</w>
s ông</w>
resp iratory</w>
requi red</w>
nhiệt_ độ</w>
nhiễm_ trùng</w>
ng ừng</w>
n orm
ho á
ho t
form er</w>
en ed</w>
de li
consi dered</w>
com b
chủ_ yếu</w>
chu ́ng</w>
ch ạy</w>
b ức</w>
Par k</w>
G roup</w>
Chủ_ nhật</w>
8 00</w>
đáng_ kể</w>
đ ăng_
Đông_ Nam_Á</w>
tương_ lai</w>
truyền_ hình</w>
s le
s cre
p ic
kil led</w>
ill s</w>
f oo
do w
cl ear</w>
ch ar
cam pa
c âu</w>
c ou
b es</w>
avo id</w>
avail able</w>
N ep
M as
Ch âu_
C ó</w>
6 5</w>
̃ ng</w>
Đài_ Loan</w>
xe m_xét</w>
visit ors</w>
thường_ xuyên</w>
s uy_
retur n</w>
re ven
re comm
r ủi_ro</w>
qu ân</w>
ob s</w>
n ạn_nhân</w>
hô m_
gi ve</w>
ess ential</w>
dis charged</w>
custom ers</w>
cas t</w>
at e
ag re
U ỷ_
Tw o</w>
Sou theast</w>
S ở</w>
Nov ember</w>
Dis ease</w>
B rit
A ID
201 1</w>
ể _
á ch</w>
web site</w>
vacc ines</w>
tài_ chính</w>
thực_ sự</w>
rec overed</w>
pro bl
ph út</w>
nh ớ</w>
min u
med ic
m ức_độ</w>
m ember</w>
issu ed</w>
hou se</w>
gi ác</w>
cơ _hội</w>
cuộ c_sống</w>
b óng_
b io
arri ved</w>
_ R
Th i</w>
T ập_
Nor th</w>
M er
L e</w>
6 .
3 8</w>
ù_ hợp</w>
tu ally</w>
tr ợ</w>
th ings</w>
te red</w>
te l</w>
t as
só ng</w>
sho ws</w>
s mar
re co
ra_ mắt</w>
ph ù_hợp</w>
ph i
lat est</w>
khí _hậu</w>
kh ích</w>
h er
gia o_thông</w>
g ni
fi ght</w>
ex pl
estim ated</w>
dom estic</w>
develo p</w>
con_ số</w>
b ers</w>
al y
ai_ trò</w>
ag en
ad mitted</w>
ac tions</w>
Tr an</w>
T an</w>
S ch
Pu blic</w>
Nghi ên_cứu</w>
H ã
Euro pe
E ast</w>
Comp any</w>
Com mit
C ộng_
201 2</w>
. ..</w>
đầ y</w>
đ eo</w>
vie w</w>
v ai_trò</w>
tr ời</w>
tr ước_
touris m</w>
to ả</w>
tem por
t ức</w>
simil ar</w>
si c</w>
nh ấn_
nguy_ hiểm</w>
ng_th ư</w>
mục_ tiêu</w>
mil itary</w>
i de
giớ i_
giáo_ dục</w>
g rou
er y</w>
develop ing</w>
d in
có _
com es</w>
ch ỉ
c ử</w>
c à_
bình_ thường</w>
bec ame</w>
b ào</w>
b le
ap er</w>
Tr ần_
Th ông_
Tai wan</w>
Sam sung</w>
Phu c</w>
Giá m_đốc</w>
Europe an</w>
E n
B iển</w>
19 7
ộ t</w>
đ ôi</w>
ô _t
ò ng_th
th ủ</w>
se qu
ro bo
ri ghts</w>
restric tions</w>
re li
r ồi</w>
probl ems</w>
pe ti
ou ght</w>
orig in
nh ận_
l âm_
in iti
im medi
h ướng</w>
h át</w>
ec ti
cu ̃ng</w>
ch ơi</w>
ch áy</w>
c ris
ban_ đầu</w>
agen cies</w>
S ơn_
Isra el</w>
H à</w>
D o</w>
ẫ n_
âm_ tính</w>
á p</w>
y ế
ve h
v ượt</w>
trá ch</w>
t ă
re al</w>
r ượ
r ơi</w>
pers onal</w>
par ts</w>
pa in</w>
ngh i</w>
ng he</w>
là ng</w>
le ft</w>
hea vy</w>
ha vi
h un
do m</w>
approv ed</w>
a w
_thu ận</w>
Dis eases</w>
Braz il</w>
20 21</w>
ượ c_
ú i</w>
veh ic
struc tion</w>
sh are</w>
se x</w>
s ol
re duce</w>
quan_ tâm</w>
previ ous</w>
oper ations</w>
oc cu
o l</w>
ng ủ</w>
li ght</w>
khuy ên</w>
grou ps</w>
giả m_
giao_ dịch</w>
g ether</w>
fu ture</w>
f ru
er gy</w>
ent ers</w>
bằng_ chứng</w>
atur al</w>
ag no
ac u
a red</w>
S i
Ph úc</w>
M ặc_dù</w>
AID S</w>
ẳng_ định</w>
đ ích</w>
y et</w>
ti on
ti n_t
thúc_ đẩy</w>
t ạm</w>
sto p</w>
st e
r õ</w>
nhấn_ mạnh</w>
ng ữ</w>
nec ess
n et
n ear</w>
ministr ation</w>
mark ets</w>
high er</w>
exam ple</w>
enter ing</w>
di ễn_
cấ p_
ch ủ_tịch</w>
c ụ
bor n</w>
bi g</w>
ac tive</w>
_ B
Vietn am_
S ơn</w>
S ci
Nep al</w>
K ể</w>
G r
Commit tee</w>
C ục</w>
Bình_ Dương</w>
8 .
5 4</w>
đăng_ ký</w>
Đ ể</w>
v ẻ</w>
ti ể
thiết_ kế</w>
th ực</w>
sa ying</w>
s ở_hữu</w>
s uốt</w>
ru n</w>
ro ad</w>
regul ations</w>
re ally</w>
nguyên_ nhân</w>
n_th ương</w>
n ia</w>
me tho
me ans</w>
lợ n</w>
lea ve</w>
kh ẳng_định</w>
j obs</w>
individu als</w>
in ten
imp act</w>
hồ i_phục</w>
hạ _
hum ans</w>
hu ỷ_
en ces</w>
de pen
d ra
cà_ phê</w>
comm it
c ư
c ement</w>
Ngoại_ giao</w>
D onal
ụ _sở</w>
ồ ng_
ần_đ ảo</w>
đá p_
đáp_ ứng</w>
è o</w>
á nh_
ài_ G
ài_G òn</w>
u ng_thư</w>
tr ả
toàn_ quốc</w>
ti fic
th ật</w>
t ệ</w>
re t
qu anh</w>
nhu ận</w>
nhiệ m_
n a</w>
một_ vài</w>
mul ti
ly mp
l et
hiện_ tại</w>
hist ory</w>
g oods</w>
ex ten
ell s</w>
eff ective</w>
e re
ch_ nhiệm</w>
ch ân</w>
cel eb
b oo
at or</w>
S ài_Gòn</w>
S ince</w>
Ba ch</w>
B an_
201 3</w>
ắ p_
ậ y</w>
z ed</w>
w il
v ợ</w>
tài_ sản</w>
trang_ web</w>
tiề m_
ti n_
thực_ tế</w>
th úc</w>
t ạm_
supp ly</w>
sp e
se en</w>
s àng</w>
rea ched</w>
ph òng_th
p ing</w>
p ed</w>
ng_c ường</w>
mo b
lear ning</w>
lea d</w>
laun ched</w>
l ực_lượng</w>
l ượt</w>
ke ep</w>
k í
gó p</w>
go t</w>
f y</w>
environ ment</w>
en sure</w>
e li
des ig
chức_ năng</w>
b ộ_
an ted</w>
acti v
a vi
Thu ỵ
T ur
T en
O lymp
Giá o_
5 ,
0 ,
ạ nh_
độ c</w>
đại_ diện</w>
đ e_
đe_ do
đe_do ạ</w>
wh ether</w>
tu al</w>
thủ_ đô</w>
sch edu
reco gni
phục_ hồi</w>
phi_ công</w>
p ay
offic e</w>
năng_ lượng</w>
nh à
n_đo án</w>
n_t ải</w>
m ar</w>
lợi_ nhuận</w>
loc alities</w>
lit tle</w>
k ẻ</w>
im pl
ho ảng</w>
gh ter</w>
gen eral</w>
follow ed</w>
dấu_ hiệu</w>
di an</w>
d le</w>
ch ỗ</w>
bu y</w>
be havi
b ữa</w>
ap pe
air s</w>
ag ain</w>
_th ao</w>
T ính</w>
T iế
T P
Po li
M us
H ội_
Dec ember</w>
B ạch_
ủng_ hộ</w>
ộ n</w>
ổ n_
ẩ n_đoán</w>
ấ m</w>
õ _
ô i_
visit ed</w>
tí nh_
tá m</w>
trá ch_nhiệm</w>
tr ừ</w>
th ị</w>
t ồn_
st and</w>
sh u
sa w</w>
rou ght</w>
nhà_ nước</w>
nh ựa</w>
ng àn</w>
m ặc</w>
khuyến_ khích</w>
k _
isol ation</w>
inclu ded</w>
in a</w>
h ết</w>
g ue</w>
ffe red</w>
f re
f all
ex ic
equi pment</w>
di agno
de l</w>
d ễ</w>
d ẫn_
d ly</w>
canc el
c at
bu s</w>
ann ing</w>
anim als</w>
an cial</w>
ali for
_th ực</w>
T hai</w>
Hiệp_ hội</w>
C alifor
6 00</w>
3 2</w>
ổn_ định</w>
đ úng</w>
x âm_
tă ng_cường</w>
tr ụ_sở</w>
tr ò
thu ật</w>
t ế_
shi ps</w>
se as
s ư</w>
rest ed</w>
rest aur
pres sure</w>
pot ential</w>
posi tion</w>
ph iên_
om et
m ô</w>
lâm_ sàng</w>
l and
ké m</w>
khả o_
k ê</w>
k g</w>
hạ_ cánh</w>
hi ế
h ere</w>
fri ends</w>
es ts</w>
di_ chuyển</w>
bigg est</w>
ar ds</w>
Y ou</w>
V ương_
Tr ang</w>
N et
N H
M exic
M a
L ê_
H ou
D ịch_
D el
Chí nh_
ặ ng_
ũ i</w>
đ ăng</w>
x ử</w>
us ually</w>
touris t</w>
ti êm</w>
s ắc</w>
qu ảng_
pub lished</w>
priv ate</w>
our ces</w>
on ce</w>
o c</w>
nhà _th
ng ôi</w>
mar k</w>
ld wide</w>
l ự
khảo_ sát</w>
ho li
ga ther
g es</w>
fa ther</w>
f all</w>
ec ting</w>
do anh_thu</w>
det er
dec la
de f
cra ft</w>
ch ế_
ch air
c ắt_
c le
b all</w>
P l
Ne ws</w>
H ar
Fore ign</w>
2 4
ụ_ việc</w>
ộ c_
v ar
uy nh</w>
th ay
thay _thế</w>
t ái_
sp ort</w>
re main</w>
phong_ toả</w>
nhà_ đầu_tư</w>
nh ất_
necess ary</w>
mat er
m er</w>
lu ôn</w>
l ack</w>
in ed</w>
ig r
identi fied</w>
ex c
e y
decla red</w>
d _
cá o_
con tribu
com peti
clin ical</w>
bo ard</w>
b ối_
b ea
af ter
a o
Xu an</w>
V u</w>
Ti ên</w>
Te ch
T ân_
S o</w>
Or ganiz
L ast</w>
H ue</w>
Califor nia</w>
C ùng</w>
B ei
20 30</w>
ữ u_
ý _t
tiếp_ cận</w>
sẵ n_s
sẵn_s àng</w>
st or
spo k
spec ial</w>
so on</w>
s ex
ris e</w>
r .</w>
pro duce</w>
pre vention</w>
plas tic</w>
or gan
n ine</w>
mov ed</w>
le t</w>
jo b</w>
in o</w>
i ght</w>
h ạng</w>
h and</w>
gre at</w>
gr ound</w>
giú p_
gi ành</w>
get ting</w>
fer red</w>
er ous</w>
econom y</w>
difficul t</w>
de al</w>
cu t</w>
comp ared</w>
campa ign</w>
c s</w>
c o</w>
biểu_t ình</w>
an ded</w>
_l ời</w>
Xu ân_
Tru ong</w>
Mi ch
M il
Ind us
G eor
Ch âu</w>
Ch ung</w>
B y</w>
- 2</w>
đo án</w>
đ i_
á o_
wi fe</w>
wea ther</w>
ul ture</w>
tế_ bào</w>
thu ế</w>
th ai</w>
t_ ch
phòng_th í_nghiệm</w>
phê_ duyệt</w>
n ations</w>
mở_ cửa</w>
li es</w>
kỹ _thuật</w>
inst ead</w>
hô n</w>
hã y</w>
h and
ex pres
en ded</w>
en ced</w>
em ents</w>
do cu
di_ động</w>
chiến_ dịch</w>
bóng_ đá</w>
buil ding</w>
b àn</w>
b ai</w>
am oun
ac ity</w>
_th ị</w>
Tập_ đoàn</w>
M u
Ch ris
Cam pu
Cam bo
Ba c</w>
3 %</w>
ẫ u_
độ i_
á ng_
tự_ do</w>
tình_ hình</w>
tr iển_
th ất_
th iên_
stan ding</w>
s old</w>
qu ần_đảo</w>
nhà_ hàng</w>
n ão</w>
me et</w>
ma z
lự a_
lựa_ chọn</w>
l âu</w>
id es</w>
huỷ_ bỏ</w>
ho à</w>
gir l</w>
ful l</w>
en try</w>
d au
cris is</w>
cre ate</w>
con duc
bối_ cảnh</w>
b ỏ_
as h</w>
an mar</w>
ad van
_h ình</w>
Wh ile</w>
Vietnam_ Airlines</w>
Th ành</w>
Th o
T hat</w>
S- CoV</w>
My anmar</w>
K inh</w>
H igh
E U</w>
Campu chia</w>
C ar
C A
5 5</w>
​​ sẽ</w>
đá m</w>
ì m</w>
x ác</w>
trả _lời</w>
tra ditional</w>
tr ade</w>
ti ến</w>
th uốc_
th ro
t ại_
t arg
syst ems</w>
ser v
se a</w>
sam ples</w>
ph ố</w>
n ame</w>
m àu</w>
lock down</w>
kết_ thúc</w>
j ing</w>
il legal</w>
i k
h o</w>
f arm
d on
cu lar</w>
carri er</w>
bac ter
ar ing</w>
ar ily</w>
P ha
O ther</w>
Is lands</w>
H is</w>
B ang
7 00</w>
ụ p</w>
ọ c_
ĩ _
Đại_ dịch</w>
vi sed</w>
vi ll
tố t_
tạm_ thời</w>
tích_ cực</w>
truyền_ nhiễm</w>
ti ệ
thời_ tiết</w>
thể _
th ous
repres ent
quảng_ cáo</w>
presid ent</w>
por t
phục_ vụ</w>
lo nger</w>
la w
khủng_ hoảng</w>
kh á</w>
k ia</w>
in cident</w>
hôm_ nay</w>
huy ết_
giải_th ích</w>
fiel d</w>
f ron
ex po
ev ed</w>
esti val</w>
cắt_ giảm</w>
con sum
ch ẩn_đoán</w>
ch em
ch ain</w>
b on</w>
acc ess</w>
_ch ối</w>
V inh</w>
Tây_ Ban_
Tây_Ban_ Nha</w>
Tro pical</w>
Sy ri
Quảng_ Nam</w>
M y</w>
L inh</w>
Ho ang</w>
G re
De puty</w>
C ảnh_
6 ,
ệ _sinh</w>
ễ _hội</w>
ắc_ xin</w>
đối_ phó</w>
đ ỏ</w>
à nh_
y_ vọng</w>
visi t</w>
v ùng_
v í_dụ</w>
từ _chối</w>
tiể u_
thu ê</w>
thanh_ toán</w>
th ân</w>
t_ch ẽ</w>
t on
stoc k</w>
qu ick
pro ve</w>
phát_ hành</w>
ph ận</w>
nhà_ chức_
nhà_chức_ trách</w>
nhiệt_ đới</w>
nh ờ</w>
nation als</w>
mạ ch</w>
mob ile</w>
ma ch
m ơ</w>
m es
liên_ hệ</w>
lin ked</w>
kil omet
kh ổ
increas ing</w>
giấ y_
gen ce</w>
f oun
eff orts</w>
dre ds</w>
doc tor</w>
disc overed</w>
con struction</w>
comm er
co t
clim ate</w>
chặ t_chẽ</w>
chair man</w>
ban_ hành</w>
au t
W i
W al
Pre vention</w>
Ph ong</w>
O ffic
M ad
F ren
D ự_
C a
Bạch_ Mai</w>
Bei jing</w>
2 7
ờ _
ầ m_
ạ p_
văn_ hoá</w>
val ue</w>
v ụ_việc</w>
v a</w>
uy_ nhất</w>
u_t ố</w>
tồn_ tại</w>
tuy ệt_
thiệt_ hại</w>
succ ess
st er</w>
some thing</w>
sh ort
ser ious</w>
s olu
re v
pro mo
pre gn
poin t</w>
or ing</w>
om atic</w>
o_ đó</w>
nhiệm_ vụ</w>
nh_m ẽ</w>
n ur
n al</w>
mạ nh_mẽ</w>
lập_ tức</w>
lo s
invol ved</w>
inf lu
il ies</w>
h ậ
fe rence</w>
er ia</w>
en ter</w>
e ve</w>
e e</w>
des tin
d uy_nhất</w>
d el
cur rent</w>
coo per
châu_ Á</w>
bu ôn_
ber g</w>
b ạc</w>
b ước</w>
b anned</w>
an i</w>
ac ts</w>
a im
_ Đ
_ ý</w>
SAR S-CoV</w>
Ph ú_
Organiz ation</w>
Nguy ên</w>
M is
F rom</w>
E l
Air ways</w>
5 3</w>
ị p</w>
ề n_t
ền_t ảng</w>
đ ương</w>
xế p_
xế p</w>
xa 0
wor ldwide</w>
văn_ phòng</w>
ti nh_
sha res</w>
sa fe</w>
r út</w>
quốc_ Anh</w>
ngh ệ
ng_l ồ</w>
ng ay_
minis ter</w>
mar ri
li gh
khổ ng_lồ</w>
ind ic
f em
de x</w>
d anh</w>
chú _ý</w>
c ks</w>
c ing</w>
_ch ơi</w>
Vương_ quốc_Anh</w>
Viet j
Uỷ_ ban</w>
Tr iều_
T wit
S tre
New_ Zealand</w>
D inh</w>
Cu ộc</w>
Associ ation</w>
ợ i</w>
ề n_
ề _
w ro
v ì_vậy</w>
u n</w>
tổ ng_thống</w>
t ù</w>
st ated</w>
spok es
sig ned</w>
se as</w>
s en</w>
ra ised</w>
r ap
or dered</w>
on ia</w>
nh ư
ng_ sinh</w>
nam ed</w>
lây_ truyền</w>
lor o
lea ders</w>
k ong</w>
is m</w>
im prov
ig ners</w>
fin ancial</w>
e ducation</w>
d ang
concer ns</w>
chất_ thải</w>
c ir
ba r</w>
at trac
as soci
as h
am id</w>
ab o
Triều_ Tiên</w>
Tim es</w>
S il
O f</w>
O S</w>
Mo sco
M ore</w>
Hoàng_ Sa</w>
Bắc_ Kinh</w>
Americ a</w>
5 7</w>
ữ _
ư u_
đơn_ vị</w>
đ ề</w>
yế u_tố</w>
w al
trước_ đây</w>
tr em
th ứ_
th uy
st ay
s ứ_
quick ly</w>
pro ble
proble m</w>
pres ent</w>
num bers</w>
n ền_tảng</w>
mục_ đích</w>
mak es</w>
lưu_ ý</w>
lu ật_
liên_ tục</w>
l ạc</w>
l ar
không_ chỉ</w>
kh a
ho wever</w>
h ải_
fol low</w>
fam ilies</w>
f requ
ev ent</w>
dư ỡng</w>
d ạy</w>
cáo_ buộc</w>
contin u
cap acity</w>
c y
atten tion</w>
air craft</w>
V A
Resear ch</w>
M ac
L ea
Hu ế</w>
H ải</w>
Fren ch</w>
Du ng</w>
D evelo
Cảnh_ sát</w>
Cor on
A maz
1 50</w>
đố t</w>
đị nh_
đ ỡ</w>
ô m</w>
w on</w>
to gether</w>
ti ous</w>
ti nh</w>
thị _thực</w>
ta x
t ụ
st ore
sour ces</w>
regi ons</w>
r ates</w>
qu ý</w>
pu bli
phản_ đối</w>
phòng_ chống</w>
ph ones</w>
over y</w>
norm al</w>
loro qu
le y</w>
la ngu
issu es</w>
inves tment</w>
giải_ trí</w>
en ergy</w>
el a</w>
eff ect</w>
dự_ báo</w>
dow n
br ing</w>
b rain</w>
am bo
ag ric
V ene
Twit ter</w>
Tr an
Qu ận</w>
Me kong</w>
K .</w>
H ol
Du bai</w>
B ài</w>
B ud
Af gh
4 2</w>
’ re</w>
ấ p_
đối_ tác</w>
đó ng_
ô_t ô</w>
ó c</w>
à_ án</w>
wee k
var ious</w>
v ắc_xin</w>
v é</w>
thể _thao</w>
th ập_
th ần</w>
th anh</w>
tel li
sá ng_
su ff
sour ce</w>
sev ere</w>
sal es</w>
s cal
ro om</w>
qu es
pl ay</w>
open ed</w>
n_t ượng</w>
mô n</w>
main land</w>
iệ p</w>
ic ally</w>
ho à_
ho ld</w>
ff ic</w>
fail ure</w>
exp lo
ex por
ess ed</w>
el t</w>
ei ther</w>
d one</w>
công_ nhân</w>
con dition</w>
ci p
chang es</w>
ch_th ức</w>
ch a_
canc er</w>
ati ves</w>
ar rested</w>
al ways</w>
air port</w>
ag ency</w>
ac qu
Vin F
Th i
S er
Pr inc
Med ical</w>
For bes</w>
D uring</w>
Công_ an</w>
Americ ans</w>
7 5</w>
ề m</w>
ầ ng</w>
ạnh_ tranh</w>
đi_ lại</w>
Đ ối_
tự_ nhiên</w>
từ _
trung_ học</w>
to wn</w>
tiêu_ dùng</w>
t ầm</w>
sinh_ học</w>
seas on</w>
recei ve</w>
progr am</w>
poin ts</w>
ngay_ lập_tức</w>
n ổ</w>
n ever</w>
mes sa
m it</w>
loroqu ine</w>
l âu_
k ra
k et</w>
imm une</w>
hu ỷ</w>
h y_vọng</w>
h ind</w>
giáo_ viên</w>
foo t
fir e</w>
f ell</w>
f ast</w>
expo sure</w>
ex port</w>
er c
ec u
ch er</w>
c all</w>
a chi
Trường_ hợp</w>
Thái_ Bình_Dương</w>
T ouris
Mosco w</w>
M or
F in
Du c</w>
Develo pment</w>
Bệ nh</w>
B ạn</w>
Afric a</w>
A li
8 %</w>
6 6</w>
ẫu_ thuật</w>
́ c</w>
đề_ cập</w>
Đ ến</w>
zer ba
zerba ij
wa ve</w>
việ c_
vehic les</w>
transp ort</w>
t ội_
s tro
re ly</w>
phá n</w>
ov a</w>
or ity</w>
oc cur
máy_ tính</w>
mo del</w>
lo ss</w>
le ge</w>
l ỗi</w>
kha i_th
is ts</w>
investig ation</w>
illi ons</w>
ill ance</w>
hình_ ảnh</w>
hàng_ hoá</w>
holi day</w>
h ữu_
h ing</w>
en se</w>
ea red</w>
e o
da ily</w>
công_c ụ</w>
ch ị</w>
biế n_đổi</w>
bir th</w>
bec om
be hind</w>
b ờ</w>
an_ M
al _
ac ted</w>
C ả</w>
B us
B ru
B ir
A zerbaij
A b
8 ,
7 .
200 9</w>
đ ổ</w>
đ au</w>
Đ ó</w>
việc_ làm</w>
vi_ khuẩn</w>
u_th ập</w>
tương_ đương</w>
tu res</w>
tr anh_
tr ad
th u_thập</w>
sứ_ quán</w>
siêu_ thị</w>
sit es</w>
signific ant</w>
s tra
s cen
ro le</w>
r ác</w>
prot ect</w>
po se</w>
po or</w>
ph ẫu_thuật</w>
ou l</w>
ngh ỉ_
ng ân_hàng</w>
mu sic</w>
m ềm</w>
l uy
l a</w>
khai_th ác</w>
in tro
hoạ t</w>
h ậu</w>
h ard</w>
f our
du ng</w>
co ffee</w>
chỉ_ số</w>
chí n</w>
ch ụp</w>
ch alle
cen tr
c ạnh_tranh</w>
b ãi</w>
U kra
Rus sian</w>
Quốc_ tế</w>
Nh ân_
N ig
Cambo dia</w>
B ảo_
Amaz on</w>
3 ,000</w>
ườ i_
đồng_ ý</w>
õ_ r
z u
x o
ver si
venti lat
v ừa_
tố i_
tập_ đoàn</w>
tài_ liệu</w>
thous ands</w>
thiết_ lập</w>
the m
sp ea
si b
schedu led</w>
nông_ nghiệp</w>
nor th</w>
no on</w>
nhà_ lãnh_đạo</w>
ng_c ụ</w>
n ặng_
ma y_
m ộ</w>
m ật</w>
lo ại_
l ọc</w>
l ạnh</w>
l òng</w>
is ting</w>
immedi ately</w>
fish ing</w>
experi ence</w>
es si
er o
en ding</w>
dru gs</w>
cuộc_ chiến</w>
cu s</w>
com pu
chu ẩn</w>
cer tain</w>
c ặp</w>
biể u_
b rought</w>
b an
app lic
VinF ast</w>
Stre et</w>
S te
P M</w>
N ations</w>
Mexic o</w>
G ames</w>
B er
5 2</w>
ự u</w>
ớ t</w>
ĩ nh</w>
õ_r àng</w>
xếp_ hạng</w>
tài_ trợ</w>
typ es</w>
typ e</w>
tiết_ lộ</w>
tin_t ức</w>
thương_ hiệu</w>
tham_ dự</w>
th ụ</w>
th ảo_
t ỏ</w>
t ặng</w>
t ting</w>
surve y</w>
store s</w>
st ly</w>
sk in</w>
s ph
robo t</w>
quân_ sự</w>
quar ter</w>
pr acti
po p</w>
plan e</w>
pl at
nee ds</w>
n_th ức</w>
n ề</w>
mô _hình</w>
minu tes</w>
li ed</w>
k es</w>
inves tors</w>
in king</w>
hom es</w>
health care</w>
gó i</w>
gre ater</w>
giúp_ đỡ</w>
fac t</w>
en jo
en cour
dụ ng_cụ</w>
di g
d ần</w>
cụ _thể</w>
chiế u</w>
ch ó</w>
buil t</w>
bro ad
bao_ giờ</w>
al low</w>
al leg
ag ing</w>
ad ver
ad s</w>
ad ding</w>
a_s ĩ</w>
_thu ộc</w>
Vietj et</w>
Tổ ng_
Syri a</w>
Sec urity</w>
P er
F I
Comm une</w>
B BC</w>
A ng
9 5</w>
8 5</w>
6 4</w>
4 1</w>
200 3</w>
0 s</w>
ồ i_
ị_tr ấn</w>
đồ n</w>
y o
wor ked</w>
wh y</w>
war ned</w>
vi ces</w>
v als</w>
u red</w>
ta x</w>
t ol
su y</w>
stre ng
st ore</w>
some one</w>
sel ves</w>
sec tor</w>
s ắt</w>
s mo
qu e</w>
progr ams</w>
pilo t</w>
p ne
p ack
nhập_ viện</w>
nhập_ cư</w>
ng ồi</w>
n atural</w>
loo k</w>
hun dreds</w>
h ương</w>
gi ãn</w>
g one</w>
fore igners</w>
ff airs</w>
fem ale</w>
f le
f ig
el _
e -
chính_ xác</w>
c ú
bea u
b ại</w>
b and</w>
ar t</w>
ak es</w>
a ch
W e
TP .</w>
S pain</w>
Phát_ triển</w>
Mer cy</w>
H ồ</w>
G lobal</w>
D en
C on</w>
C N
B ambo
Al so</w>
A ffairs</w>
4 4</w>
1 .000</w>
ạp_ chí</w>
̣ c</w>
độ t_
đồ _
ào_ tạo</w>
z one</w>
wat ers</w>
u_h ướng</w>
tra o</w>
tr ồng</w>
tr aining</w>
to x
ti ce</w>
thảo_ luận</w>
tho ả
th ẩm_
th ư</w>
te ch</w>
t ôn_
s ong</w>
rượ u</w>
ris ks</w>
rele ase</w>
qu a_
pro per
previ ously</w>
physi cal</w>
o n_
nó i_
loc k</w>
liên_ lạc</w>
l ạm_
l am
kết_ nối</w>
kết_ hợp</w>
kho á</w>
iề m</w>
ill ing</w>
hợp_ đồng</w>
ho ang_
gra ph
gi à</w>
gh i</w>
fin al</w>
fac t
disc us
dau ghter</w>
cri tical</w>
claim ed</w>
chính_ trị</w>
ch ữa</w>
ch loroquine</w>
ch e
b ăng</w>
ass y</w>
ad ul
a_ khoa</w>
a th
L a</w>
K u
Ital ian</w>
I m
H ợ
Chính_ quyền</w>
Au thor
AF F</w>
A gency</w>
5 6</w>
4 6</w>
' re</w>
ị _th
đó n</w>
à m_
xu ng_
tuy ển_
tr ừ
tr ợ
tr ying</w>
tr o</w>
toàn_ bộ</w>
tiề n_
th ống_
tempor arily</w>
surve illance</w>
st and
si nger</w>
sh ort</w>
s ợ</w>
ret ary</w>
remain s</w>
r õ_ràng</w>
prot ective</w>
pro te
nặng_ nề</w>
ng_th ái</w>
new sp
n_l ẻ</w>
n úi</w>
m y
m us
m ale</w>
loo king</w>
langu age</w>
it co
issu e</w>
is ing</w>
in ess</w>
ho tel</w>
h ồ</w>
h ơi</w>
giấ c</w>
giải_ pháp</w>
fun c
four th</w>
fin ed</w>
f lu
ev en
dis trict</w>
dam age</w>
d òng</w>
d ã</w>
d àng</w>
d ou
d ation</w>
cou ple</w>
ch ờ</w>
b ene
anti -
ad ditional</w>
Star bu
Poli ce</w>
N ông_
N hat</w>
Hợ p_
Hou se</w>
Ger man</w>
E C
Cộng_ hoà</w>
B ank</w>
2. 5</w>
1 %</w>
ặ n</w>
Đ an_M
Đan_M ạch</w>
ý_t ưởng</w>
âu_ chuyện</w>
w ear</w>
w ar</w>
vậ n_tải</w>
v ệ_sinh</w>
tổ n_thương</w>
tur ing</w>
tri als</w>
trans ferred</w>
thiết_ yếu</w>
th á
th ought</w>
th iểu</w>
telli gence</w>
t ắc</w>
t ou
sha red</w>
ser ies</w>
ru p
ris ing</w>
read ing</w>
re f
pur ch
pri me</w>
poli cy</w>
p at
or i
nu ôi</w>
một_ nửa</w>
m oun
lợi_ ích</w>
loc ated</w>
leg ally</w>
l ục</w>
kilomet ers</w>
gather ings</w>
for ms</w>
ex trem
elec tr
d ance</w>
công_ khai</w>
con sid
chú t</w>
ch ồng</w>
bá n_lẻ</w>
b ầu_
b s</w>
an istan</w>
am ing</w>
after noon</w>
ab road</w>
a di
Tr ên</w>
Princ ess</w>
P ress</w>
Mo st</w>
L oc
Hu ng</w>
Ho à</w>
B ên</w>
Afgh anistan</w>
5 ,000</w>
2 ,000</w>
ộ p</w>
ổ_ Nh
ễ_ dàng</w>
đ ạo_
ă ng_th
âm_ nhạc</w>
v ol
tuy ển</w>
thập_ kỷ</w>
thu_ nhập</w>
them selves</w>
temper atures</w>
te a</w>
t ượng</w>
str ate
se ly</w>
s ữa</w>
s n
s et
s c
res ources</w>
represent ative</w>
reas on</w>
re pa
prof it</w>
phân_ tích</w>
phát_ biểu</w>
ph ục</w>
ow ned</w>
organiz ations</w>
ngoại_ giao</w>
newsp aper</w>
nee ded</w>
ne l</w>
n_s ĩ</w>
multi ple</w>
mu a_s
mua_s ắm</w>
mo der
m em
lo st</w>
la ws</w>
kh ác_
in ning</w>
ide a</w>
i ed</w>
hàng_ loạt</w>
hiện_ nay</w>
h us
giảm_ thiểu</w>
fore cast</w>
for med</w>
ex erc
ecti vely</w>
d ễ_dàng</w>
con su
complet e</w>
co ho
bộ_ phận</w>
announ cement</w>
an cy</w>
ab les</w>
W om
V í_dụ</w>
Tổ ng_c
Th ổ_Nh
P om
Ob ama</w>
Nh ật</w>
Nguy ên_
Joh n
D P</w>
8 8</w>
7 ,
6 %</w>
4 9</w>
́ t</w>
ưở ng_
ư u</w>
ĩ_ Kỳ</w>
đầ y_
đại_ lục</w>
đ iểm_
x u_hướng</w>
x anh</w>
w anted</w>
viru ses</w>
v ăn</w>
u r</w>
tuyển_ dụng</w>
triển_ khai</w>
th ông</w>
ta i_
sy cho
st age</w>
sig ns</w>
s em
r as
post p
pne um
ph ức_
pers on
over seas</w>
nhiệ t</w>
ng ắn</w>
m_đố c_
m unic
los ses</w>
kỹ _thu
kỹ_thu ật_
impor ted</w>
im prove</w>
im posed</w>
i p
hoang_ dã</w>
ho a</w>
gu id
gre es</w>
gr am</w>
gi ó</w>
for ce</w>
fac ility</w>
f lo
f ear</w>
evi sion</w>
estab lished</w>
en z
eff ects</w>
de grees</w>
ch ợ</w>
ch an
cancel led</w>
c ực_
bắt_ giữ</w>
b àn_
b at
att ac
ar ti
a .m.</w>
_s ĩ</w>
Y ear</w>
Touris m</w>
Thổ_Nh ĩ_Kỳ</w>
T ài_
S en
S an
P T</w>
P C
Hã ng</w>
Hiệ n_
H ơn</w>
F ir
Ear lier</w>
D u_lịch</w>
C as
Bud d
6 2</w>
6 1</w>
4 7</w>
2 %</w>
ẳng_ hạn</w>
ắ ng_
đầy_ đủ</w>
đu a</w>
ây_ giờ</w>
w ing</w>
tài_ khoản</w>
tr ạm</w>
tiêu_ thụ</w>
tho át</w>
th ôn</w>
th ay</w>
th an
t á</w>
sur pris
su ffered</w>
sp end</w>
s ĩ</w>
s un
respon sible</w>
recei ving</w>
r ăng</w>
pro mis
pre par
po w
pháp_ lý</w>
per form
no ther</w>
n_l ực</w>
n ỗi</w>
me an
m ét</w>
lo ạn</w>
khá m_
k ind</w>
itco in</w>
ist ance</w>
imm igr
hou se
h ands</w>
fron t</w>
fri end</w>
fil m</w>
fic ation</w>
e u
cre ated</w>
concer n</w>
claim s</w>
chủ_ quyền</w>
ch ở</w>
c_ độ</w>
c le</w>
c ells</w>
bở i_
beli eve</w>
b ò</w>
an aly
ad vised</w>
ad es</w>
activ ity</w>
abo ve</w>
_t ải</w>
W il
Th ương_
T u</w>
Starbu cks</w>
S cot
Phu ong</w>
Par ty</w>
P ol
Nig eria</w>
L ai</w>
D ũng</w>
Chris t
Brit ain</w>
A nother</w>
9 %</w>
ồn_ gốc</w>
đ ại</w>
đ a</w>
ăng_th ẳng</w>
é o</w>
ve get
v ũ_
tu re
thể_ hiện</w>
th ị_trấn</w>
th ế</w>
spec i
ser ve</w>
se l</w>
s ở</w>
s ell</w>
restaur ants</w>
rel ation
ra u</w>
quy_ trình</w>
qua_ đời</w>
qu ần_
produc t</w>
pas sed</w>
pa id</w>
p ite</w>
o ngo
ongo ing</w>
ngôn_ ngữ</w>
ng ly</w>
net work</w>
neigh b
mo ng_
met ers</w>
me t</w>
m_đốc_ điều_hành</w>
m en
low ing</w>
lo ve</w>
li cen
lear n</w>
labor atory</w>
l ễ_hội</w>
k ịch</w>
iz e</w>
impl em
hồ i_
h ạt</w>
h út</w>
giới_ hạn</w>
fac tors</w>
f ish</w>
ex ports</w>
dro p</w>
diễn_ viên</w>
dis h</w>
di pl
des pite</w>
cor e</w>
coho l</w>
chứng_ kiến</w>
chỉ_ đạo</w>
chi ef</w>
ch ỉnh</w>
ca re
c âu_chuyện</w>
bởi_ vì</w>
beg inning</w>
arri ving</w>
app eared</w>
ap ps</w>
advan t
W hat</w>
Vene zu
Tho se</w>
R ất</w>
P a
I C
Hồ i_
F i
CA A
CAA V</w>
C oun
Bir x</w>
9 .
7 3</w>
200 8</w>
ậ m</w>
ược_ phẩm</w>
ê nh</w>
wil d
who se</w>
vir al</w>
vic ti
ud i</w>
tre at</w>
tr í_
th ừa_
t ử</w>
t our</w>
sugg ested</w>
stu dies</w>
st ation</w>
sou th</w>
si ng
s a</w>
reas ons</w>
rea ch</w>
re ta
proc edu
procedu res</w>
pro posed</w>
pneum onia</w>
or d
off er</w>
nh ẹ</w>
nguy ện</w>
ngu ồn_gốc</w>
miễn_ phí</w>
m ing</w>
m as</w>
lim ited</w>
k ích_
inclu des</w>
imm unity</w>
i um</w>
hậ u_quả</w>
hospit al
gi ous</w>
gen e
g ing</w>
fir ms</w>
ess ing</w>
e nh
e at</w>
desig ned</w>
dea d</w>
de p
d ấu</w>
d ạ
d ates</w>
cú m</w>
con f
chứng_ minh</w>
chang ed</w>
ch ú</w>
car bon</w>
cam er
ca uses</w>
c ôn_
c ough</w>
br and</w>
beli eved</w>
bab y</w>
b uy
amoun t</w>
a j
Ukra ine</w>
Su n</w>
S tu
Ph ạm_
Par ac
Ob last</w>
Nguyễn_ Xuân_
Ng ười_
N ội_
Kho ảng</w>
I O
High lands</w>
H er
H ang</w>
Gi a
Azerbaij an</w>
A n_
201 0</w>
0 -
Đ ức_
â u_l
vùng_ biển</w>
v ời</w>
u_l ực</w>
tuyệt_ vời</w>
tra ffic</w>
tr ầm_
tol l</w>
thế_ hệ</w>
th ùng</w>
temper ature</w>
sy n
spo t</w>
spec ies</w>
sp ent</w>
sho p</w>
sex ual</w>
scal e</w>
res h</w>
ra nge</w>
quần_ áo</w>
provi ded</w>
produc ed</w>
pro jects</w>
pl anned</w>
p sycho
ow ner</w>
oper ating</w>
nhân_ tạo</w>
n_th ông</w>
n_l ược</w>
m iệ
miệ ng</w>
lu ng</w>
l ỏng</w>
l ets</w>
l an_
khó i</w>
khác_ biệt</w>
kh ai_
ill a</w>
ic k</w>
i ons</w>
i ds</w>
hus band</w>
hoá _
hiệ u_lực</w>
gh é</w>
fi f
f r
ess or</w>
es tern</w>
es ter
elec tric
de pres
d ol
con s
châu_ Phi</w>
chiế n_th
chiế n_lược</w>
c ăng_thẳng</w>
bình_ luận</w>
b è</w>
air ports</w>
accoun t</w>
a_ h
_Đ iển</w>
_h u
Tr ade</w>
Thuỵ _Điển</w>
Thu an</w>
Th om
Sch ool</w>
S ho
S ha
N hiệ
K iểm_
K ha
Coron avirus</w>
9 ,
Đối_ với</w>
Đ ồng_
Đ a_khoa</w>
w rit
versi ties</w>
under stand</w>
u_th ủ</w>
tụ _t
tụ_t ập</w>
tố c_độ</w>
tur n</w>
trò _chơi</w>
tr ứng</w>
tr ắng</w>
th i_
ter ms</w>
tak es</w>
tain ment</w>
tai_ nạn</w>
t t
sti cs</w>
st ory</w>
sp orts</w>
smar t
sig n</w>
se par
s elling</w>
reduc ed</w>
r ộng_
r ound</w>
ph ạm_
or ders</w>
oper ation</w>
nông_ dân</w>
ner ship</w>
n ổi</w>
monit oring</w>
mo vi
mid dle</w>
lạm_ dụng</w>
loc ation</w>
lo _l
lo_l ắng</w>
lim it</w>
li f
kí ch_th
kh áng</w>
k er</w>
is ter</w>
is es</w>
i or</w>
ho st</w>
hiế m</w>
giả n</w>
f loo
f at
et er
er t</w>
dự_ đoán</w>
do or</w>
direc tly</w>
direc t</w>
det ected</w>
con ference</w>
co sts</w>
cha_ mẹ</w>
c old</w>
c a_sĩ</w>
bu m</w>
b ày_
at ly</w>
ag r
ad d
_ch ất</w>
Vi et</w>
Venezu ela</w>
Tr ường</w>
Th u</w>
R om
R S</w>
PC R</w>
Mar i
H er</w>
G al
E C</w>
Du ong</w>
Ch u
6 8</w>
4 %</w>
10 %</w>
ị nh</w>
ế p</w>
ả i_th
ạn_ bè</w>
đề_ nghị</w>
đ a_
ên_ liệu</w>
who le</w>
vận_ động</w>
victi ms</w>
vic tim</w>
ves sel</w>
v ers</w>
ul tural</w>
tr e</w>
th ận</w>
te en</w>
t ỷ_
sto pped</w>
st ed</w>
sa i_l
sa i</w>
s âu_
reven ues</w>
remain ing</w>
regi st
r ying</w>
phần_ mềm</w>
parti cip
ox y
op port
nội_ địa</w>
nhân_ dân</w>
nhi ên_liệu</w>
nh ắc</w>
ng_th ể</w>
neigh bor
nation wide</w>
n iềm</w>
mo stly</w>
mo squ
lư ới</w>
l ệ</w>
l o</w>
k ept</w>
infec tious</w>
in t</w>
in side</w>
ig h</w>
i red</w>
ho ạ</w>
he at</w>
gi ant</w>
foot ball</w>
fish er
f av
es sion</w>
dig ital</w>
cu ̀ng</w>
cour t</w>
chuy ển_
ch ục</w>
ch a</w>
cau ght</w>
ca using</w>
c ựu</w>
bá n_
b ụ
b í_
att ack</w>
al o
a c</w>
V ar
Tran sport</w>
Th ree</w>
R ob
Parac el</w>
L an
Kh u</w>
K o
Indus try</w>
H ầu_hết</w>
H àng</w>
E ven</w>
D ân_
C el
Austral ian</w>
8 3</w>
4 8</w>
ụ t</w>
ộ m</w>
ệ n_
ể_ cả</w>
ập_ nhật</w>
ậ n_thức</w>
ạc_ bộ</w>
đơn_ giản</w>
đóng_ góp</w>
đ ọc</w>
đ âu</w>
Đại_ sứ_quán</w>
ă ng_t
ú a</w>
âu_l ạc_bộ</w>
x ấu</w>
wro te</w>
wor st</w>
wat ch</w>
u l</w>
tốt_ nghiệp</w>
tric ts</w>
tr ại</w>
throu gh
th ử</w>
t ồi_
t ạp</w>
t àng</w>
số _liệu</w>
supp lies</w>
sup por
stat us</w>
st er
sle ep</w>
ser ved</w>
s ắp</w>
s ạch</w>
s tru
s ov
reven ue</w>
pu l
prot ection</w>
pl ants</w>
ph óng_
ph i</w>
pe o</w>
par k</w>
p .m.</w>
ol a</w>
n_t ích</w>
n am_
mar t</w>
main ly</w>
m ã</w>
li ền</w>
li z
lea der</w>
khám_ phá</w>
j our
intro duc
i_th iệu</w>
hô n_
hot els</w>
hi ến</w>
h uống</w>
giớ i_thiệu</w>
giấy_ phép</w>
giải_th ưởng</w>
gi en
fore st</w>
fac ing</w>
f as
every one</w>
eng ine
en tered</w>
em io
e x</w>
dro pped</w>
dang erous</w>
cư _tr
cư_tr ú</w>
công_ chúng</w>
cul arly</w>
cri min
conduc ted</w>
con nec
ca m_
c ắt</w>
c ân_
c enters</w>
bu ộc_
break s</w>
b ạn_bè</w>
and a</w>
al cohol</w>
adul ts</w>
V ũ</w>
V ì</w>
Tr ái_
T àu</w>
T uy
T ri
So cial</w>
S ố
S r
Re public</w>
Quốc_ hội</w>
Pom peo</w>
Ph òng</w>
P ho
No w</w>
Ngo c</w>
M in
L y
J i
I re
G DP</w>
F ol
Col a</w>
C L
B ro
Associ ated</w>
Afric an</w>
5 8</w>
5 0%</w>
1 /
ứ _trưởng</w>
ủ_t ục</w>
ệ ch</w>
đô _thị</w>
ân_ thủ</w>
ái_ xe</w>
wh ite</w>
vill age</w>
vi l</w>
v ào_
v ang</w>
us ual</w>
u_ đ
tồi_ tệ</w>
tại_ sao</w>
tư_ nhân</w>
tình_ huống</w>
tu ân_thủ</w>
tr à</w>
thừa_ nhận</w>
thời_ kỳ</w>
thre at</w>
thoả _thuận</w>
tech n
sẵ n</w>
só t</w>
sur vi
rev eal
recor d</w>
r ửa</w>
quy_ mô</w>
phần_ lớn</w>
ph ối</w>
p y
p es</w>
ox ide</w>
over ing</w>
oun ds</w>
open ing</w>
o red</w>
nh ận_thức</w>
ngăn_ ngừa</w>
nghĩ a_
ng ôn</w>
n Ex
má t</w>
mov ing</w>
metho ds</w>
mater ials</w>
loại_ bỏ</w>
l ái_xe</w>
khu ôn_
kh ối_
k ỳ
k en</w>
k ar</w>
k ar
isol ated</w>
inj ur
in sec
ig n
ho t</w>
h our</w>
h or
fi gh
ffic i
f ans</w>
ex ecu
en ni
em o
e n_
do ing</w>
di o</w>
cro w
cre w</w>
cr yp
complet ed</w>
citiz en</w>
chỉ _tr
chỉ_tr ích</w>
ch ìm</w>
cer tific
carri ed</w>
car s</w>
c ập_nhật</w>
bản_ thân</w>
buộc_ tội</w>
bu ồn</w>
be i</w>
an tly</w>
agre ed</w>
_th iệp</w>
_h uynh</w>
V nEx
Tr uy
Thu ận</w>
Th ực_
Tech no
Sec retary</w>
S to
Q uy
P as
On line</w>
Nh óm</w>
New_ York</w>
N u
N o</w>
Mil an</w>
Is land</w>
Hồi_ giáo</w>
F A</w>
Chú ng</w>
B áo_
B ur
Am ong</w>
Al though</w>
: 30</w>
9 2</w>
ợ _ch
ợ_ch ồng</w>
ơn_ nữa</w>
đ ào_tạo</w>
đ o</w>
Đ ảng</w>
áp_ đặt</w>
y ed</w>
w el
un d
tri p</w>
tr ái</w>
tiềm_ năng</w>
thá ch_thức</w>
through out</w>
thay_ vì</w>
th ích_
t ương</w>
t able</w>
stor m</w>
spec ific</w>
s we
s tric
ro se</w>
requ ested</w>
regist ered</w>
ra ins</w>
r ắn</w>
prof essi
poli tical</w>
phức_ tạp</w>
phần_ trăm</w>
phiên_ bản</w>
p el
on ic</w>
ng ư_dân</w>
munic ip
mu ỗi</w>
min im
manufac turing</w>
m ắn</w>
lo ng
l ad
k ers</w>
individu al</w>
in telligence</w>
identi fy</w>
hội_ nghị</w>
gro w</w>
govern ments</w>
gi ấy</w>
g ũi</w>
fru it</w>
expres sed</w>
enti re</w>
dẫn_ đầu</w>
diagno sed</w>
der ly</w>
d ương</w>
cả ng</w>
cơ_ bản</w>
công_ viên</w>
có_ vẻ</w>
cuố n</w>
commit tee</w>
clas ses</w>
chiến_th ắng</w>
cen tur
car ry</w>
cam_ kết</w>
bắt_ buộc</w>
buil d</w>
bo y</w>
b ớt</w>
arri val</w>
appro pri
ann ual</w>
allow ing</w>
all s</w>
a x
Wor ld
Tr e</w>
T ây</w>
S we
S inh</w>
S ain
R ec
P an
Nhiệ t_
Nguyễn_Xuân_ Phúc</w>
M el
Le e</w>
La z
L ào</w>
K ết_
Ire land</w>
Hợp_ Quốc</w>
Donal d</w>
D ay</w>
Christ mas</w>
C ho
C ai</w>
Bang k
B el
Ali bab
Ad ministration</w>
7 4</w>
6 9</w>
5 1</w>
ần_ gũi</w>
đội_ tuyển</w>
đ ẳng</w>
ù i</w>
week end</w>
us er</w>
ur ged</w>
un ar</w>
tổ ng</w>
tư_ cách</w>
tre es</w>
tr ốn</w>
tr uy_
ti v
thre at
th ức_
th ủ_tục</w>
th ân_
st ar</w>
spe ed</w>
sov ere
so f
si us</w>
s ửa_
s ent
reg ar
quan_ điểm</w>
pre pa
phụ _huynh</w>
passe nger</w>
parti cularly</w>
ort ation</w>
occu r</w>
mạ ng_
m ừng</w>
m ã
m à_
m ine</w>
lư u_tr
let ter</w>
l ess
kỹ_thuật_ số</w>
kỹ _năng</w>
khuyến_ cáo</w>
kh iế
iệ n_tích</w>
il legally</w>
ho o
h âm_
gir ls</w>
gi ving</w>
g ần_gũi</w>
f resh</w>
exten ded</w>
es ides</w>
environ mental</w>
el derly</w>
ec e</w>
ear ing</w>
e ch</w>
de vices</w>
de b
d or</w>
cầ u_thủ</w>
cầ u_
cảm_ giác</w>
cul tural</w>
comm un
co ast</w>
can di
c a_
bày_ tỏ</w>
bene f
bacter ia</w>
b ị_
any one</w>
al bum</w>
acu te</w>
a -
_n iệm</w>
_ m
Wom en</w>
Tổng_c ục</w>
Tr i</w>
Qu oc</w>
P en
O ver</w>
Ng ọc_
Mich a
M E
In st
Hu bei</w>
Fir st</w>
F ed
D r.</w>
Chi ến_
Cha u</w>
Ch il
7 7</w>
6 7</w>
5 9</w>
5 0
200 5</w>
2 50</w>
1 st</w>
ị_th ương</w>
đợ i</w>
đ è
á ch_
ventilat ors</w>
v olu
volu me</w>
v ari
uni versities</w>
tổ ng_c
tư_ vấn</w>
tre e</w>
transp ortation</w>
tr ú</w>
ti ngs</w>
ti ci
ther ap
t ạp_chí</w>
t ation</w>
sum mer</w>
sp ace</w>
si m
sho ps</w>
s or
s il
ro oms</w>
rec overy</w>
quân_ đội</w>
play ed</w>
phát_ ngôn</w>
phi ên</w>
ph ú</w>
ph u
parti cular</w>
p are</w>
organiz ation</w>
mà_ còn</w>
meas ure</w>
lâu_ dài</w>
loy d</w>
lis h
l ương</w>
l ên_
kh o</w>
k in
in struc
in ing</w>
hâm_ mộ</w>
hist or
h ải</w>
h ec
gr ic
g ames</w>
fisher men</w>
farm ers</w>
ex isting</w>
ev ening</w>
es h</w>
es cap
eff ort</w>
dist ance</w>
dipl omatic</w>
d iện_tích</w>
cro s
co ng
ch ứ</w>
ch ẳng</w>
ch ắn</w>
ch ạm</w>
ch ron
celeb r
ce e
can _thiệp</w>
bri dge</w>
b ị_thương</w>
b ạo_
b ây_giờ</w>
att le</w>
ar m</w>
ar ian</w>
air line</w>
adver ti
ad ministration</w>
VnEx press</w>
V ì_vậy</w>
V F
Thà nh_
Th ứ_trưởng</w>
S ong</w>
Pre vi
Olymp ic</w>
NH S</w>
Mis s</w>
M ô
M at
Liên_ Hợp_Quốc</w>
L ab
Ki m_
Kh anh</w>
K e
I I</w>
Ho à_
H àng_
H ai
Gi a_
F ood</w>
F loyd</w>
Em b
Ear th</w>
E ducation</w>
E S
Công_ nghệ</w>
Co ffee</w>
Chúng_t a</w>
Cel sius</w>
C i
A gric
5 0,000</w>
5 .000</w>
3 0%</w>
/ 8</w>
’ ve</w>
ử_ trùng</w>
ẹ n</w>
ư ỡng</w>
ũ ng_
é t_
z ing</w>
xung_ quanh</w>
x im
who m</w>
w ai
un its</w>
tiêu_ chuẩn</w>
ti s</w>
thức_ ăn</w>
th ôi</w>
te ams</w>
t ậ
t ây</w>
sy m
sur g
super market</w>
success ful</w>
st ates</w>
sp ir
sing le</w>
shu t</w>
s end</w>
rou tes</w>
re pe
r s</w>
r ac
quan_ sát</w>
pri or</w>
phụ _thuộc</w>
ph arm
o d
nh ạ
ng ặt</w>
n es</w>
monit or</w>
mas k</w>
m ag
lu s</w>
loc als</w>
l ẫn</w>
kho án</w>
ke ep
k ets</w>
iz ing</w>
iz ation</w>
inte rest</w>
in stitu
in ated</w>
hol ds</w>
hiệ n_tượng</w>
high ly</w>
gi án</w>
gi c</w>
g ỡ</w>
g a</w>
fif th</w>
fail ed</w>
f ake</w>
e ating</w>
dro me</w>
dis tricts</w>
di oxide</w>
des cri
d ent</w>
côn_ trùng</w>
competi tion</w>
comp lic
cl es</w>
chế_ độ</w>
chem ical</w>
chec k</w>
cas ting</w>
c âu_lạc_bộ</w>
c li
b ài_
as k</w>
ar ia</w>
agric ultural</w>
ad kar</w>
acc used</w>
W in
Var adkar</w>
UN CL
UNCL OS</w>
U A
UA E</w>
To wn</w>
Thông_ tin</w>
S ur
Quảng_ Ninh</w>
Pha m</w>
Nhà_ nước</w>
Ngo ài</w>
N ăm_
N av
N ai</w>
M ọi</w>
J us
Hoa_ hậu</w>
G ra
Col om
Bangk ok</w>
B y
As s
Alibab a</w>
9 9</w>
7 %</w>
ỷ _niệm</w>
ự ng</w>
ỡ ng_
ấn_ luy
ảng_ cách</w>
ường_ như</w>
đ a
ó i_
á m</w>
y er</w>
vir tual</w>
vi sion</w>
v ul
vul ner
tw are</w>
tr act</w>
tel evision</w>
tax i</w>
t ố</w>
stru gg
smar t</w>
si ck</w>
s ứ</w>
s âu</w>
s u</w>
s li
recomm ended</w>
re su
re al
r ace</w>
publi c
prote in</w>
pro g
pre pare</w>
postp oned</w>
play ers</w>
pl anning</w>
phát_ sóng</w>
off ering</w>
ng ộ_
ng ưng</w>
n àng</w>
mid -
mat ch</w>
m al
luật_ pháp</w>
lea ving</w>
l ô</w>
kh ử_trùng</w>
kh ơi</w>
k ỷ_niệm</w>
iể u_
ill ness</w>
hy dro
gien e</w>
g ent</w>
fu el</w>
for ced</w>
f oc
f la
experi enced</w>
ev acu
ed dy</w>
eas ily</w>
dri ving</w>
d_ Trump</w>
d ịp</w>
d ar
cu ng</w>
con tain</w>
con clu
complet ely</w>
comm unic
co al</w>
clas s</w>
chi_ tiết</w>
c ộng</w>
c over</w>
bus es</w>
bo dies</w>
b ếp</w>
b ing</w>
an it
an ia</w>
al though</w>
ab ly</w>
W at
V ic
Th áng</w>
S ố</w>
Q I</w>
Ph òng_
P al
P a</w>
Mi nh_
Mas an</w>
Mar t</w>
M S</w>
Lu ật</w>
L am</w>
J e
Donal d_Trump</w>
Den mark</w>
Del ta</w>
Ch ương_trình</w>
C ap
Bo th</w>
Agric ulture</w>
AF P</w>
A D
4 ,000</w>
200 6</w>
10 ,000</w>
ớ i_
ổ ng</w>
ạc_ nhiên</w>
ạ t_
ơ m</w>
ơ _
đường_ sắt</w>
áng_ gi
ác_ thải</w>
xa 0</w>
wea p
ver sion</w>
v ợ_chồng</w>
ul l
tổng_c ộng</w>
tu ân</w>
tinh_ thần</w>
thế_ kỷ</w>
thiệt_ mạng</w>
th ái</w>
t ịch</w>
t ật</w>
t ex
sơ _t
sơ_t án</w>
sá ng_t
st able</w>
sp reading</w>
sof tware</w>
sho wn</w>
s ụ
re gu
regu lar</w>
post ed</w>
pos al</w>
po st</w>
po ses</w>
ph ia</w>
p us
on y</w>
on ing</w>
occu p
o logical</w>
nội_ dung</w>
nông_ thôn</w>
ng ạc_nhiên</w>
main tain</w>
mach ine</w>
m èo</w>
m ou
loc ations</w>
la o</w>
l ỗ</w>
kết_ hôn</w>
kho ảng_cách</w>
k ins</w>
inf or
hệ _
hel ped</w>
happ ened</w>
h on
g lo
for ces</w>
fin dings</w>
expor ted</w>
ev al
do z
dis pu
destin ations</w>
dec ades</w>
cực_ kỳ</w>
consum ers</w>
con om
commer cial</w>
clo sely</w>
chấ p_
ch ay</w>
cal ls</w>
bị_ cáo</w>
bảo_ hộ</w>
be er</w>
ba o</w>
b óng</w>
b it</w>
b al
avi ation</w>
ati stics</w>
an ding</w>
aff ect</w>
accoun ts</w>
W illi
VN Đ</w>
Un der</w>
Tur k
Trung_ ương</w>
Thế_ vận_
T ết</w>
Sa udi</w>
S everal</w>
Ri ver</w>
Previ ously</w>
Nông_ nghiệp</w>
Kết_ quả</w>
K a
H i
Giáo_ dục</w>
Ex per
E conom
D o_đó</w>
Co ng
Châu_ Âu</w>
Ch ỉ</w>
C lin
Báo_ cáo</w>
B or
A t
9 8</w>
9 1</w>
4 0
20 00</w>
ứ t</w>
ố t</w>
ện_ viên</w>
ắc_ chắn</w>
ầ y</w>
̣ ng</w>
đ ịch</w>
đ ến_
đ àm_
áp_ lực</w>
x ứ</w>
wa it</w>
ur o</w>
tw ice</w>
travel led</w>
travel ed</w>
tran si
tic ally</w>
thứ_ bảy</w>
thông_ thường</w>
ta res</w>
t ỉ
t ầng</w>
sáng_ lập</w>
st an</w>
sovere ign
sovereign ty</w>
s i</w>
ru m
rel ev
ra ise</w>
r ạp</w>
qu en</w>
pregn ant</w>
pilo ts</w>
pho to
ph ong</w>
par ty</w>
p ate</w>
or din
off ers</w>
o logy</w>
nh ắn</w>
ngh ệ_
ng ọt</w>
n iệm</w>
mat ter</w>
manufac ture
m ê</w>
m icro
laun ch</w>
k u
is land</w>
in come</w>
il a</w>
hu ge</w>
ho pe</w>
hec tares</w>
g y
fo cus</w>
fam ous</w>
f er</w>
et h</w>
et ed</w>
e um</w>
depres sion</w>
dep loy
clo sure</w>
ch ains</w>
c ô
buôn_ bán</w>
bre ath</w>
b ề_
b ật</w>
b ước_
b ank</w>
aut om
at ed
ac tually</w>
_th ải</w>
Y o
We C
WeC hat</w>
V u
Tu an</w>
Ti en</w>
Th ủ_
Th ương</w>
Sci enti
S ức_
S al
R O
Offic e</w>
Năm_ ngoái</w>
No .</w>
Nh ất</w>
Nh ung</w>
Ng ân_hàng</w>
M c
Lea gue</w>
Laz ada</w>
K en
K ar
I ts</w>
H igh</w>
G ần</w>
En viron
Com mer
Ch ar
C ó
C our
B ác_
B io
A QI</w>
6 3</w>
2 3
1 3
ề ng</w>
ại_ di_động</w>
độ t</w>
đàm_ phán</w>
điện_tho ại_di_động</w>
điểm_ nóng</w>
đ ảng</w>
áng_gi ềng</w>
y_ tá</w>
y u
y a</w>
w est</w>
w ants</w>
v ết</w>
uố i</w>
under standing</w>
u_ niên</w>
u ỷ_
tiếp_ nhận</w>
thanh_ niên</w>
th ảm_
th ương</w>
t àu_
số _
sus hi</w>
su st
stay ing</w>
st orm
st ep</w>
squ are</w>
some times</w>
show ing</w>
sho pping</w>
s on
requ ire</w>
repa tri
relev ant</w>
relation ship</w>
re view</w>
re mon
re l</w>
re fore</w>
r ẻ</w>
r ác_thải</w>
quốc_ tịch</w>
quá _
quy ề
ques tions</w>
qu à</w>
pre dic
por ation</w>
ph ủ</w>
ph ụ</w>
per mission</w>
nhất_ định</w>
như _th
nghiệ n</w>
nghiêm_ ngặt</w>
ngh ề</w>
ngh èo</w>
ng ăn</w>
ng es</w>
n_s a</w>
n_ hiệu</w>
một_ chút</w>
mp tion</w>
mong_ muốn</w>
metho d</w>
met er</w>
mas s</w>
m ục</w>
m enti
lo ts</w>
lab or</w>
l áng_giềng</w>
l iệt</w>
khối_ lượng</w>
không_ gian</w>
kar ao
k its</w>
ir i</w>
initi al</w>
ing ly</w>
illi on
id ney</w>
học_ tập</w>
hoà_ bình</w>
h ề</w>
h ết_
h uy_
h ur
fru its</w>
figh ting</w>
f elt</w>
er ation</w>
er _
employ ee</w>
em y</w>
ell a</w>
electric ity</w>
el ines</w>
e ing</w>
do gs</w>
de vice</w>
d ọc</w>
cầ n_sa</w>
công_ an</w>
contr ols</w>
contr ol
consi der</w>
con n
chứng_ nhận</w>
chứng_ khoán</w>
charg e</w>
ch ẳng_hạn</w>
ch ậm</w>
ch ảy</w>
ch ào_
ch ance</w>
car rying</w>
c ổ</w>
bầu_ cử</w>
bá nh</w>
bu d
b ày</w>
b om
b il
b ack
associ ated</w>
as es</w>
approv al</w>
appropri ate</w>
anh _t
an while</w>
_l ẽ</w>
Y en</w>
W ar
V ill
V acc
Tur key</w>
Trường_ Sa</w>
To à_án</w>
Tiế n_sĩ</w>
S um
S pr
Resear chers</w>
O S
Nhân_ dân</w>
N A</w>
Med ic
Me anwhile</w>
Loc al</w>
Lo ng_
Kiểm_ soát</w>
In dex</w>
I ra
Hà_ Lan</w>
Hu ong</w>
Gia o_thông</w>
Gi á</w>
G ol
Fr anc
F estival</w>
Eng land</w>
D ru
Cu ba</w>
C la
C an</w>
Author ities</w>
8 6</w>
199 6</w>
- -</w>
ỹ _
ế_ nào</w>
ắ n_
ẩ n_th
ải_ nghiệm</w>
ướ p</w>
ư ng_
đồng_ nghiệp</w>
đồ_ ăn</w>
đồ ng_t
điều_ chỉnh</w>
đ ò
xuất_ bản</w>
wor ds</w>
wi ft</w>
war ning</w>
w in</w>
w id
vào_ khoảng</w>
vu i_
vie ws</w>
vide os</w>
v ườ
v ô
ur ban</w>
tri ed</w>
tr ộm</w>
tr anh_ch
tranh_ch ấp</w>
tin_ đồn</w>
tific ial</w>
te dly</w>
t ải</w>
t ình</w>
t ai</w>
sá t_
suspen sion</w>
stre ets</w>
star tu
si ze</w>
sh ar
sen ior</w>
sai_l ệch</w>
s k</w>
ru les</w>
reveal ed</w>
r ãi</w>
produc ers</w>
pharm ac
ph ase</w>
pe ace</w>
p un
out lets</w>
out breaks</w>
olu tion</w>
o ted</w>
no tice</w>
như_th ế_nào</w>
nh ắm</w>
n ắng</w>
mặt_ trời</w>
moun tain
mo sph
may_ mắn</w>
m ặn</w>
m illions</w>
m el
lã o</w>
liên_ tiếp</w>
kết_ án</w>
kh ắc_
k idney</w>
ir ing</w>
invol ving</w>
in t
impor ts</w>
hiệ n_đ
health y</w>
h ạ</w>
h es</w>
go al</w>
gh ép</w>
g ate</w>
fi res</w>
fall ing</w>
f estival</w>
f al
el ing</w>
e duc
dre am</w>
dr ag
deter min
det ail
d ậy</w>
d i</w>
cổ_ phần</w>
cảm_ xúc</w>
cru ise</w>
cour se</w>
con sequ
con centr
ck ro
charg es</w>
char ac
cas h</w>
bề_ mặt</w>
bro ke</w>
br ands</w>
bor ders</w>
beg in</w>
b our
b ook</w>
b illion
ar ies</w>
app ear</w>
ap ar
anim al</w>
agre ement</w>
agr am</w>
advant age</w>
ac id</w>
W ard</w>
Vic tor
V ụ</w>
Tây_ Nguyên</w>
Tân_ Sơn_
Th ống_
Techno logy</w>
T ỉnh</w>
Sci ence</w>
S ân_
R T</w>
La os</w>
Kh ánh_
John son</w>
Inst agram</w>
Hiện_ tại</w>
G ia</w>
G ar
For d</w>
Fol lowing</w>
Dịch_ vụ</w>
Da k</w>
D ao</w>
Cen tre</w>
B esides</w>
B ai</w>
Ang el
A P</w>
A I
7 9</w>
5 G</w>
20 %</w>
2 .000</w>
độc_ hại</w>
đánh_ dấu</w>
đ en</w>
đ em</w>
ý_ nghĩa</w>
á _
wor d</w>
we i</w>
w earing</w>
uy ện</w>
ur al</w>
up on</w>
uni versity</w>
tội_ phạm</w>
tái_ chế</w>
tur ned</w>
tra o_
tra ffic
thực_ vật</w>
thiên_ nhiên</w>
th _
tech ni
tea cher</w>
t ell</w>
số t_
sh aring</w>
sear ch</w>
se p
scre ening</w>
reta il</w>
provi ding</w>
phân_ biệt</w>
phi m_
ph ối_
ph ường</w>
per formed</w>
pay ment</w>
origin al</w>
organ ic</w>
om bar
offic ers</w>
nam_ giới</w>
n_ giả</w>
n a
mov ement</w>
mo tor
medic ine</w>
marri age</w>
m ũi</w>
m and
lư u</w>
logi es</w>
lob ally</w>
lan_ truyền</w>
lan ded</w>
l ắp_
l úa</w>
khá m</w>
karao ke</w>
k ính</w>
j ud
j ected</w>
is lands</w>
improv ed</w>
imp acts</w>
imm un
il ed</w>
hou ses</w>
hospital ised</w>
hol ding</w>
ho àng</w>
hea d
giáo_ sư</w>
gi ves</w>
gen der</w>
g as</w>
fle w</w>
fiel ds</w>
fe atures</w>
f inis
f ic</w>
exper t</w>
ex pen
ex am</w>
even tually</w>
enter tainment</w>
en sive</w>
en berg</w>
ea k</w>
e u</w>
e ful</w>
e dom</w>
dis tribu
dec lar
cửa_ khẩu</w>
công_ tác</w>
cooper ation</w>
contrac ted</w>
continu ed</w>
col lege</w>
cla im</w>
ck y</w>
chuy ên</w>
chi m</w>
ch ắc_chắn</w>
ch ấp</w>
ch oo
centur y</w>
ce remon
camer a</w>
c ãi</w>
c ây_
c in
c ally</w>
behavi or</w>
bas sa
ba d</w>
b id
att emp
as p
app ed</w>
air lines</w>
aim ed</w>
ab use</w>
W est</w>
W ar</w>
V O
Tân_Sơn_ Nhất</w>
T ex
T eddy</w>
Se oul</w>
Po st</w>
Ph ụ
Nhiệt_ đới</w>
Net fli
M r</w>
M aur
L ombar
Kho a_học</w>
K ế_hoạch</w>
K az
In dian</w>
Hu a
H ùng</w>
H ành_
Di am
De f
Công_ Thương</w>
Cour t</w>
Co .</w>
Chil dren</w>
CN N</w>
C ur
Bác_ sĩ</w>
B r
B itcoin</w>
A si
A T
: 00</w>
9 3</w>
7 6</w>
7 2</w>
7 1</w>
200 4</w>
ứ ng_c
ợ _h
ợ_h ãi</w>
ổ n</w>
ết_ Nguyên_
ẩn_th ận</w>
đối_ tượng</w>
đ ặt_
ăn_ uống</w>
ì_ hoãn</w>
ì nh_ph
ân_ Đ
x i
vulner able</w>
vis as</w>
vacc ination</w>
v ải</w>
v ũ
un it</w>
tuy _
tr ải_nghiệm</w>
to ols</w>
th iện</w>
th i
th anh
tea chers</w>
tas te</w>
tal ity</w>
t un
sức_ mạnh</w>
syn drome</w>
speci al
sk ills</w>
sci ence</w>
sa ge</w>
s ợ_hãi</w>
s ắp_
rộng_ rãi</w>
ru s</w>
resp ectively</w>
requ est</w>
rec y
re si
ra ising</w>
pre ven
poli cies</w>
plat form</w>
person nel</w>
p ain
ol der</w>
oc e
no tes</w>
nhà_th ờ</w>
nh ện</w>
ngoại_ trừ</w>
nghệ _thuật</w>
neighbor ing</w>
ne go
nego ti
n ấu_
n esses</w>
n ative</w>
n CoV</w>
mô _t
mô_t ả</w>
mit h</w>
min d</w>
me at</w>
main tain
m àn_
m m</w>
m i</w>
m ation</w>
lớ n_
li ver</w>
l ửa</w>
l ying</w>
l in</w>
kh í_
j ail</w>
ill enni
i_th ân</w>
họ p_
ho u</w>
hel ping</w>
gi ường</w>
ga ve</w>
g am
for ward</w>
for d</w>
fact ory</w>
fac ed</w>
exerc ise</w>
every thing</w>
dịch_ t
dư ỡng_
docu ments</w>
difficul ties</w>
deter mine</w>
de ep</w>
d ược_phẩm</w>
d ường_như</w>
d ây</w>
d ong</w>
d est</w>
cứ u_
công_ nhận</w>
có_ mặt</w>
curren cy</w>
conf id
coll ected</w>
cle an
chiến_ tranh</w>
chiế m_
chang ing</w>
ch ấn</w>
c ẩn_thận</w>
c ướp</w>
bất_ ngờ</w>
bạo_ lực</w>
bo m</w>
bas is</w>
b ậ
ar ms</w>
an o</w>
an e</w>
an ces</w>
am a
a h
a ches</w>
World _
Truy ề
Th o</w>
T ết_Nguyên_
T inh</w>
T el
T ay</w>
Scot land</w>
S ull
S k
Pu tin</w>
O x
O ce
Người_ dân</w>
Ng ay</w>
Netfli x</w>
Man ila</w>
M O</w>
L unar</w>
Hã y</w>
Hua wei</w>
Gu ine
Geor gia</w>
FI FA</w>
Exper ts</w>
E F</w>
Dan i
D al
D A</w>
Cha mp
C a</w>
C .</w>
Bru ne
Bambo o</w>
B lu
B et
B an</w>
B al
ừa_ đảo</w>
ễ n_đ
ẹ t</w>
ươ i</w>
điệ n_
đ ổ_
đ ậu</w>
ó i</w>
è m</w>
Ý .</w>
xe _tải</w>
vol un
viol ence</w>
vi -
v ai</w>
tuy_ nhiên</w>
tu ệ_
tu ần_
truy_ cập</w>
tr ì_hoãn</w>
tiềm_ ẩn</w>
tiết_ k
tiết_k iệm</w>
thất_ bại</w>
thu s</w>
ther ia</w>
th ắng</w>
th ú_
tempor ary</w>
t ức_
t our
sơ _sinh</w>
suspen d</w>
suff ering</w>
succ ess</w>
sub sequ
solu tions</w>
sib ility</w>
see king</w>
see k</w>
sec u
sa d</w>
s ửa</w>
s l
ro w</w>
repor tedly</w>
qu ỹ</w>
pro posal</w>
pro mp
phóng_ viên</w>
pháp_ luật</w>
phá _hu
phá_hu ỷ</w>
ph theria</w>
per c
part ners</w>
p an
p _thuận</w>
oper ate</w>
on ds</w>
nhà_ cung_cấp</w>
ngườ i_thân</w>
n_đ ấu</w>
màn_ hình</w>
movi e</w>
mou th</w>
mor tality</w>
monit ored</w>
mil es</w>
m ười</w>
m a_
l ọt</w>
l ít</w>
khá n_giả</w>
khuyến_ nghị</w>
kh ô</w>
k ênh</w>
j u
it able</w>
ist ant</w>
in ks</w>
in dex</w>
in cial</w>
i ans</w>
hồi_ hương</w>
hành_ chính</w>
ha z
gr ade</w>
gi àu</w>
g ã</w>
g in</w>
fl u</w>
f oods</w>
f f</w>
execu tive</w>
et er</w>
estab lish
esp ite</w>
e f
dr y</w>
den ied</w>
contin ues</w>
con sul
com ment</w>
co as
chấp_ nhận</w>
chấ p_thuận</w>
chuy ể
chiế n_đấu</w>
chi pel
cal ling</w>
c ũ</w>
be low</w>
b ola</w>
b it
author ity</w>
au di
at ar</w>
applic ation</w>
an ian</w>
all er</w>
al a</w>
ag u
ad d</w>
_th i</w>
Wi th
W o
VN 00
To day</w>
Th êm</w>
Th u_
T es
Sức_ khoẻ</w>
S ab
Quốc_ phòng</w>
Ph ương_
Nor thern</w>
Nguyễn_ Văn_
M id
L ao</w>
Ki nh_
I an</w>
G a
F C</w>
E bola</w>
Dự_ án</w>
Di rec
D espite</w>
D ell</w>
D ance</w>
Colom bia</w>
C ường</w>
C enters</w>
By te
B ến_
B T</w>
A S
8 4</w>
20 25</w>
199 0</w>
ổ _th
ỏ ng_
ễn_đ àn</w>
ưu_ tiên</w>
động_ đất</w>
đại_ dương</w>
đô i_
Đ ảo</w>
ích_ dẫn</w>
ân_ cận</w>
wor ri
win ter</w>
weap ons</w>
we ight</w>
w ood</w>
vận_ hành</w>
ur ch</w>
u ana</w>
tự_ động</w>
tố c</w>
tôn_ giáo</w>
tài_ nguyên</w>
tuệ_ nhân_tạo</w>
tu ng</w>
tre ating</w>
tr ông</w>
to wards</w>
tion ally</w>
ti a</w>
thà nh_ph
thuốc_ lá</w>
than ks</w>
th qu
tal k</w>
t ổ_
t ồn</w>
t ận_
sự_ cố</w>
sáng_t ạo</w>
su it</w>
so ngs</w>
siêu_ vi</w>
signific antly</w>
short age</w>
sec re
s ét</w>
ri d</w>
requi re
rel ations</w>
reduc ing</w>
re moved</w>
ran ked</w>
ra ther</w>
r oun
r ay</w>
prov incial</w>
practi ce</w>
ph ỏng_
p aper</w>
organ is
on str
occur red</w>
nur sing</w>
ni tr
ngôn_ viên</w>
n ắm</w>
municip al</w>
minu te</w>
mi ễn</w>
menti oned</w>
me an</w>
mat ches</w>
marri ed</w>
mar ked</w>
m ất_
m ại_
m om
loc ked</w>
lo ad
lin k</w>
lin ed</w>
li ều</w>
le dge</w>
larg er</w>
l ừa_đảo</w>
l ạ</w>
l ân_cận</w>
kil o
khá ng_thể</w>
kh ắc</w>
k ể_cả</w>
k iểu</w>
j um
iệu_ pháp</w>
iế t_
ing dom</w>
indus trial</w>
i ously</w>
hữu_ cơ</w>
hu ấn_luy
h ầu</w>
guid elines</w>
grad u
g or
fac es</w>
exp anded</w>
exc ept</w>
ever age</w>
er ies</w>
ell ers</w>
dự_ định</w>
dưỡng_ lão</w>
du ̀ng</w>
dr ink</w>
do ors</w>
d ặ
d o_đó</w>
cả i_
cư ới</w>
compu ter</w>
comp et
cle an</w>
cho_ hay</w>
ch ặt</w>
cat eg
c ụ</w>
bá nh_
buy ing</w>
bur g</w>
becom ing</w>
becom es</w>
beau ty</w>
ass istance</w>
app lied</w>
ad vice</w>
ad ova</w>
acc ur
_l ệ</w>
Truyề n_thông</w>
Thương_ mại</w>
Thuỵ _S
Thi en</w>
T re
Sull i</w>
Sam adova</w>
S wit
S C</w>
Res p
Ph ú</w>
Pak ist
On ce</w>
O s
O P
Nav y</w>
N a_
Mô i_trường</w>
M A</w>
La w</w>
L a_
K ingdom</w>
Joh n</w>
Is lam
H ằng</w>
H ond
Giá ng_sinh</w>
F oun
Cor poration</w>
Commer ce</w>
Cha ir
Brune i</w>
B ộ_
B as
9 4</w>
8 0,000</w>
200 7</w>
10 .
1 2.
ử_ viên</w>
ở i</w>
ễ_ học</w>
ả y_
ưởng_ thành</w>
đồng_ bằng</w>
ân_ sách</w>
àng_ lọc</w>
àn_ sóng</w>
x ế</w>
x ương</w>
x a_
vườ n</w>
visi ting</w>
veget ables</w>
v an</w>
tâm_ lý</w>
tu red</w>
trao_ đổi</w>
tr ưởng_thành</w>
tr ích_dẫn</w>
tr ess</w>
tour nam
ton nes</w>
tin e</w>
thế_ nào</w>
thu ỷ
techn ical</w>
t ụ_
t ái</w>
sụ t_
số c</w>
su n</w>
stud ying</w>
stay ed</w>
st ands</w>
solu tion</w>
smo ke</w>
serv ation</w>
sen si
s tri
s er</w>
res ort</w>
remain ed</w>
reli gious</w>
rap id</w>
ra_ lệnh</w>
r ối</w>
r d</w>
proc essing</w>
pro hi
pre c
pow er
phân_ phối</w>
perform ance</w>
pay ments</w>
p eak</w>
oxy gen</w>
orig in</w>
nhân_ sự</w>
n êu</w>
má i</w>
minis tries</w>
manag ed</w>
mak er</w>
mach ines</w>
ma p</w>
m ời</w>
m ate</w>
m ary</w>
li c</w>
lan ding</w>
l er</w>
kno w
ki ds</w>
k inh</w>
immigr ation</w>
il ing</w>
i er</w>
họp_ báo</w>
hình_ thành</w>
huyết_ tương</w>
hoá_ học</w>
hiện_đ ại</w>
hel ps</w>
h ứ
h ơn_nữa</w>
h è</w>
h ep
gre en</w>
gr ams</w>
giới_ tính</w>
g ree</w>
fri end
form ation</w>
extrem ely</w>
expl ained</w>
ex posed</w>
ex clu
er ate</w>
eas ed</w>
dặ m</w>
di e</w>
des tro
de gree</w>
de al
d ị_
d ã
cơ _s
cust oms</w>
concer ned</w>
col labor
co -
chủ_ đề</w>
chron ic</w>
carri ers</w>
c_ bỏ</w>
c ăn</w>
c overed</w>
bá c_bỏ</w>
bud get</w>
b ạch_
attac ks</w>
at mosph
allow s</w>
adverti sing</w>
add ress</w>
ad v
ad op
a head</w>
Y a
Victor ia</w>
U V</w>
Thuỵ_S ĩ</w>
Tha ng</w>
Th ượng_
Ten ma</w>
T ĩnh</w>
Pakist ani</w>
Ni nh_
Net work</w>
N ước</w>
N oi</w>
N ic
Mar ket</w>
M ore
M ay
Lan ka</w>
La o_động</w>
L t
L ad
L G
LG BT</w>
Hai y
H ome</w>
H a
Giá m_đốc_điều_hành</w>
E p
Chi ế
Ch uy
C ổ_
C ao</w>
Byte Dance</w>
Bus iness</w>
B ec
Ar ab
5 0.000</w>
3 .000</w>
2 10</w>
1. 5</w>
1 -
/ 7</w>
ỷ_l ục</w>
ứng_c ử_viên</w>
ộ_ chiếu</w>
ọ ng_
ạ ng_
́ p</w>
động_ sản</w>
độc_ lập</w>
đ ạp</w>
Đ ầu_
Đ ược</w>
ăng_t ay</w>
y_ L
wild life</w>
wi de
wal k</w>
w ed</w>
vu ông</w>
v ỡ</w>
v òng_
ur gent</w>
tỷ_ phú</w>
tụ_ họp</w>
tá ch</w>
typ ically</w>
tu ý</w>
tu m
trợ _
trầm_ cảm</w>
travel ing</w>
trac king</w>
tic kets</w>
thu ỷ_
thro at</w>
t ấm</w>
t ning</w>
sụt_ giảm</w>
suy_ giảm</w>
suff er</w>
stu died</w>
str ess</w>
stand ards</w>
stan ces</w>
st on</w>
st ep
st ations</w>
soci ety</w>
sk il
sim ple</w>
s àng_lọc</w>
s ting</w>
s anc
rượ u_
riê ng_t
riêng_t ư</w>
regi onal</w>
recogni tion</w>
re r</w>
quy ển</w>
quarantin ing</w>
phỏng_ vấn</w>
p_ học</w>
our self</w>
o es</w>
nói_ chuyện</w>
nu tri
ngộ_ độc</w>
nguyên_ liệu</w>
ng ũ</w>
ng on</w>
ne ar
near by</w>
n ộp</w>
n é
mean ing</w>
manag er</w>
maj ority</w>
m ảnh</w>
m àu_
m ay
là nh_
logi sts</w>
lo ved</w>
lea ves</w>
l ây</w>
l y_
kích_ hoạt</w>
kinh_ nghiệm</w>
jo in</w>
it self</w>
in depen
implem ented</w>
i on
hết_ sức</w>
ho àng_
happ y</w>
happ en</w>
h ối_
gr anted</w>
gener ally</w>
gene tic</w>
g ắn</w>
g old</w>
fre edom</w>
fig ures</w>
f low</w>
em ail</w>
el d</w>
ear thqu
e th
dri ver</w>
drag on</w>
deploy ed</w>
dem onstr
dec ide</w>
de fin
công_ nghệ_
cont ain
consequ ences</w>
commer ce</w>
chỉ_ định</w>
ch at
ch am
ch ai</w>
c ann
bậ c</w>
bất_ động_sản</w>
bí_ mật</w>
biểu_ diễn</w>
bassa dor</w>
at tract</w>
app ly</w>
an ci
ag s</w>
a id</w>
_tr ang</w>
_s ản</w>
Wal es</w>
Tu ấn</w>
To àn_
T ờ</w>
T ùng</w>
T ay
Sân_ bay</w>
R u
Qu ản_lý</w>
P i
Ngh e</w>
M r.</w>
M V</w>
Lombar dy</w>
L ệnh</w>
J ord
Hà_ Tĩnh</w>
Ho p
Ho i</w>
Emb assy</w>
D oc
Chair man</w>
Ch ỉ_
C ử
C ro
C hay</w>
C O</w>
Bang lad
An dre
A S</w>
8 9</w>
20 22</w>
20 ,000</w>
1 30</w>
ữ a_
ổ_th ông</w>
ẫ y</w>
Ả _R
đối_ xử</w>
đối_ thủ</w>
đến_ nơi</w>
Đ ình_
Đ o
ê ng</w>
à m</w>
y ourself</w>
y le</w>
y al</w>
xe_ máy</w>
x y
x in
wil d</w>
wai ting</w>
v oi</w>
v ay</w>
tác_ dụng</w>
trò _
trái_ phép</w>
trái_ cây</w>
tro pical</w>
tranh_ cãi</w>
trad ing</w>
to à_án</w>
to m</w>
tiế ng_
ti ên_
ti l
thu ật_
thu ận_
tham_ quan</w>
targ et</w>
t ất</w>
t o_
sur face</w>
sur ance</w>
sugg ests</w>
stric tly</w>
stre et</w>
spokes man</w>
sit u
si mp
ser iously</w>
se ized</w>
s ư
s la
s -
requi res</w>
ren tly</w>
ras truc
ran king</w>
quyề n_lực</w>
purch ase</w>
prof essor</w>
produc ing</w>
prepa red</w>
pregn ancy</w>
pre -
por k</w>
plas ma</w>
phạm_ vi</w>
phân_ b
phát_ ngôn_viên</w>
ph ân</w>
p son</w>
opport unity</w>
o ffered</w>
no te</w>
nhận_ dạng</w>
nh ánh</w>
nguy_ kịch</w>
ng ợi</w>
ng ân_sách</w>
net works</w>
n ấu</w>
mu si
moder n</w>
mo d
ma_ tuý</w>
lớ p_học</w>
lắp_ đặt</w>
lưu_tr ữ</w>
lu ngs</w>
low est</w>
loo ks</w>
logi st</w>
liên_ kết</w>
li ved</w>
l ối</w>
l àn_sóng</w>
l ay
kh ối</w>
k o</w>
inst ance</w>
inf rastruc
in no
immedi ate</w>
i P
họ ng</w>
hea vi
giả ng_
gener ation</w>
g eo
fic i
fav or
fal se</w>
f ying</w>
f ed
enti ally</w>
ent ation</w>
ent al</w>
el low</w>
ec a</w>
dị_ ứng</w>
dân_ t
dân_ cư</w>
dra w</w>
di v
destin ation</w>
der ing</w>
dam aged</w>
d iệt</w>
cổ_ đông</w>
căn_ hộ</w>
có _lẽ</w>
consu mption</w>
col lea
co ckro
clu ster</w>
chuyể n_đổi</w>
bệnh_ tật</w>
báo_ chí</w>
bur ning</w>
break ing</w>
bl ing</w>
b ought</w>
ass ets</w>
arri vals</w>
ar a</w>
am ed</w>
alleg ed</w>
al ter
al one</w>
ai m</w>
a e</w>
Vill age</w>
V ĩnh_
Tu ng</w>
Th ái</w>
Tex as</w>
Swit zer
Spr atly</w>
Scienti sts</w>
Pha se</w>
Ph ương</w>
P lus</w>
No t</w>
Nam_ Phi</w>
N atural</w>
Mad rid</w>
M ob
M e</w>
M au</w>
L âm</w>
In c
I T</w>
HC V</w>
G am
F our</w>
F l
E m</w>
Def ense</w>
D ata</w>
Comm unic
Bình_ Thuận</w>
Bi en</w>
Be fore</w>
B ắt_
B à_
B ill
B en</w>
B ab
Arab ia</w>
Ar g
A h
A P
9 0%</w>
7 0%</w>
5 -
200 ,000</w>
15 .
15 ,000</w>
10 .000</w>
’ m</w>
ới_ đây</w>
ắng_ nóng</w>
ật_ sự</w>
ấp_ dẫn</w>
độ ng_thái</w>
đồng_t ính</w>
đố c</w>
đạo_ diễn</w>
đu ổi</w>
đ ai</w>
Đông_ Anh</w>
ù i_
zer o</w>
z hou</w>
yêu_ sách</w>
y_L ạp</w>
xe_ đạp</w>
wide ly</w>
w ind</w>
vật_ lý</w>
vũ_ khí</w>
viol ations</w>
un known</w>
um s</w>
u_ Long</w>
u ed</w>
tấn_ xã</w>
tài_ xế</w>
trừ ng_
transp or
tral ized</w>
tr ains</w>
tox ic</w>
tiệ c</w>
tiền_ mặt</w>
tiêu_ cực</w>
thống_ kê</w>
thi_ đấu</w>
ther lands</w>
thanh _l
th ú</w>
th y</w>
territ ory</w>
te en
t ự
t ally</w>
sự_ nghiệp</w>
số ng_
sống_ sót</w>
sur roun
subsequ ently</w>
sub si
sub ject</w>
su e</w>
streng th</w>
str essed</w>
step s</w>
st om
spokes person</w>
sk i</w>
sinh_ thái</w>
sig n
ser ving</w>
sensi tive</w>
sco red</w>
s ale</w>
run ning</w>
ru le</w>
rou te</w>
restaur ant</w>
ren ces</w>
re di
ra u
r ét</w>
r on</w>
r an</w>
provi des</w>
pro tests</w>
prepar ing</w>
pre cau
pre ad</w>
power ful</w>
phá n_
phiên_ toà</w>
ph ổ_thông</w>
or ial</w>
o t</w>
nổi_ bật</w>
ni ngs</w>
nhạ y_
nhân_ vật</w>
ngày_ nay</w>
ngo ài_
ng ưỡng</w>
ng ón</w>
n_t ính</w>
n y</w>
mẫ u_
mu ộn</w>
motor bi
mil k</w>
mi nh_
messa ge</w>
me als</w>
mak ers</w>
m illenni
lo se</w>
ligh tning</w>
li nh_
l ính</w>
l iệu_pháp</w>
l es
l ars</w>
kỳ _
kết_ luận</w>
ki ngs</w>
k ỷ_lục</w>
k ế_
k èm</w>
k illing</w>
iển_ Đông</w>
isol ate</w>
im age</w>
i ding</w>
hạ t_
hôn_ nhân</w>
hành_ đoàn</w>
huy ết</w>
hiệ u_
hear d</w>
h ấp_dẫn</w>
glo ves</w>
giảm_ giá</w>
gi on</w>
gi an
g ation</w>
fun ds</w>
fun d</w>
fl ying</w>
fin ding</w>
fig ure</w>
estim ates</w>
es ter</w>
es el</w>
es _
enti ve</w>
enjo y</w>
encour age</w>
en for
en cing</w>
emb assy</w>
elec tion</w>
e ding</w>
dol lars</w>
doanh_ số</w>
direc ted</w>
di tionally</w>
dec reas
dec ade</w>
d y
custom er</w>
cul ture</w>
cu m
cu lo
contr act</w>
cont ent</w>
cont am
cont aining</w>
compl ex</w>
com mon
clu b</w>
clo thing</w>
chu ột</w>
chat bo
ch ol
c ử_
c ố
c ắp</w>
c ậy</w>
bảo_ tồn</w>
bour ne</w>
bo ats</w>
beau ti
b inh</w>
au th
ati vely</w>
ati tis</w>
ath on</w>
as ter</w>
as ser
apar tment</w>
alle y</w>
ac ad
a k</w>
_s ở_hữu</w>
_l ập</w>
_ch iến</w>
Uni on</w>
U y</w>
U l
U N</w>
Tr in
Tha o</w>
Th ời_
T ình_
T C</w>
Switzer land</w>
RO N
R E
Qu y</w>
Phụ _nữ</w>
Ph úc_
Nguyễn_ Thị_
Nguy ễn</w>
Ne therlands</w>
Na_ Uy</w>
N .</w>
Medic ine</w>
ME RS</w>
M ỗi</w>
M ười</w>
Liên_ minh</w>
Kh ông_
In iti
Hội_ đồng</w>
Har v
H y_Lạp</w>
Foun dation</w>
F oo
Environ ment</w>
Em ir
Cử u_Long</w>
Có _thể</w>
Comm un
Com mission</w>
Châu_ Á</w>
Chiế c</w>
Ch ị</w>
Bắt_ đầu</w>
Bắc_ Ninh</w>
Budd ha</w>
B iển_Đông</w>
Ac ad
A BC</w>
8 1</w>
6 0
6 ,000</w>
2 2
198 2</w>
10 0,000</w>
1, 0
1 2,
ứng_ phó</w>
ỡ i</w>
ả m</w>
ả _
ạ _
ương_ vị</w>
đặc_ điểm</w>
đò i_
đòi_ hỏi</w>
đánh_ bại</w>
điệ p</w>
Đ ă
ôi_ sao</w>
ên_ góp</w>
you nger</w>
x ăng</w>
work er</w>
wea k
w estern</w>
w are</w>
vis its</w>
v ững</w>
tập_ trận</w>
tìm_ hiểu</w>
trừng_ phạt</w>
trình_ diễn</w>
tre pre
trepre ne
trans actions</w>
tra in</w>
tr ou
tr ack</w>
tournam ent</w>
tin_ cậy</w>
tic le</w>
ti êm_
thương_ mại_
therap y</w>
th ủ_tướng</w>
th ả</w>
th ư_
ten d</w>
techno logies</w>
tea ching</w>
t an
sâu_ sắc</w>
surg ery</w>
success fully</w>
sub st
sub jects</w>
sp ending</w>
simp ly</w>
sha re
share hol
sh el
separ ate</w>
se o</w>
se at</w>
s low
s core</w>
ri ch</w>
resul ted</w>
regar ding</w>
rec ru
rea ching</w>
re p
re open</w>
ra il
quy ên_góp</w>
qu ản</w>
qu e
pu tting</w>
proper ty</w>
pic ture</w>
phi_ hành_đoàn</w>
ph en
over all</w>
oce an</w>
oc r
nhạy_ cảm</w>
nh_ dưỡng</w>
người_ lớn</w>
ngoài_ trời</w>
nghỉ_ dưỡng</w>
n ới</w>
n ạ</w>
mặt_ nạ</w>
mặt_ hàng</w>
mạng_ lưới</w>
messa ges</w>
lis ted</w>
l ũ</w>
l om
ki m</w>
khủng_ bố</w>
khá ng_sinh</w>
kh ử</w>
k ẹt</w>
is on</w>
injur ies</w>
initi ally</w>
infrastruc ture</w>
import ance</w>
ic on</w>
i nh
hối_ lộ</w>
hải_ quan</w>
hàng_ hải</w>
hy giene</w>
hot spot</w>
ho ả</w>
ho o</w>
hi o</w>
gro wn</w>
govern mental</w>
gh t
g à</w>
g ets</w>
g ain</w>
fun ding</w>
foun der</w>
ev es</w>
est ate</w>
enter pris
en ting</w>
emb ly</w>
el se</w>
dre ams</w>
dou b
dom in
doanh_ nhân</w>
dis hes</w>
di phtheria</w>
di nh_dưỡng</w>
det ained</w>
decis ions</w>
cô _lập</w>
cuộc_ đời</w>
crimin al</w>
coo king</w>
consum er</w>
consid ering</w>
con c
coas tal</w>
ci l</w>
chủ _sở_hữu</w>
chế_ biến</w>
chấ n_thương</w>
challe nge</w>
ch ữa_
ch àng</w>
ceremon y</w>
c ell</w>
bỏ_ phiếu</w>
bản_ đồ</w>
bo at</w>
biểu_ hiện</w>
biế n_
behavi ors</w>
b lo
attrac ted</w>
as _
ar tificial</w>
am e
al led</w>
al ert</w>
air e</w>
ag os</w>
accoun ting</w>
ab in
_th ích</w>
Vi rus</w>
VO A</w>
V ũng_
V o
V al
Tr ước_
To yo
Thom pson</w>
T ú</w>
T y
T or
T am</w>
T H
St atistics</w>
San ta</w>
S wift</w>
S ar
R ural</w>
R T
R I</w>
Qu ân_
Phú_ Quốc</w>
P hi
O ise</w>
O hio</w>
N ội</w>
N C
Lu x
L oi</w>
Kh u_vực</w>
K yo</w>
Ira q</w>
In ves
IO C</w>
Hải_ quân</w>
Hop kins</w>
Ho á</w>
Harv ard</w>
H ô
H ang
Fr an
Ep id
E mer
E g
Brit ney</w>
Bo eing</w>
Bet ween</w>
Banglad esh</w>
B ằng</w>
B ak
B a_
Au ck
Arg enti
9 6</w>
4 .000</w>
3 70</w>
3 0,000</w>
10 ,
ợ i_
ị_ định</w>
ể_ dục</w>
ặ p_
ải_th iều</w>
ươ n</w>
đồng_ hồ</w>
đường_ phố</w>
đôi_ khi</w>
đ ấy</w>
Đ ầu</w>
Đ ường_
ý_ kiến</w>
xâm_ nhập</w>
x óm</w>
win ds</w>
wid es
wides pread</w>
we d
vật_ liệu</w>
vô_ cùng</w>
vi- rút</w>
val ues</w>
v ess
vess els</w>
tậ p_th
tập_th ể_dục</w>
tương_ ứng</w>
trừ _s
trừ_s âu</w>
trò_ chuyện</w>
treat ments</w>
trans mitted</w>
tra Z
traZ en
traZen eca</w>
tr ôi</w>
to ward</w>
tiệ m</w>
tiếp_ viên</w>
ti s
thuốc_ trừ_sâu</w>
thanh_l ong</w>
th iết</w>
t led</w>
t -
sốt_ rét</w>
sản_ lượng</w>
suy_ nghĩ</w>
susp ects</w>
sugg es
st ood</w>
st ers</w>
st em</w>
st ability</w>
smart phone</w>
sent enced</w>
se y</w>
se ems</w>
scre en</w>
sco res</w>
scienti fic</w>
scen e</w>
sam ple</w>
s ắc_
res sed</w>
require ments</w>
repor ters</w>
recogni zed</w>
re ment</w>
r are</w>
r am
r al</w>
quá_ cảnh</w>
ques tion</w>
qu ản_
qu es</w>
pro tes
pris on</w>
pre h
pr in
poin ted</w>
phối_ hợp</w>
phân_ loại</w>
phán_ quyết</w>
photo s</w>
p ig
p age</w>
on to</w>
offic ially</w>
nấu_ ăn</w>
nitr ate</w>
nh_ph úc</w>
neighb ors</w>
n_đo ạn</w>
n_ bộ</w>
n ắng_nóng</w>
n ướng</w>
mom ent</w>
may_ mặc</w>
mater ial</w>
mark eting</w>
m_ mạch</w>
m ật_
m igr
lo ad</w>
liên_ bang</w>
li ance</w>
l ái</w>
kích_th ích</w>
khuôn_ mặt</w>
kh úc</w>
iế ng</w>
it ems</w>
it ch
introduc ed</w>
insec ts</w>
influ ence</w>
impl ement</w>
id a</w>
ic a</w>
i e</w>
hợp_ quốc</w>
hội_ chứng</w>
hạ nh_phúc</w>
hình_ thức</w>
hoá _chất</w>
house holds</w>
ha m</w>
gó p_
gu il
gr and
giá n_đoạn</w>
gi cal</w>
gi am_
gh ế</w>
gen e</w>
frequ ency</w>
f ts</w>
f ines</w>
ey es</w>
er on</w>
ec o
eas y</w>
ear ned</w>
e k</w>
e at
dã _chiến</w>
doz ens</w>
dou ble</w>
docu ment</w>
dis mis
diffe rence</w>
diagno sis</w>
des ign</w>
deli very</w>
d ỡ</w>
d ày</w>
d ated</w>
cấp_ tính</w>
công_ suất</w>
cân_ nhắc</w>
culo sis</w>
cryp to
coun ter
contrac ts</w>
common ly</w>
co ach</w>
choo se</w>
chiế u_
challe nges</w>
ch e</w>
cao_ tốc</w>
candi dates</w>
cam p</w>
c ân</w>
broad cast</w>
ber culosis</w>
beauti ful</w>
b i</w>
b ars</w>
atten ded</w>
atmosph ere</w>
as king</w>
anit arian</w>
anc es
agric ulture</w>
aff ecting</w>
ad ministr
ad ap
acqu ire</w>
ac le</w>
Z i
Y ên</w>
Wh ite</w>
W T
Vũng_ Tàu</w>
V en
Trái_ đất</w>
Thu ỷ_
The ir</w>
Ten cent</w>
T au</w>
Swe den</w>
Ser vice</w>
S us
R ị
Pro ject</w>
OP EC</w>
Nh ư</w>
Mus k</w>
Mel bourne</w>
Liên_ hợp_quốc</w>
L ister</w>
Kh í
In v
I P
Hội_ An</w>
Hải_ Phòng</w>
Hy e_
Hy e</w>
H e
Guine a</w>
G h
G ates</w>
F u
F lor
Di en</w>
D ue</w>
D ang</w>
Commun ist</w>
C ần_
C o</w>
Bắc_ Triều_Tiên</w>
Bambo o_
B ill</w>
B ay</w>
Auck land</w>
Ass embly</w>
As traZeneca</w>
Ar ound</w>
Angel es</w>
Ab out</w>
A wards</w>
A nh_
9 7</w>
9 00</w>
4 50</w>
3 rd</w>
2 43</w>
' ve</w>
ối_ loạn</w>
ậ u_
ầu_ như</w>
ần_ suất</w>
độ _
đo àn_
đ ỉnh</w>
Đ ồ
Đ ặc_
ù_ vậy</w>
ã i_
Á .</w>
xác_ minh</w>
xy chloroquine</w>
x á</w>
we igh
wat er
was hing</w>
vô_ địch</w>
ven ess</w>
vehic le</w>
ve red</w>
v ọt</w>
v ải_thiều</w>
v ô_t
v ap
tổng_ hợp</w>
tổ n_th
tổn_th ất</w>
tối_ đa</w>
tru e</w>
trav ellers</w>
trans fer</w>
traffic king</w>
tr ưng</w>
tr ăng</w>
tr ust</w>
tr igg
toàn_ diện</w>
thực_ thi</w>
thẩm_ quyền</w>
thương_mại_ điện_tử</w>
thành_ph ần</w>
thuy ền</w>
th ật_sự</w>
th ượng_
th í
th iểu_
t án</w>
t ài</w>
sân_ vận_động</w>
su ffici
startu p</w>
spe ech</w>
sp ring</w>
sm aller</w>
sk y</w>
see ing</w>
sec tion</w>
sa ve</w>
s ợi</w>
s òng</w>
s low</w>
s ity</w>
s ea
s .</w>
rượu_ vang</w>
repor ting</w>
recomm end
re ti
re d
rail way</w>
qu ê</w>
prot ected</w>
promo te</w>
prohi b
pro per</w>
post -
pollu ted</w>
play ing</w>
plat forms</w>
pig s</w>
pi on
part ner</w>
part ments</w>
par ties</w>
par ks</w>
pack age</w>
p in</w>
p esti
ox y</w>
orm one</w>
organiz ed</w>
or g
oper ated</w>
op in
om in
occur s</w>
nur ses</w>
nhất_ là</w>
người_ phát_ngôn</w>
nghệ _sĩ</w>
nghiệ t</w>
n ợ</w>
n ở</w>
n ic</w>
n al
mosqu it
mo di
m ét_
m ong</w>
m iếng</w>
m ir
lớn_ tuổi</w>
lành_ mạnh</w>
load ed</w>
ligh tly</w>
li a</w>
l ịch</w>
l ấp</w>
l iệt_
l ation</w>
ké o</w>
know ledge</w>
khởi_ hành</w>
khắc_ nghiệt</w>
keep ing</w>
k ý_
k o
k a
jo ined</w>
inj ured</w>
in _
ij uana</w>
ic es</w>
i_th ường</w>
huy_ động</w>
hum anitarian</w>
hoo d</w>
ho àn</w>
hiệ p_
har m
h ộ_chiếu</w>
h ưu</w>
h ormone</w>
go als</w>
gi es</w>
g ăng_tay</w>
g las
fore sts</w>
flo or</w>
fin ally</w>
fact ories</w>
f ro
f ill</w>
f ears</w>
extrem e</w>
exp and</w>
ex tra</w>
ester day</w>
epid emio
employ ment</w>
electr ic</w>
ei gh
eg u</w>
educ ational</w>
ed ge</w>
ec o</w>
dr inking</w>
div or
di um</w>
detail s</w>
dea dly</w>
de par
d ents</w>
cả n</w>
công_ trình</w>
cri tici
cre ating</w>
cor por
com for
coll ect</w>
ci ting</w>
cen tralized</w>
celeb rate</w>
cao_ su</w>
c ục</w>
c ồn</w>
c ắn</w>
bụ i</w>
bất_ thường</w>
bạch_ hầu</w>
bàn_ giao</w>
bro ken</w>
bri ght</w>
bl ack</w>
biểu_t ượng</w>
bir th
benef its</w>
be at</w>
b ầu</w>
atten d</w>
ashi on</w>
ar chipel
am in</w>
aim s</w>
ag ement</w>
ad vis
ac tress</w>
ac ting</w>
ac cident</w>
ab and
_th iện</w>
_t ầng</w>
_t ượng_
Z ha
X ã_hội</w>
V ung</w>
U p
Tr ị</w>
Thu y</w>
T W</w>
Số _lượng</w>
St ation</w>
Sil icon</w>
Sain t</w>
S hi
S a_
Quảng_ Trị</w>
Pro f
P ep
Olymp ics</w>
O s</w>
O per
Nor way</w>
Nh i</w>
Ng ành</w>
N oul</w>
Mil itary</w>
Micha el</w>
M ặt_
L im
L ai_
Ki en</w>
Khánh_ Hoà</w>
Kh ánh</w>
Inv estig
Indus trial</w>
I II</w>
Hàng_ không</w>
Ho àn_
H ạ_
H ôm</w>
F al
EC MO</w>
Dịch_ bệnh</w>
Da egu</w>
D on
D em
D ak
Col lege</w>
C ũng</w>
C ái</w>
C u</w>
C ri
C B
Bar ley</w>
Bamboo_ Airways</w>
B áo</w>
B l
B ased</w>
Acad emy</w>
9 ,000</w>
3. 5</w>
199 8</w>
199 5</w>
1 20</w>
1 1,
ố m</w>
ần_ lượt</w>
Ả_R ập_
ạ _tầng</w>
ược_ lại</w>
ĩ a</w>
động_ viên</w>
đánh_ bắt</w>
đ ài</w>
Đă k_
Đ ất_
ó c_
z a</w>
y ond</w>
wor sen
wor se</w>
vừa_ qua</w>
vu i</w>
vu a</w>
viol ating</w>
venti ons</w>
van ia</w>
v ec
uỷ_ ban</w>
un usual</w>
un able</w>
u t</w>
u nh
tự_ tin</w>
từ _thiện</w>
tức_ là</w>
trợ _lý</w>
trái_ tim</w>
treprene ur
tiểu_ bang</w>
tiếp_th ị</w>
tiêm_ chủng</w>
thứ_ sáu</w>
thông_ điệp</w>
thu_ hoạch</w>
th io
th es</w>
ten s</w>
te ens</w>
t úi</w>
t we
t s
t om
sy l
syl vania</w>
surroun ding</w>
sugg est</w>
storm s</w>
st ake</w>
st adi
spo ke</w>
smart phones</w>
sinh_ mạng</w>
sho t</w>
sev elt</w>
sen se</w>
sec tors</w>
se em</w>
s trict</w>
s eve
s ati
rum ors</w>
ru sh
ro ads</w>
ri ch
resp ond</w>
resi ding</w>
requ iring</w>
rea u</w>
re move</w>
re action</w>
r ati
quan_ ngại</w>
pur poses</w>
prog ress</w>
produc er</w>
prev entive</w>
pre ci
pers ons</w>
per man
per form</w>
pa tho
oo sevelt</w>
nước_ ngọt</w>
năng_ lực</w>
norm ally</w>
no w
nhân_ đạo</w>
nh ảy</w>
ng ôi_sao</w>
ng -
n_th u
n sylvania</w>
n ames</w>
n -
màu_ sắc</w>
muố i</w>
mosquit oes</w>
mon ium</w>
mod els</w>
mis sing</w>
mar ijuana</w>
mar i
manufacture rs</w>
m_ d
m ới_đây</w>
m ỏi</w>
m ây</w>
lu ́c</w>
lit er
li am
le gi
l ần_lượt</w>
kích_th ước</w>
khởi_ nghiệp</w>
khả _thi</w>
khá ng_
kh ung</w>
k ích</w>
k ill</w>
influ enz
in sp
in k
im ag
ic als</w>
hạn_ h
hạn_h án</w>
hình_ sự</w>
ho pes</w>
hi m
har v
h òn</w>
góp_ phần</w>
gu ard</w>
grad ually</w>
gi ấu</w>
gather ing</w>
gar ment</w>
g lobally</w>
g in
func tion</w>
frequ ently</w>
fed eral</w>
fe et</w>
f ine</w>
f ail</w>
experi encing</w>
exper im
eu tical</w>
eth nic</w>
et es</w>
em is
el e
ealth y</w>
e .
du ̣ng</w>
du ̀</w>
du ty</w>
do ses</w>
dic tion</w>
depen ding</w>
deli vered</w>
del ay
dec line</w>
d ính</w>
cụ m</w>
cầ m</w>
cấp_ độ</w>
cá n_bộ</w>
cu tting</w>
cu ts</w>
cor rec
comb at</w>
clo sing</w>
cl ou
chữa_ trị</w>
chu ng_
chiếu_ phim</w>
chec ks</w>
ch ữ</w>
ch ị_
care er</w>
cancel ed</w>
c c
bệnh_ dịch</w>
br an
boo ks</w>
be ef</w>
b lock</w>
b ad
ashi mi</w>
ar ch
anti bio
al g
ad equ
achi ev
ac tor</w>
ac cor
a wa
a h</w>
_ Princess</w>
Ya hoo</w>
X -
W estern</w>
Vin as
Vietnam Plus</w>
V ề</w>
V eg
V N</w>
Uỷ_ ban_
UN ES
UNES CO</w>
Turk ish</w>
Tra ng_
Thu a</w>
Thanh_ Hoá</w>
Th ắng</w>
T NH
TNH H</w>
S im
Res ources</w>
R y
Qu ang_
Pl ay</w>
Phu oc</w>
Ph an_
Pen nsylvania</w>
Pe ace</w>
Par t
P or
Nội_ Bài</w>
Ngh ệ_
Man ch
Malay sian</w>
M ur
M ol
L ực_lượng</w>
J et
Inves tment</w>
Hond a</w>
Go o</w>
F un
F er
F DA</w>
E ver
E v
E P
Dru g</w>
Direc tor</w>
Da vi
Co ca</w>
Ci vil</w>
Champ ion
Bảo_ tàng</w>
Bo ston</w>
B order</w>
B ig
2, 5</w>
2 8
1. 0
1 24</w>
' ll</w>
ở_h ạ_tầng</w>
ọ n_
ệt_ mỏi</w>
ền_ vững</w>
ẻ_ mạnh</w>
ượ t_
ưở ng_th
đường_ băng</w>
đá p</w>
đ ừng</w>
đ ông_
đ ãi</w>
Đồ ng_thời</w>
ô -
í n</w>
á p_th
àu_ có</w>
  này</w>
y_ học</w>
y ên</w>
y esterday</w>
x ây</w>
x ed</w>
wa ves</w>
w on
vui_ vẻ</w>
ver se</w>
ven ue</w>
uy ền</w>
uni que</w>
under lying</w>
ul a</w>
tốt_ đẹp</w>
tương_t ác</w>
tăng_ giá</w>
trí_ nhớ</w>
trình_ độ</w>
truy _t
tre o</w>
trang_ trí</w>
tr ực</w>
tr ục_
to p
tiểu_ đường</w>
tin_t ưởng</w>
thể _chất</w>
thương_ nhân</w>
thích_ hợp</w>
thuận_ lợi</w>
th ly</w>
t ab
sá nh</w>
suy_ yếu</w>
susp ect</w>
survi ve</w>
super markets</w>
suffici ent</w>
su s</w>
struc k</w>
stro ngly</w>
strate gy</w>
sk y
sinh_ vật</w>
si t</w>
short ness</w>
shi ft</w>
sc and
sati s
s si
s o_
ru ral</w>
ru led</w>
ris en</w>
res cu
rel atives</w>
re place</w>
re plac
re member</w>
ra inf
ra di
r ối_loạn</w>
quá _kh
qu ét</w>
qu ite</w>
qu ali
pu r</w>
pro to
pro bab
pri mary</w>
pres ence</w>
prec ed
plan es</w>
pi g</w>
phá _
phen om
phenom en
pas s</w>
p ag
origin ated</w>
or gan</w>
oper ates</w>
on a</w>
oc cas
nu clear</w>
non- essential</w>
no ti
no se</w>
ng ọn</w>
n_th ể</w>
n it
n es
n d</w>
mari time</w>
m_d ứt</w>
m ực</w>
m ắc_
m ùi</w>
m ur
lý_ học</w>
long ed</w>
liệt_ kê</w>
la u</w>
la b</w>
l ou
kho ẻ_mạnh</w>
khai_ báo</w>
iề n_
iế m</w>
it ting</w>
it i</w>
it ation</w>
is _
investig ate</w>
institu tions</w>
infor med</w>
increas ingly</w>
increas es</w>
in e_
imp acted</w>
im bab
ill er</w>
i_l òng</w>
i ve</w>
hữu_ ích</w>
hàng_ xóm</w>
huyết_ áp</w>
ho an_
hiệ p</w>
him self</w>
hep atitis</w>
harm ful</w>
ha m
h ồng</w>
h ầu_như</w>
h ương_vị</w>
h anded</w>
gi àu_có</w>
gi u
ga ther</w>
g ol
g er</w>
friend ly</w>
fici ency</w>
ff s</w>
fer ti
fall s</w>
f esti
ex cee
ex ams</w>
equi val
ep tion</w>
en i
ell er</w>
eli min
diễn_ biến</w>
di_ truyền</w>
di_ sản</w>
descri bed</w>
de partments</w>
d ney</w>
d as</w>
cơ_s ở_hạ_tầng</w>
conclu ded</w>
chấ m_dứt</w>
chi_ trả</w>
chec k
ch ì</w>
ch áu</w>
certific ate</w>
cas ino</w>
c ược</w>
c overing</w>
c em
bụ ng</w>
bỏ_ qua</w>
bảo_ mật</w>
buôn_ người</w>
bor ne</w>
bo x</w>
bat ch</w>
b ồ
b lu
b attle</w>
ated ly</w>
ar ticle</w>
ap art</w>
anh_ch àng</w>
a ward</w>
a dian</w>
_tr ữ</w>
_s ư</w>
Z imbab
Văn_ phòng</w>
Vinas un</w>
Vacc ine</w>
V ắc-xin</w>
V is
Tài_ nguyên</w>
Tra vel</w>
Tr ắng</w>
Toyo ta</w>
Th ứ</w>
T C
Sy dney</w>
Sp ec
Sp ea
Si x</w>
S ản_
S pe
S an_
R ay</w>
Q atar</w>
Phòng_ ngừa</w>
Ph an</w>
Nghệ_ An</w>
Ng ọc</w>
Ng ô_
Ng ày_
Mo sk
M r
Lê_ Thị_
Li u</w>
J our
J SC</w>
Islam ic</w>
In formation</w>
Hy dro
Ho w</w>
Ho an</w>
Her at</w>
H am
Go o_
Gi ải_th
For ce</w>
Epid emio
Emer gency</w>
El ec
E thio
Dự_ báo</w>
D ù_vậy</w>
D r</w>
D at</w>
Cổ_ phần</w>
Cong o</w>
Comm unity</w>
Chủ_ Nhật</w>
Chỉ_ số</w>
Can adian</w>
C ách</w>
C ru
C re
Bà_ Rị
Ber lin</w>
Bec ause</w>
B ốn</w>
B ùi_
B ul
B an
B MS</w>
Argenti na</w>
Al ex
AI D</w>
AF C</w>
4. 0</w>
4 0%</w>
25 %</w>
1. 3</w>
. v
ữ ng_
ổi_ gen</w>
ồ n_lực</w>
ỉ_ đột</w>
ế ng</w>
ế ch</w>
ấ n_tượng</w>
́ i</w>
ưởng_th ức</w>
đánh_ bạc</w>
đ àn</w>
Đầu_ tư</w>
Đất_ nước</w>
Đại_ diện</w>
Đ ạt</w>
Đ ã</w>
ý _th
ñ a</w>
í nh_
z z
xu ân</w>
x ơ_
w illing</w>
văn_ bản</w>
vu ̣</w>
vi nh_
v ắc</w>
us et
u_ biết</w>
tổ_ tiên</w>
tác_ phẩm</w>
tu ỳ
trav elling</w>
trac ing</w>
tr ào</w>
tr end</w>
tr ained</w>
tiề n_t
tiến_ bộ</w>
ti m_mạch</w>
thuy ết_
thiểu_ số</w>
th ưởng_thức</w>
th ơm</w>
ter r
terr or
ta y_
t ận</w>
t ần_suất</w>
t ưởng</w>
t óc</w>
t àn_
t i</w>
t ari
sửa_ chữa</w>
sắp_ xếp</w>
subsi di
stan tly</w>
st a</w>
sol di
so li
sinh_ sống</w>
sib ly</w>
si der</w>
sh or
seve rely</w>
sa ch
sach uset
s ăn</w>
s ound</w>
s an</w>
s an
rup tion</w>
ru ns</w>
ro l
repe atedly</w>
rel atively</w>
ref used</w>
rec over</w>
re sts</w>
re mo
re fl
ra dio</w>
r òng</w>
quản_ trị</w>
quá_kh ứ</w>
quy_ tắc</w>
quar ters</w>
qu oted</w>
protes ters</w>
promis ed</w>
professi on
preven ting</w>
pot entially</w>
pol y
po sing</w>
pl ying</w>
pl ays</w>
ph a</w>
part nership</w>
pa rent</w>
or al</w>
oo dy</w>
offic es</w>
offic er</w>
num erous</w>
nhi êu</w>
nh_m ì</w>
nh ã
ngu ồn_lực</w>
ngo ại</w>
ng ập</w>
ng ầm</w>
negoti ations</w>
ne es</w>
n_đ ổi_gen</w>
n ature</w>
mountain ous</w>
mil d</w>
mem ory</w>
mas sive</w>
mar ks</w>
m ệt_mỏi</w>
m ấy</w>
m àn</w>
m ol
m ature</w>
lập_ pháp</w>
lã i_
ly ch
lu cky</w>
lock chain</w>
li ên</w>
li ghts</w>
less ons</w>
lea ds</w>
law ful</w>
l le</w>
kỹ _sư</w>
kh ô
k y</w>
it a</w>
ish ment</w>
is hed</w>
inter ventions</w>
inten sive</w>
instruc tions</w>
in spec
in cid
im port</w>
ij i</w>
i_ m
i tion</w>
hứ a_h
hứa_h ẹn</w>
hạt_ nhân</w>
hôm_ qua</w>
ho sted</w>
hiể u_biết</w>
histor ical</w>
ha t
ha _
h ữu</w>
giấy_ tờ</w>
giảng_ dạy</w>
giá m_đốc_điều_hành</w>
giam_ giữ</w>
gia_ hạn</w>
gi ọng</w>
g ợi_
g ỗ</w>
g ối</w>
func tions</w>
finis hed</w>
fe eling</w>
fall en</w>
f rau
f et
eval u
establish ment</w>
escap e</w>
er ated</w>
equival ent</w>
enh ance</w>
en trepreneur
eg al</w>
eas tern</w>
e v</w>
e ffici
e ffic
e en</w>
du mp
do ws</w>
divor ce</w>
discus s</w>
di ngly</w>
di ab
diab etes</w>
determin ed</w>
decreas e</w>
declar ation</w>
de -
d ội</w>
d ầu_
cầu_ nguyện</w>
cầ m_
cảm_ ơn</w>
cá p</w>
curren cies</w>
cu p</w>
cri me</w>
con ver
con stantly</w>
commun ities</w>
comb ined</w>
com a</w>
clo thes</w>
cl ing</w>
cho ice</w>
ch âu</w>
ch ick
cam ps</w>
c_ ngủ</w>
c ú</w>
bình_ đẳng</w>
bài_ học</w>
be yond</w>
b ền_vững</w>
b ông</w>
b ird</w>
b illions</w>
b anning</w>
aut onom
atten ding</w>
as ing</w>
as cular</w>
ar r
ar med</w>
ar ity</w>
ap preci
any thing</w>
alo ng
ain able</w>
ag ers</w>
administr ative</w>
ad ds</w>
accor dance</w>
a po
_s ơ</w>
_h ơi</w>
Zimbab we</w>
Xu ân</w>
Vu ong</w>
VA B
VAB IO
VABIO T
VABIOT EC
VABIOTEC H</w>
V ân</w>
V ice</w>
V alley</w>
US AID</w>
Trước_ đây</w>
Tr ẻ</w>
Tr í_
To gether</w>
Thống_ kê</w>
Thế_vận_ hội</w>
Th ừa_
Th ảo</w>
Th en</w>
T ân</w>
T ám</w>
Star ting</w>
Se y
S ports</w>
S mith</w>
R ail
R I
Q om</w>
Pro duc
Pas te
P eter</w>
P eter
Offic ials</w>
Oce an</w>
Ni ña</w>
N ữ</w>
N ong</w>
Mus eum</w>
Mas sachuset
M ai_
L ou
L ater</w>
L ang</w>
J in
Inc .</w>
H ương</w>
H iện</w>
H ear
H A</w>
Giải_th ưởng</w>
Gi ờ</w>
Flor ida</w>
F orm
F iji</w>
Econom ic</w>
E very</w>
E r
Del hi</w>
D ữ_liệu</w>
Công_ cộng</w>
Ch u</w>
C ong</w>
C I
B M</w>
Author ity</w>
A y
8 7</w>
8 ,000</w>
4 th</w>
26 2</w>
200 2</w>
199 9</w>
199 4</w>
198 8</w>
197 4</w>
1. 2</w>
1 40</w>
1 1.
00 0-
/ 3</w>
ứ ng_t
ộ t_
ị p_th
ịp_th ời</w>
ệ_ tinh</w>
ề_ nghiệp</w>
ẳ n</w>
Ấ n</w>
ải_ mái</w>
ạ ng_thái</w>
ưở ng_t
ưởng_t ượng</w>
ư a_
định_ vị</w>
đặc_ trưng</w>
đẩ y_
đá o</w>
đá m_
đ án</w>
Đồng_ Nai</w>
Đại_ sứ</w>
Đ ồng</w>
ình_ph ạt</w>
é c</w>
x i</w>
worri ed</w>
wh ere
we red</w>
vi ation</w>
v ị
v ệ_tinh</w>
v it
uy ết</w>
us eful</w>
up coming</w>
un preced
unpreced ented</w>
ul t</w>
ud e</w>
tố i_th
tâm_ lý_học</w>
tu de</w>
tu berculosis</w>
trung_ học_
truc k</w>
travel ers</w>
transp a
tr ash</w>
thời_ trang</w>
thảm_ hoạ</w>
thú_ vị</w>
thuyết_ phục</w>
thu ỷ</w>
tho ải_mái</w>
the refore</w>
the red</w>
th ẳng</w>
th ắt</w>
th ần_
th ạo</w>
techni ques</w>
tal ks</w>
t ắm</w>
t ả</w>
t ưởng_tượng</w>
t y
t ants</w>
t ant</w>
t ag
sửa_ đổi</w>
sy mp
symp tom</w>
sur gical</w>
suppor ting</w>
spea king</w>
sp ac
sou ght</w>
sol ar</w>
so_ sánh</w>
skil led</w>
si x
shu t
sho ck</w>
se es</w>
scienti st</w>
sanc tions</w>
sa u
sa _thải</w>
s ore</w>
s ession</w>
s cri
riê ng_
resul ting</w>
resu me</w>
resp ect</w>
res ol
recor ds</w>
recogni ze</w>
re y</w>
re placed</w>
re -
ra in
quá _tải</w>
quy ền_
quan_ chức_năng</w>
public ly</w>
pu s</w>
prohib ited</w>
professi onal</w>
probab ly</w>
presid ential</w>
preh ensive</w>
pp er</w>
phản_ hồi</w>
perform ing</w>
pas sing</w>
particip ants</w>
pack ages</w>
p ra
p m</w>
ov ers</w>
our g</w>
op tions</w>
no thing</w>
nhận_ diện</w>
ngh ề_nghiệp</w>
ng_l ũng</w>
ng ập_
new ly</w>
n as
mặt_ đất</w>
mắc_ kẹt</w>
mạ c</w>
mã n_tính</w>
máy_ tính_
mov es</w>
motorbi ke</w>
mon thly</w>
mel we
medi um</w>
mas sage</w>
man age</w>
lãi_ suất</w>
lã m</w>
ly_ hôn</w>
loo ked</w>
lom erate</w>
lo sing</w>
li qu
li e</w>
larg ely</w>
l ậu</w>
l í
l ap
k ịp_thời</w>
k new</w>
k it</w>
j i</w>
it age</w>
is ted</w>
inves ting</w>
inves ted</w>
inv est
invest ments</w>
inno v
influenz a</w>
indic ated</w>
im ages</w>
ik ach
ikach u</w>
if y</w>
hồ _sơ</w>
hậ u_
hy dr
hon or</w>
heavi ly</w>
happ ens</w>
guid ance</w>
gu es</w>
go es</w>
giá _
gi ờ_
gg s</w>
g ri
g ates</w>
fi red</w>
farm ing</w>
f low
f ashion</w>
f an
exp ec
exam ined</w>
ex change</w>
estab lish</w>
enterpris es</w>
en ty</w>
en s
en na</w>
emb ourg</w>
em melwe
ele ph
ear ning</w>
e- commerce</w>
e t_
e ggs</w>
du l
dr am
disc overy</w>
det ect</w>
der gar
dec lined</w>
d ây_
cố_ vấn</w>
cấp_ cứu</w>
cảm_ nhận</w>
công_nghệ_ cao</w>
cá _s
cá_s ấu</w>
cuộc_ gọi</w>
contribu te</w>
cont acted</w>
confir mation</w>
con ven
commit ted</w>
comm une</w>
clas si
claim ing</w>
cir cum
chem icals</w>
cao_ tuổi</w>
ca -
ca- Cola</w>
c tion</w>
bắ n</w>
bùng_ nổ</w>
bur gh</w>
biế t_
biế n_đổi_gen</w>
billion ai
be ds</w>
bas ic</w>
b ột</w>
b ỏng</w>
b éo</w>
b ác</w>
b y
b everage</w>
b ase</w>
b ags</w>
at ell
associ ation</w>
ash es</w>
appe ar
anci ent</w>
an ish</w>
adequ ate</w>
ac ked</w>
a ching</w>
_tr ùng</w>
_h ương</w>
_ch ịu</w>
_ H
World_ Cup</w>
Vin mart</w>
V ir
Tổ ng</w>
Tết_Nguyên_ đán</w>
Tr ưởng</w>
Tr ương_
Thái_ Bình</w>
T et</w>
T er
T em
Sto ck</w>
Sp anish</w>
Sou thern</w>
So phia</w>
Sh illa</w>
Sab eco</w>
S w
S ome
S om
S an</w>
S T
Re publi
R is
R ice</w>
R ia</w>
Ph il
P ikachu</w>
P S</w>
OS V</w>
Ninh_ Bình</w>
N ai
N a
Maur iti
Massachuset ts</w>
Mac au</w>
M a_
Lux embourg</w>
Lu ong</w>
Liên_ đoàn</w>
L ễ_hội</w>
L à</w>
L it
Ki em</w>
K yo
K y
K ing</w>
Joh n_
J P
In f
IC O</w>
Hồ ng</w>
H uyện</w>
H um
Gia_ đình</w>
Gal lu
Fed eration</w>
F il
F ar
E uro</w>
Dân_ chủ</w>
Doc tors</w>
D et
D es
D am
Cu ong</w>
Co ca-Cola</w>
Chi ến</w>
Chi ef</w>
Champion ship</w>
C am</w>
C D</w>
B ất_
B lo
A viation</w>
A er
A T</w>
A C</w>
9 -
8 0%</w>
6 .000</w>
3 -
200 1</w>
2 90</w>
198 9</w>
19 5</w>
10 0.000</w>
1. 8</w>
1 33</w>
1 22</w>
’ d</w>
ự _th
ữ_ dội</w>
ố c_
ỉ nh_
ệ _thống</w>
ậ n_tải</w>
ần_đ ảo_
̉ ng</w>
ĩ _quan</w>
đánh_ cá</w>
điều_ kh
điều_kh iển</w>
đa u_
Đ à_
Đà_ L
Đà_L ạt</w>
Đ iều_
ý_t úc_
ý_túc_ xá</w>
ù m</w>
ì n_
ì m_
ê n-
ê _hương</w>
á n_
á m_
Á o</w>
z ones</w>
z he
zhe im
zheim er</w>
y_ B
xét_ xử</w>
xâm_ phạm</w>
xe _hơi</w>
w o</w>
w anda</w>
w ake</w>
vật_ tư</w>
vật_ l
vô _trùng</w>
vòng_ loại</w>
vo ice</w>
ventilat or</w>
v ẽ</w>
v ương_
v o</w>
uy _th
uy_th o
uy_tho ái</w>
ur y</w>
up dated</w>
um bia</w>
u_tr ợ</w>
tối_th iểu</w>
tỉ _lệ</w>
tại_ chỗ</w>
tình_ yêu</w>
trục_ xuất</w>
trường_ chứng_khoán</w>
tru ng_th
trans plant</w>
trang_ trại</w>
trang_ bị</w>
tr ạng_thái</w>
tr ic</w>
tr ia</w>
tiề n_s
tiền_s ử</w>
tin y</w>
tic ket</w>
ti gh
thực_ hành</w>
thí _sinh</w>
threat ened</w>
tho ại</w>
th í_nghiệm</w>
th ái_
th inking</w>
th anh_th
th a
ten sions</w>
ten sion</w>
te eth</w>
t ack
sơ _
sw ine</w>
su res</w>
su d
strate gic</w>
sti c</w>
st oms</w>
spea k</w>
sn ake</w>
situ ations</w>
sev en
set ting</w>
serv ers</w>
ser ves</w>
sen ding</w>
s ĩ_quan</w>
s wer</w>
s ister</w>
s ets</w>
s cap
riêng_ biệt</w>
respon sibility</w>
read s</w>
re new
re cording</w>
rap id
rapid ly</w>
ra_ đời</w>
qu ê_hương</w>
pur pose</w>
pub lis
prot est</w>
progr am
profession als</w>
proc esses</w>
posi tions</w>
por tion</w>
po is
phụ _tr
phụ_tr ách</w>
pharmac eutical</w>
ow ners</w>
opport un
né m</w>
nhà_ phát_triển</w>
nguyên_ tắc</w>
ng ực</w>
ng ã</w>
ng ed</w>
ner gy</w>
ne _
n â
n àn</w>
mẫu_ giáo</w>
musi cal</w>
moder ate</w>
mo on</w>
meas les</w>
me chan
me ant</w>
mand atory</w>
mag az
m ầm</w>
m its</w>
loc ally</w>
lo a</w>
lim ate</w>
leg es</w>
l en</w>
kí n</w>
kin ds</w>
kilo grams</w>
ki m_
khiế p</w>
kh i
k land</w>
k la
iế u_niên</w>
itch en</w>
is o
invol ve</w>
inte gr
injur y</w>
inf ect</w>
indepen dent</w>
in surance</w>
imp lic
ill nesses</w>
il s</w>
i -
hải_ sản</w>
hôn_ mê</w>
hành_ trình</w>
house hold</w>
ho ảng_
ho a_
hiện_ hành</w>
her d</w>
hal t</w>
h ứa</w>
gu ests</w>
gu ards</w>
glas s</w>
giấ c_ngủ</w>
giả i_ph
giá_ cả</w>
giu ́p</w>
giao_ tiếp</w>
gam bling</w>
g e
g ator</w>
floo ding</w>
fe es</w>
fe eli
feeli ngs</w>
fe ed</w>
fe ature</w>
fas ter</w>
fam ili
fac tor</w>
exp ect</w>
ex ac
engine ering</w>
eng ine</w>
enfor cement</w>
en sur
emmelwe is</w>
el phia</w>
effic acy</w>
ed y</w>
eas ier</w>
ea d
e h
dự _trữ</w>
dra wn</w>
dis infec
di ễn_đàn</w>
di et</w>
dec or
d ữ_dội</w>
d ữ</w>
d rought</w>
cu ng_
cros s-
coun t</w>
cont acts</w>
cong lomerate</w>
confid ence</w>
con_ em</w>
comm ents</w>
collea gues</w>
co de</w>
clu bs</w>
cin em
ci vil</w>
chung_ kết</w>
chu ̉</w>
chi_ tiêu</w>
ch ị
c ỡ</w>
c ười</w>
c ked</w>
bá nh_mì</w>
buil dings</w>
boo st</w>
bo y
bo t
bio logical</w>
billionai res</w>
bid ding</w>
bar rel</w>
bao_ nhiêu</w>
ban ks</w>
b ọn</w>
b ạch</w>
aw ai
atten d
at eral</w>
arti st</w>
ar i</w>
ar an
appro ach</w>
appe ars</w>
ann er</w>
an swer</w>
am monium</w>
al ia</w>
ak i</w>
ag ue</w>
ag g
ad elphia</w>
ad _
achi eved</w>
ac cid
_tượng_ Thuỷ_
_tượng_Thuỷ_ văn</w>
_th ủ</w>
_l ận</w>
_ M
Willi am</w>
W ang</w>
Vin Mart</w>
Vi de
VA S</w>
V ịnh</w>
V ận_tải</w>
V ùng</w>
U r
Tài_ chính</w>
Tu ấn_
Trin id
Tim e</w>
Thực_ phẩm</w>
Thi ên-
Th ể
Th iên_
T âm</w>
T sai</w>
T ao
Sum mer</w>
Ste ering</w>
Spe ars</w>
Sha ng
S ự_
R wanda</w>
R ed</w>
R a
Qu an</w>
Pro t
Phát_ biểu</w>
Phil adelphia</w>
Ph ần_
Ph one</w>
Ph arm
Paste ur</w>
P lan</w>
On ly</w>
O thers</w>
O N</w>
Nhà_ Trắng</w>
Nh an</w>
Ngày_ nay</w>
Nguyễn_ Thanh_
N at
N S</w>
More over</w>
M ục_
M S
Lo t
Lo s</w>
Lo c</w>
L ễ</w>
L au
L as
L and
L ake</w>
Khí _tượng_Thuỷ_văn</w>
Kha si</w>
K ur
K iếm</w>
K ab
Jord an</w>
J ust</w>
J in</w>
J ack
Hà_ Nam</w>
Hy un</w>
Hoàn_ Kiếm</w>
Ho tel</w>
H ọc_
H ệ_thống</w>
H as
Gre ece</w>
Geor ge</w>
Gallu p</w>
G o</w>
G M</w>
Fun d</w>
Fl app
F light</w>
F ili
F an</w>
Ex p
Ethio p
Emir ates</w>
E as
Du y</w>
D NA</w>
Cu stoms</w>
Cor ps</w>
Con vention</w>
Col umbia</w>
Chi en</w>
Ca o_
C y
C limate</w>
C C
Bri dge</w>
Bi ên</w>
Bel gi
Ba h
B iên_
B en
Ap p</w>
Al zheimer</w>
Air Po
A R
6 th</w>
5 th</w>
30 0,000</w>
2. 3</w>
2 30</w>
199 1</w>
198 0</w>
18 0</w>
15 ,
1, 5</w>
1, 500</w>
/ 11</w>
ỳ nh_
ủ_ nhận</w>
ợ _R
ợ_R ẫy</w>
ố_ mẹ</w>
ễ n_thông</w>
ẹ _
ắ m_
ấ y_
ư a
độc_ đáo</w>
độc_ quyền</w>
đất_ đai</w>
đường_ bay</w>
đè n</w>
đ ỗ</w>
đ ệ</w>
đ ặc</w>
đ ấ
đ iển_
è o_
âm_ thanh</w>
ánh_ sáng</w>
z o
yế u_
x ạ</w>
x u</w>
writ ten</w>
wit ch</w>
week ly</w>
war m</w>
vương_ quốc</w>
volun te
ven ture</w>
ve gan</w>
vari ety</w>
v ũ</w>
v í</w>
v a_
under going</w>
un a</w>
u_tr úc</w>
u_h ụt</w>
tỉ nh_
tận_ dụng</w>
tương_ đối</w>
tác_ giả</w>
tu be</w>
trầm_ trọng</w>
trí_ tuệ_nhân_tạo</w>
trung_ ương</w>
tr ộn</w>
tr ọng_
tr on
tox ic
to ps</w>
tiv ity</w>
ti le</w>
thị_ phần</w>
thân_ thiện</w>
thiế u_niên</w>
thiế u_hụt</w>
thanh_th iếu_niên</w>
th ẻ</w>
ter ns</w>
ten ing</w>
t ù_
t elec
sym bo
sur ge</w>
sugges ting</w>
stre am</w>
stom ach</w>
spo ts</w>
sp or
sp id
so ng_
sle y</w>
sinh_ sản</w>
si êu</w>
shar p
secu tive</w>
secre t</w>
schedu le</w>
s ởi</w>
s úng</w>
s ân</w>
s way</w>
s uy_thoái</w>
s lightly</w>
s cor
robo ts</w>
ro r</w>
ris on</w>
respon ding</w>
ren ess</w>
regul atory</w>
reduc tion</w>
re jected</w>
re ality</w>
ra id</w>
qu ick</w>
qu est</w>
prot ecting</w>
proper ly</w>
prof its</w>
priv acy</w>
prev ent
pre mi
pos sibly</w>
pl ed</w>
pi ece</w>
phản_ ánh</w>
phương_ thức</w>
phenomen on</w>
ph ủ_nhận</w>
per for
pen al
p in
out put</w>
our ing</w>
ou l
ori th
ordin ary</w>
or o
or m</w>
ond _Princess</w>
o type</w>
nh ượng</w>
ng ược_lại</w>
ng ài</w>
n_l ồng</w>
n ell</w>
mét_ vuông</w>
mu ̣c</w>
mpt omatic</w>
minh_ bạch</w>
mat ters</w>
mal aria</w>
m ảng</w>
m àng</w>
m ice</w>
lã ng_
lâu_ đời</w>
lif ted</w>
licen ses</w>
li kes</w>
le ng
l ở</w>
l ời_
l ò</w>
kin dergar
khởi_ động</w>
khó c</w>
khí a_
khía_ cạnh</w>
khí _thải</w>
khiế m_
k ý_túc_xá</w>
k or
k em</w>
ist ent</w>
inte rests</w>
insec t</w>
in ary</w>
identi fication</w>
ic ide</w>
hội_ M
hệ_ sinh_thái</w>
hy per
hu b</w>
hiện_ trường</w>
hiệ n_th
her itage</w>
hear ing</w>
harv est</w>
h ứng</w>
h ồn</w>
h ẳn</w>
h ảo</w>
h ít</w>
gợi_ ý</w>
guil ty</w>
gu n</w>
gre w</w>
go m</w>
gian _lận</w>
gi ây</w>
gh ters</w>
gener ated</w>
g ar</w>
fre sh
fla g</w>
fil ms</w>
fil led</w>
fil ed</w>
fic ally</w>
favor ite</w>
fat ality</w>
fac ial</w>
f arm</w>
ey e</w>
expen sive</w>
exp anding</w>
exp an
ex ist</w>
eor ological</w>
encour aged</w>
em ed</w>
eff ectively</w>
ec ture</w>
ear n</w>
e tings</w>
e cho
e ast</w>
dịch_t ễ_học</w>
du_ học_sinh</w>
down town</w>
din ner</w>
difficul ty</w>
develop ments</w>
der n</w>
deli ver</w>
delay ed</w>
def ense</w>
dec reased</w>
deal ing</w>
d âu</w>
d orm
cố t_
cơ_ quan_chức_năng</w>
cung_ ứng</w>
cro p</w>
cri mes</w>
cont ained</w>
conn ected</w>
confir m</w>
con secutive</w>
co pe</w>
chỉ _thị</w>
chào_ đón</w>
cho sen</w>
chi_ nhánh</w>
charac ter
ch ắc</w>
ch ôn</w>
ch at</w>
car di
cao_ điểm</w>
candi date</w>
ca f
c ổng</w>
c ỏ</w>
bắt_ nguồn</w>
bầu_ không_khí</w>
bất_ chấp</w>
bảo_ tàng</w>
bro w
break fast</w>
brea thing</w>
brea the</w>
br ink</w>
bir ds</w>
ber t</w>
beli eves</w>
bao_ cao_su</w>
bab ies</w>
b ọc</w>
b ú
b itcoin</w>
awa reness</w>
aw are</w>
au l</w>
ati on_
ass ess
as sa
arri ve</w>
applic ations</w>
ap ers</w>
anti bodies</w>
ang u
an xi
an t
alg orith
ak ing</w>
ag ents</w>
acc ep
ac king</w>
ac com
abin et</w>
_t ử</w>
Y êu_
Y u
Y et</w>
W ea
VN PT</w>
V .</w>
U n</w>
Tây_ Ninh</w>
Tu oi</w>
To p</w>
To b
Thế_vận_ hội_M
The _S
Th ạnh</w>
Tes la</w>
T ra</w>
T on
Swe dish</w>
St .</w>
Spea king</w>
Sch ul
Sain t_
Sa_ Pa</w>
S mi
S U
Ro bo
Res ort</w>
R C</w>
Qu an_
Prot ection</w>
Pr ince</w>
Part nership</w>
P ap
P T
O ver
N AS
Mr s.</w>
Mosk va</w>
Mid dle</w>
Micha el_
M oun
Lai_ Châu</w>
L ý_
L ã
L um
L eb
L ati
L anc
L C</w>
Ken ya</w>
K r
Jus tin</w>
J ong</w>
Hol dings</w>
Ho àng</w>
H ội</w>
H ọ
H ere</w>
Gu ard</w>
Gr ill</w>
Gi ải</w>
G lob
Franc is
Fin ance</w>
F LC</w>
Eg yp
E nergy</w>
Do anh_thu</w>
Diam ond_Princess</w>
D r
D or
D on</w>
Coun cil</w>
Co n_
Châu_ Phi</w>
Ch ợ_Rẫy</w>
Ca tho
C ông</w>
C ris
C ra
C F
Bu s</w>
Bu i</w>
Blo om
Belgi um</w>
Ba_ Lan</w>
B ỉ</w>
B ản_
B lack</w>
B ar</w>
B ang</w>
An th
Ad 5</w>
7 th</w>
7 0,000</w>
6 0%</w>
3 60</w>
3 20</w>
2 70</w>
16 .
10 -
1 25</w>
1 13</w>
' d</w>
ửa_ đêm</w>
ứ _h
ờ_ đợi</w>
ổi_ mới</w>
ố n_
ị nh_
ật_ tự</w>
ấ p_th
ản_ ứng</w>
ưu_ đãi</w>
đội_ ngũ</w>
đại_ sứ</w>
đường_ dây</w>
đường_ cao_tốc</w>
đè n_lồng</w>
đoàn_ kết</w>
điển_ hình</w>
đ ẻ</w>
đ ăng_t
đăng_t ải</w>
đ âm</w>
đ ào</w>
ú ng_
ói_ quen</w>
ì a</w>
ào_ Cai</w>
à ng_t
àng_t ử</w>
y one</w>
y ellow</w>
x ong</w>
x ing</w>
wed ding</w>
wat ched</w>
vo te</w>
việ n_
viru t</w>
vi ễn_thông</w>
vi lle</w>
v ò
v ital</w>
v a
uố i_cùng</w>
uro s</w>
u_đ ựng</w>
u t
tự_ nguyện</w>
tôn_ trọng</w>
tính_ toán</w>
tái_ tạo</w>
typ ical</w>
tum n</w>
tu ệ</w>
tric s</w>
transpor ted</w>
tranh_ luận</w>
tr ật_tự</w>
tr úc</w>
tiểu_ học</w>
tiền_t ệ</w>
tiếng_ vang</w>
tis sue</w>
tion ary</w>
ti oned</w>
ti k
thời_ hạn</w>
thất_ nghiệp</w>
thông_ tấn_xã</w>
thành_ tích</w>
th ống</w>
th ép</w>
tex t</w>
ter y</w>
ten ed</w>
te _
tas ks</w>
tas k</w>
tari ffs</w>
t ẩ
t ươi</w>
t ư
t ory</w>
t ations</w>
sư _tử</w>
suppor ted</w>
stra in</w>
stor age</w>
stoc ks</w>
st ating</w>
st ages</w>
smo king</w>
sla u
seven th</w>
sal t</w>
sa fe
s y</w>
s cr
s ashimi</w>
s ar
s al</w>
rol led</w>
ri de</w>
regul ation</w>
ran ks</w>
rainf all</w>
quốc_ phòng</w>
qu ên</w>
qu y</w>
py lob
pylob ac
public ation</w>
promo tion</w>
promis ing</w>
prof ile</w>
pri ze</w>
practi ces</w>
pos ting</w>
popul ations</w>
poli s</w>
po ver
po sts</w>
phụ _
phòng_ khám</w>
phi_ chính_phủ</w>
ph ì</w>
perman ent</w>
perfor man
performan ces</w>
par l
par king</w>
ou se</w>
origin ally</w>
org ans</w>
on able</w>
occup ational</w>
o_ l
o th
o p</w>
nói_ chung</w>
như _thế</w>
nhã n_hiệu</w>
nhà_ báo</w>
nh ịp</w>
nghỉ_ mát</w>
ng_t ộc</w>
ng ạc</w>
ng ược</w>
ng est</w>
n ửa_đêm</w>
n one</w>
mất_ tích</w>
min ority</w>
millenni als</w>
me etings</w>
maj iri</w>
m ưu</w>
luật_ sư</w>
lu ck</w>
lo _s
lo_s ợ</w>
ll s</w>
liên_ minh</w>
lit er</w>
land sli
la di
l ắm</w>
l âm</w>
l en
kỳ_ vọng</w>
kinh_ ngạc</w>
khá i_
ka v</w>
k ịch_
k itchen</w>
k el</w>
k e_
it ely</w>
is ure</w>
inves tor</w>
inv as
inst alled</w>
ing redi
inf lam
in al</w>
im pres
im possible</w>
ill as</w>
ide as</w>
i_th ế</w>
i_ Lanka</w>
i ors</w>
i a_
hợp_ lý</w>
hành_ tinh</w>
huấn_luy ện_viên</w>
hoàn_ hảo</w>
hiể m_
hand ling</w>
hand le</w>
ha ck
ha _B
ha_B ar</w>
h ộ
h ấp_th
h ình_phạt</w>
gor illas</w>
g as
g aming</w>
g ained</w>
g .</w>
foun ded</w>
foc used</w>
flow ers</w>
fli c
festi vals</w>
fe wer</w>
fe e</w>
fat alities</w>
famili ar</w>
f ted</w>
f ly</w>
f lower</w>
f it</w>
exten d</w>
expan sion</w>
exp ects</w>
ex t</w>
eval uation</w>
et te</w>
es cal
ent age</w>
ensur ing</w>
en en</w>
employ ed</w>
emer ged</w>
el sen</w>
ed it
econom ies</w>
ear d
eard son</w>
e uros</w>
dri ve</w>
dorm it
diffe rences</w>
dem anded</w>
dec ree</w>
de ep
dau ghters</w>
da o_động</w>
d ắt</w>
d ơi</w>
d âng</w>
d ev
d anh_t
cứ u_trợ</w>
cân_ bằng</w>
cá ch_thức</w>
cu b
cru cial</w>
cro ps</w>
cour ses</w>
coron a
continu ing</w>
connec tion</w>
confir ms</w>
conduc t</w>
con sci
con flic
con dem
comp ens
communic ation</w>
com prehensive</w>
col or</w>
col leges</w>
clean ing</w>
chủ ng_tộc</w>
chị u_đựng</w>
ch ờ_đợi</w>
ch urch</w>
cat ch</w>
cao_ cấp</w>
ca_ ngợi</w>
c overs</w>
c ook</w>
c m</w>
c ay</w>
c able</w>
bồ i_thường</w>
bỏ_ rơi</w>
bur den</w>
bu b
bo ar
bigg er</w>
bea ches</w>
b on
b lockchain</w>
b arri
b al</w>
attemp t</w>
atell ite</w>
ass ist</w>
as s</w>
ar rest</w>
ar io
appear ance</w>
ann ually</w>
analy sis</w>
an on</w>
amoun ts</w>
am il
am bassador</w>
along side</w>
al li
ak h</w>
ag er</w>
aff ir
aff ects</w>
advan ced</w>
acti vely</w>
accom mo
acad emic</w>
ab ad</w>
a qu
a p</w>
a kh
a chi</w>
_th ai</w>
_m ạo</w>
_l ỗi</w>
_hu y</w>
_h ạn</w>
Zha ng</w>
Yêu_ cầu</w>
Yo shi
W oody</w>
Vin amil
V õ_
V o</w>
V ladi
V inc
V il
V G</w>
U TC</w>
Trang_ web</w>
Tr ẻ_em</w>
Thể _thao</w>
Thiên- Huế</w>
The refore</w>
Th ough</w>
T ren
T our</w>
Số _liệu</w>
Ste ph
St ore</w>
Sr i_Lanka</w>
Sr i</w>
Smi th
Si nh_
Shang hai</w>
Sh in
Schul enberg</w>
S iri</w>
S how</w>
S el
S ars</w>
S af
Ro y</w>
Resp on
Re gion</w>
Ph ản_ứng</w>
Ph ượng</w>
P ic
P aul</w>
Ox ford</w>
Olymp i
Nu enen</w>
Ngoại_ trưởng</w>
Ng u
Ng o</w>
N ha_
N ation
N a</w>
Một_ khi</w>
Mexic an</w>
Mac ron</w>
Ma_ Cao</w>
M et
Ly ons</w>
Lum pur</w>
Lu ân_Đ
Liên_ bang</w>
Li ên</w>
Li em</w>
Lab or</w>
L ào_Cai</w>
L ung</w>
L es
L I</w>
Kho a</w>
Kar achi</w>
Kab ul</w>
K ỹ
K ID
KID O</w>
Ir anian</w>
In sider</w>
ID AS</w>
Họ c_sinh</w>
Hô m_
Hu ng
H en
Gre en</w>
Gr and</w>
Giáo_ sư</w>
G M
Francis co</w>
Foo t
F ur
Epidemio logy</w>
E s
E d
Du bl
Diam ond</w>
Dem ocr
Dal at</w>
D ược_phẩm</w>
D un
D an</w>
D am</w>
Cộng_ sản</w>
Công_ ước</w>
Công_ giáo</w>
Cur rently</w>
Co ffe
Clin ton</w>
Chuy ến</w>
Chiến_ tranh</w>
Chiến_ dịch</w>
Ch ánh</w>
Ch ro
Cas tro</w>
C ôn_
C uối_cùng</w>
C au</w>
C al
C P
Budd ha_Bar</w>
Blu e
Bi g</w>
Ba ng_
B kav</w>
Aus tria</w>
Ar dern</w>
An ti
An dro
AD IDAS</w>
A i_
A di
9 .000</w>
8 th</w>
4 -
30 0.000</w>
3 50</w>
200 .000</w>
20 .
2 19</w>
2 12</w>
2 -
19 .
15 7</w>
12 th</w>
10 5</w>
1 10</w>
1 000</w>
/ 9</w>
.v n</w>
- r
ự_th ật</w>
ử _th
Ứ ng_
ẩm_ thực</w>
ấn_ phẩm</w>
ượ n</w>
động_ mạch</w>
đổ_ bộ</w>
địa_ lý</w>
đề_ cử</w>
đa_ số</w>
đ ắc_
đ ậu_
đ ấu_
đ ài_
Đ ỗ
Đ ôi_
Đ iệ
ăn_ nuôi</w>
ú i_
ã o_
ân_Đ ồn</w>
z y</w>
y i
xâm_ l
xin _lỗi</w>
wal king</w>
w ine</w>
w ealth</w>
vận_ động_viên</w>
vũ _trang</w>
volunte ers</w>
vit amin</w>
vie wed</w>
vec tor</w>
v ỏ</w>
v oc
us ti
under go</w>
un lawful</w>
un clear</w>
u_l ượng</w>
tụ t</w>
tổng_ giám_đốc</w>
tổ ng_thể</w>
tí n_hiệu</w>
tâm_ thần</w>
twe et</w>
tuần_ tra</w>
trình_ bày</w>
truy_t ìm</w>
trung_th u</w>
trung_ niên</w>
trou ble</w>
tri ps</w>
tr ưa</w>
tr a_
to ol</w>
tiệ n_
tiêu_ hoá</w>
tiêu_ chảy</w>
tiên_ tiến</w>
ti al</w>
thị_ trường_chứng_khoán</w>
thành_ thạo</w>
thu_ gom</w>
thu r</w>
th ăm_
th ói_quen</w>
th inks</w>
tax es</w>
targ ets</w>
tal king</w>
t ổ</w>
t ắt</w>
t ours</w>
t ough</w>
t elling</w>
sust ainable</w>
stu dio</w>
strugg ling</w>
struc ture</w>
stre aming</w>
stra nge</w>
sti mul
stand ard</w>
st one</w>
sp ell</w>
soldi ers</w>
sit ting</w>
sid es</w>
sid ers</w>
sharp ly</w>
sh ore</w>
sh a</w>
sec onds</w>
sa o_
s ăn_
s inking</w>
s ers</w>
ri ver</w>
reta il
respon ses</w>
resid ential</w>
rescu e</w>
represent atives</w>
recommend ations</w>
ra w</w>
r ào</w>
r app
rapp er</w>
qu ỵ</w>
pun ishment</w>
proc ed
pres ented</w>
pre mature</w>
plan et</w>
pic tures</w>
pic k</w>
phạm_ tội</w>
phân_b ón</w>
phong_ trào</w>
ph ơi</w>
ph as
perc entage</w>
parl ors</w>
par liam
p raised</w>
p -
op position</w>
ond ary</w>
om _
od les</w>
ob jects</w>
o ng
o k
o graph
nước_ biển</w>
nâ ng_cấp</w>
nor th
non- governmental</w>
no odles</w>
nhân_ chứng</w>
nh ở</w>
ngoại_ ô</w>
nghiệ p_
ngh èo_
ng ân</w>
ng ue</w>
multi -
mu gg
mo thers</w>
mis sions</w>
min ent</w>
mid night</w>
mi ti
men istan</w>
medic ines</w>
me c</w>
me al</w>
maintain ing</w>
magaz ine</w>
ma xim
m ù</w>
m ic</w>
m al</w>
lợ i_thế</w>
lịch_ trình</w>
lên_ án</w>
lit ers</w>
li fe
leg s</w>
l ặp</w>
l ặng</w>
l ương_
l ưng</w>
kno ws</w>
kilomet er</w>
ki e</w>
khó _chịu</w>
khí_ quyển</w>
khái_ niệm</w>
k u</w>
jo int</w>
it es</w>
issu ing</w>
ish a</w>
is ten
ir i
investig ated</w>
inv est</w>
intro duce</w>
instruc ted</w>
in tru
in ev
immun o
im pose</w>
identi fying</w>
i res</w>
i b
i ang</w>
i F
iF one</w>
hà m_
hà m</w>
hydro xychloroquine</w>
hom el
ho sting</w>
hea ds</w>
h ộp</w>
h ỏng</w>
h ư
gr ap
giải_ph óng</w>
giả _mạo</w>
gi ble</w>
gg ing</w>
geo graph
gen cies</w>
fu els</w>
for cing</w>
flu ids</w>
floo ds</w>
fi e</w>
ferti liz
f ran
exerc ises</w>
exam ples</w>
et c</w>
estim ate</w>
emp lo
em ics</w>
ell es</w>
electr onic</w>
eg o</w>
eg g</w>
eff ecti
effecti veness</w>
earthqu ake</w>
e. g.</w>
e tion</w>
e h</w>
dạ _hội</w>
du ties</w>
dro pping</w>
don ated</w>
di t</w>
di arr
del ay</w>
defin itely</w>
danh_t ính</w>
d ấy</w>
d ust</w>
d ash</w>
d a_
cơ_ chế</w>
cy to
cur e</w>
cryp to</w>
cru de</w>
crow ded</w>
critici zed</w>
coun ts</w>
corona viruses</w>
conven i
control led</w>
contrac ting</w>
con vers
compu ters</w>
competi tive</w>
compet e</w>
comp on
commun es</w>
comm is
collabor ation</w>
cl ass
ci vi
chị_ em</w>
chất_ khử</w>
chick en</w>
charac ter</w>
chan ces</w>
ch ốt</w>
ch ương</w>
ch ân_
certific ates</w>
categ ory</w>
cao_ đẳng</w>
campa ig
camer as</w>
cam pus</w>
c ứng</w>
c ường_
c king</w>
c ats</w>
c anh_t
canh_t ác</w>
bắ p</w>
bus y</w>
bub ble</w>
bro ther</w>
brea d</w>
bor ough</w>
bo tt
billion aire</w>
benef it</w>
be l</w>
b ộ
b id</w>
auth or</w>
audi ence</w>
ated _
ated_ Press</w>
at ta
at ories</w>
at ab
ass istant</w>
arti sts</w>
ari o</w>
arg u
ar d
appro xim
app ing</w>
ances tors</w>
an z
ame work</w>
alleg ations</w>
all ergy</w>
al es</w>
ag a</w>
adv ance</w>
ad vi
ad ing</w>
acqu ired</w>
ac tual</w>
ab or
a_h è</w>
X i
Wil d
Wi esel</w>
W eb
Vinamil k</w>
Vide o</w>
VN 54</w>
VF S</w>
V ị</w>
V ệ_sinh</w>
V ăn</w>
V ân_Đồn</w>
Uỷ_ban_ nhân_dân</w>
Tình_ trạng</w>
Turk menistan</w>
Trung_ Đông</w>
Tra ining</w>
Tra ffic</w>
Tr ần</w>
Tim or</w>
Thừa_ Thiên-Huế</w>
Thượng_ Hải</w>
T ạp_chí</w>
T am_
T ab
Su ch</w>
So ci
Sil ver
S mart</w>
Ro yal</w>
R ed
Qu ần_đảo_
Q uynh</w>
Prof essor</w>
Pro gram</w>
Phúc_ Long</w>
Phòng_ chống</w>
Pho eni
P la
P H
Nhà _th
Nh à</w>
Nguyễn_ Đức_
NAS A</w>
N ông</w>
N an
Mus li
Mob iFone</w>
Me tro</w>
M á
M ong</w>
M an</w>
M .</w>
Luân_Đ ôn</w>
Lo s_
Lim ited</w>
Li êm</w>
L âm_
L y</w>
Kỹ _thuật</w>
Kinh_ tế</w>
K in
K al
Jour nal</w>
Jo int</w>
J on
Hồ i</w>
Hà_ Giang</w>
Hy und
Hu u</w>
Ho àng_tử</w>
Hiện_ nay</w>
H un
H anh</w>
Gen ev
Fil m</w>
Fed eral</w>
F re
Ex change</w>
E liz
Dubl in</w>
Di vision</w>
Di ego</w>
Cha nge</w>
Ch ẳng_hạn</w>
CE Os</w>
C ậu</w>
C ầu_
C à_
C lar
C ann
Bus in
Big _
B ris
Associ ated_Press</w>
Ar thur</w>
A be</w>
A E
9 th</w>
8 2</w>
4 10</w>
26 8</w>
20 .000</w>
19 0</w>
15 1</w>
14 .
1. 6</w>
1. 4</w>
1, 3
1, 2</w>
1 27</w>
ỳ nh</w>
Ứng_ dụng</w>
ủ_ Chi</w>
ớ p</w>
ổi_ Trẻ</w>
ị_th ành_
ị_thành_ niên</w>
ị _sĩ</w>
ệt_ may</w>
ệ nh_
ắc_ nhở</w>
ần_ dần</w>
ầ u_th
ầu_th ô</w>
ấp_ nhiệt_đới</w>
ản_ trở</w>
̀ i</w>
ươ i_
ư ới</w>
ũ _l
ũ_l ụt</w>
đột_ quỵ</w>
đồng_ nghĩa</w>
đồ _chơi</w>
địa_ chấn</w>
đặt_ hàng</w>
đạo_ luật</w>
đại_ sứ_quán</w>
đại_ lý</w>
đó i</w>
đám_ cưới</w>
đ ụ
đ ổi_mới</w>
Đăk_ Nông</w>
Đ ịnh</w>
Đ ặng_
Đ án</w>
Đ ài</w>
Đ i
Đ en</w>
ò _
ê nh_
é n</w>
ã y</w>
ài_ hạn</w>
  được</w>
y i</w>
y ers</w>
y _th
xâm_l ấn</w>
xung_ đột</w>
x ả</w>
x ưa</w>
x úc_
win ner</w>
web sites</w>
wat ching</w>
was h</w>
vật_l ộn</w>
vật_ thể</w>
volun t
viện_ trợ</w>
viol ate</w>
vinh_ danh</w>
vers al</w>
val ued</w>
v ị_thành_niên</w>
v ement</w>
v ac
un less</w>
ul ti
u_th ông</w>
tính_ năng</w>
tuỳ _thuộc</w>
tu ỳ</w>
tu ổ
trợ_ cấp</w>
trung_học_ phổ_thông</w>
tru ly</w>
tro gen</w>
trans gender</w>
trad ers</w>
tr ượt</w>
tr ương</w>
to n_
tiế n_sĩ</w>
tiêu_ diệt</w>
ti ng
ti me
thẩm_ phán</w>
thuỷ _thủ</w>
thuật_ toán</w>
thu_h ồi</w>
thu ế_
thiế u_
the at
theat ers</w>
th ủ
th i_th
th ank</w>
targ eting</w>
targ eted</w>
tain ed</w>
t ên_
t ted</w>
số_ ít</w>
surpris e</w>
sup ports</w>
subst ance</w>
sub -
su itable</w>
stro ke</w>
streng then</w>
streng th
str ation</w>
sp reads</w>
son ian</w>
so l</w>
si mul
sharehol ders</w>
shar p</w>
sel fie</w>
se is
sa u_
s ẻ</w>
s àn</w>
s burg</w>
run way</w>
rou gh</w>
ro les</w>
ri ties</w>
ri c</w>
res trict</w>
res istance</w>
repatri ation</w>
remo te</w>
relation ships</w>
rel ative</w>
recy cling</w>
recru it
recomm ends</w>
re min
re m
re ferred</w>
ra il</w>
r ú
qu esti
qu ang</w>
pro longed</w>
pri ority</w>
prevent able</w>
pres ent
pover ty</w>
popul arity</w>
po t</w>
phát_ động</w>
phu ̣</w>
pho to</w>
phim_ truyền_hình</w>
ph à</w>
ph il
per mits</w>
per mit</w>
per f
pe ac
pas sport</w>
pas s
p t</w>
p h</w>
out door</w>
or d</w>
opportun ities</w>
opin ion</w>
om a</w>
ol dest</w>
ob st
o ts</w>
nội_ bộ</w>
năm_ tháng</w>
nông_ sản</w>
nu ts</w>
nhận_ định</w>
nhân_ lực</w>
nhà_th uốc</w>
nhà_ ga</w>
nhà_ bán_lẻ</w>
nh ỏ_
nh ắc_nhở</w>
nh ũng</w>
nh ìn_
nh é</w>
nh ãn</w>
ng ắn_
ng a</w>
ne e</w>
nation ally</w>
n ữ_
n ấm</w>
một_ triệu</w>
mus cle</w>
movi es</w>
moun tain</w>
mon es</w>
modi fied</w>
minim um</w>
meas ured</w>
manufacture r</w>
m ỳ</w>
m ỏ</w>
m ượn</w>
m òn</w>
m ented</w>
m ath</w>
m all</w>
m 2</w>
lưu_tr ú</w>
lư u_thông</w>
lên_ tiếng</w>
lu x
licen se</w>
li min
legi sl
las er</w>
landsli des</w>
l ốc</w>
l õi</w>
ki ên_
ki êm</w>
khủng_ khiếp</w>
khá t</w>
kh ớp</w>
kh ỉ_đột</w>
k em
jum ped</w>
jour ney</w>
jour nal
iz hi</w>
it ate</w>
ist ers</w>
is tic</w>
invol ves</w>
invol vement</w>
invas ive</w>
inter view</w>
inter nationally</w>
inten se</w>
inte rested</w>
inst all</w>
inj ection</w>
indus tries</w>
ind h</w>
immigr ants</w>
ig an</w>
id ity</w>
họ _
họ_ hàng</w>
hấp_th ụ</w>
hà i_lòng</w>
hà i_
huấn_luy ện</w>
huyết_ thanh</w>
hoàng_ gia</w>
ho sts</w>
hiện_ diện</w>
her self</w>
har dest</w>
ha ir</w>
h ear</w>
gu ide</w>
gu aran
gre atly</w>
grad uation</w>
giá p</w>
gi ờ
gi ếng</w>
gi fts</w>
gi an_
gh ing</w>
gener ations</w>
gener ate</w>
gen s</w>
ga thered</w>
g ặp_
g ãy</w>
g ay</w>
fu sion</w>
frequ ent</w>
flu id</w>
fli es</w>
fin als</w>
fe at
feat ured</w>
f ati
f are</w>
f air</w>
f ab
expl ain</w>
ex emp
evacu ated</w>
est yle</w>
er i
equ ality</w>
ep iso
ep ing</w>
entrepreneur s</w>
en a</w>
emis sions</w>
em or
el se
el ev
ef s</w>
eat en</w>
e a</w>
dẫn_ dắt</w>
dạ ng_
dân_t ộc</w>
dr o</w>
dr inks</w>
do w</w>
distribu ted</w>
dispu tes</w>
discus sed</w>
direc tive</w>
diarr he
des er
def end
de als</w>
dar k</w>
d ọn</w>
d ẹp</w>
d ò</w>
d áng</w>
d ài_hạn</w>
d ur
d ova</w>
cốt_ lõi</w>
cấ u_trúc</w>
cảnh_ giác</w>
cyto k
cu sto
crow ds</w>
cor dingly</w>
contrac tor</w>
contam inated</w>
contain er</w>
connec ting</w>
conn ect</w>
con_ cái</w>
complic ated</w>
compet ent</w>
comfor t</w>
comb ank</w>
coll ection</w>
cockro ach</w>
co m</w>
clu sters</w>
clo sures</w>
cli ents</w>
circum stances</w>
cir cul
ci an</w>
chức_ vụ</w>
chủ_ động</w>
chỉ _huy</w>
chuyên_ nghiệp</w>
cho se</w>
chi a_
chatbo ts</w>
char ity</w>
ch ăn_nuôi</w>
ch ùa</w>
ch éo</w>
ch elles</w>
ch ea
centr es</w>
cann ab
canc ell
cal cul
c ản_trở</w>
c ô_
c ited</w>
c at</w>
c ard</w>
c ac
bất_ ổn</w>
bảo_ hiểm</w>
bur n</w>
broad casting</w>
bri ngs</w>
bo ys</w>
bo tu
bil ateral</w>
b ộ_trưởng</w>
b ố_mẹ</w>
b ọt</w>
b ướ
b onds</w>
b o</w>
avi r</w>
av a</w>
ati cally</w>
at est</w>
as y
as tic</w>
as hed</w>
approxim ately</w>
appe aring</w>
ap plying</w>
antibio tics</w>
anh _tr
an ni
am i
aly sis</w>
all ets</w>
ali ve</w>
air y</w>
af raid</w>
ad or</w>
ad ise</w>
ad ays</w>
acc ept</w>
acc el
ac les</w>
ac ks</w>
ab ilities</w>
a_ viên</w>
a than</w>
_th ạch</w>
_h ại</w>
You tube</w>
Yor k_
Y ên_
Xu ất_
Wo ol
Wea ther</w>
Wat ch</w>
Vĩnh_ Phúc</w>
Veg as</w>
VND 1</w>
VN A</w>
V er
V ang</w>
Up on</w>
Tổng_ số</w>
Tổng_ Giám_đốc</w>
Tu ổi_Trẻ</w>
Trường_ Sơn</w>
Trường_ Sinh</w>
Tr à</w>
Tr inh</w>
Toàn_ cầu</w>
Tob ago</w>
Tik i</w>
Thu ỷ</w>
Th ật</w>
Th ơ</w>
T ự_
T ư_
Sơn_ Tùng</w>
Sus hi</w>
Su b
Soci ety</w>
Smith sonian</w>
Sey chelles</w>
Ser vices</w>
Sen egal</w>
Sa har
S ud
S tr
S indh</w>
S ear
Rom ania</w>
Res id
Republi can</w>
Re quest</w>
RON 92</w>
Qu een</w>
Q R</w>
Produc tion</w>
Pati ents</w>
P E</w>
O ur</w>
Ni elsen</w>
Nhân_ viên</w>
Nhà_ sản_xuất</w>
Nha_ Trang</w>
Nh ân</w>
Nguyễn_ Ngọc_
Ngh ị_định</w>
Ng ãi</w>
New_ York_
N ăng_
N early</w>
N ag
N ad
N G</w>
Mu sic</w>
Mor rison</w>
Mol dova</w>
Minh_ Chay</w>
Mich igan</w>
Mer kel</w>
Me dia</w>
Mauriti us</w>
Mar ch
Man agement</w>
M ẹ</w>
M ag
M A
Lê_Thị_ Thu_
Lt d</w>
Li ke</w>
Leb anon</w>
L ộc</w>
L ôi</w>
L i</w>
Ku wait</w>
Kr ai</w>
K ể_cả</w>
K ras
K iên_
K as
Jo se
J er
Initi ative</w>
Inf ecti
IC U</w>
I s</w>
I cel
I BM</w>
Học_ viện</w>
Hải_ Dương</w>
Hôm_ nay</w>
Hy dro</w>
Har a</w>
H ưng_
H uynh</w>
Gu ang
Gr and
Go gh</w>
Gi ang_
Gal ax
G MA</w>
Fore casting</w>
Foot ball</w>
Fi re
Fal kland</w>
F am
F PT</w>
Egyp t</w>
E arly</w>
Dịch_ t
Democr atic</w>
Da ily</w>
D ịch</w>
D ù</w>
D izhi</w>
Công_ dân</w>
Coun ty</w>
Con_ số</w>
Chí n</w>
Char les</w>
Ch ính</w>
Ch i_
Ch an</w>
Catho lic</w>
Cam eron</w>
Cam bridge</w>
C ủ_Chi</w>
C ộng_đồng</w>
C ập</w>
C ách_
C H
C B</w>
Bắc_ Giang</w>
Bu en
Bloom berg</w>
Bl ack
Bill _
Bel ar
B C
Asi ad</w>
Andro id</w>
An im
Ai_ Cập</w>
Adi das</w>
Ad ditionally</w>
Ac cordingly</w>
AE ON</w>
A R</w>
9 0
8 0
8 -
7 .000</w>
7 ,000</w>
50 0,000</w>
3. 8</w>
20 9</w>
20 1</w>
2 33</w>
199 3</w>
198 7</w>
17 th</w>
16 th</w>
14 2</w>
10 6</w>
0 6</w>
ử_ phạt</w>
ừ ng_
ợ t</w>
ộc_ thiểu_số</w>
ọn_ dẹp</w>
ẹ o</w>
ận_ trọng</w>
ầ n_thể</w>
ấ m_
ảy_ máu</w>
ưở i</w>
ư_ ký</w>
Ư ớ
độc_ tố</w>
đồ i</w>
đấu_ giá</w>
đất_ liền</w>
đu ôi</w>
điều_tr a_viên</w>
đ ức</w>
đ ắp</w>
đ ập</w>
đ ảm</w>
Đặc_ biệt</w>
Đôi_ khi</w>
Đi nh_
Đ ộ
Đ ất</w>
Đ ường</w>
Đ ào_tạo</w>
Đ à</w>
Đ iền</w>
ên_ bố</w>
ê_ b
ê ̣
âm_ mưu</w>
ách_ tay</w>
àn_ nàn</w>
z en</w>
y_ khoa</w>
y en</w>
xâm_ hại</w>
xo á</w>
x ử_phạt</w>
x ách_tay</w>
worsen ing</w>
work place</w>
wel come</w>
wel com
welcom ed</w>
w r
w are
w allets</w>
vi_ rút</w>
ven ues</w>
val ids</w>
v à_
v ors</w>
ur ities</w>
ur a</w>
uni ch</w>
unh ealthy</w>
u_th uyền</w>
từ_ bỏ</w>
tội_ ác</w>
tích_ hợp</w>
tình_ báo</w>
trở _ngại</w>
trị_ gia</w>
trái_ phiếu</w>
tro pol
triển_ lãm</w>
trigg ered</w>
tr ống</w>
tr ưng_
tr àn</w>
tr ol
tr ation</w>
tr ast</w>
tiz ens</w>
thần_ kinh</w>
thượng_ đỉnh</w>
thân_ nhiệt</w>
thuỷ _sản</w>
thuế_ quan</w>
thuật_ ngữ</w>
thuy ết</w>
thu_ giữ</w>
thiên_ tai</w>
the ory</w>
tham_ nhũng</w>
th ận_trọng</w>
th r
techni que</w>
t ụ</w>
t ươi_
t úc</w>
t ê
t ent</w>
t els</w>
t ells</w>
t eller</w>
t ar
t ancy</w>
surpris ing</w>
surpris ed</w>
sup posed</w>
sum mit</w>
subsidi ary</w>
sub stances</w>
sub mitted</w>
su gar</w>
stu ck</w>
stro nger</w>
ste el</w>
stan bu
stanbu l</w>
sph ine</w>
song_ phương</w>
sol ve</w>
si ght</w>
sho o
sent ence</w>
sen s
sel ected</w>
seis mic</w>
sea food</w>
scand al</w>
san i
sani tiz
s ever
sever ity</w>
rộng_ lớn</w>
ro lls</w>
rit en
riten brink</w>
rev olution</w>
retur nees</w>
resear cher</w>
re ve
re opened</w>
rain y</w>
ra nging</w>
pylobac ter</w>
pus hed</w>
psycho logists</w>
provi der</w>
proper ties</w>
proced ure</w>
predic ted</w>
pos sibility</w>
pois oning</w>
po c
pl us</w>
phê_ bình</w>
ph àn_nàn</w>
ph a_
per mitted</w>
pay ing</w>
pan el</w>
pain ting</w>
p ir
over ies</w>
ov ascular</w>
oun d
of er</w>
ob ject</w>
o_ hiểm</w>
o gen</w>
o bli
năng_ suất</w>
ni ght
nhận_ xét</w>
nhân_ quyền</w>
nhà_th ầu</w>
nhà_ sáng_lập</w>
nhiệm_ kỳ</w>
nhiễm_ khuẩn</w>
nh ật_
nh óc</w>
ngập_ mặn</w>
người_ yêu</w>
ngăn_ cản</w>
ng_c ố</w>
n_ tiếp</w>
n or</w>
n i</w>
n ea
n an</w>
mạ o_hiểm</w>
máy_tính_ xách_tay</w>
mus cles</w>
mountain s</w>
mo on
medic ation</w>
meas uring</w>
mean ing
may be</w>
maxim um</w>
mar athon</w>
m óc</w>
lương_ thực</w>
lưu_ hành</w>
lư ỡi</w>
lych ees</w>
loc ality</w>
lis ts</w>
limin ary</w>
let ters</w>
le g</w>
l ục_
l ũ_lụt</w>
kịch_ bản</w>
kí nh_
kiế n_
ki ng
khô i_phục</w>
khá nh</w>
kh ảo</w>
kh u_
kh ol
k ỹ</w>
k el
jour nal</w>
j a</w>
ir s</w>
investig ations</w>
inter vention</w>
inter pre
inter nal</w>
inten si
ing ton</w>
ind a</w>
in tra
in sul
implem entation</w>
ill a_
ik u</w>
id en</w>
iP ad</w>
i z</w>
i to</w>
i fi
hỗ n_
hum an
hoá _thạch</w>
hoàn_ thiện</w>
hor mones</w>
holi days</w>
hoan_ phim</w>
ho ping</w>
hiệu_ suất</w>
har m</w>
ha ps</w>
h ẻ
h ô</w>
h in
h i_
h en</w>
gre atest</w>
gradu ates</w>
gia_ nhập</w>
gi ục</w>
gi ật</w>
ghi_ nhớ</w>
gene tically</w>
g ov
g al</w>
foo t</w>
fi re
fer ring</w>
fati gue</w>
fas test</w>
fac il
expor ters</w>
exam ination</w>
ex press</w>
evacu ate</w>
enti rely</w>
enti ane</w>
enjo yed</w>
end ang
employ ers</w>
em phas
ell o</w>
ell ec
el led</w>
effici ency</w>
ear nings</w>
e w
e dition</w>
e ber</w>
dạ _
dạ_ dày</w>
dân_t ộc_thiểu_số</w>
dân_ sự</w>
down p
dow ns</w>
dol lar</w>
do g</w>
dis pat
dis crimin
dis aster</w>
direc tion</w>
diarrhe a</w>
di_ cư</w>
develop ers</w>
destro yed</w>
defend ants</w>
dec eased</w>
deb t</w>
de pic
dar ity</w>
d ọn_dẹp</w>
d ầu_thô</w>
d ần_dần</w>
d ors</w>
d oms</w>
d less</w>
d d
d atab
d .</w>
củ ng_cố</w>
công_ lập</w>
crypto currencies</w>
cri tically</w>
cre ation</w>
cr ash</w>
correc t</w>
cor respon
contribu tion</w>
contribu ted</w>
contr over
cont ains</w>
conc ept</w>
comp ly</w>
com par
col on
cockro aches</w>
co p
cinem as</w>
cid es</w>
chủ_ nhật</w>
chất_ lỏng</w>
chấ m</w>
chú c_
chúc_ mừng</w>
chú a</w>
chính_ trị_gia</w>
chec king</w>
chec ked</w>
ch ứng_t
ch ật_
ch ép</w>
ch uối</w>
celebr ated</w>
categ ories</w>
c ủ</w>
c ờ</w>
c ạn</w>
c úng</w>
c ool</w>
c ake</w>
bệnh_ lý</w>
bất_ lợi</w>
bí_ ẩn</w>
bài_ tập</w>
bur ns</w>
bu l
brow ser</w>
biến_ chứng</w>
barri ers</w>
ban ana</w>
bad ly</w>
bacter ial</w>
b ình_ph
b ê_b
b ound</w>
b ones</w>
b ill</w>
b ian</w>
ax it</w>
aw a</w>
autonom ous</w>
attrac tive</w>
assess ment</w>
ass ons</w>
arch it
ar ra
apo logi
ap pointed</w>
anxi ety</w>
anni vers
an der</w>
am in
am az
alter native</w>
al majiri</w>
adop ted</w>
achi eve</w>
accur ate</w>
accoun ted</w>
accommo dation</w>
ac o</w>
ab sor
a_ G
a- Vũng_Tàu</w>
a e_
_th ân</w>
_t ín</w>
_ J
You ng</w>
Wat er
War ner</w>
Vi entiane</w>
Vi enna</w>
VND 10</w>
VN Đ
VF S-
V ương</w>
US NS</w>
U g
Tết_Nguyên_ Đán</w>
Tuy ên_bố</w>
Trí_ tuệ_nhân_tạo</w>
Tr ọng</w>
To wer</w>
Thời_ gian</w>
Thu ng_lũng</w>
Th ọ</w>
Tel evision</w>
T ử_
T iền_
T im</w>
T at
Sy mptoms</w>
Sou th_
SU 290</w>
S emmelweis</w>
S car
S ao</w>
Rob ert</w>
Ri o</w>
Ri ch
R oosevelt</w>
Quảng_ Ngãi</w>
Quy ết_
Qu á
Pre mi
Pol and</w>
Ph ước</w>
Ph i_
P it
P at
O ld
Năng_ lượng</w>
Ni en</w>
Nhà_th ờ</w>
Nhà_ máy</w>
New_York_ Times</w>
N ature</w>
N am
N O
N D</w>
N BC</w>
Mari em</w>
Manch ester</w>
Mal i</w>
M ặc</w>
M ạng_
M ê_
M unich</w>
M assons</w>
Lê_Thị_Thu_ Hằng</w>
Lã nh_
Lt d.</w>
Long_ Biên</w>
Liên_ hoan_phim</w>
L ần</w>
L úc</w>
Kiên_ Giang</w>
Kho a_
Kha ng</w>
K ritenbrink</w>
Jo ng_
J ames</w>
J ac
Indones ian</w>
In valids</w>
In c</w>
Icel and</w>
I stanbul</w>
I gn
Hội_ nghị</w>
Hải_ quan</w>
Hạ_ Long</w>
Hành_ khách</w>
Hyund ai</w>
Hye_ Sun</w>
Hung ary</w>
Hum an</w>
Ho spit
Hear t</w>
Hang -
H ữu_
H ưng</w>
H ơn_nữa</w>
H on
H iến</w>
H ea
H au
Gra b</w>
Goo_ Hye_Sun</w>
Gol den</w>
G ro
G aga</w>
Fi ve</w>
F ox
Exp lo
Ethiop ia</w>
En ter
Do anh_
Dan ish</w>
D ưới</w>
D anh_
D ai</w>
D H
D C</w>
Côn_ Đảo</w>
Coffe e_
Clin ic</w>
Chin a_
Ch ợ</w>
Ch urch</w>
Ch anh</w>
C ụ
C òn</w>
C uối</w>
Bà_Rị a-Vũng_Tàu</w>
Bill board</w>
Bi eber</w>
Belar us</w>
B ao</w>
Asi an_
Ar my</w>
An sley</w>
AirPo ds</w>
A th
A side</w>
A ra
A part</w>
A mo
A il
A VG</w>
8 .000</w>
6. 5</w>
6 0,000</w>
6 -
3 2
3 0.000</w>
3 /
25 th</w>
2. 6</w>
197 5</w>
19 68</w>
18 th</w>
15 .000</w>
12 ,000</w>
10 th</w>
1, 8</w>
1 60</w>
1 35</w>
1 28</w>
ững_ ai</w>
ử_th ách</w>
ở _thích</w>
ớ n</w>
ị _liệu</w>
ệ _trình</w>
ến_ xe</w>
ắc_ rối</w>
ắc- xin
ắc-xin .</w>
ầ ng_
ầng_ lớp</w>
đẩy_ mạnh</w>
đầu_ bếp</w>
đường_ bộ</w>
đánh_ cắp</w>
đá y</w>
đa_ dạng_
đ ống</w>
đ ệ_trình</w>
đ ể_
đ ương_
đ ĩa</w>
đ iệu</w>
Đỗ _
Đường_ sắt</w>
Đ am</w>
ý_ định</w>
ù_ địch</w>
ù_ đắp</w>
ù a_hè</w>
ông_ bà</w>
ô_ ph
ô_ph ỏng</w>
í _th
ê ́
áp_th ấp_nhiệt_đới</w>
Ú t</w>
z o</w>
z ni
zni ak</w>
z ech</w>
z be
yếu_ phẩm</w>
yu an</w>
y n</w>
xuất_ sắc</w>
xuất_ huyết</w>
xo áy</w>
writ er</w>
writ e</w>
wr apped</w>
wor e</w>
weigh ing</w>
ware house</w>
war n</w>
w ish</w>
w ise</w>
vừa_ phải</w>
vic tory</w>
vi e</w>
vap ing</w>
vacc inated</w>
va_ chạm</w>
v ắc-xin.</w>
v ạch</w>
v ô</w>
v án</w>
v ory</w>
v or</w>
v eter
usti ano</w>
up date</w>
under ground</w>
um es</w>
u x</w>
u a</w>
tối_ ngày</w>
tố n_
tốn_ kém</w>
tố n</w>
tí n_
tình_ nguy
tình_nguy ện_viên</w>
tâm_ trí</w>
tuy ết</w>
tur ns</w>
tur ning</w>
tun ately</w>
tra dition</w>
tr i</w>
tr es</w>
tr ends</w>
tr ending</w>
tr ance</w>
tou ched</w>
tou ch</w>
to_ lớn</w>
to pped</w>
tiến_ triển</w>
tiêu_ đề</w>
tik ofer</w>
ti ves</w>
thị_ xã</w>
thất_ vọng</w>
thuỷ_ tinh</w>
thu ần</w>
thu ̉</w>
thi_th ể</w>
th ừa</w>
th ổi</w>
th ương_t
th ù_địch</w>
th ác</w>
th ri
th es
te es</w>
tan e
tack le</w>
t ỉ</w>
t ạp_
t ô</w>
t une</w>
t les</w>
t asked</w>
t all</w>
sơ_ bộ</w>
sáng_ chế</w>
sá p_
sáp_ nhập</w>
suspen ding</w>
surve yed</w>
super vision</w>
suc cee
sub mit</w>
su m</w>
su icide</w>
strate gies</w>
star ts</w>
st ories</w>
st ol
st atistics</w>
st ab
ssi l</w>
spor ting</w>
spokes woman</w>
so n_
sk a</w>
six th</w>
si vely</w>
si Co</w>
shor tly</w>
shi pped</w>
shel ter</w>
sep tic</w>
sel s</w>
see ks</w>
sec ondary</w>
scen ario
scenario s</w>
sau ce</w>
s ự_thật</w>
s ổ_
s t_
s ounds</w>
s mugg
s atellite</w>
rup t</w>
ru ồi</w>
ru z</w>
ro yal</w>
ro s</w>
ro ll</w>
ris teller</w>
ri ting</w>
restric ted</w>
res orts</w>
res istant</w>
repatri ated</w>
rel s</w>
regi stration</w>
regi ster</w>
recomm end</w>
rec ession</w>
re sur
re fri
refri g
ra er</w>
r ắc_rối</w>
r ào_
r is</w>
r ad
que n_thu
quen_thu ộc</w>
qu ần_thể</w>
qu anti
qu al
pus h</w>
pul ation</w>
psycho logy</w>
proto co
protoco l</w>
prote ins</w>
pro secu
pro ficiency</w>
pri ori
priori tiz
preven ted</w>
prepar ation</w>
pre liminary</w>
pow ers</w>
port fo
portfo li
poc ong</w>
po wered</w>
play er</w>
pl eas
pic ked</w>
phương_ án</w>
phân_b ổ</w>
phát_ thanh</w>
phát_ ban</w>
physi cally</w>
pesti cides</w>
pers onal
perc ei
pen ding</w>
pan ic</w>
pa ir</w>
p ino</w>
p ink</w>
p ets</w>
p ath</w>
p a</w>
oun ded</w>
oun ce</w>
oro trast</w>
organis ms</w>
op tion</w>
op ti
oo m</w>
om i</w>
of lot</w>
o virus</w>
o ke</w>
nutri tion</w>
ni us</w>
nhận_ biết</w>
nhu_ yếu_phẩm</w>
nh_ph í</w>
nh ững_ai</w>
nh i</w>
nghĩa_ vụ</w>
nghĩa_ là</w>
nghi_ lễ</w>
ne y_
ne u
n ội</w>
n ế
n in
n avi
n av
n atur
mạ ch_
mạch_ máu</w>
mô i_
mosqu ito</w>
mis s</w>
minim ize</w>
mi x</w>
mi ting</w>
memb ran
medic inal</w>
mas ter</w>
maintain ed</w>
m ốc</w>
m ỏng</w>
m ạn</w>
m ươi</w>
m ô_phỏng</w>
m ist
m ates</w>
lợi_ dụng</w>
lời_ nói</w>
lã i</w>
là nh</w>
loc ate</w>
lo nging</w>
lim its</w>
licen sed</w>
li miting</w>
li ft</w>
let ting</w>
leng th</w>
le isure</w>
law makers</w>
la o_
l úc_
l ay</w>
kế_ toán</w>
kiế n_thức</w>
kindergar ten</w>
kilo gram</w>
kháng_ nguyên</w>
khuôn_ viên</w>
jo ining</w>
j us
iết_ kế</w>
iết_ bị</w>
is ition</w>
investig ating</w>
intru sion</w>
inspec tion</w>
inf ant</w>
in i</w>
improv ing</w>
il ian</w>
i_th ầu</w>
i ana</w>
i Phone</w>
i OS</w>
hợp_ chất</w>
học_ đường</w>
hàm_ lượng</w>
hur t</w>
hun ting</w>
hoá_ đơn</w>
hospital ized</w>
hoo ds</w>
ho ại</w>
hiện_th ời</w>
histor ic</w>
head quarters</w>
har der</w>
har d
h ùng_
h ò</w>
gó i_thầu</w>
gro cer
giải_ cứu</w>
gi ọt</w>
gi ft</w>
gi am</w>
ghi_ bàn</w>
g ánh</w>
g l
fri ed</w>
fresh water</w>
frau d</w>
fran ch
fr amework</w>
fore station</w>
fo ssil</w>
flo wn</w>
fertiliz er</w>
fer ry</w>
fan tas
fail ing</w>
f arms</w>
expres sway</w>
exc ep
ex trac
ex act</w>
ess _
escap ed</w>
er ings</w>
en trance</w>
emp ty</w>
emo tional</w>
emer ging</w>
emer gencies</w>
emb ar
eg nell</w>
ed ged</w>
eco system</w>
eas ing</w>
earthqu akes</w>
eal ing</w>
e z</w>
e tikofer</w>
e ng</w>
dự_ phòng</w>
dẫn_ viên</w>
du es</w>
dre w</w>
dr ama</w>
dr al</w>
doz en</w>
doub led</w>
don ors</w>
dispu te</w>
di ves</w>
di a
develop er</w>
den ly</w>
declar ations</w>
dea d
de fined</w>
dang er</w>
d ị</w>
d ệt_may</w>
d âm</w>
d or
d ay
d airy</w>
cứu_ hoả</w>
căn_ cứ</w>
công_ thức</w>
cách_ mạng</w>
cá_ cược</w>
cy ber
cul tiv
cu ps</w>
cr ashed</w>
cou ghing</w>
convers ation</w>
contribu tions</w>
cont est</w>
consid ers</w>
consid er
confid ent</w>
concentr ated</w>
con vic
con ta
compl etion</w>
compens ation</w>
comp ound</w>
comp li
comb ination</w>
coll ecting</w>
co stly</w>
co ordin
co ck</w>
co c
clou d</w>
clo th</w>
clim bed</w>
chứng_t ỏ</w>
chào_ đời</w>
chil d
chi ps</w>
chan nel</w>
ch ừng</w>
ch ảy_máu</w>
celeb rities</w>
cardi ovascular</w>
cap able</w>
cancell ation</w>
cac bon</w>
ca i_
c ất_
c ưng</w>
c ab
bắt_ tay</w>
bất_ kể</w>
bản_ quyền</w>
bình_ph ục</w>
bê_b ối</w>
báo_ động</w>
bàn_ tay</w>
bur ned</w>
bro thers</w>
bri ef
bran ch</w>
boy friend</w>
blu e</w>
ble eding</w>
bit es</w>
bid den</w>
bi tion</w>
ber y</w>
be t</w>
ban_ đêm</w>
bacter ium</w>
bac ked</w>
b ến_xe</w>
b ù_đắp</w>
b ê</w>
b locked</w>
b loc
b led</w>
b es
b ans</w>
b anh</w>
audi ences</w>
at em
asy mptomatic</w>
as signed</w>
as onic</w>
ar o</w>
annivers ary</w>
all er
all a</w>
algorith m</w>
al um
al ized</w>
al ed</w>
akh stan</w>
ak ed</w>
ail ed</w>
agg res
ag ree</w>
accur acy</w>
accep ted</w>
acc ept
ab s
a_ bán</w>
a t_
Zi ka</w>
Z u
Z one</w>
Y ến</w>
Y SEA
YSEA LI</w>
Wo zniak</w>
With out</w>
With in</w>
Win dows</w>
We b</w>
Wal sh</w>
W y
W it
W es
W el
W ei
Việt_ nam</w>
Việ n_
Vir gin
Vil nius</w>
VN00 54</w>
V ài</w>
V TV</w>
Ug anda</w>
US S</w>
US A</w>
U zbe
U p</w>
Trần_ Thị_
Trái_ Đất</w>
Trung_ Hoa</w>
Tru c</w>
Trinid ad</w>
Tr ading</w>
Thực_ tế</w>
Thế_vận_hội_M ùa_hè</w>
The_ Coffee_
Th ời</w>
Th ị</w>
Th orotrast</w>
Tech combank</w>
T ỷ_lệ</w>
T ô_
T un
T egnell</w>
T ea
T H</w>
Syri an</w>
Sy n
Stu dies</w>
St orm</w>
Spec i
Sil ver</w>
Se attle</w>
Scar borough</w>
Sal ustiano</w>
S in
S I</w>
Rec ently</w>
Rail way</w>
RON 95</w>
R um
R ou
R ome</w>
R aj
Quảng_ Bình</w>
Quá _trình</w>
Quyết_ định</w>
Qu ỹ_
Qu ỹ</w>
Q uy_
Po kem
Pl ay
Phoeni x</w>
Phi -
Peter sburg</w>
Pep siCo</w>
Pan asonic</w>
P av
Os lo</w>
Or acle</w>
OS HA</w>
O pp
O ne_
Nor ton</w>
Ni ên</w>
Ni k
Ni chol
Nhi ễ
Nguyễn_ Trường_Sơn</w>
Ng ai</w>
NC E</w>
N ow
N G
Mê_ Linh</w>
Mon aco</w>
Mo vie</w>
Mi ke</w>
Mari time</w>
Mal dives</w>
Mad uro</w>
M anh</w>
M a</w>
M D</w>
Long_ An</w>
Lad y</w>
L ink
L ex
L agos</w>
Kras no
Kaz akhstan</w>
K risteller</w>
K le
K im
K Y
K CN
KCN A</w>
John s_
Joh ns</w>
Jo e</w>
Jet star</w>
J as
Hà_ Lôi</w>
Hy giene</w>
Hun dreds</w>
Ho tels</w>
Hi en</w>
Hang- seo</w>
Han o
Ham let</w>
H ạnh</w>
H ương_
H im
H ealth
H al
Gu atem
Glob al_
Gia_ Lai</w>
Gi ải_
Gi êng</w>
Gh ana</w>
Geor g
Genev a</w>
Gen e
G overn
G ate</w>
G ao</w>
G 4</w>
Franc is</w>
Fin ancial</w>
Fili pino</w>
F o
F e
F R
Explo rer</w>
Er do
Emb raer</w>
Em manu
Elec tron
Eas tern</w>
E 5</w>
Dịch_t ễ_học</w>
Do ha</w>
Di ễn_đàn</w>
D ha
Cụ _thể</w>
Cần_ Thơ</w>
Công_ nghiệp</w>
Cro ati
Cre il</w>
Cong ress</w>
Con te</w>
Communic ations</w>
Chu ́ng</w>
Cha m
Ch ic
Ch ec
Cas es</w>
Car ol
Cambo dian</w>
CO C</w>
CO 2</w>
CB S</w>
C ửa_
C ây_
C zech</w>
C E</w>
Bến_ Tre</w>
Bình_ Thạnh</w>
Bu etikofer</w>
Braz ilian</w>
Bo ard</w>
Be er</w>
B ức</w>
B ạch</w>
B ão_
B on
B iden</w>
B eardson</w>
Am id</w>
Am bassador</w>
Air _
Aer oflot</w>
A g
8 0.000</w>
6 50</w>
5 10</w>
25 1</w>
20 50</w>
2. 2</w>
2 80</w>
2 40</w>
2 3%</w>
19 9</w>
18 .
17 9</w>
14 3</w>
12 .000</w>
12 %</w>
1. 1</w>
1 3.
1 1
0. 5</w>
’ ll</w>
ứ t_
ẫu_ nhiên</w>
̉ i</w>
̀ m</w>
ưa _thích</w>
Ướ c_
động_ lực</w>
đồng_ minh</w>
địa_ chất</w>
địa_ bàn</w>
đạo_ đức</w>
đu ̉</w>
đo ạt</w>
điều_tr ần</w>
đ ỉnh_
đ ắt_
Đ ộng_
Đ iểm</w>
ý_th ức</w>
òng_ n
òng_n ọc</w>
í_th ư</w>
í p</w>
é _
è n_l
èn_l uyện</w>
ã ng</w>
   
z on</w>
yp ill</w>
you th</w>
you ngest</w>
y_ ghép</w>
y m
y cle</w>
x ướng</w>
x ô</w>
wro ng</w>
worri es</w>
war nings</w>
w ns</w>
w a</w>
vừa_ rồi</w>
vật_ chất</w>
vũ _lực</w>
vu ̀ng</w>
vill agers</w>
vi ễn</w>
vi su
venti lation</w>
ve iled</w>
v ựng</w>
v ết_
v á</w>
uy _tín</w>
un veiled</w>
un expected</w>
u_tr ưởng</w>
u_th ầu</w>
u_ khách</w>
tập_ hợp</w>
tận_ hưởng</w>
tá n_
tw ins</w>
tw ater</w>
tuyệt_ chủng</w>
ts burgh</w>
transi ting</w>
tr ùm</w>
tr òn</w>
tr ích</w>
tr ag
tox ins</w>
tou ching</w>
to xin</w>
to l</w>
tiể u</w>
tiếp_ diễn</w>
tiế c</w>
tici ans</w>
ti tude</w>
ti mate</w>
ti ll</w>
ti ed</w>
ti an</w>
thời_ đại</w>
thống_ trị</w>
thế_ này</w>
thường_ trực</w>
thăm_ dò</w>
thích_ nghi</w>
thu a</w>
threat ening</w>
thous and</w>
the dral</w>
th ử_thách</w>
th ính</w>
th âm_
th áp</w>
th under
th ir
th ick</w>
ter min
tem ple</w>
te ly</w>
tain s</w>
ta g</w>
t- x
t ỉ_
t ầng_lớp</w>
t ạng</w>
t ường</w>
t ơ</w>
t ĩnh_
t ch</w>
t ap
t an</w>
t ably</w>
sơ _th
sơ_th ẩm</w>
sym pa
swe et</w>
susp ic
sup pl
subst anti
sub scri
su red</w>
strugg le</w>
storm qu
sto red</w>
ster ious</w>
ster ile</w>
startu ps</w>
st yle</w>
spid er</w>
spec ul
spac es</w>
sn akes</w>
slau ghter</w>
sinh_ nở</w>
sinh_ hoạt</w>
si zed</w>
shi r
sharehol der</w>
sh _
sex ually</w>
ser vo
sen iors</w>
sec retary</w>
sear ches</w>
se ngers</w>
se g
scre ened</w>
sal twater</w>
sal aries</w>
sai_l ầm</w>
sa ving</w>
s_ Coffee</w>
s ở_thích</w>
s ướng</w>
s ort</w>
s ons</w>
rush ed</w>
ru b
ric s</w>
ri ble</w>
resid ence</w>
requ ests</w>
repres ents</w>
ren tial</w>
reli able</w>
regul arly</w>
regar dless</w>
ref ers</w>
reduc es</w>
recruit ment</w>
rec overing</w>
rec overies</w>
reas onable</w>
real ized</w>
re servo
re serve</w>
re pu
re opening</w>
re la
re fu
re bird</w>
ra rely</w>
r ộn</w>
r èn_luyện</w>
r ho
rho sis</w>
r ank</w>
quốc_ hội</w>
qu ay_
promo ting</w>
prog res
produc es</w>
proc essed</w>
pro minent</w>
pro jected</w>
pri mar
primar ily</w>
pre mis
poli cem
plac ing</w>
pl u
pil gri
phân_ tử</w>
phá_ giá</w>
ph ải_
ph r
ph a
pesti ci
pestici de</w>
perf ect</w>
pati ng</w>
p- pin</w>
p se</w>
p d</w>
p apers</w>
ow ns</w>
ou ver</w>
ou ts</w>
organiz ing</w>
organiz ers</w>
oper ators</w>
oper ational</w>
op e</w>
oo th</w>
on ym
on set</w>
on ji</w>
on er</w>
om ing</w>
off erings</w>
obst acles</w>
ob served</w>
o_th ức</w>
o_th ang</w>
o zone</w>
o zon</w>
o ka</w>
o a</w>
nin th</w>
ni val</w>
nhạ c_sĩ</w>
nhân_ hoá</w>
nhà_ văn</w>
nhà_ tù</w>
nhà_ tài_trợ</w>
nh_ tay</w>
nh ảy_
nh a</w>
ngắn_ hạn</w>
nghiêm_ túc</w>
ngh ị_sĩ</w>
ng ẫu_nhiên</w>
ng áp</w>
ng  
nec k</w>
nea polis</w>
ne ed
natur ally</w>
n_đ ạo</w>
n_th ị</w>
một_ khi</w>
mộ ng</w>
môi_ giới</w>
máy_ chủ</w>
my sterious</w>
mur der</w>
mu a_bán</w>
mov ements</w>
mis information</w>
mer ch
men tion</w>
mem ories</w>
me tric</w>
mar king</w>
manufac tured</w>
manag ing</w>
manag ers</w>
m ood</w>
m ir</w>
m ai</w>
lục_ địa</w>
lux ury</w>
lu lar</w>
lo ads</w>
lis tening</w>
liqu id</w>
lin ks</w>
le o_thang</w>
le ase</w>
lar ation</w>
land s_Coffee</w>
l ươn</w>
l ĩnh</w>
l át</w>
l or</w>
l on</w>
l ers</w>
ki nh_phí</w>
khiếm_ thính</w>
khi êu_
kel ey</w>
k ịp</w>
k ẻ
k ì</w>
k ph</w>
k ies</w>
jus tice</w>
j ack
j a
isten ce</w>
introduc tion</w>
int ellec
ingredi ents</w>
ind a_
inc enti
in s
in a_
im pa
if ying</w>
i ting</w>
i fication</w>
i di
hồ ng_
hành_ hương</w>
hàng_ rào</w>
hyper tension</w>
hydro gen</w>
huy_ chương</w>
hur ric
hoạt_ hình</w>
hoàn_ tất</w>
hoàn_ cảnh</w>
hou sing</w>
hon ored</w>
hol ders</w>
ho ạn</w>
hiể n_thị</w>
hi red</w>
he w</w>
happ ening</w>
hal ted</w>
ha iling</w>
ha ck</w>
gu ides</w>
giờ_ đây</w>
gi ỏi</w>
gi ặt</w>
gi t</w>
g ắt</w>
g ây_
g un
g ases</w>
g ang</w>
foun dation</w>
fi nger</w>
fav or</w>
f led</w>
expor ter</w>
explo itation</w>
expl ains</w>
experi ment</w>
exac tly</w>
ev olution</w>
ev ac
evac uation</w>
et ery</w>
ester ol</w>
establish ments</w>
es tine</w>
ep ic
enti tled</w>
engine ers</w>
encour aging</w>
emo tions</w>
else where</w>
eli gible</w>
electric al</w>
el le
el i</w>
el ds</w>
ed ly</w>
ed a</w>
e on</w>
e m_
e ch
e .</w>
dump ing</w>
du ng_
dro ve</w>
dre aming</w>
distribu tion</w>
di versi
di esel</w>
dem anding</w>
del eg
deb ate</w>
d ập</w>
d are</w>
cứ ng_
cất_ cánh</w>
cấ y_ghép</w>
cơ_ bắp</w>
cơ m</w>
cy cle</w>
cu red</w>
cri tic
cooper ating</w>
coo ked</w>
control ling</w>
cont ext</w>
consu med</w>
cons istent</w>
concentr ation</w>
con doms</w>
complic ations</w>
competi tors</w>
co x</w>
co ins</w>
co co
civi li
chứng_ chỉ</w>
chăm_ chỉ</w>
chu ộng</w>
chu ́</w>
che onji</w>
chatbo t</w>
char ter</w>
celebr ations</w>
ce ed</w>
carri es</w>
care fully</w>
care ful</w>
cannab is</w>
canc el</w>
ca_ khúc</w>
c ối</w>
c ốc</w>
c ường</w>
c am</w>
bổ_ nhiệm</w>
bán_ phá_giá</w>
bur ial</w>
bu ôn</w>
bu t
broad cas
bri bery</w>
bott les</w>
bom b</w>
blo g</w>
bl amed</w>
bi nh_
ber ia</w>
beli ef</w>
beg ins</w>
bar rels</w>
ba ̀</w>
b ọ
b ãi_
b pd</w>
b ats</w>
ay a</w>
awai ting</w>
avo iding</w>
attac king</w>
attac ked</w>
ath ore</w>
at tribu
at al</w>
asser t</w>
ass ess</w>
asp ect</w>
arg o</w>
archipel agos</w>
appe al</w>
any where</w>
anti viral</w>
ang er</w>
anc ouver</w>
an no
an e
an ced</w>
alli gator</w>
alleg edly</w>
al o</w>
al lies</w>
al i</w>
ak ers</w>
ak er</w>
add ressed</w>
ad ic
ad diction</w>
acqu isition</w>
ac e_
ac compan
aband oned</w>
ab used</w>
ab eth</w>
a ero
_th ù</w>
_t ưởng</w>
_n ão</w>
_ Oblast</w>
Y em
X ô</w>
Wil den</w>
Wil cox</w>
W RI</w>
Vin ac
Vi ên</w>
Vene to</w>
VND 2</w>
V ol
V i</w>
V ancouver</w>
V T</w>
Un til</w>
UN I
UNI CE
UNICE F</w>
Tổng_c ộng</w>
Tổng_ giám_đốc</w>
Tu ần</w>
Tren ds</w>
Tra il</w>
Tr úc_
To m</w>
Tiế ng</w>
Tiế n_
Thủ_ Đức</w>
Thủ_ T
Thủ_T ướng</w>
Thương_ binh</w>
Thông_ báo</w>
Thanh_ Niên</w>
Th ần_
Tay lor</w>
Tao is
TH PT</w>
T iến</w>
T S</w>
T A</w>
Shin cheonji</w>
Sci ences</w>
Saf ety</w>
S áng_
S áng</w>
S oc
S en</w>
S UV</w>
Rob er
Ro s
Respon se</w>
Re present
Re ed</w>
R et
Quân_ đội</w>
Qu ý</w>
Poli cy</w>
Pit tsburgh</w>
Phi- lí
Ph ố</w>
Ph ước_
Per u</w>
Pep si</w>
Par adise</w>
Pal estine</w>
P ó</w>
P o</w>
P R</w>
P A</w>
O ld</w>
No el</w>
Người_ phát_ngôn</w>
Nguyễn_Đức_ Chung</w>
Nguyễn_ T
Nam_ Mỹ</w>
N is
N ice</w>
N S
N 1</w>
Musli m</w>
Mo tor</w>
Min neapolis</w>
Mi ke_
Met eorological</w>
Mar tin</w>
Mar athon</w>
Ma p</w>
M ới</w>
M ón</w>
M iền</w>
M and
M H
MH 370</w>
Ly rebird</w>
Los_ Angeles</w>
Lati n</w>
La c</w>
L ương</w>
L at</w>
L E</w>
Kyo to</w>
Không_ quân</w>
Kh u
K i</w>
Jus tin_
Ju li
Johns_ Hopkins</w>
Jack son</w>
JP Y</w>
J enni
J en
J ava</w>
J ama
Isra eli</w>
Infecti ous</w>
In telligence</w>
In stitu
I ris
I A
Hành_ động</w>
Hu ỳnh_
High lands_Coffee</w>
He il
Ha ving</w>
H ọc</w>
H ò
H eli
H aw
Gi ống</w>
Gi ấy</w>
Gi ai_
G y
G lobally</w>
G il
G eo
Fac e</w>
Es sex</w>
Eliz abeth</w>
E cho</w>
E Z</w>
E FA</w>
E EZ</w>
Dự_ kiến</w>
Dis ney</w>
Di ễn_
Dec laration</w>
Dani el</w>
D om
D er
D eb
D O
D .</w>
Cơ _sở</w>
Cà_ Mau</w>
Cu ban</w>
Coron a</w>
Con struction</w>
Co oper
Co ast</w>
Co .
Chuy ên_
Ch ất_
Cap ital</w>
CD 4</w>
C at</w>
C at
C arri
C T</w>
Bảo_ vệ</w>
Bình_ Chánh</w>
Bro wn</w>
Bris tol</w>
Bak u</w>
Bak ery</w>
B our
B e</w>
B ac
B I</w>
Ara b</w>
Andre w</w>
An_ ninh</w>
An ton
Am ir
Alex and
Al ter
Al liance</w>
AT M</w>
A ward</w>
A udi</w>
A ires</w>
A ar
A J
A .</w>
7. 5</w>
7 8</w>
7 5%</w>
7 0.000</w>
50 0.000</w>
5. 5</w>
4, 300</w>
4 20</w>
3. 3</w>
3 3,
25 ,000</w>
20 th</w>
2 28</w>
2 1,
199 0s</w>
198 5</w>
19 60</w>
16 5</w>
16 3</w>
16 2</w>
14 4</w>
14 ,
1 34</w>
1 3,
1 16</w>
0 9</w>
- la</w>
ử a_s
ửa_s ổ</w>
ức_ trách</w>
ủ i</w>
ờ _B
ờ_B iển_
ờ_Biển_ Ng
ồ _Đ
ồ_Đ ào_
ồ_Đào_ Nha</w>
ệnh_ lệnh</w>
ẹ_ nh
ẹ n_
ẹn_ hò</w>
ắp_ nơi</w>
ắm_ bắt</w>
ận_ rộn</w>
ẫ u</w>
ất_ nhiên</w>
ảnh_ khắc</w>
ả_ hoạn</w>
̣ i</w>
̀ a</w>
ương_ mặt</w>
ương_ mù</w>
Ước_ tính</w>
ĩnh_ viễn</w>
đột_ biến</w>
độc_ tính</w>
đối_ thoại</w>
đối_ lập</w>
định_ nghĩa</w>
đắt_ đỏ</w>
đấ u_thầu</w>
đá _
điện_ ảnh</w>
điện_ ngầm</w>
đa_dạng_ hoá</w>
đa_ dạng</w>
đa u_đ
đau_đ ớn</w>
đ ựng</w>
đ ời_
đ ạn</w>
đ úng_
đ à</w>
Đông_ Nam</w>
Đo òng</w>
Đ ừng</w>
Đ ị
Đ ình</w>
ăng_ dầu</w>
ăn_ mừng</w>
ăm_ sóc</w>
ôn_ học</w>
ì _thế</w>
ế u</w>
êu_ tả</w>
é p_
ã _
á t_
ài_ đặt</w>
à_ phòng</w>
y ên_
y ar
xi nh_
xa_ x
x à_phòng</w>
x uố
x _
work places</w>
wit n
win ning</w>
who les
wal ks</w>
w riting</w>
w oo
vị t</w>
vết_ thương</w>
vô_t ình</w>
vô_ gia_
vô_gia_ cư</w>
vo tes</w>
vo ters</w>
vo ted</w>
viol ation</w>
v ẹn</w>
v ắng</w>
v ươn</w>
v ĩnh_viễn</w>
v in</w>
v ast</w>
uy en</w>
us _
ur is
u_h ộ</w>
u ti
u ph
u gh
tỷ_ số</w>
tự _h
tự_h ào</w>
từ_ vựng</w>
tội_ danh</w>
tồn_ kho</w>
tố _
tính_ cách</w>
tác_ nhân</w>
tác_ hại</w>
tw in</w>
tuổ i_th
tuổi_th ọ</w>
tuy ệt</w>
tu ̣c</w>
tt i</w>
trực_ thuộc</w>
trợ_ giúp</w>
tric k</w>
tri an</w>
transpor ting</w>
transi t</w>
tran ded</w>
