, 26019
the 23799
. 20559
to 12924
of 12493
and 12039
và 11182
in 10179
a 8530
của 8084
các 7540
đã 7469
một 6760
" 6183
được 6181
có 6105
- 6030
trong 5364
người 5355
cho 5322
là 4963
với 4387
for 4211
on 4060
The 4001
ở 3805
is 3720
vào 3657
that 3607
đến 3428
những 3399
tháng 3250
tại 3225
không 3211
từ 3202
with 3040
ngày 3013
from 2969
năm 2870
Việt 2851
để 2850
khi 2804
công 2793
này 2769
was 2580
thể 2574
Nam 2532
as 2483
bị 2465
at 2463
số 2416
về 2308
sẽ 2287
are 2244
’s 2222
) 2216
by 2213
have 2211
has 2201
bệnh 2181
đầu 2155
Vietnam 2126
việc 2067
an 2065
trường 2050
nhân 2043
nhà 1974
' 1928
sự 1928
be 1926
gia 1914
ra 1905
said 1893
thành 1891
hợp 1831
trên 1825
rằng 1803
it 1780
( 1749
Trung 1682
quan 1662
đang 1635
thứ 1596
hàng 1583
biết 1581
dịch 1571
19 1560
nước 1551
học 1534
quốc 1504
or 1491
như 1473
nhận 1470
tế 1466
hiện 1464
were 1458
động 1458
Quốc 1441
nhiễm 1433
họ 1423
sau 1401
” 1401
phát 1390
hơn 1388
dụng 1378
had 1373
nhiều 1351
do 1345
ông 1340
cách 1330
cũng 1330
year 1318
not 1305
chính 1302
báo 1301
làm 1296
people 1289
cả 1285
been 1278
thông 1277
điều 1263
will 1241
đó 1226
“ 1216
their 1210
viên 1178
lại 1171
who 1167
theo 1165
nhất 1161
its 1133
phải 1131
's 1128
(@@ 1127
chỉ 1122
also 1116
xuất 1095
hai 1072
hành 1065
cơ 1061
Các 1056
xác 1055
March 1052
coronavirus 1048
đồng 1043
more 1026
khác 1020
this 1016
hoặc 1009
3 1003
y 1001
thực 997
can 985
cuộc 984
trở 983
they 982
ty 979
dân 972
triệu 971
2 961
sử 958
sản 951
định 946
Covid 943
đối 941
first 933
tiếp 928
thời 927
sinh 923
Vào 915
cases 915
virus 915
tăng 914
mới 911
which 910
phố 905
On 904
con 896
chức 888
viện 886
In 881
mà 875
cầu 866
vì 864
Bộ 861
China 861
trước 856
1 855
thế 852
two 848
bay 845
bao 842
one 842
after 830
cứu 830
đại 830
khách 827
all 826
other 825
t@@ 823
vụ 823
he 821
10 816
cáo 808
Hoa 803
but 803
thấy 798
đi 795
lên 794
tính 792
toàn 790
than 789
nghiệm 786
pháp 781
: 779
his 779
nhưng 777
Hà 775
country 775
tin 775
b@@ 771
cấp 770
“@@ 770
chúng 768
so 768
bởi 760
giảm 759
lớn 756
new 755
gồm 754
lượng 753
đưa 750
liên 749
s@@ 748
bạn 735
khu 734
trị 734
Vietnamese 731
trung 731
tiên 730
d@@ 728
du 727
kiểm 724
qua 720
giới 719
bắt 717
her 717
cao 715
giá 711
S@@ 710
hội 708
million 708
tỉnh 707
confirmed 706
Một 703
địa 698
tôi 689
ca 688
bằng 687
2020 686
lý 684
""@@ 681
bố 681
B@@ 679
lịch 679
kết 678
up 675
A 672
H@@ 672
tâm 671
nghiên 667
cô 666
cùng 663
m@@ 663
would 662
còn 661
T@@ 657
about 653
c@@ 652
ly 651
you 649
4 646
over 642
phòng 642
Anh 633
phương 630
M@@ 624
mình 623
3@@ 622
ch@@ 621
Covid-19 620
dự 620
quyền 615
gần 613
I 610
5 608
truyền 608
máy 606
loại 602
time 602
điểm 602
l@@ 599
trình 599
C@@ 598
– 598
ta 597
tình 597
triển 596
cảnh 594
n@@ 594
tuổi 594
tỷ 593
vực 592
đề 592
chứng 591
$ 588
độ 587
cửa 584
Trong 580
nói 580
percent 580
phủ 580
yêu 580
phụ 577
thị 576
7 573
ứng 573
hoạt 572
nữ 572
tất 569
năng 568
bộ 567
It 566
sức 566
thường 565
health 564
hệ 563
tự 562
v@@ 562
khoảng 559
old 559
she 559
Ông 558
phần 553
thống 551
15 550
Bệnh 549
anh 548
gây 547
Theo 545
bất 545
ảnh 545
nghiệp 543
L@@ 542
vẫn 541
Hanoi 540
nơi 537
tới 532
xét 532
ba 530
bảo 530
r@@ 530
hình 529
He 528
cần 527
giải 527
hôm 523
rất 523
some 520
sát 519
6 518
case 518
th@@ 517
h@@ 516
in@@ 516
ngoài 516
them 515
nó 514
tử 514
many 512
sở 512
'@@ 511
countries 511
4@@ 508
N@@ 508
into 508
quả 508
14 507
20 506
3, 506
ban 506
g@@ 506
when 505
nào 504
reported 503
thu 502
day 501
thiết 500
8 497
years 496
Y 495
o 495
-@@ 493
U. 493
ng@@ 492
phẩm 492
khẩu 491
including 490
tư 490
Chinese 489
trẻ 489
30 488
t 488
Công 487
Health 485
liệu 484
nên 484
tìm 484
"@@ 482
K@@ 482
đô 482
k@@ 479
] 476
chuyến 476
đây 476
đường 475
out 474
kinh 473
nhập 473
gian 469
kể 469
tra 469
tác 467
12 466
; 466
tạo 466
could 465
kỳ 465
three 465
last 464
lần 464
chuyển 463
điện 463
re@@ 462
being 460
government 460
[ 458
G@@ 456
chủ 454
tổ 454
D@@ 453
number 453
only 453
tiền 453
p@@ 451
Nội 450
cộng 448
mặt 448
này. 448
sĩ 448
world 448
R@@ 447
lây 446
trang 446
tập 446
tài 445
e 444
doanh 443
lực 443
đó, 443
Kỳ 441
ăn 441
sống 439
trưởng 439
xã 439
days 437
xe 437
there 435
9 433
đất 432
hiệu 430
vấn 430
án 430
lập 428
city 427
ing 427
mọi 427
tổng 427
chất 425
quyết 425
giao 423
đóng 423
i@@ 422
s 422
un@@ 421
% 420
S. 419
em 419
trọng 418
đình 418
mức 417
tiếng 417
es 416
Đại 416
vị 415
bán 414
may 413
COVID 412
no 411
dẫn 410
kế 410
tr@@ 410
most 409
thì 409
i 408
such 408
tuyên 407
A@@ 404
V@@ 404
hạn 404
phép 403
giúp 402
vật 402
gọi 401
home 401
February 400
Hospital 400
giờ 400
đổi 399
cung 397
khỏe 396
tiêu 396
5@@ 395
thức 394
mỗi 393
pandemic 393
while 393
đàn 391
Ministry 390
This 390
P@@ 389
thương 388
trợ 387
11 386
since 386
Mỹ 385
South 385
cuối 384
Nam, 381
District 380
vi 380
hay 378
thay 378
tuần 378
khí 377
like 377
thêm 376
use 376
đánh 375
hưởng 373
bản 372
company 371
patients 371
if 370
y@@ 370
en@@ 369
tương 368
chế 367
chiến 366
ý 366
phía 365
chống 364
@@ 363
before 363
bình 363
er 363
high 362
man 362
New 361
đ@@ 360
according 359
announced 358
biến 358
25 354
bỏ 354
quá 354
Những 353
16 351
F@@ 351
này, 350
positive 349
disease 348
kiến 348
o@@ 348
we 348
giữa 347
thuộc 347
cảm 346
well 346
al@@ 345
around 345
e@@ 345
chia 344
tham 344
sách 343
thủ 343
vùng 342
đặc 342
diễn 341
m 341
đều 340
2@@ 339
khoa 339
under 339
Minh 338
Nguyễn 338
E@@ 337
hoạch 337
mạnh 337
those 337
trực 337
between 335
nghệ 335
thuốc 335
used 335
Nguyen 334
public 334
tục 332
6@@ 331
a@@ 331
ation 331
chuyên 331
cá 331
tested 331
United 330
local 329
these 329
dương 328
u@@ 327
biệt 325
2019 324
nếu 324
mua 323
trí 323
They 322
biện 322
Nhật 321
soát 321
sáng 321
.', 319
lan 319
nguy 319
now 319
She 318
f@@ 318
er@@ 317
khỏi 317
work 315
ed 314
hoàn 314
hóa 314
17 313
patient 312
13 310
dùng 310
thử 310
City 309
because 309
kiện 309
áp 309
22 308
Thanh 308
found 308
on@@ 307
quarantine 307
8@@ 306
Thái 306
gì 306
mở 306
children 305
7@@ 303
vệ 303
24 302
April 301
O@@ 301
a, 300
nguồn 300
HCMC 299
dis@@ 299
nh@@ 299
x@@ 299
đặt 299
ate 298
giáo 298
mang 298
tốt 298
where 298
Bắc 297
chết 297
Hai 296
đốc 296
Ch@@ 295
am@@ 295
23 294
nhóm 293
ít 291
four 290
Đà 290
đạo 289
18 288
medical 288
ô 288
I@@ 287
hospital 287
chưa 286
same 286
take 286
khả 285
u 285
vận 285
sang 284
An 283
nhiên, 283
w@@ 283
9@@ 282
Nam. 282
authorities 282
." 281
Chính 281
Th@@ 281
an@@ 281
billion 281
của 281
vaccine 281
ers 280
made 280
through 280
Hàn 279
['@@ 279
ngăn 279
quy 279
woman 279
bác 278
châu 278
ar@@ 276
giám 276
Tuy 275
during 275
it@@ 275
tấn 275
27 274
January 274
make 274
hồi 273
province 273
COVID-19 272
nay 272
thuật 272
chi 271
phục 271
National 270
any 270
dài 270
total 270
xúc 270
Trump 269
al 269
ting 269
As 268
di 268
khiến 268
ghi 267
Đông 267
2020, 266
due 266
tàu 266
xảy 266
"" 265
chiếc 265
/ 264
But 264
told 264
Người 263
hết 263
50 262
giữ 262
help 262
nguyên 262
sẻ 262
ti@@ 262
According 261
Sau 261
spread 261
J@@ 260
just 260
lãnh 260
outbreak 260
vong 260
26 259
against 259
cấm 259
miền 259
nay, 259
), 258
khó 258
la 258
lợi 258
social 258
your 258
28 257
based 257
cư 257
still 257
trạng 257
n 256
phản 256
1@@ 255
air 253
areas 253
as@@ 253
month 253
tên 253
infection 252
li@@ 252
market 252
ated 251
Province 250
dù 250
tích 250
21 249
bài 249
school 249
đoàn 249
hướng 248
xem 248
yếu 248
W@@ 247
bùng 246
cổ 246
danh 246
lời 245
phân 245
hỗ 244
muốn 244
mạng 244
mất 244
thích 244
100 243
Tổng 243
family 243
ng. 243
ph@@ 243
says 243
biểu 242
bà 242
down 242
ts 242
Vũ 241
bên 241
cái 241
students 240
TP 239
infected 239
tuổi, 239
Facebook 238
a. 238
i, 238
second 238
sân 238
tuyến 238
Bình 237
quản 237
âm 237
Hồ 236
five 236
information 236
international 236
several 236
st@@ 236
both 235
cố 235
trả 234
phạm 233
tranh 233
Minister 232
ted 232
Quang 231
able 231
tiến 231
travel 231
2, 230
Họ 230
lệnh 230
should 230
Nhưng 229
minh 229
national 229
Thủ 228
nhiên 228
what 228
However 227
Quốc, 227
rộng 227
Đ@@ 227
Chủ 226
ad@@ 226
buộc 226
khai 226
đội 225
). 224
ha@@ 224
lệ 224
nhiệt 224
States 223
biển 223
contact 223
food 223
off 223
per 223
tiết 223
đảo 223
even 222
get 222
months 222
then 222
Thành 221
back 221
University 220
ating 220
land 220
lo@@ 220
.'] 219
en 219
ng, 219
diện 218
nhanh 218
nổi 218
thi 218
tướng 218
vài 218
xây 218
until 217
xuống 217
ấy 217
Lan 216
đoạn 216
phí 215
police 215
đáng 215
đơn 215
hãng 214
’ 214
Korea 213
bé 213
chí 213
each 213
el@@ 213
es@@ 213
study 213
t, 213
chặn 212
di@@ 212
dục 212
gi@@ 212
long 212
tay 212
hộ 211
kiếm 211
p 211
j@@ 210
miễn 210
mắc 210
thanh 210
tịch 210
văn 210
i. 209
our 209
vòng 209
độc 209
Bản 208
treatment 208
at@@ 207
group 207
person 207
trùng 207
women 207
dựng 206
measures 206
risk 206
19@@ 205
did 205
ký 205
nhau 205
part 205
qu@@ 205
called 204
dưới 204
kỹ 204
luật 204
next 204
nghi 204
report 204
ai 203
chương 203
co@@ 203
set 203
way 203
đạt 203
đồ 203
Airlines 202
Tại 202
cụ 202
flight 202
ngay 202
top 202
vi@@ 202
week 202
40 201
ab@@ 201
hữu 201
central 200
ngành 200
vắc-xin 200
xử 200
U@@ 199
age 199
chuẩn 199
con@@ 199
or@@ 199
ro@@ 199
31 198
n, 198
Khi 197
media 197
nhiệm 197
online 197
Department 196
World 196
bốn 196
trận 196
very 196
workers 196
June 195
mục 195
place 195
lo 194
từng 194
without 194
International 193
Tây 193
phim 193
đủ 193
Japan 192
Long 192
gửi 192
nghiêm 192
using 192
29 191
càng 191
him 191
huyện 191
lưu 191
us 191
water 191
Bà 190
C 190
Da 190
death 190
gặp 190
hậu 190
em@@ 189
video 189
am 188
among 188
control 188
nghỉ 188
quân 188
ri@@ 188
thiếu 188
Năm 187
Quảng 187
foreign 187
state 187
system 187
xin 187
đứng 187
May 186
Ninh 186
quận 186
câu 185
later 185
nam 185
say 185
.” 184
Liên 184
phi 184
— 184
chăm 183
họp 183
nghĩa 183
nhằm 183
phá 183
tượng 183
z@@ 183
If 182
July 182
end 182
major 182
mối 182
research 182
đăng 182
ước 182
2018 181
Italy 181
khác. 181
mẹ 181
Chí 180
Sa 180
Tr@@ 180
US 180
ent 180
infections 180
lễ 180
mặc 180
ngừa 180
working 180
is@@ 179
services 179
test 179
known 178
nhỏ 178
nặng 178
nền 178
phê 178
căn 177
ho@@ 177
life 177
mẫu 177
nạn 177
ac@@ 176
become 176
cây 176
data 176
gái 176
Điều 176
đảm 176
Wuhan 175
came 175
deaths 175
director 175
m, 175
my 175
mô 175
tion 175
trò 175
18@@ 174
X@@ 174
added 174
flights 174
hại 174
môi 174
returned 174
vô 174
trách 173
Á 173
Ba 172
Ngày 172
Trường 172
We 172
face 172
il@@ 172
lúc 172
n. 172
symptoms 172
thoại 172
tối 172
Quốc. 171
VND@@ 171
de@@ 171
sóc 171
3. 170
August 170
corona 170
dõi 170
đấu 170
Hong 169
biên 169
body 169
lao 169
người. 169
""." 168
nghị 168
tải 168
Cô 167
HCM 167
caused 167
kh@@ 167
khoản 167
o, 167
vậy 167
another 166
cu@@ 166
early 166
products 166
taken 166
Binh 165
For 165
Nẵng 165
Thế 165
WHO 165
go 165
how 165
luận 165
nội 165
red 165
Nhà 164
Z@@ 164
companies 164
cạnh 164
dữ 164
họ. 164
nông 164
phổ 164
thư 164
thấp 164
đông 164
chọn 163
duy 163
dành 163
k 163
khuyến 163
nằm 163
n’t 163
suy 163
1,@@ 162
Hồng 162
Mai 162
Nang 162
ations 162
nâng 162
order 162
passengers 162
tạm 162
AI 161
Nếu 161
dựa 161
ex@@ 161
hơn. 161
include 161
ine 161
ngoại 161
northern 161
support 161
t. 161
thúc 161
? 160
care 160
l 160
tức 160
After 159
Chi 159
Malaysia 159
VND 159
Y@@ 159
chịu 159
mùa 159
rice 159
sàng 159
team 159
thăm 159
"", 158
Thailand 158
community 158
cứ 158
trải 158
Friday 157
close 157
come 157
least 157
much 157
tránh 157
tế, 157
200 156
Ph@@ 156
bu@@ 156
expected 156
hủy 156
mại 156
quarantined 156
tội 156
Ấn 156
500 155
Google 155
Hoàng 155
Iran 155
asked 155
Đức 155
At 154
One 154
area 154
business 154
cập 154
hút 154
ministry 154
need 154
riêng 154
six 154
vừa 154
biết, 153
hầu 153
.@@ 152
Al@@ 152
Hải 152
Son 152
biết. 152
masks 152
nghĩ 152
phó 152
thải 152
Philippines 151
human 151
kỷ 151
n't 151
quán 151
ve 151
đó. 151
2,@@ 150
Văn 150
et 150
following 150
giai 150
region 150
sao 150
Đây 150
10@@ 149
Asia 149
Ha 149
Monday 149
TikTok 149
citizens 149
developed 149
every 149
phiếu 149
Covid-19. 148
across 148
c 148
me 148
60 147
et@@ 147
global 147
khác, 147
late 147
lớp 147
officials 147
others 147
schools 147
/@@ 146
Kh@@ 146
hỏi 146
ir@@ 146
less 146
lấy 146
money 146
must 146
phạt 146
technology 146
ur@@ 146
1.@@ 145
2016 145
There 145
bang 145
cực 145
ding 145
giới. 145
kéo 145
low 145
making 145
ol@@ 145
sent 145
đời 145
Gi@@ 144
Nga 144
Van 144
closed 144
led 144
nhu 144
to@@ 144
good 143
ic@@ 143
si@@ 143
”. 143
HIV 142
Ng@@ 142
capital 142
chơi 142
head 142
mình. 142
món 142
phong 142
quần 142
uống 142
President 141
Sơn 141
Wednesday 141
chuyện 141
largest 141
lu@@ 141
members 141
own 141
prevent 141
put 141
ra, 141
thân 141
trái 141
70 140
chủng 140
far 140
hạ 140
ngày. 140
does 139
dấu 139
giả 139
khẩn 139
morning 139
ngại 139
recent 139
đứa 139
Li@@ 138
Singapore 138
ant 138
bắc 138
cử 138
men 138
ngôn 138
related 138
ter 138
tiện 138
y, 138
1, 137
Châu 137
om@@ 137
se 137
see 137
show 137
testing 137
thiện 137
đầy 137
ang@@ 136
ia 136
kêu 136
times 136
u, 136
đẩy 136
Ngoài 135
ag@@ 135
de 135
development 135
dễ 135
few 135
hit 135
night 135
novel 135
quay 135
results 135
third 135
đoán 135
"""@@ 134
These 134
Thị 134
Trước 134
large 134
list 134
official 134
past 134
sp@@ 134
tế. 134
200@@ 133
In@@ 133
Kim 133
Many 133
Mar@@ 133
ong 133
production 133
trì 133
Covid-19, 132
Giám 132
Ho 132
Viện 132
When 132
experts 132
hiểu 132
xếp 132
​​@@ 132
0@@ 131
15@@ 131
Some 131
chấp 131
cải 131
died 131
hours 131
weeks 131
Ý 131
Center 130
Sunday 130
ch 130
cities 130
g 130
half 130
im@@ 130
increase 130
news 130
ngày, 130
ru@@ 130
seven 130
users 130
Giang 129
Tuesday 129
be@@ 129
d 129
having 129
loài 129
mắt 129
returning 129
rõ 129
American 128
Dong 128
Mo@@ 128
bổ 128
important 128
plans 128
provinces 128
sáu 128
300 127
Asian 127
Việc 127
als 127
b 127
cơn 127
kháng 127
m. 127
ích 127
2017 126
Patient 126
\ 126
cánh 126
nghìn 126
sơ 126
tourists 126
.""" 125
France 125
Kong 125
Korean 125
Zealand 125
e, 125
nhìn 125
nước. 125
stay 125
tưởng 125
ung 125
vọng 125
25@@ 124
Australia 124
Không 124
chiếm 124
giới, 124
hấp 124
pl@@ 124
rời 124
showed 124
young 124
2020. 123
Sea 123
border 123
change 123
lâu 123
nỗ 123
pro@@ 123
right 123
thí 123
Âu 123
All 122
Cơ 122
Do 122
People 122
affected 122
ans 122
bo@@ 122
buổi 122
bóng 122
earlier 122
hòa 122
meeting 122
per@@ 122
period 122
researchers 122
sa@@ 122
thập 122
đá 122
Kỳ, 121
Saturday 121
dầu 121
máu 121
ngờ 121
nhạc 121
ous 121
po@@ 121
pre@@ 121
suspended 121
taking 121
within 121
Indonesia 120
further 120
ic 120
le@@ 120
lạc 120
nửa 120
result 120
s, 120
son 120
ter@@ 120
took 120
Biển 119
blood 119
chung 119
coi 119
different 119
level 119
ou@@ 119
recently 119
security 119
staff 119
sư 119
sớm 119
toán 119
Đài 119
Ar@@ 118
Co@@ 118
Nhiều 118
gốc 118
hi@@ 118
khăn 118
might 118
nearly 118
nóng 118
siêu 118
su@@ 118
trăm 118
vốn 118
chú 117
cắt 117
line 117
no@@ 117
tố 117
20@@ 116
3,@@ 116
39 116
Có 116
Pháp 116
Tất 116
activities 116
dạng 116
industry 116
khủng 116
kích 116
project 116
recorded 116
tòa 116
us@@ 116
vai 116
400 115
Anh, 115
Internet 115
away 115
bàn 115
giống 115
inter@@ 115
negative 115
over@@ 115
phiên 115
tinh 115
trai 115
trước, 115
worth 115
Control 114
September 114
ago 114
better 114
continue 114
da 114
ds 114
increased 114
population 114
suất 114
te 114
thở 114
web 114
đợt 114
India 113
Nó 113
Prime 113
State 113
Sự 113
economic 113
for@@ 113
free 113
phổi 113
thuận 113
viêm 113
36 112
Ban 112
Central 112
SARS 112
T 112
Từ 112
ded 112
demand 112
doctors 112
law 112
likely 112
mưa 112
nhật 112
released 112
sẵn 112
treated 112
trước. 112
y. 112
đôi 112
An@@ 111
Phó 111
allowed 111
ar 111
ary 111
bi@@ 111
child 111
events 111
hospitals 111
niên 111
th 111
tuyển 111
CEO 110
General 110
ak@@ 110
drug 110
heart 110
received 110
residents 110
safety 110
thật 110
tim 110
Ở 110
2.@@ 109
Cho 109
Ngoại 109
given 109
lot 109
người, 109
pe@@ 109
quality 109
thiệt 109
waste 109
16@@ 108
English 108
Qu@@ 108
Saigon 108
York 108
center 108
eight 108
giấy 108
going 108
lĩnh 108
nay. 108
nữa 108
o. 108
often 108
power 108
ul@@ 108
Độ 108
Air 107
Con@@ 107
diseases 107
est 107
gh@@ 107
sh@@ 107
thậm 107
tồn 107
áo 107
,” 106
Ro@@ 106
Russia 106
Thursday 106
cost 106
especially 106
game 106
khắp 106
living 106
năm. 106
places 106
reports 106
response 106
thái 106
26@@ 105
And 105
Phu 105
chứa 105
el 105
employees 105
giết 105
prices 105
ro 105
service 105
suspected 105
trừ 105
tu@@ 105
x 105
Hiệp 104
Japanese 104
Re@@ 104
c. 104
gắng 104
held 104
hoãn 104
hô 104
khởi 104
loạt 104
mu@@ 104
rate 104
small 104
thu@@ 104
via 104
vợ 104
Cộng 103
Institute 103
Pacific 103
US$ 103
Với 103
cha 103
chuỗi 103
cường 103
decided 103
find 103
mới. 103
năm, 103
parents 103
pollution 103
price 103
ra@@ 103
rừng 103
ship 103
sạn 103
đa 103
đáp 103
35 102
ASEAN 102
Chúng 102
Germany 102
Government 102
London 102
Nội, 102
Sở 102
To 102
bước 102
chóng 102
department 102
h 102
hiểm 102
hải 102
know 102
lâm 102
sốt 102
too 102
went 102
! 101
14@@ 101
British 101
Reuters 101
UK 101
c, 101
dừng 101
internet 101
plan 101
popular 101
sa 101
statement 101
thất 101
tờ 101
ổn 101
1,000 100
4, 100
Danang 100
ay@@ 100
decision 100
ec@@ 100
fi@@ 100
góp 100
mother 100
ngân 100
situation 100
start 100
started 100
sứ 100
tái 100
Nh@@ 99
Phát 99
S 99
Trần 99
With 99
ally 99
already 99
an, 99
ap@@ 99
ates 99
average 99
bức 99
coming 99
cận 99
enough 99
epidemic 99
feel 99
highest 99
ni@@ 99
ninh 99
pay 99
process 99
sung 99
tests 99
want 99
& 98
Mặc 98
Tổ 98
Vingroup 98
emergency 98
f 98
facilities 98
fever 98
firm 98
la@@ 98
lộ 98
noted 98
today 98
trillion 98
xuyên 98
3.@@ 97
Airport 97
Vi@@ 97
ay 97
began 97
best 97
businesses 97
bảy 97
bệnh. 97
cause 97
chặt 97
ed@@ 97
growth 97
hôn 97
leading 97
live 97
phù 97
provide 97
term 97
thịt 97
transmission 97
Hán 96
Hội 96
Kể 96
along 96
chu@@ 96
deputy 96
do@@ 96
management 96
ngôi 96
oil 96
ors 96
outside 96
so@@ 96
sợ 96
ver@@ 96
á@@ 96
24@@ 95
45 95
and@@ 95
ang 95
currently 95
levels 95
me@@ 95
op@@ 95
sóng 95
territories 95
think 95
vũ 95
198@@ 94
4.@@ 94
7, 94
:@@ 94
Apple 94
North 94
almost 94
au@@ 94
chạy 94
gấp 94
km 94
lives 94
mo@@ 94
scientists 94
tions 94
”, 94
34 93
COVID-19. 93
Europe 93
Le@@ 93
Washington 93
addition 93
distancing 93
evidence 93
move 93
màu 93
nation 93
ngoái, 93
ngừng 93
nhấn 93
open 93
strong 93
sâu 93
tiêm 93
viết 93
October 92
Paris 92
Phúc 92
Tokyo 92
USD 92
app 92
bringing 92
buýt 92
conditions 92
cậu 92
growing 92
ment 92
nối 92
ra. 92
sông 92
tons 92
um 92
z 92
é@@ 92
đây, 92
đới 92
ủng 92
East 91
Park 91
Vì 91
ance 91
bão 91
chiều 91
considered 91
ence 91
former 91
hoảng 91
out@@ 91
required 91
respiratory 91
rủi 91
se@@ 91
southern 91
starting 91
student 91
thưởng 91
trú 91
vượt 91
xa 91
Disease 90
Dịch 90
Kỳ. 90
Le 90
Nghiên 90
Southeast 90
Tập 90
available 90
avoid 90
chúng 90
huyết 90
killed 90
king 90
ng 90
sắc 90
thiểu 90
u. 90
43 89
Bạch 89
CDC 89
November 89
Pakistan 89
Q@@ 89
Sáu 89
Two 89
Xuân 89
car 89
chồng 89
common 89
customers 89
discharged 89
give 89
hạng 89
học, 89
lại. 89
mình, 89
nước, 89
qua, 89
return 89
trao 89
visitors 89
Ủy 89
90 88
B 88
Microsoft 88
Nguyên 88
Public 88
Thi 88
Thông 88
Trang 88
arrived 88
hương 88
issued 88
ks 88
kẻ 88
mới, 88
ne@@ 88
recovered 88
rác 88
tạp 88
tổn 88
tụ 88
vaccines 88
đám 88
17@@ 87
800 87
European 87
Ho@@ 87
P 87
Phuc 87
Tran 87
Tư 87
Vương 87
YouTube 87
admitted 87
ci@@ 87
com@@ 87
develop 87
domestic 87
estimated 87
fight 87
gu@@ 87
khuẩn 87
khảo 87
latest 87
lòng 87
shows 87
site 87
visa 87
vậy, 87
… 87
80 86
Par@@ 86
Taiwan 86
Tan 86
became 86
comes 86
cà 86
developing 86
gan 86
hơn, 86
le 86
military 86
ngh@@ 86
similar 86
things 86
thuế 86
tourism 86
website 86
đổ 86
0.@@ 85
Cup 85
Group 85
Hàng 85
Thai 85
Tân 85
Tôi 85
agencies 85
ative 85
bối 85
chân 85
cũng 85
dưỡng 85
ling 85
possible 85
problems 85
restrictions 85
rights 85
trụ 85
đau 85
đeo 85
2015 84
Company 84
Kinh 84
approved 84
bầu 84
heavy 84
left 84
par@@ 84
parts 84
personal 84
phone 84
ters 84
vàng 84
ánh 84
đích 84
đồng. 84
đột 84
ẩn 84
38 83
65 83
8.@@ 83
Diseases 83
Giáo 83
Nha 83
Sh@@ 83
bào 83
chị 83
gạo 83
khích 83
lower 83
operations 83
previous 83
reduce 83
share 83
thảo 83
ô@@ 83
đe 83
đêm 83
0,@@ 82
6, 82
Bach 82
CoV 82
Committee 82
Cục 82
Donald 82
Samsung 82
To@@ 82
active 82
big 82
entering 82
example 82
groups 82
higher 82
khuyên 82
khám 82
leave 82
mi@@ 82
near 82
nghe 82
nhà. 82
quảng 82
run 82
sed 82
stop 82
str@@ 82
suốt 82
ten@@ 82
thổ 82
ton 82
tệ 82
tốc 82
vắc 82
Đồng 82
,@@ 81
37 81
4,@@ 81
5.@@ 81
Ad@@ 81
Canada 81
La 81
Lê 81
Số 81
Và 81
bảng 81
duyệt 81
ever 81
giác 81
id@@ 81
impact 81
individuals 81
ist 81
jobs 81
khẳng 81
means 81
phán 81
really 81
regulations 81
rơi 81
saying 81
tuân 81
viện. 81
yet 81
Để 81
ấn 81
5,@@ 80
Lo@@ 80
Phi 80
Phú 80
Since 80
Sài 80
car@@ 80
cháy 80
dịch. 80
future 80
goods 80
hát 80
ity 80
lá 80
lượt 80
song 80
tiềm 80
xâm 80
Úc 80
Hòa 79
Kông 79
TV 79
Tính 79
You 79
ability 79
chẳng 79
effective 79
ensure 79
environment 79
got 79
history 79
humans 79
keep 79
launched 79
lead 79
reached 79
sai 79
seen 79
sion 79
supply 79
thai 79
tiểu 79
try 79
trích 79
đẹp 79
December 78
Thụy 78
again 78
ber@@ 78
buy 78
buôn 78
bánh 78
chiếu 78
followed 78
general 78
ke 78
learning 78
little 78
localities 78
office 78
quanh 78
sex 78
tra@@ 78
tù 78
whether 78
đương 78
ương 78
5, 77
600 77
Israel 77
Thu 77
animals 77
bày 77
chữa 77
ep@@ 77
equipment 77
gia, 77
gián 77
ill 77
included 77
isolation 77
ked 77
ness 77
ngoái. 77
ob@@ 77
sắp 77
though 77
thủy 77
tic 77
visited 77
201@@ 76
6.@@ 76
Dương 76
Last 76
News 76
Phòng 76
Pro@@ 76
action 76
biggest 76
bữa 76
friends 76
here 76
mật 76
ngàn 76
nhớ 76
phối 76
placed 76
potential 76
pressure 76
saw 76
self 76
te@@ 76
199@@ 75
Cuộc 75
Foreign 75
Po@@ 75
St@@ 75
Vu 75
Xuan 75
biết: 75
ess 75
father 75
house 75
nhận. 75
once 75
plant 75
private 75
published 75
real 75
thiên 75
tuyệt 75
usually 75
ways 75
%. 74
Bac 74
Cùng 74
D 74
Dự 74
G 74
Hue 74
So 74
Su@@ 74
ca@@ 74
declared 74
ents 74
ff@@ 74
identified 74
ig@@ 74
lỗi 74
mong 74
nh, 74
quý 74
remain 74
tai 74
thần 74
tảng 74
vẻ 74
... 73
30@@ 73
32 73
5% 73
By 73
Chỉ 73
Di@@ 73
Gia 73
Truong 73
born 73
compared 73
deal 73
difficult 73
getting 73
giành 73
great 73
hand 73
hạt 73
job 73
luôn 73
lợn 73
lục 73
lựa 73
nine 73
niệm 73
prevention 73
produce 73
rise 73
soon 73
special 73
tourist 73
tám 73
tỏa 73
ví 73
ưu 73
“Tôi 73
2. 72
27@@ 72
Con 72
Cảnh 72
building 72
campaign 72
dung 72
economy 72
entry 72
fully 72
gr@@ 72
hãy 72
instead 72
khá 72
làng 72
nations 72
p. 72
plastic 72
thắng 72
va 72
war@@ 72
weather 72
wife 72
works 72
đúng 72
Bo@@ 71
Dung 71
Hiện 71
Hoang 71
Nhân 71
Nội. 71
Phong 71
Sa@@ 71
That 71
Thương 71
Thứ 71
While 71
act 71
av@@ 71
chờ 71
create 71
crisis 71
cut 71
dọa 71
dụ 71
field 71
full 71
girl 71
ha 71
họ, 71
meet 71
qua. 71
sea 71
sold 71
thuê 71
thận 71
thụ 71
ties 71
tri@@ 71
tỏ 71
ves 71
2011 70
6,@@ 70
8, 70
Brazil 70
Deputy 70
His 70
Islands 70
Khu 70
My 70
Other 70
Vin@@ 70
ages 70
ati@@ 70
bãi 70
carrier 70
chẩn 70
coronavirus. 70
cre@@ 70
cục 70
gen@@ 70
hồ 70
ian 70
illegal 70
name 70
nhờ 70
ons 70
phóng 70
rest 70
samples 70
side 70
systems 70
sửa 70
ten 70
traditional 70
trial 70
truy 70
â@@ 70
ó@@ 70
​​sẽ 70
0, 69
Bu@@ 69
Global 69
More 69
Te@@ 69
Tropical 69
Tư. 69
VN@@ 69
access 69
bus 69
chỗ 69
date 69
e. 69
gen 69
giấc 69
hơi 69
incident 69
lockdown 69
longer 69
ngoài. 69
ngoái 69
nhân, 69
president 69
pu@@ 69
sub@@ 69
trade 69
tán 69
2014 68
AIDS 68
Báo 68
Cha@@ 68
Chung 68
Lao 68
M 68
Nepal 68
Prevention 68
ants 68
chairman 68
climate 68
construction 68
discovered 68
doctor 68
du@@ 68
efforts 68
essential 68
form 68
increasing 68
khối 68
khổng 68
kê 68
linked 68
mobile 68
môn 68
nationals 68
ngủ 68
ngữ 68
p, 68
ses 68
thao 68
thẩm 68
trans@@ 68
tô 68
visit 68
xu 68
197@@ 67
Beijing 67
From 67
Loan 67
Of 67
Organization 67
R 67
Triều 67
ai@@ 67
banned 67
col@@ 67
current 67
ice 67
involved 67
không. 67
ma 67
member 67
mis@@ 67
nó. 67
phút 67
phận 67
ren@@ 67
rượu 67
s. 67
serious 67
sive 67
something 67
stock 67
tầm 67
value 67
vé 67
2019, 66
55 66
Dinh 66
Research 66
Se@@ 66
ain@@ 66
amid 66
ard 66
ator 66
cân 66
fl@@ 66
gói 66
hy 66
minister 66
nh. 66
nhuận 66
này@@ 66
point 66
shares 66
thác 66
tics 66
tính. 66
worldwide 66
xa0@@ 66
‘ 66
2021 65
53 65
700 65
Ac@@ 65
Association 65
French 65
Lai 65
Mỹ, 65
O 65
chối 65
concerns 65
der 65
education 65
ess@@ 65
fall 65
financial 65
hoa 65
leaders 65
main 65
man@@ 65
mon@@ 65
mơ 65
named 65
necessary 65
ordered 65
phương. 65
r 65
safe 65
sho@@ 65
stated 65
thú 65
tin. 65
trời 65
tầng 65
virus. 65
đón 65
1. 64
Airways 64
Gu@@ 64
Hơn 64
Medical 64
Nông 64
Quận 64
ad 64
aircraft 64
ators 64
attention 64
bed 64
clinical 64
dạy 64
event 64
families 64
follow 64
however 64
học. 64
ies 64
inf@@ 64
legal 64
mar@@ 64
numbers 64
phẫu 64
problem 64
Đối 64
"""Bệnh 63
12@@ 63
4. 63
Bạn 63
Bảo 63
Du 63
Hồi 63
K. 63
L 63
Nam@@ 63
Tết 63
ao 63
brain 63
bring 63
capacity 63
chấn 63
cor@@ 63
dec@@ 63
dã 63
effect 63
energy 63
es, 63
ill@@ 63
investment 63
iz@@ 63
kho@@ 63
khử 63
lai 63
luyện 63
makes 63
normal 63
present 63
quickly 63
regions 63
sources 63
tive 63
together 63
um@@ 63
w 63
won 63
America 62
Development 62
During 62
Ki@@ 62
Nẵng, 62
Street 62
Tư, 62
aged 62
agency 62
airport 62
always 62
arrested 62
cancer 62
changes 62
condition 62
done 62
either 62
failure 62
ise 62
issues 62
ki@@ 62
lái 62
lọc 62
mainland 62
mét 62
nhựa 62
non-@@ 62
play 62
room 62
sales 62
severe 62
ships 62
source 62
thừa 62
v 62
various 62
đỡ 62
ổ 62
’re 62
42 61
8,@@ 61
Bar@@ 61
Be@@ 61
Cả 61
Duc 61
Hai, 61
Per@@ 61
Russian 61
Times 61
băng 61
bệnh, 61
call 61
ens 61
export 61
exposure 61
fell 61
gia. 61
hoang 61
ial 61
immune 61
key 61
markets 61
never 61
nhau. 61
nào. 61
não 61
ov@@ 61
pa@@ 61
points 61
position 61
program 61
receive 61
ry 61
rồi 61
season 61
the@@ 61
trấn 61
tuổi. 61
vui 61
đào 61
đốt 61
150 60
Africa 60
Americans 60
California 60
Chi@@ 60
EU 60
Khoa 60
Linh 60
Mekong 60
behind 60
birth 60
daily 60
dần 60
enter 60
ev@@ 60
ground 60
holiday 60
ina 60
kg 60
khắc 60
loss 60
ly@@ 60
min@@ 60
model 60
scheduled 60
sing 60
ste@@ 60
transport 60
tả 60
under@@ 60
vehicles 60
Đến 60
Cambodia 59
Car@@ 59
Gòn 59
Highlands 59
Lan, 59
Nations 59
Vietjet 59
board 59
chẽ 59
chụp 59
coffee 59
cặp 59
fe@@ 59
hard 59
investigation 59
lương 59
music 59
nhất. 59
nhắc 59
nuôi 59
nữa. 59
pi@@ 59
poor 59
protect 59
role 59
significant 59
thẳng 59
tor@@ 59
tắc 59
wave 59
ê@@ 59
Đó 59
đây. 59
ơn 59
%, 58
2012 58
Chiến 58
Do@@ 58
Hu@@ 58
Hán, 58
Moscow 58
Vinh 58
brought 58
bạc 58
bờ 58
certain 58
chỉnh 58
drugs 58
experience 58
fishing 58
ful 58
go@@ 58
immediately 58
ing@@ 58
lồ 58
mạch 58
nhận, 58
north 58
ta@@ 58
thousands 58
thách 58
tới. 58
're 57
33 57
57 57
66 57
75 57
Commune 57
E 57
Ngọc 57
Security 57
So@@ 57
Tiến 57
adding 57
allow 57
built 57
cap@@ 57
ches 57
cr@@ 57
d, 57
der@@ 57
dòng 57
fied 57
greater 57
healthcare 57
homes 57
hoàng 57
hundreds 57
investors 57
ite 57
kém 57
lack 57
lại, 57
lạm 57
lẻ 57
minutes 57
mẽ 57
needs 57
nguyện 57
nấu 57
oo@@ 57
plane 57
quarter 57
skin 57
stores 57
survey 57
types 57
tôn 57
tận 57
xung 57
ys 57
đồn 57
động. 57
“Chúng 57
2013 56
9, 56
Affairs 56
Also 56
Associated 56
Bamboo 56
Bài 56
Forbes 56
Myanmar 56
Phạm 56
Spain 56
Tiên 56
bar 56
br@@ 56
bại 56
chi@@ 56
coronavirus, 56
dịch, 56
ea@@ 56
fact 56
female 56
foreigners 56
gió 56
gone 56
i.', 56
inc@@ 56
light 56
look 56
natural 56
ngồi 56
núi 56
physical 56
pop 56
programs 56
res 56
res@@ 56
sector 56
someone 56
sti@@ 56
store 56
tax 56
up@@ 56
warned 56
why 56
worked 56
Đức, 56
ố@@ 56
0 55
52 55
Agency 55
Birx 55
F 55
Games 55
Hợp 55
Im@@ 55
Italian 55
Trên 55
VinFast 55
Ví 55
are@@ 55
ch, 55
claimed 55
critical 55
căng 55
daughter 55
des@@ 55
dược 55
ell@@ 55
final 55
giãn 55
ho 55
ism 55
ited 55
nhất, 55
nổ 55
pilot 55
previously 55
ps 55
release 55
risks 55
tech 55
training 55
trồng 55
trữ 55
waters 55
độ@@ 55
động, 55
ơ@@ 55
ảo 55
"['@@ 54
Bảy 54
Ex@@ 54
German 54
HCM, 54
Me@@ 54
Nhat 54
No@@ 54
Police 54
Twitter 54
USD) 54
additional 54
anti-@@ 54
ari@@ 54
ass@@ 54
cao. 54
chín 54
clear 54
comp@@ 54
couple 54
damage 54
district 54
ement 54
ements 54
end@@ 54
fourth 54
hotel 54
ines 54
issue 54
language 54
liệt 54
looking 54
lạnh 54
male 54
ner 54
nhau, 54
nhân. 54
on, 54
protective 54
remains 54
short 54
singer 54
surveillance 54
temporarily 54
thờ 54
trying 54
ven 54
war 54
Ý, 54
át 54
é 54
ến 54
3,000 53
44 53
5,000 53
5. 53
64 53
7,@@ 53
85 53
Bi@@ 53
Bên 53
Bản, 53
Giải 53
Gr@@ 53
House 53
Hung 53
Mercy 53
Most 53
Nhĩ 53
Res@@ 53
Thổ 53
Tài 53
abroad 53
actions 53
afternoon 53
chain 53
che@@ 53
cur@@ 53
ear@@ 53
gatherings 53
huy 53
ical 53
kilometers 53
located 53
med 53
mer@@ 53
ms 53
ngắn 53
policy 53
prime 53
rates 53
ring 53
rising 53
series 53
shared 53
signed 53
thought 53
tiên, 53
transferred 53
wear 53
ze 53
Đa 53
Đan 53
đồng, 53
2.5 52
2018, 52
46 52
Amazon 52
BBC 52
Bank 52
Cu@@ 52
Lu@@ 52
Trái 52
announcement 52
bia 52
bí 52
cam 52
complete 52
côn 52
ering 52
fire 52
forecast 52
he@@ 52
idea 52
ire 52
laws 52
logy 52
lost 52
ly. 52
multiple 52
màn 52
mềm 52
needed 52
newspaper 52
nhẹ 52
ones 52
organizations 52
owned 52
phức 52
reason 52
representative 52
resources 52
run@@ 52
ràng 52
sắt 52
tea 52
temperatures 52
tro@@ 52
tính, 52
vong. 52
vải 52
ế@@ 52
1.000 51
41 51
Coffee 51
Du@@ 51
Dubai 51
Earlier 51
First 51
Hãng 51
Khánh 51
Mu@@ 51
PM 51
Party 51
Press 51
Tourism 51
What 51
Year 51
a.m. 51
acy 51
ate@@ 51
cancelled 51
ching 51
chắc 51
cá@@ 51
degrees 51
effects 51
established 51
facility 51
fear 51
hu@@ 51
hàng, 51
imported 51
imposed 51
improve 51
ists 51
let 51
losses 51
nó@@ 51
overseas 51
por@@ 51
ready 51
rit@@ 51
robot 51
signs 51
st 51
themselves 51
trials 51
tuần. 51
tặng 51
wanted 51
ying 51
ác 51
ông. 51
Đầu 51
đầu, 51
định. 51
ống 51
2,000 50
49 50
Another 50
COVID-19, 50
Gre@@ 50
N 50
Phuong 50
Tu 50
above 50
activity 50
advised 50
ba@@ 50
believe 50
bio@@ 50
cells 50
chó 50
chúng. 50
chút 50
chở 50
claims 50
concern 50
eb@@ 50
front 50
ge 50
giàu 50
hands 50
har@@ 50
hiếm 50
hội, 50
lắng 50
lịch, 50
nhà, 50
nỗi 50
paid 50
raised 50
receiving 50
responsible 50
sal@@ 50
sk@@ 50
spend 50
stage 50
suffered 50
sure 50
thỏa 50
ép 50
”@@ 50
""Bệnh 49
47 49
54 49
7.@@ 49
88 49
AFF 49
Anh. 49
Britain 49
Com@@ 49
De@@ 49
Hầu 49
Khoảng 49
Kiểm 49
Obama 49
Phương 49
Rất 49
Sp@@ 49
Syria 49
Those 49
\xa0@@ 49
air@@ 49
amount 49
an. 49
arriving 49
beginning 49
chief 49
corona. 49
created 49
despite 49
drop 49
exports 49
factors 49
film 49
fish 49
khóa 49
kind 49
laboratory 49
learn 49
love 49
lung 49
lược 49
met 49
mã 49
network 49
ngạc 49
ongoing 49
opened 49
passed 49
product 49
quen 49
restaurants 49
rối 49
sau, 49
thuyết 49
tin@@ 49
trạm 49
tá 49
đua 49
73 48
9,@@ 48
Dân 48
Hang 48
Hye 48
Mỹ. 48
Princess 48
School 48
Sun 48
Viet 48
ana 48
apps 48
baby 48
believed 48
ber 48
brand 48
carbon 48
causes 48
chợ 48
co 48
cough 48
cầu, 48
cựu 48
designed 48
dây 48
eat 48
firms 48
ics 48
id 48
includes 48
ins 48
khuôn 48
les 48
limited 48
ments 48
nề 48
offer 48
os 48
pneumonia 48
procedures 48
proposed 48
rau 48
reach 48
reasons 48
sell 48
sis 48
south 48
suggested 48
sữa 48
thiệu 48
tor 48
treat 48
viện, 48
whose 48
wi@@ 48
ông, 48
đo 48
đó@@ 48
đậu 48
ền 48
00@@ 47
13@@ 47
6. 47
7. 47
Coronavirus 47
Je@@ 47
Jo@@ 47
Thuan 47
Trade 47
account 47
airports 47
all@@ 47
ats 47
bl@@ 47
ch. 47
cho@@ 47
chàng 47
cuốn 47
dead 47
dy 47
ent@@ 47
ghé 47
husband 47
immunity 47
nghề 47
ning 47
nói. 47
nói: 47
nắng 47
ol 47
operating 47
orders 47
ow@@ 47
owner 47
phương, 47
planned 47
pres@@ 47
produced 47
projects 47
provided 47
resident 47
rút 47
scale 47
sexual 47
shop 47
species 47
spent 47
studies 47
temperature 47
thing 47
toll 47
tour 47
traffic 47
trường. 47
trầm 47
trốn 47
ure 47
ăng 47
ạ@@ 47
ả@@ 47
ắc 47
-- 46
56 46
Afghanistan 46
Australian 46
Duong 46
Her 46
Hi@@ 46
John 46
Ko@@ 46
Mon@@ 46
Ngân 46
Pe@@ 46
Ri@@ 46
Si@@ 46
Social 46
acc@@ 46
anc@@ 46
bur@@ 46
costs 46
den@@ 46
detected 46
direct 46
directly 46
dụ, 46
ear 46
host 46
họ@@ 46
ind@@ 46
kịch 46
la) 46
limit 46
lin@@ 46
location 46
middle 46
monitoring 46
mộ 46
ne 46
operation 46
ore 46
reduced 46
round 46
rằng, 46
rửa 46
selling 46
sign 46
story 46
sw@@ 46
takes 46
terms 46
thi@@ 46
turn 46
tín 46
understand 46
wards 46
0s 45
1/@@ 45
2009 45
48 45
8. 45
Ber@@ 45
Bác 45
C. 45
Even 45
H 45
Học 45
La@@ 45
Na 45
Olympic 45
Paracel 45
Pri@@ 45
Starbucks 45
Three 45
Transport 45
Tri@@ 45
ai, 45
ale 45
ali@@ 45
attack 45
bạch 45
bạo 45
cal@@ 45
caught 45
causing 45
cold 45
conference 45
court 45
def@@ 45
ders 45
digital 45
dàng 45
ently 45
football 45
fu@@ 45
giant 45
heat 45
hội. 45
infectious 45
inside 45
kept 45
lưới 45
lỗ 45
meters 45
mostly 45
nationwide 45
niềm 45
nữa, 45
phố. 45
rec@@ 45
rel@@ 45
remaining 45
revenues 45
shi@@ 45
sites 45
stopped 45
teen 45
trại 45
tồi 45
uses 45
ver 45
vessel 45
victim 45
victims 45
whole 45
à@@ 45
đàm 45
đỏ 45
ươ@@ 45
ắ@@ 45
ủy 45
1% 44
2030 44
8% 44
9. 44
African 44
Bur@@ 44
Ca 44
Chương 44
Education 44
Industry 44
K 44
Ke@@ 44
Kết 44
Lào 44
Lễ 44
Man@@ 44
Minh, 44
Ngoc 44
Republic 44
SE@@ 44
Tháng 44
Thực 44
Tri 44
ace 44
adults 44
alcohol 44
atic 44
cao, 44
centers 44
chục 44
conducted 44
dangerous 44
den 44
dropped 44
dị 44
entered 44
everyone 44
facing 44
fast 44
fin@@ 44
forest 44
ft 44
già 44
hold 44
hotels 44
hour 44
khói 44
kia 44
kim 44
leader 44
lẽ 44
mainly 44
ngo@@ 44
ng” 44
p.m. 44
plants 44
protection 44
revenue 44
sleep 44
status 44
supplies 44
thiệp 44
thầu 44
thể, 44
trà 44
trắng 44
vết 44
worst 44
xanh 44
Á, 44
ét 44
ò@@ 44
Đông, 44
ưa 44
10% 43
2019. 43
:30 43
Although 43
Among 43
C, 43
Cao 43
Dak 43
Giao 43
Goo 43
Mal@@ 43
Nhóm 43
Now 43
Phan 43
Quốc@@ 43
Secretary 43
Sáu, 43
agreed 43
ail@@ 43
ang, 43
autom@@ 43
bar@@ 43
break 43
buồn 43
bò 43
carried 43
citizen 43
completed 43
coun@@ 43
crew 43
cùng 43
cúm 43
doing 43
ets 43
fans 43
fruit 43
gar@@ 43
gũi 43
hot 43
huống 43
hàng. 43
isolated 43
lỏng 43
materials 43
methods 43
moved 43
mình@@ 43
ngoài, 43
ngư 43
park 43
pas@@ 43
press 43
profit 43
record 43
rem@@ 43
sem@@ 43
sen@@ 43
tered 43
thoát 43
threat 43
tors 43
town 43
tuệ 43
uy@@ 43
village 43
white 43
wrote 43
án, 43
í@@ 43
Đảng 43
ả 43
'] 42
2017, 42
36@@ 42
Administration 42
Buddha 42
Christmas 42
Col@@ 42
Giá 42
Island 42
Luật 42
Mi@@ 42
Miss 42
Nhiệt 42
Pa@@ 42
Pháp, 42
Quoc 42
Tòa 42
Women 42
album 42
annual 42
anti@@ 42
arrival 42
bor@@ 42
boy 42
build 42
bây 42
bề 42
carry 42
cl@@ 42
classes 42
committee 42
diagnosed 42
dr@@ 42
ect 42
els 42
entire 42
expressed 42
fined 42
force 42
governments 42
grow 42
ia, 42
identify 42
individual 42
intelligence 42
inv@@ 42
ious 42
las@@ 42
loạn 42
lớn. 42
off@@ 42
political 42
rains 42
registered 42
requested 42
rose 42
specific 42
storm 42
sắm 42
throughout 42
tru@@ 42
tỉ 42
ud@@ 42
ven@@ 42
virus, 42
xấu 42
zing 42
à 42
ái 42
án. 42
ồng 42
0.000 41
1st 41
22@@ 41
50% 41
59 41
61 41
83 41
9.@@ 41
95 41
Ba, 41
Can 41
Chau 41
Dr. 41
Hubei 41
Lee 41
Ma@@ 41
Mexico 41
No 41
Over 41
Pr@@ 41
Quy 41
Saudi 41
Sinh 41
TP.HCM 41
Thống 41
Truyền 41
Vụ 41
X 41
acute 41
anyone 41
cars 41
cultural 41
devices 41
elderly 41
environmental 41
explo@@ 41
extended 41
fresh 41
ges 41
girls 41
giving 41
hâm 41
illegally 41
imp@@ 41
kính 41
letter 41
lũ 41
ma@@ 41
manufacturing 41
mát 41
nghèo 41
nhiễm, 41
occur 41
particularly 41
passenger 41
phones 41
phỏng 41
pp@@ 41
quê 41
speed 41
sạch 41
tes 41
trees 41
urged 41
user 41
vo@@ 41
àng 41
ò 41
ú@@ 41
̣ 41
ẩm 41
ậ@@ 41
"Ông 40
)@@ 40
5.000 40
50,000 40
58 40
74 40
9% 40
Azerbaijan 40
Bill 40
Campuchia 40
Can@@ 40
Celsius 40
Day 40
Earth 40
Food 40
Ju@@ 40
Lam 40
Michael 40
Mọi 40
Or@@ 40
Pham 40
Saint 40
San 40
Song 40
Tam 40
Tha@@ 40
Wal@@ 40
administration 40
airline 40
appeared 40
bacteria 40
ces 40
chảy 40
coast 40
compl@@ 40
diplomatic 40
distance 40
effort 40
emb@@ 40
enti@@ 40
ero@@ 40
evening 40
existing 40
farmers 40
fishermen 40
fore@@ 40
games 40
gra@@ 40
gỡ 40
ine@@ 40
ion 40
lan@@ 40
lửa 40
measure 40
mừng 40
n: 40
ngưng 40
ngộ 40
nhật, 40
nhắn 40
nắm 40
organization 40
particular 40
played 40
re 40
recovery 40
rooms 40
sau. 40
sc@@ 40
shops 40
sions 40
sol@@ 40
space 40
summer 40
tal@@ 40
thuyền 40
transportation 40
tree 40
type 40
universities 40
ve@@ 40
ventilators 40
volume 40
vậy. 40
ward 40
weekend 40
ws 40
zone 40
ên, 40
ập 40
’ve 40
+ 39
.000 39
0,000 39
2003 39
23@@ 39
4% 39
Anh@@ 39
Both 39
Chu@@ 39
Delta 39
For@@ 39
GDP 39
Go@@ 39
Hôm 39
Khanh 39
Nigeria 39
Nước 39
Online 39
Pompeo 39
Thi@@ 39
Tàu 39
Ukraine 39
Venezuela 39
Vân 39
accused 39
agricultural 39
ail 39
bit 39
ble 39
bom 39
bri@@ 39
bạ@@ 39
bật 39
bớt 39
can@@ 39
cas@@ 39
cen@@ 39
changed 39
check 39
chemical 39
chào 39
chạm 39
competition 39
cầm 39
cầu. 39
dioxide 39
districts 39
don@@ 39
eating 39
ends 39
eng@@ 39
ey@@ 39
failed 39
fake 39
fifth 39
fr@@ 39
highly 39
hứa 39
interest 39
izing 39
locals 39
mask 39
mat@@ 39
mp@@ 39
muỗi 39
nghiệm. 39
nh 39
phú 39
prior 39
ris@@ 39
ron@@ 39
routes 39
send 39
sha@@ 39
shut 39
single 39
states 39
supermarket 39
teams 39
ther@@ 39
ths 39
tháng. 39
toàn. 39
tàng 39
tây 39
tại, 39
tố@@ 39
units 39
whom 39
đèn 39
ương, 39
10,000 38
2016, 38
250 38
4,000 38
51 38
99 38
Agriculture 38
Bal@@ 38
CAAV 38
Denmark 38
Hol@@ 38
Inter@@ 38
Oblast 38
Pal@@ 38
Sức 38
Tre@@ 38
Un@@ 38
advi@@ 38
af@@ 38
although 38
ann@@ 38
ask 38
bing 38
buses 38
chìm 38
chậm 38
chắn 38
class 38
coal 38
completely 38
contain 38
cover 38
cả@@ 38
det@@ 38
driving 38
dịp 38
easily 38
ep 38
ery 38
exp@@ 38
experienced 38
ey 38
forced 38
friend 38
fuel 38
ght 38
giả@@ 38
hiệp 38
huynh 38
hè 38
hợp. 38
ile 38
illness 38
leaving 38
lis@@ 38
lô 38
lạ@@ 38
lẫn 38
match 38
mid-@@ 38
net 38
ngs 38
ngập 38
offering 38
om 38
planning 38
players 38
postponed 38
prepare 38
race 38
recommended 38
rắn 38
serve 38
sick 38
smart 38
spec@@ 38
station 38
successful 38
television 38
tho@@ 38
thảm 38
trường, 38
ture 38
tễ 38
virtual 38
việc. 38
và@@ 38
à, 38
ân, 38
đo@@ 38
định, 38
ư@@ 38
̀ 38
́t 38
̣@@ 38
ấ@@ 38
$@@ 37
40@@ 37
77 37
Air@@ 37
Bangkok 37
Ca@@ 37
Cam@@ 37
Cách 37
En@@ 37
High 37
Ka@@ 37
Mc@@ 37
NHS 37
No. 37
River 37
Several 37
Thời 37
Town 37
Under 37
V 37
Z 37
accounts 37
affect 37
ash@@ 37
aviation 37
az@@ 37
beer 37
bè 37
calls 37
che 37
closely 37
commercial 37
consumers 37
decades 37
destinations 37
e-@@ 37
em. 37
est@@ 37
exported 37
focus 37
forces 37
gắn 37
helped 37
hiến 37
hề 37
họa 37
ized 37
lic@@ 37
linh 37
liều 37
locations 37
làn 37
lành 37
láng 37
machine 37
maintain 37
mark 37
mê 37
nhiễm. 37
ns 37
oc@@ 37
ory 37
pe 37
phố, 37
posted 37
pri@@ 37
regular 37
rent 37
shown 37
sk 37
software 37
spreading 37
stable 37
sur@@ 37
sót 37
tiên. 37
trip 37
tur@@ 37
tộc 37
version 37
viral 37
wor@@ 37
xa0 37
Đường 37
đọc 37
ề@@ 37
ọ@@ 37
ức 37
10, 36
2% 36
2010 36
30% 36
67 36
AP@@ 36
Alibaba 36
At@@ 36
Bio@@ 36
Bảy, 36
Bến 36
Centre 36
Dù 36
Gần 36
Its 36
Lâm 36
Masan 36
Milan 36
Ni@@ 36
Năm, 36
Nẵng. 36
Office 36
Pa 36
Phụ 36
Pl@@ 36
Previously 36
Sec@@ 36
Sho@@ 36
Sân 36
Thủy 36
Tien 36
Tuan 36
Varadkar 36
West 36
actually 36
ank@@ 36
ba, 36
bas@@ 36
breath 36
cent 36
chains 36
closure 36
cản 36
cảng 36
cẩn 36
depression 36
dường 36
ended 36
famous 36
findings 36
giản 36
giờ, 36
happened 36
hectares 36
hope 36
huge 36
ily 36
ination 36
income 36
ings 36
ish 36
island 36
kho 36
khác@@ 36
khơi 36
launch 36
ley 36
liền 36
là@@ 36
lúa 36
lừa 36
mười 36
na 36
nghiệp, 36
offers 36
our@@ 36
party 36
pilots 36
post 36
pregnant 36
protein 36
rain 36
raise 36
răng 36
sinh, 36
sovereignty 36
săn 36
tháng, 36
tia 36
tional 36
traveled 36
travelled 36
trông 36
twice 36
viruses 36
xứ 36
được. 36
đẳng 36
́c 36
ạt 36
ấp 36
ệ 36
ệt 36
ối 36
,000 35
.']" 35
6% 35
7% 35
98 35
Authorities 35
Cla@@ 35
Cor@@ 35
Dương, 35
El@@ 35
Festival 35
Gar@@ 35
Giáng 35
Huong 35
Hy 35
Hãy 35
Index 35
Kế 35
Lazada 35
Local 35
Meanwhile 35
Nor@@ 35
PCR 35
Researchers 35
SA@@ 35
Science 35
Shilla 35
Sáu. 35
Trẻ 35
Turkey 35
Tỉnh 35
VnExpress 35
Yen 35
approval 35
art 35
associated 35
back@@ 35
bank 35
binh 35
carrying 35
chance 35
charge 35
chứ 35
comm@@ 35
consider 35
device 35
dogs 35
dy@@ 35
electricity 35
employee 35
felt 35
ff 35
fighting 35
fruits 35
ged 35
giam 35
i: 35
initial 35
ize 35
jo@@ 35
khoán 35
kits 35
kênh 35
labor 35
lots 35
lắp 35
mass 35
met@@ 35
method 35
mạng. 35
n.', 35
pate 35
permission 35
pr@@ 35
questions 35
relationship 35
relevant 35
require 35
review 35
rẻ 35
shopping 35
showing 35
sometimes 35
sports 35
square 35
staying 35
step 35
thêm. 35
thôn 35
thùng 35
tly 35
tuy 35
ue 35
understanding 35
view 35
wants 35
win 35
Đào 35
đô@@ 35
đợi 35
́@@ 35
ạn 35
ấm 35
ồi 35
–@@ 35
’@@ 35
($@@ 34
3% 34
62 34
63 34
Bai 34
Besides 34
Big 34
Dao 34
England 34
Following 34
Hai. 34
Hành 34
Ireland 34
Laos 34
Như 34
Nhất 34
Năm. 34
SARS-CoV-2 34
Ti@@ 34
Toàn 34
Tre 34
VNĐ 34
Ward 34
ac 34
acid 34
agreement 34
ame 34
anh, 34
animal 34
appear 34
appropriate 34
begin 34
book 34
borders 34
broke 34
bs 34
cash 34
charges 34
ched 34
chấm 34
course 34
cruise 34
dem@@ 34
down@@ 34
dream 34
em, 34
en, 34
er, 34
exc@@ 34
falling 34
festival 34
fre@@ 34
goal 34
healthy 34
huấn 34
imports 34
involving 34
ist@@ 34
khỏe. 34
kidney 34
lớn, 34
mas@@ 34
matter 34
millions 34
nec@@ 34
ng"" 34
nghiệp. 34
người@@ 34
ngược 34
ngặt 34
nhắm 34
notice 34
outbreaks 34
outlets 34
peace 34
phase 34
port 34
producers 34
revealed 34
rules 34
senior 34
sinh. 34
size 34
streets 34
su 34
suspension 34
table 34
thể. 34
tin, 34
tried 34
trị. 34
trứng 34
tures 34
upon 34
urban 34
ved 34
videos 34
views 34
việc, 34
warning 34
watch 34
words 34
âu 34
ên. 34
Đình 34
Độ, 34
đài 34
đỉnh 34
địch 34
0. 33
1-@@ 33
2008 33
5-@@ 33
72 33
86 33
Britney 33
Business 33
Cai 33
Children 33
Court 33
Cổ 33
Diamond 33
Han@@ 33
Indian 33
League 33
Los 33
Min@@ 33
Mr 33
New@@ 33
Ngay 33
Quan 33
Quân 33
Sri 33
Technology 33
Tinh 33
Tru@@ 33
War 33
Xã 33
[@@ 33
abuse 33
agu@@ 33
aimed 33
airlines 33
alle@@ 33
allowing 33
anh. 33
app@@ 33
ars 33
bad 33
behavior 33
brands 33
century 33
char@@ 33
chim 33
claim 33
college 33
continued 33
contracted 33
controls 33
cooperation 33
cướp 33
dong 33
dọc 33
entertainment 33
eventually 33
exam 33
expert 33
fields 33
flew 33
gas 33
ghép 33
gives 33
giường 33
holding 33
houses 33
hy@@ 33
hứng 33
impacts 33
improved 33
islands 33
kers 33
ko 33
landed 33
marriage 33
medicine 33
meter 33
miệng 33
movement 33
moving 33
n; 33
na@@ 33
ng." 33
nhãn 33
nàng 33
officers 33
ology 33
ore@@ 33
organic 33
original 33
payment 33
performed 33
pha 33
phường 33
providing 33
quà 33
range 33
retail 33
rạp 33
screening 33
search 33
sharing 33
sun@@ 33
teacher 33
tell 33
ther 33
thường, 33
tic@@ 33
trúc 33
trọ@@ 33
trộm 33
turned 33
tùy 33
tật 33
university 33
val@@ 33
vang 33
vời 33
we@@ 33
wearing 33
word 33
xu@@ 33
đem 33
đảng 33
ấu 33
ầm 33
ận, 33
ắt 33
ế 33
ến, 33
ết 33
ộ@@ 33
ừ@@ 33
5G 32
71 32
76 32
AFP 32
Bang 32
Bar 32
Bas@@ 32
Bitcoin 32
Cuba 32
Cần 32
Experts 32
Giang, 32
Her@@ 32
Iran, 32
Lea@@ 32
Lunar 32
Mạch 32
N. 32
Tay 32
Tho 32
Thêm 32
UAE 32
ake 32
ation@@ 32
ational 32
basis 32
changing 32
collected 32
cãi 32
dance 32
deep 32
determine 32
difficulties 32
din@@ 32
documents 32
dụng, 32
ease 32
ei@@ 32
es. 32
eu 32
everything 32
exercise 32
faced 32
factory 32
features 32
fic@@ 32
forward 32
ga 32
gave 32
giềng 32
gs 32
helping 32
hospitalised 32
hẹn 32
hối 32
hồng 32
hợp, 32
jail 32
khán 32
land@@ 32
ler 32
liver 32
lân 32
meat 32
men@@ 32
mind 32
ming 32
mission 32
monitor 32
my@@ 32
neighboring 32
ngũ 32
nhạy 32
notes 32
nó, 32
n” 32
older 32
ony 32
opening 32
personnel 32
ping 32
platform 32
policies 32
pul@@ 32
raising 32
request 32
respectively 32
served 32
skills 32
syndrome 32
taste 32
tation 32
teachers 32
temporary 32
tools 32
trưng 32
tuần, 32
tôi, 32
unit 32
vaccination 32
ving 32
visas 32
vulnerable 32
wing 32
xăng 32
Á@@ 32
Ý. 32
àn 32
è@@ 32
ê, 32
ì 32
óng 32
ăn. 32
đòi 32
ầ@@ 32
ếu 32
000 31
10.@@ 31
12.@@ 31
69 31
AID@@ 31
Ap@@ 31
Bắc, 31
CNN 31
Centers 31
Chợ 31
Despite 31
Doanh 31
Fi@@ 31
Floyd 31
Huawei 31
Instagram 31
Johnson 31
Ma 31
Mac@@ 31
Môi 31
Nghệ 31
Northern 31
Tenma 31
Today 31
Tuấn 31
add 31
ade 31
application 31
au 31
authority 31
bay. 31
below 31
bi 31
boo@@ 31
bạn. 31
calling 31
camera 31
ck@@ 31
comment 31
consul@@ 31
continues 31
denied 31
dings 31
dish 31
dri@@ 31
dry 31
ective 31
ects 31
ences 31
enz@@ 31
executive 31
flu 31
foods 31
ge@@ 31
giảng 31
grad@@ 31
grade 31
gã 31
hài 31
in, 31
index 31
iti@@ 31
ker 31
kes 31
kiểu 31
lea@@ 31
link 31
lãi 31
lệch 31
lọt 31
mental 31
miles 31
monitored 31
mortality 31
mouth 31
movie 31
mãn 31
mạnh. 31
ney 31
nghiện 31
ngọt 31
nhảy 31
nữa@@ 31
partners 31
proposal 31
pur@@ 31
quỹ 31
rac@@ 31
read 31
reas@@ 31
reportedly 31
row 31
sad 31
science 31
seek 31
seeking 31
solutions 31
stand 31
suffering 31
sushi 31
suspend 31
sổ 31
taxi 31
tes@@ 31
thus 31
tle 31
trọng, 31
tung 31
tuyến. 31
ual 31
uni@@ 31
uy 31
violence 31
wh@@ 31
wn 31
Âu, 31
đầu. 31
̀@@ 31
ọ 31
ốc 31
ữ@@ 31
"Vào 30
2.000 30
68 30
:00 30
AQI 30
Ben 30
Bản. 30
Bắt 30
CE@@ 30
Four 30
Huế 30
Ian 30
Ji@@ 30
Khí 30
Kingdom 30
Law 30
Mor@@ 30
Nai 30
Navy 30
Ngô 30
Nhi 30
Nic@@ 30
Ninh, 30
Once 30
Putin 30
Quản 30
Rec@@ 30
Ru@@ 30
Sen@@ 30
Sha@@ 30
Thang 30
Thien 30
Thuận 30
Thượng 30
Tu@@ 30
UN@@ 30
US@@ 30
USD, 30
WeChat 30
advice 30
ain 30
ained 30
ances 30
applied 30
assistance 30
bal@@ 30
beauty 30
becomes 30
becoming 30
bia, 30
bro@@ 30
buying 30
bếp 30
bỏ. 30
clean 30
computer 30
cru@@ 30
cy@@ 30
cộng. 30
des 30
dic@@ 30
drink 30
ees 30
ef 30
eu@@ 30
except 30
expanded 30
faces 30
fe 30
fil@@ 30
forms 30
guidelines 30
hai, 30
hand@@ 30
high@@ 30
hor@@ 30
ick@@ 30
ik@@ 30
industrial 30
ises 30
khu@@ 30
khung 30
khô 30
không, 30
kịp 30
la, 30
larger 30
lock 30
logi@@ 30
lạ 30
lối 30
married 30
matches 30
mentioned 30
minute 30
municipal 30
mạ@@ 30
n." 30
ners 30
ng.', 30
ngu@@ 30
nursing 30
occurred 30
onal 30
operate 30
paper 30
pen@@ 30
phi@@ 30
provincial 30
ran@@ 30
ranked 30
rather 30
reducing 30
reg@@ 30
relations 30
removed 30
resort 30
sel@@ 30
shortage 30
significantly 30
star@@ 30
success 30
ta, 30
talk 30
thang 30
thanks 30
tim@@ 30
towards 30
trac@@ 30
treating 30
vinh 30
viên, 30
viễn 30
vực. 30
weight 30
ân 30
ây 30
ă@@ 30
điệp 30
đồ@@ 30
ấy. 30
ệ@@ 30
ốt 30
ộc 30
""" 29
', 29
1.5 29
50.000 29
80,000 29
84 29
AT@@ 29
C) 29
Commerce 29
Cuối 29
FIFA 29
Ford 29
ID@@ 29
Jong 29
Kyo 29
Lệnh 29
Manila 29
Market 29
Mặt 29
Netflix 29
Noi 29
Nu@@ 29
Nữ 29
Pakistani 29
Peace 29
Rob@@ 29
Sar@@ 29
Ser@@ 29
Sulli 29
Swift 29
Teddy 29
Ten@@ 29
Tim@@ 29
Tiền 29
UNCLOS 29
Wi@@ 29
Wor@@ 29
address 29
advertising 29
ahead 29
aining 29
al, 29
allows 29
ane 29
attacks 29
ature 29
ays 29
budget 29
bình, 29
carriers 29
chay 29
chronic 29
co-@@ 29
concerned 29
customs 29
cô, 29
cửa. 29
degree 29
diệt 29
dragon 29
dùng 29
dư 29
ected 29
eries 29
ese 29
exclu@@ 29
explained 29
exposed 29
extremely 29
ger 29
green 29
helps 29
hi 29
hóa, 29
hỏa 29
ide 29
immigration 29
indic@@ 29
itself 29
ka 29
kids 29
landing 29
machines 29
maker 29
managed 29
map 29
mean 29
micro@@ 29
ministries 29
mèo 29
mặn 29
mời 29
n) 29
ned 29
ner@@ 29
nu@@ 29
oi 29
ome 29
origin 29
ous@@ 29
ox@@ 29
oxygen 29
payments 29
peak 29
performance 29
phủ. 29
ple 29
practice 29
processing 29
prov@@ 29
rapid 29
religious 29
remained 29
ric@@ 29
smoke 29
solution 29
sou@@ 29
stands 29
star 29
stayed 29
studying 29
sốc 29
sụt 29
ta. 29
technical 29
thêm, 29
thường. 29
thả 29
tonnes 29
túc 29
un 29
vegetables 29
visiting 29
vườn 29
weapons 29
wide 29
win@@ 29
winter 29
zed 29
è 29
óc 29
ăn, 29
Động 29
đi, 29
đi. 29
đâu 29
đệ 29
ạc 29
Ả 29
ết. 29
ụ@@ 29
…@@ 29
""Tôi 28
0-@@ 28
15.@@ 28
1996 28
20% 28
2006 28
2017. 28
3.000 28
79 28
92 28
93 28
AP 28
Br@@ 28
Bằng 28
CA@@ 28
Chairman 28
Defense 28
Dell 28
Dũng 28
Embassy 28
FI@@ 28
George 28
Georgia 28
HC@@ 28
Hoi 28
Justin 28
Long, 28
Mr. 28
Nghe 28
Not 28
Post 28
RT 28
Seoul 28
Stu@@ 28
TC@@ 28
Tình 28
Tờ 28
VA@@ 28
Vĩnh 28
aging 28
aid 28
any@@ 28
apply 28
aries 28
attract 28
bul@@ 28
bả@@ 28
bậc 28
ced 28
consequences 28
cán 28
cấu 28
cứu, 28
decide 28
deli@@ 28
demonstr@@ 28
deployed 28
die 28
dies 28
dày 28
dạ 28
ely 28
ere 28
figures 28
flow 28
form@@ 28
freedom 28
fy 28
gener@@ 28
generally 28
genetic 28
gin 28
gold 28
granted 28
happy 28
her@@ 28
hành, 28
hơ@@ 28
học@@ 28
hộ@@ 28
i." 28
if@@ 28
ills 28
implemented 28
ine, 28
join 28
không@@ 28
khúc 28
kiệm 28
lar 28
leaves 28
lines 28
lão 28
lý. 28
lịch. 28
majority 28
manager 28
meaning 28
mắn 28
nam@@ 28
nearby 28
ngưỡng 28
nêu 28
nộp 28
ome@@ 28
pain 28
ped 28
pho@@ 28
phạ@@ 28
phủ, 28
ples 28
quarantining 28
recognition 28
regional 28
rich 28
simple 28
society 28
songs 28
standards 28
standing 28
stations 28
studied 28
suffer 28
sun 28
throat 28
thông, 28
thù 28
tickets 28
tion@@ 28
tracking 28
traveling 28
trôi 28
trị, 28
tw@@ 28
typically 28
tá@@ 28
tách 28
tôi@@ 28
tươi 28
tấm 28
tới, 28
urgent 28
van 28
wildlife 28
wood 28
yên 28
Âu. 28
ê 28
êng 28
êu 28
Được 28
ải 28
ặ@@ 28
ết, 28
ệ, 28
ồ@@ 28
ồn 28
ợ@@ 28
10.000 27
12,@@ 27
200,000 27
2000 27
2005 27
90% 27
?@@ 27
Before 27
Bien 27
Biên 27
Bri@@ 27
Cam 27
Cap@@ 27
Cas@@ 27
Chiếc 27
Chị 27
Corporation 27
EF 27
Ebola 27
Lực 27
MV 27
Mai, 27
Natural 27
Network 27
Nhung 27
Phase 27
Pho@@ 27
Pol@@ 27
Quỹ 27
Rom@@ 27
Samadova 27
Santa 27
Scientists 27
Spratly 27
Thu@@ 27
Tung 27
Ven@@ 27
Wh@@ 27
Yên 27
ably 27
ach@@ 27
ains 27
aj@@ 27
alleged 27
alone 27
ama 27
arrivals 27
assets 27
ay, 27
ay. 27
bought 27
breaking 27
burning 27
ce 27
chloroquine 27
chữ 27
cluster 27
consumption 27
damaged 27
destination 27
dra@@ 27
draw 27
driver 27
dân, 27
dụng. 27
ection 27
eld 27
fa@@ 27
false 27
generation 27
happen 27
hoá 27
hãi 27
hạnh 27
iP@@ 27
il 27
immediate 27
instance 27
ir 27
ization 27
iệ@@ 27
khí. 27
lived 27
logical 27
looks 27
loved 27
lowest 27
lungs 27
mm 27
modern 27
networks 27
ng) 27
ngon 27
ngợi 27
non@@ 27
note 27
nào@@ 27
offered 27
opportunity 27
ori@@ 27
phúc 27
plasma 27
pork 27
pre-@@ 27
pregnancy 27
prepared 27
producing 27
professor 27
purchase 27
py@@ 27
ran 27
ranking 27
real@@ 27
requires 27
seized 27
seriously 27
serving 27
spokesman 27
street 27
strictly 27
suggests 27
surface 27
target 27
trading 27
tropical 27
trọng. 27
tăng. 27
tỉnh, 27
tử. 27
und@@ 27
vững 27
waiting 27
walk 27
wild 27
yourself 27
ài 27
ách 27
ám 27
ã 27
êm 27
ình@@ 27
Điển 27
đây@@ 27
đất, 27
ật 27
ỉ@@ 27
!@@ 26
"Một 26
&@@ 26
+@@ 26
1,0@@ 26
100,000 26
15,000 26
210 26
28@@ 26
89 26
94 26
A. 26
Ab@@ 26
Brunei 26
Char@@ 26
Commission 26
Cầu 26
Cửu 26
Em 26
Environment 26
Guinea 26
Har@@ 26
Hùng 26
IP@@ 26
Ku@@ 26
Mỗi 26
Netherlands 26
Nga, 26
Ngh@@ 26
On@@ 26
Peter 26
Project 26
S, 26
Sch@@ 26
Switzerland 26
Tau 26
Thao 26
Tor@@ 26
UN 26
Union 26
Val@@ 26
Victoria 26
a-@@ 26
aim 26
ality 26
ania 26
ap 26
apartment 26
atives 26
aw@@ 26
bay, 26
boats 26
bridge 26
chai 26
chú@@ 26
ck 26
clothing 26
club 26
complex 26
cons@@ 26
containing 26
contract 26
culture 26
customer 26
decade 26
directed 26
divi@@ 26
dậy 26
dọn 26
election 26
embassy 26
encourage 26
enjoy 26
estimates 26
ffe@@ 26
figure 26
finding 26
fires 26
fund 26
funds 26
gain 26
gia@@ 26
gloves 26
gy@@ 26
heard 26
hoan 26
hàm 26
hành. 26
image 26
ino 26
io@@ 26
ish@@ 26
isolate 26
killing 26
lat@@ 26
lie 26
lied 26
lightning 26
lose 26
lấp 26
meals 26
message 26
milk 26
mor@@ 26
mì 26
mũi 26
nghiệm, 26
nhánh 26
nào, 26
ously 26
pat@@ 26
pose 26
powerful 26
preparing 26
protests 26
provides 26
quyên 26
quả. 26
rea@@ 26
restaurant 26
road 26
route 26
rule 26
running 26
rào 26
rãi 26
sale 26
scored 26
sign@@ 26
spokesperson 26
steps 26
ster 26
strength 26
stress 26
stressed 26
sts 26
subject 26
subsequently 26
tally 26
tel@@ 26
thước 26
thượng 26
tiệc 26
toxic 26
tric@@ 26
trục 26
trừng 26
tần 26
unknown 26
vice 26
violations 26
west 26
widely 26
wind 26
xo@@ 26
xóa 26
xế 26
zero 26
zhou 26
àm 26
áng 26
ét. 26
úc, 26
Đất 26
đen 26
đi@@ 26
điểm, 26
đuổi 26
đá@@ 26
đất. 26
ơ 26
ườ@@ 26
̉ 26
ặc 26
ỗ@@ 26
ội 26
ột 26
ở. 26
ứa 26
ực 26
’m 26
%@@ 25
10,@@ 25
130 25
2004 25
2018. 25
81 25
96 25
A) 25
Between 25
Bình, 25
Bùi 25
Canada, 25
Châu, 25
Colombia 25
Communist 25
Data 25
Don@@ 25
Home 25
Hệ 25
Kỳ@@ 25
LGBT 25
Loi 25
Lombardy 25
Malaysia, 25
Mau 25
Me 25
Medicine 25
Mis@@ 25
Phi, 25
Quần 25
Rural 25
Rập 25
Service 25
Statistics 25
Sáng 25
Trí 25
USD). 25
Village 25
Vo@@ 25
accounting 25
alert 25
ams 25
analy@@ 25
ani 25
arg@@ 25
artificial 25
attracted 25
bat@@ 25
behaviors 25
berg 25
biệt. 25
boat 25
bà@@ 25
cell 25
ceremony 25
challenge 25
coastal 25
comb@@ 25
considering 25
consumer 25
content 25
cooking 25
corona, 25
criminal 25
cô. 25
cộng, 25
cứng 25
decisions 25
detained 25
dinh 25
diphtheria 25
dishes 25
dollars 25
domin@@ 25
dính 25
dục, 25
dứt 25
ek 25
else 25
email 25
enting 25
equ@@ 25
essed 25
estate 25
flu@@ 25
flying 25
founder 25
funding 25
gets 25
gh 25
grown 25
hotspot 25
ia. 25
ically 25
illa 25
importance 25
in. 25
iness 25
inh@@ 25
initi@@ 25
initially 25
injuries 25
inst@@ 25
k, 25
khí, 25
kings 25
kèm 25
lia 25
listed 25
loc@@ 25
lần, 25
lặp 25
messages 25
muộn 25
mảnh 25
ng.” 25
nguy@@ 25
ngón 25
nới 25
ocean 25
ot 25
oul@@ 25
overall 25
phu@@ 25
picture 25
property 25
putting 25
reaching 25
regarding 25
reopen 25
resulted 25
score 25
separate 25
simply 25
sky 25
son@@ 25
spending 25
subjects 25
successfully 25
super@@ 25
surgery 25
tain 25
teaching 25
technologies 25
tend 25
territory 25
therapy 25
thiết. 25
thô 25
tiế@@ 25
tournament 25
toàn, 25
track 25
train 25
trains 25
transactions 25
triển. 25
trần 25
túi 25
tốt. 25
vers 25
visits 25
viên. 25
voi 25
ware 25
weak@@ 25
worker 25
xương 25
younger 25
ôn 25
được@@ 25
đấ@@ 25
đựng 25
ượng 25
̣c 25
ất, 25
ật. 25
ẹ@@ 25
ị@@ 25
"Trong 24
'll 24
've 24
000@@ 24
11,@@ 24
30,000 24
3rd 24
4.000 24
450 24
50@@ 24
91 24
AD@@ 24
AR@@ 24
About 24
An, 24
Arabia 24
Around 24
Assembly 24
Ba@@ 24
Based 24
Bay 24
Boeing 24
ByteDance 24
CD@@ 24
Cu 24
Côn 24
Dalat 24
Dan 24
Dang 24
Dien 24
Diễn 24
Dr 24
Due 24
Fin@@ 24
Fran@@ 24
Fu@@ 24
HCV 24
Hopkins 24
Hou@@ 24
Hoàn 24
Hóa 24
Hưng 24
Johns 24
Mas@@ 24
Mer@@ 24
Mur@@ 24
Nghị 24
PT@@ 24
Pre@@ 24
Sal@@ 24
Shi@@ 24
Singapore, 24
Sou@@ 24
Sweden 24
Their 24
Thừa 24
Virus 24
WT@@ 24
Western 24
White 24
Wil@@ 24
Win@@ 24
acquire 24
adap@@ 24
ads 24
affecting 24
agriculture 24
ah 24
anh@@ 24
ara 24
ases 24
ash 24
ashi@@ 24
asking 24
atmosphere 24
attended 24
bars 24
beautiful 24
bers 24
bre@@ 24
broadcast 24
bé@@ 24
bê 24
bền 24
camp 24
candidates 24
cat@@ 24
challenges 24
choose 24
coach 24
commonly 24
contracts 24
core 24
counter@@ 24
cra@@ 24
cul@@ 24
cấp, 24
cắp 24
cửa, 24
delivery 24
design 24
diagnosis 24
difference 24
document 24
double 24
dozens 24
dreams 24
earned 24
el, 24
ell 24
en. 24
ered 24
expl@@ 24
fines 24
frequency 24
g, 24
gate 24
ghế 24
govern@@ 24
grand@@ 24
hear@@ 24
hiện. 24
hygiene 24
ians 24
implement 24
influence 24
infrastructure 24
insects 24
introduced 24
items 24
ities 24
karaoke 24
lính 24
marketing 24
material 24
medi@@ 24
moment 24
mp 24
màng 24
mái 24
neighbors 24
nging 24
nhậ@@ 24
officially 24
ong@@ 24
oxy 24
photos 24
pping 24
prison 24
que 24
question 24
quyển 24
quốc. 24
rare 24
recognized 24
requirements 24
ret@@ 24
sample 24
san 24
scene 24
scientific 24
scores 24
screen 24
seat 24
seems 24
sentenced 24
serv@@ 24
sil@@ 24
sm@@ 24
smartphone 24
sn@@ 24
stability 24
sted 24
stood 24
suspects 24
sá@@ 24
sẻ. 24
sốt, 24
t.', 24
tal 24
thro@@ 24
thắt 24
thổ, 24
thời, 24
tiệm 24
tom@@ 24
ton@@ 24
toward 24
transmitted 24
treatments 24
tế@@ 24
uyền 24
values 24
vessels 24
western 24
widespread 24
winds 24
ây, 24
ênh 24
ăng. 24
đạp 24
ương. 24
̀ng 24
ạm 24
ầy 24
ỏ 24
ốm 24
ờ@@ 24
ời 24
ở, 24
ỷ 24
(5@@ 23
,"" 23
11.@@ 23
120 23
196@@ 23
2015. 23
9,000 23
Academy 23
Ai 23
Au@@ 23
Awards 23
Bul@@ 23
CO@@ 23
Chay 23
Coca 23
Cola 23
College 23
Cri@@ 23
Cũng 23
Drug 23
EC@@ 23
EP@@ 23
Hán. 23
Hương 23
Hạ 23
IT 23
Industrial 23
Kien 23
Lan. 23
Malaysian 23
Mike 23
Military 23
Mus@@ 23
Mục 23
Nep@@ 23
Nguy@@ 23
Ngành 23
Norway 23
Olympics 23
Oper@@ 23
Phần 23
Play 23
Ray 23
Scotland 23
Silver 23
Sur@@ 23
TP@@ 23
Thuy 23
U 23
USD. 23
Uni@@ 23
V, 23
Vung 23
Vùng 23
W 23
accident 23
ack 23
acting 23
actress 23
aff@@ 23
aims 23
alls 23
ange 23
ao@@ 23
ately 23
ater 23
atory 23
avo@@ 23
beat 23
benefits 23
birth@@ 23
biế@@ 23
black 23
bright 23
broken 23
cal 23
celebrate 23
centralized 23
citing 23
collect 23
cong@@ 23
creating 23
cri@@ 23
cáo, 23
cáo. 23
cưới 23
cụm 23
deadly 23
drinking 23
dài. 23
ead 23
easy 23
edge 23
educational 23
electric 23
ending 23
ented 23
expand 23
exten@@ 23
extra 23
extreme 23
eyes 23
factories 23
fer@@ 23
finally 23
fle@@ 23
floor 23
fo@@ 23
forests 23
fro@@ 23
fun@@ 23
gay 23
gene 23
goals 23
gro@@ 23
găng 23
gợi 23
households 23
humanitarian 23
hạn, 23
ica 23
ices 23
ie 23
injured 23
joined 23
keeping 23
khoẻ 23
khỉ 23
khỏe, 23
knowledge 23
ls 23
lệ@@ 23
lợ@@ 23
miếng 23
má@@ 23
mạo 23
nhi@@ 23
nhật. 23
nhện 23
nurses 23
occurs 23
oning 23
onto 23
operated 23
organized 23
ories 23
package 23
page 23
parks 23
parties 23
partner 23
phẩm, 23
phế 23
phục. 23
pigs 23
platforms 23
playing 23
polluted 23
posed 23
post-@@ 23
promote 23
proper 23
protected 23
q@@ 23
railway 23
remove 23
reporters 23
reporting 23
rou@@ 23
save 23
sec@@ 23
section 23
seeing 23
sensitive 23
sey 23
slow 23
smaller 23
special@@ 23
speech 23
spring 23
stem 23
sòng 23
số. 23
sợi 23
t: 23
thổ. 23
tra. 23
trafficking 23
transfer 23
travellers 23
triển, 23
true 23
trust 23
tràn 23
ty@@ 23
tạ@@ 23
tốn 23
uc@@ 23
vari@@ 23
vay 23
vehicle 23
vương 23
washing 23
water@@ 23
wit@@ 23
work@@ 23
za 23
Á. 23
Úc, 23
òng 23
ô-@@ 23
Đặc 23
điển 23
ượ@@ 23
́ 23
ần, 23
ằng 23
ẽ@@ 23
ếch 23
ền, 23
ộ 23
ớ@@ 23
ờ 23
ứng. 23
(N@@ 22
(WHO) 22
/8, 22
11@@ 22
195@@ 22
1982 22
2015, 22
3.5 22
6,000 22
97 22
App 22
AstraZeneca 22
Border 22
Bro@@ 22
Bảy. 22
Community 22
Covid-19@@ 22
Cái 22
Cụ 22
Director 22
Dược 22
Emergency 22
FC 22
Fer@@ 22
Force 22
GM@@ 22
Gam@@ 22
Ger@@ 22
How 22
Hằng 22
IOC 22
Investment 22
Kiên 22
Lang 22
Lý 22
Mùa 22
Mỹ@@ 22
Ne@@ 22
Ocean 22
Phuoc 22
Pháp. 22
Silicon 22
Sim@@ 22
Sơn, 22
Texas 22
Thompson 22
Thua 22
Thảo 22
Thể 22
Turkish 22
VOA 22
Vaccine 22
Vận 22
William 22
ables 22
achiev@@ 22
actor 22
advantage 22
attend 22
ba. 22
beef 22
block 22
books 22
bông 22
bố. 22
canceled 22
canh 22
career 22
charged 22
check@@ 22
chuột 22
chết. 22
cir@@ 22
closing 22
clu@@ 22
combat 22
currency 22
cuts 22
cutting 22
cầu@@ 22
cờ 22
da@@ 22
decline 22
delivered 22
dep@@ 22
depending 22
details 22
dia 22
door 22
doses 22
duty 22
dù 22
dỡ 22
dụ@@ 22
ecting 22
elling 22
elo@@ 22
eted 22
ethnic 22
experiencing 22
fail 22
fears 22
federal 22
fication 22
fine 22
frequently 22
function 22
fur@@ 22
garment 22
gathering 22
globally 22
gradually 22
guard 22
hopes 22
hòn 22
hạ@@ 22
illi@@ 22
imag@@ 22
insp@@ 22
ised 22
ising 22
kill 22
kẹt 22
la. 22
lai. 22
lation 22
load 22
lou@@ 22
manufacturers 22
marijuana 22
missing 22
models 22
mosquitoes 22
mệt 22
names 22
ng: 22
nhiều. 22
normally 22
năm@@ 22
ound@@ 22
pag@@ 22
perform 22
person@@ 22
persons 22
phát, 22
phòng, 22
pped 22
predic@@ 22
preventive 22
producer 22
quan, 22
quy@@ 22
reaction 22
rep@@ 22
requiring 22
residing 22
respond 22
rumors 22
rằng: 22
scre@@ 22
sectors 22
seem 22
sense 22
shot 22
smartphones 22
spir@@ 22
spoke 22
spot 22
stake 22
startup 22
strict 22
suggest 22
surrounding 22
survi@@ 22
swe@@ 22
số@@ 22
sống, 22
teens 22
tens 22
thời. 22
tical 22
ty. 22
tàn 22
tộ@@ 22
tự. 22
unable 22
unusual 22
vi-rút 22
violating 22
vol@@ 22
vỡ 22
vực, 22
wait 22
was@@ 22
with@@ 22
worse 22
xơ 22
yo@@ 22
yp@@ 22
£ 22
ái. 22
ây. 22
ói 22
ù@@ 22
Đăk 22
đu@@ 22
được, 22
ưng 22
ạch 22
ạch, 22
ạo 22
ảm 22
ảo, 22
ất. 22
ẩ@@ 22
ận 22
ỗ 22
ộ. 22
ục 22
ử@@ 22
1.0@@ 21
11, 21
12, 21
2007 21
60@@ 21
900 21
ABC 21
AFC 21
AI@@ 21
Angeles 21
Barley 21
Because 21
Boston 21
Bốn 21
CI@@ 21
Canadian 21
Chu 21
Civil 21
Co 21
Co. 21
Cru@@ 21
Dat 21
Dis@@ 21
ES@@ 21
Economic 21
Far@@ 21
Grand 21
Hoan 21
Hydro@@ 21
Indonesia, 21
Information 21
Iran. 21
Is@@ 21
Islamic 21
JSC 21
Kar@@ 21
Kaz@@ 21
Lanka 21
Lister 21
Liu 21
MERS 21
Manchester 21
Melbourne 21
Musk 21
My@@ 21
Nguyên, 21
Nha, 21
Ob@@ 21
Os@@ 21
Q 21
RT@@ 21
Resources 21
Six 21
Smith 21
Southern 21
Station 21
Sản 21
TNHH 21
Trưởng 21
Ukra@@ 21
V. 21
Vis@@ 21
Vắc-xin 21
Về 21
War@@ 21
Yahoo 21
ack@@ 21
acking 21
adi@@ 21
after@@ 21
alities 21
apart 21
apped 21
arm 21
arm@@ 21
article 21
ath@@ 21
award 21
batch 21
battle 21
biển, 21
biệt, 21
bodies 21
borne 21
bot@@ 21
box 21
bến 21
casino 21
cau@@ 21
certificate 21
chôn 21
clin@@ 21
concluded 21
covered 21
covering 21
cros@@ 21
có@@ 21
công, 21
cũ 21
cả. 21
cấp. 21
cốt 21
de-@@ 21
departments 21
described 21
dom 21
dro@@ 21
elimin@@ 21
ency 21
ening 21
eption 21
even@@ 21
ever@@ 21
exams 21
excee@@ 21
falls 21
fla@@ 21
friendly 21
gam@@ 21
gather 21
giấu 21
gn@@ 21
gánh 21
ham@@ 21
handed 21
harmful 21
hepatitis 21
himself 21
hiểm. 21
hô@@ 21
ick 21
ight 21
impacted 21
increases 21
increasingly 21
influ@@ 21
informed 21
inj@@ 21
institutions 21
investigate 21
ith 21
ju@@ 21
ko@@ 21
lab 21
land, 21
less@@ 21
long@@ 21
lor@@ 21
low@@ 21
lúc 21
lít 21
lồng 21
lộn 21
lớ@@ 21
maritime 21
marked 21
ment@@ 21
mầm 21
n"" 21
nCoV 21
nd 21
ngọn 21
nhiệ@@ 21
nhấ@@ 21
nitrate 21
non-essential 21
nose 21
noti@@ 21
nuclear 21
operates 21
organ 21
originated 21
oring 21
ound 21
ounds 21
pass 21
pes 21
pig 21
pin 21
plan@@ 21
planes 21
presence 21
primary 21
pris@@ 21
progress 21
purposes 21
quali@@ 21
quan. 21
quite 21
quét 21
relatives 21
remember 21
replace 21
risen 21
roads 21
ruled 21
rural 21
ròng 21
separ@@ 21
ser@@ 21
shift 21
shortness 21
sit 21
sli@@ 21
sta 21
strategy 21
strongly 21
struck 21
sufficient 21
suit 21
supermarkets 21
survive 21
suspect 21
sét 21
súng 21
t"" 21
theo. 21
thuốc, 21
thô@@ 21
thẻ 21
til@@ 21
tiz@@ 21
trained 21
trang, 21
tre@@ 21
trí, 21
trượt 21
tô@@ 21
underlying 21
unique 21
usual 21
vir@@ 21
vu@@ 21
vua 21
vậy@@ 21
vọ@@ 21
wa@@ 21
waves 21
xed 21
xi 21
xuất, 21
ya 21
yesterday 21
ên@@ 21
ón 21
úp 21
đâ@@ 21
đừng 21
ại 21
ạn. 21
ất 21
ận. 21
ắn 21
ắng, 21
ễ@@ 21
ệ. 21
ỉ 21
ủ, 21
ứ@@ 21
"Theo 20
00,000 20
1.2 20
1.3 20
2,5 20
2014, 20
2025 20
3-@@ 20
4th 20
70% 20
8,000 20
A, 20
AF@@ 20
Auckland 20
Authority 20
Ay@@ 20
Black 20
Bru@@ 20
Bất 20
Cong 20
Cây 20
Daily 20
Dam@@ 20
Duy 20
Dữ 20
ECMO 20
Every 20
Federation 20
Foundation 20
Gates 20
HCM. 20
Haiyang 20
Honda 20
IC@@ 20
III 20
Jin@@ 20
Kyo@@ 20
Lady 20
Later 20
Li 20
Lou@@ 20
Mad@@ 20
Madrid 20
May@@ 20
Noul 20
OPEC 20
Officials 20
Pan@@ 20
Pi@@ 20
Red@@ 20
Sil@@ 20
Starting 20
Tech@@ 20
Tencent 20
Then 20
Thiên 20
Together 20
Trọng 20
Tùng 20
Tú 20
Vice 20
Vinasun 20
Vuong 20
Võ 20
Vị 20
Wales 20
accordance 20
acks 20
acted 20
adds 20
administrative 20
ai. 20
alized 20
ancing 20
ank 20
anything 20
appreci@@ 20
appro@@ 20
ards 20
aria 20
armed 20
arms 20
ath 20
attending 20
banning 20
beyond 20
billions 20
by@@ 20
bù 20
bố, 20
caf@@ 20
camps 20
checks 20
choice 20
chó@@ 20
chăn 20
chứ@@ 20
clothes 20
coma 20
combined 20
communities 20
constantly 20
conver@@ 20
crime 20
công. 20
cú 20
cắn 20
declaration 20
decrease 20
determined 20
diabetes 20
discuss 20
divorce 20
dly 20
doors 20
dụng 20
dã@@ 20
eastern 20
eg@@ 20
enhance 20
ental 20
equivalent 20
escape 20
establishment 20
evalu@@ 20
fallen 20
feeling 20
feet 20
finished 20
functions 20
gic 20
giả. 20
giọng 20
gue 20
ham 20
historical 20
hiệ@@ 20
hiện, 20
hormone 20
hosted 20
hưu 20
hợp@@ 20
i.'] 20
import 20
instructions 20
intensive 20
interventions 20
ished 20
khó@@ 20
kit 20
ku@@ 20
lau 20
leads 20
leo 20
lessons 20
lights 20
lucky 20
lũng 20
lần. 20
mal@@ 20
marks 20
massive 20
med@@ 20
memory 20
mid@@ 20
mild 20
mountainous 20
mây 20
mưu 20
n.” 20
nature 20
negotiations 20
ng,” 20
nor@@ 20
numerous 20
nói." 20
nạ 20
nữ, 20
officer 20
offices 20
ough 20
oun@@ 20
ours 20
parent 20
partnership 20
phá@@ 20
pháp, 20
phát. 20
plays 20
pos@@ 20
posing 20
potentially 20
preventing 20
prof@@ 20
promised 20
protesters 20
quoted 20
radio 20
re-@@ 20
recover 20
refl@@ 20
refused 20
regi@@ 20
relatively 20
rement 20
repeatedly 20
resol@@ 20
runs 20
sen 20
sequ@@ 20
severely 20
sex@@ 20
sound 20
stri@@ 20
stu@@ 20
sánh 20
sát, 20
sĩ, 20
tay, 20
thiều 20
thoải 20
thơm 20
thức. 20
tracing 20
travelling 20
trend 20
treo 20
tt@@ 20
tun@@ 20
tê 20
tí@@ 20
ul 20
ut 20
vụ 20
vọt 20
willing 20
xách 20
xóm 20
zz@@ 20
á 20
ô, 20
ôm 20
ông@@ 20
ö@@ 20
ú 20
ý, 20
Điện 20
Đã 20
Đảo 20
đai 20
đâm 20
đãi 20
đình, 20
đạ@@ 20
đắt 20
đỏ, 20
ường 20
ại. 20
ảng 20
ấy, 20
ấy@@ 20
ần 20
ẫ@@ 20
ật, 20
ằng, 20
ẻ@@ 20
ề 20
ổng 20
ợ. 20
Ứng 20
"Các 19
(E@@ 19
(như 19
1,500 19
1.8 19
140 19
15,@@ 19
16.@@ 19
195 19
2012, 19
2022 19
202@@ 19
70@@ 19
87 19
Ali@@ 19
Aviation 19
BMS 19
Baby 19
Bor@@ 19
CC@@ 19
CH@@ 19
Championship 19
Chẳng 19
Cuong 19
Daegu 19
Del@@ 19
Det@@ 19
Doctors 19
Elon 19
Emirates 19
Ev@@ 19
Ge@@ 19
Haw@@ 19
Hotel 19
Huyện 19
Huế, 19
Hòa, 19
Ital@@ 19
Jin 19
Kha@@ 19
Kiem 19
Lit@@ 19
Luong 19
Mat@@ 19
Mel@@ 19
Minh. 19
Museum 19
Nai@@ 19
Nga. 19
Oise 19
Old 19
Ox@@ 19
PM@@ 19
Pasteur 19
Prince 19
Ria 19
SEA 19
ST@@ 19
Sab@@ 19
Sam@@ 19
Som@@ 19
Spanish 19
Steve 19
Stock 19
Sun@@ 19
Sw@@ 19
Ter@@ 19
Tet 19
Thật 19
Tour 19
Travel 19
Trà 19
Trương 19
Tw@@ 19
Tỷ 19
UNESCO 19
VI@@ 19
Vi 19
Wang 19
Zhang 19
aches 19
adequate 19
aired 19
ancient 19
ari 19
aring 19
arr@@ 19
association 19
avi@@ 19
bags 19
base 19
basic 19
beds 19
beverage 19
bit@@ 19
biển. 19
bá@@ 19
béo 19
bạn, 19
bộ, 19
bột 19
bụi 19
c." 19
chemicals 19
cháu 19
chì 19
chết, 19
claiming 19
clas@@ 19
classi@@ 19
committed 19
commune 19
confirmation 19
contacted 19
contribute 19
cour@@ 19
cup 19
cus 19
cơ@@ 19
cậ@@ 19
d. 19
declined 19
del@@ 19
detect 19
discovery 19
dom@@ 19
dram@@ 19
dre@@ 19
dà@@ 19
dài, 19
dịch@@ 19
e-commerce 19
earning 19
eas@@ 19
eco@@ 19
eggs 19
ella 19
emo@@ 19
enterprises 19
enty 19
essing 19
establish 19
ests 19
eter 19
examined 19
exchange 19
expec@@ 19
expres@@ 19
farming 19
fashion 19
feed 19
fired 19
formed 19
ga@@ 19
gates 19
gender 19
giá@@ 19
goes 19
guidance 19
hack@@ 19
hal@@ 19
happens 19
heavily 19
ho, 19
honor 19
hán 19
hụt 19
ides 19
ids 19
iled 19
ili@@ 19
images 19
indicated 19
influenza 19
inh 19
invested 19
investing 19
investments 19
isted 19
j 19
khiển 19
knew 19
lands 19
largely 19
law@@ 19
lif@@ 19
loo@@ 19
looked 19
losing 19
ly, 19
lãng 19
lên, 19
lí@@ 19
manage 19
medium 19
minh, 19
monthly 19
motorbike 19
mùi 19
mắt, 19
mệnh 19
mực 19
native 19
nay@@ 19
newly 19
ng""." 19
nhau@@ 19
nhượng 19
nothing 19
nở 19
ograph@@ 19
ond 19
options 19
packages 19
pand@@ 19
participants 19
passing 19
performing 19
pm 19
pol@@ 19
presidential 19
probably 19
professional 19
prohibited 19
publicly 19
pun@@ 19
recognize 19
records 19
replaced 19
respect 19
resulting 19
resume 19
sanctions 19
sau@@ 19
scientist 19
session 19
shock 19
shu@@ 19
sible 19
skilled 19
sle@@ 19
solar 19
some@@ 19
sore 19
sought 19
speaking 19
stan 19
sul@@ 19
sup@@ 19
supp@@ 19
supporting 19
surgical 19
sy@@ 19
symptom 19
sáng, 19
talks 19
tant 19
tants 19
techniques 19
therefore 19
thấp. 19
tina 19
ton, 19
trad@@ 19
trash 19
travelers 19
triệ@@ 19
truck 19
trên, 19
tuberculosis 19
tuyến, 19
tĩnh 19
tư, 19
tại. 19
tỉnh. 19
tử, 19
unprecedented 19
upcoming 19
useful 19
vacc@@ 19
van@@ 19
vuông 19
where@@ 19
worried 19
xạ 19
àn, 19
ân. 19
úc. 19
ăng, 19
Đức. 19
đình. 19
ũ, 19
ũ@@ 19
ượng, 19
́i 19
̉@@ 19
ầu, 19
ẩu 19
ếp 19
ện, 19
ối, 19
ồng, 19
ổ, 19
"""Chúng 18
""Chúng 18
'Một 18
(P@@ 18
100.000 18
180 18
1990 18
2.3 18
2002 18
2016. 18
2019-@@ 18
2021. 18
25% 18
300,000 18
4-@@ 18
40% 18
5th 18
9/@@ 18
Ahn 18
Am@@ 18
Bao 18
Bkav 18
Chief 18
Chien 18
Cho@@ 18
Ci@@ 18
Climate 18
Coca-Cola 18
Convention 18
Customs 18
Cy@@ 18
Da@@ 18
Daniel 18
Dor@@ 18
Dũng, 18
Ed@@ 18
Fac@@ 18
Flight 18
Florida 18
Gh@@ 18
Greece 18
Ha@@ 18
Harvard 18
Hình 18
IV 18
Iraq 18
Jae 18
Jetstar 18
Joe 18
Just 18
Khách 18
Kur@@ 18
Kông, 18
Lake 18
Land@@ 18
Loc 18
Loc@@ 18
Ly@@ 18
Là 18
Lương 18
Macau 18
Mart 18
Moreover 18
Nat@@ 18
Nhan 18
Nong 18
Only 18
Others 18
Paul 18
Philippines, 18
Phước 18
Plan 18
Red 18
Rice 18
Robert 18
Sports 18
St. 18
Steering 18
Sydney 18
TW 18
Taylor 18
Thay 18
Theodore 18
Thomas 18
Top 18
Trinidad 18
Trung, 18
Tsai 18
Ty@@ 18
Tự 18
VN 18
Viet@@ 18
Vệ 18
Yo@@ 18
achieved 18
advant@@ 18
ammonium 18
ang. 18
anger 18
answer 18
appears 18
approach 18
arti@@ 18
artist 18
banks 18
barrel 18
bes 18
bidding 18
billionaires 18
biological 18
blo@@ 18
bon@@ 18
boost 18
buy@@ 18
báo, 18
bọ 18
bọn 18
bỏng 18
bồi 18
cai 18
cam@@ 18
chủ 18
civil 18
clo@@ 18
clubs 18
code 18
colleagues 18
comments 18
confidence 18
conglomerate 18
count 18
cross-@@ 18
cs 18
cùng, 18
cược 18
cậy 18
cỏ 18
dao 18
day@@ 18
decor@@ 18
descri@@ 18
dia@@ 18
diet 18
disinfec@@ 18
diễ@@ 18
drought 18
duc@@ 18
dul@@ 18
easier 18
econom@@ 18
ecture 18
efficacy 18
enforcement 18
engine 18
engineering 18
expect 18
fac@@ 18
factor 18
faster 18
feature 18
feelings 18
fees 18
flooding 18
foo@@ 18
gambling 18
gg@@ 18
ging 18
giáo, 18
giới@@ 18
glass 18
guards 18
guests 18
h, 18
hai. 18
halt 18
happ@@ 18
hed 18
herd 18
hiể@@ 18
household 18
huy@@ 18
hít 18
hậu. 18
hồn 18
iling 18
immuno@@ 18
implic@@ 18
independent 18
infect 18
injury 18
institu@@ 18
insurance 18
integr@@ 18
involve 18
isting 18
khi@@ 18
khách, 18
khát 18
kilograms 18
kinds 18
kor@@ 18
lay@@ 18
len 18
lic 18
lies 18
locally 18
locked 18
logist 18
lãm 18
lý, 18
lượ@@ 18
lở 18
mandatory 18
meant 18
measles 18
mem@@ 18
moderate 18
moon 18
mus@@ 18
musical 18
mạnh, 18
mặt. 18
nal 18
ng; 18
ngers 18
ngày@@ 18
nh." 18
nhiêu 18
nhu@@ 18
ném 18
nướng 18
nữ. 18
oms 18
orial 18
owners 18
pharmaceutical 18
pháp. 18
phơi 18
positions 18
processes 18
professionals 18
protest 18
purpose 18
quốc, 18
rapidly 18
recording 18
recy@@ 18
resp@@ 18
responsibility 18
rey 18
ross 18
sal 18
schedule 18
sees 18
sending 18
serves 18
sets 18
setting 18
sister 18
situations 18
snake 18
soft 18
speak 18
squ@@ 18
stic 18
strategic 18
swine 18
sản, 18
sắ@@ 18
sống. 18
t." 18
teeth 18
tensions 18
thinking 18
threatened 18
ticket 18
tigh@@ 18
tiny 18
transplant 18
tries 18
trùng, 18
tually 18
tóc 18
tụ@@ 18
u: 18
ums 18
updated 18
ur 18
uyến 18
ventilator 18
vil@@ 18
voice 18
wake 18
wer 18
wo 18
yer 18
zones 18
ài, 18
ành 18
ào 18
ình 18
ôi 18
ù 18
ùng 18
ú, 18
út 18
ý. 18
Đỗ 18
́ng 18
ần. 18
ắc. 18
ắn, 18
ế. 18
ọc 18
ốn 18
ột, 18
ừa, 18
’d 18
'Cô 17
'd 17
(tương 17
.”'] 17
10-@@ 17
122 17
124 17
1995 17
1999 17
2-@@ 17
2/@@ 17
20, 17
20,000 17
2020@@ 17
2030, 17
243 17
270 17
360 17
6.000 17
7th 17
80% 17
AS@@ 17
As@@ 17
Ba. 17
Belgium 17
Berlin 17
Bloom@@ 17
Bui 17
Bus 17
CF@@ 17
Chris@@ 17
Corps 17
Council 17
Cur@@ 17
Cà 17
Cường 17
DH@@ 17
Des@@ 17
EC 17
Es@@ 17
Euro@@ 17
Fan 17
Finance 17
Gallup 17
Geor@@ 17
Giờ 17
Go 17
Guin@@ 17
Has@@ 17
Hen@@ 17
Herat 17
Here 17
Hung@@ 17
Hy@@ 17
Inc. 17
Kim@@ 17
Kuala 17
Kỹ 17
Loan, 17
Lạ@@ 17
Man 17
Middle 17
Moun@@ 17
Mrs. 17
Máy 17
Mê 17
Mười 17
Mạnh 17
NA 17
Niger@@ 17
Ninh. 17
Niña 17
OSV 17
Over@@ 17
PC@@ 17
PS 17
Pennsylvania 17
Pharm@@ 17
Pic@@ 17
Protection 17
Qatar 17
Robo@@ 17
Roosevelt 17
Royal 17
San@@ 17
Semmelweis 17
Shanghai 17
Show 17
Sophia 17
Speaking 17
Spears 17
Summer 17
Swedish 17
Sy@@ 17
T, 17
Tel@@ 17
Tin 17
Tra 17
Tuoi 17
Tuyên 17
Tuần 17
USD@@ 17
Valley 17
VietnamPlus 17
VinMart 17
Vingroup, 17
Vinmart 17
Vịnh 17
Web@@ 17
Yet 17
Yu@@ 17
Yêu 17
Zimbabwe 17
['Các 17
adver@@ 17
ae 17
agents 17
airs 17
akes 17
aking 17
ala 17
angu@@ 17
antibodies 17
appe@@ 17
applications 17
arrive 17
attemp@@ 17
atten@@ 17
aware 17
awareness 17
babies 17
believes 17
bet@@ 17
birds 17
bom@@ 17
break@@ 17
breakfast 17
breathe 17
breathing 17
buildings 17
bắn 17
c-@@ 17
candidate 17
cann@@ 17
character@@ 17
chiều. 17
chosen 17
chung, 17
chính, 17
chính. 17
chức, 17
cles 17
conclu@@ 17
confirm 17
connected 17
consecutive 17
contacts 17
contained 17
crimes 17
crop 17
cáp 17
cười 17
cạn 17
cổng 17
dealing 17
decreased 17
defense 17
del 17
delayed 17
deliver 17
dering 17
developments 17
difficulty 17
dinner 17
downtown 17
dâu 17
dắt 17
earn 17
east 17
echo@@ 17
effectively 17
eh@@ 17
eli@@ 17
ells 17
encouraged 17
ened 17
ential 17
eo 17
eter@@ 17
exist 17
expanding 17
expensive 17
facial 17
fatality 17
favorite 17
fet@@ 17
filed 17
filled 17
films 17
flag 17
gan@@ 17
gation 17
generated 17
gian, 17
giúp 17
giày 17
grew 17
guilty 17
harvest 17
hearing 17
heritage 17
hub 17
hydro@@ 17
hà@@ 17
hư 17
hạn. 17
họng 17
hỏng 17
i""." 17
identification 17
ility 17
illnesses 17
ils 17
inary 17
insect 17
interests 17
ita 17
iệu 17
khiếm 17
khách. 17
khía 17
kín 17
licenses 17
lifted 17
likes 17
loa 17
là, 17
lên. 17
lò 17
lầm 17
malaria 17
matters 17
mice 17
mil@@ 17
mir@@ 17
mul@@ 17
mục 17
muối 17
mảng 17
mấy 17
ng-@@ 17
nghiệt 17
ngài 17
ngã 17
ngẫu 17
nhiên. 17
nhà@@ 17
ny 17
nói, 17
nợ 17
oper@@ 17
ordinary 17
output 17
particip@@ 17
pers@@ 17
phenomenon 17
phẩm. 17
phổi, 17
piece 17
pin@@ 17
ports 17
possibly 17
premi@@ 17
privacy 17
profits 17
promo@@ 17
properly 17
protecting 17
prove 17
quick 17
quả, 17
reduction 17
regulatory 17
rejected 17
responding 17
robots 17
ror 17
rung 17
rượ@@ 17
sar@@ 17
secret 17
sers 17
slightly 17
soci@@ 17
sor@@ 17
ster@@ 17
stomach 17
suggesting 17
surge 17
sấu 17
sự. 17
tan 17
tax@@ 17
ter, 17
thiêu 17
thre@@ 17
thua 17
thói 17
thở, 17
tim, 17
tine 17
tious 17
tiê@@ 17
tra, 17
tran@@ 17
trào 17
trên. 17
trùng. 17
ty, 17
túy 17
tấn, 17
tắm 17
t” 17
una 17
undergoing 17
variety 17
vegan 17
vely 17
venture 17
ves@@ 17
vie@@ 17
việ@@ 17
vo 17
vật, 17
warm 17
web@@ 17
weekly 17
written 17
xe. 17
xá 17
xá@@ 17
zy 17
âm, 17
ãi 17
ên 17
ì, 17
Đôi 17
Đông. 17
Đạt 17
Đội 17
điện, 17
đắc 17
đến, 17
ĩ@@ 17
ưng, 17
ướ@@ 17
̉ng 17
ấn. 17
ập, 17
ẽ 17
ề. 17
ển 17
ố 17
ổi 17
ỗi 17
ữa 17
""không 16
#@@ 16
'Ông 16
(1,@@ 16
(I@@ 16
(một 16
00 16
00, 16
1,5 16
1000 16
105 16
113 16
12. 16
12th 16
133 16
14.@@ 16
19.@@ 16
1998 16
20.@@ 16
230 16
3/@@ 16
32@@ 16
45@@ 16
70,000 16
8th 16
?', 16
ADIDAS 16
Ang@@ 16
Anti@@ 16
Ass@@ 16
Austria 16
BC@@ 16
Bangladesh 16
Blue@@ 16
Bridge 16
CN@@ 16
Cau 16
Chin@@ 16
Chro@@ 16
Chuyến 16
Chất 16
Cra@@ 16
Cro@@ 16
Currently 16
Dam 16
David 16
Delhi 16
Don 16
Dun@@ 16
Econom@@ 16
Epidemiology 16
FLC 16
Fiji 16
Film 16
Fre@@ 16
Fund 16
Hyun 16
Hải, 16
ICO 16
Iranian 16
James 16
Jordan 16
KIDO 16
Ken@@ 16
King 16
Labor 16
Les@@ 16
Liem 16
Lung 16
Luân 16
Lyons 16
M. 16
Mag@@ 16
Maria 16
Mexican 16
Mong 16
Mức 16
Nói 16
Ohio 16
Partnership 16
Phượng 16
Phản 16
Qom 16
Quyết 16
R) 16
RE@@ 16
RI@@ 16
RS 16
Ra@@ 16
Region 16
Roy 16
S) 16
Schulenberg 16
Scott 16
Sel@@ 16
Smart 16
Stephen 16
Str@@ 16
Sé@@ 16
Tab@@ 16
Television 16
Tesla 16
Therefore 16
Though 16
Thành, 16
Tim 16
Tokyo, 16
Trị 16
Tuổi 16
Tìm 16
Tử 16
USD), 16
Uy 16
V) 16
VAS 16
VNĐ@@ 16
Video 16
Vladimir 16
Vo 16
Vu@@ 16
Xi@@ 16
Yoshi@@ 16
abor@@ 16
academic 16
actively 16
acts 16
advanced 16
affects 16
aki 16
al. 16
alia 16
alongside 16
am, 16
ambassador 16
amed 16
amounts 16
analysis 16
anit@@ 16
annually 16
ano 16
anz@@ 16
appearance 16
aqu@@ 16
arrest 16
assist 16
att@@ 16
attempt 16
bal 16
ball 16
beaches 16
bid 16
bigger 16
burden 16
bận 16
bọc 16
bố@@ 16
bốc 16
cable 16
catch 16
celebr@@ 16
cer@@ 16
cha@@ 16
chuy@@ 16
chí@@ 16
chúc 16
chế@@ 16
cing 16
cks 16
clean@@ 16
cleaning 16
clim@@ 16
colleges 16
color 16
communication 16
comprehensive 16
conduct 16
conf@@ 16
confirms 16
conflic@@ 16
connection 16
continuing 16
cook 16
cope 16
cot@@ 16
courses 16
covers 16
crops 16
crucial 16
cất 16
cồn 16
cỡ 16
cứu. 16
dates 16
decree 16
deep@@ 16
demanded 16
destro@@ 16
differences 16
doanh. 16
docu@@ 16
drive 16
dân. 16
dâng 16
ears 16
eased 16
economies 16
edit@@ 16
ee 16
emerged 16
emp@@ 16
employed 16
ena 16
ensuring 16
eration 16
escal@@ 16
esses 16
essi@@ 16
ette 16
euros 16
evaluation 16
expansion 16
expects 16
extend 16
eye 16
familiar 16
farm 16
fatalities 16
fee 16
festivals 16
fewer 16
fit 16
flowers 16
fly 16
focused 16
founded 16
fted 16
gained 16
gal 16
gaming 16
giờ@@ 16
gom 16
gorillas 16
gối 16
handle 16
handling 16
hea@@ 16
hiển 16
hào 16
hóa. 16
hơn@@ 16
hỏ@@ 16
hộp 16
immun@@ 16
impossible 16
impres@@ 16
inda 16
installed 16
int 16
int@@ 16
investor 16
ions 16
isha 16
itable 16
iti 16
ke@@ 16
keep@@ 16
khiếp 16
khá@@ 16
khái 16
khăn. 16
kia. 16
kil@@ 16
kitchen 16
lab@@ 16
les@@ 16
liter 16
lá@@ 16
lú@@ 16
lận 16
lậu 16
mate 16
meetings 16
millennials 16
minim@@ 16
minority 16
mạc 16
nghiệ@@ 16
none 16
nutri@@ 16
nàn 16
nước@@ 16
occupational 16
od@@ 16
organs 16
originally 16
otype 16
parking 16
performances 16
permanent 16
physi@@ 16
populations 16
posting 16
posts 16
practices 16
pray@@ 16
prize 16
profile 16
promising 16
promotion 16
publication 16
rainfall 16
ranks 16
reading 16
reality 16
ree 16
regulation 16
reli@@ 16
ride 16
rolled 16
rét 16
rồ@@ 16
salt 16
scr@@ 16
seventh 16
show@@ 16
sid@@ 16
smoking 16
stages 16
stating 16
stocks 16
storage 16
strain 16
stream 16
structure 16
supported 16
sy 16
tariffs 16
task 16
tasks 16
tations 16
tened 16
tery 16
text 16
thor@@ 16
thoái 16
thá@@ 16
thâm 16
thạo 16
thấp, 16
thẳ@@ 16
thể@@ 16
thống, 16
thống. 16
thổi 16
thức, 16
ti 16
tioned 16
tissue 16
transported 16
trăng 16
trật 16
trẻ, 16
trời. 16
typical 16
tăng, 16
tốt, 16
tự, 16
ures 16
ust 16
ut@@ 16
vote 16
vắng 16
wat@@ 16
watched 16
wedding 16
wel@@ 16
x, 16
yellow 16
yếu@@ 16
àng, 16
ã@@ 16
õ 16
Đi@@ 16
Đinh 16
Đông@@ 16
Đặng 16
đáo 16
đế 16
đỗ 16
ơi 16
ơi, 16
ưa. 16
ưởng, 16
ạ 16
ầu 16
ẫn 16
ậm 16
ắn. 16
ắng. 16
ắp 16
ị 16
ỏ@@ 16
ối. 16
ồn, 16
ở@@ 16
ỡ 16
ụ 16
ữ 16
‘@@ 16
“Các 16
“Một 16
""một 15
(H@@ 15
(M@@ 15
-r@@ 15
1.4 15
1.6 15
190 15
1994 15
20.000 15
200.000 15
2019@@ 15
212 15
219 15
300.000 15
350 15
4.0 15
410 15
9th 15
AM@@ 15
Abe 15
Ad5 15
Ai@@ 15
AirPods 15
Alzheimer 15
Andre@@ 15
Ardern 15
Argentina 15
Beardson 15
Bird 15
Bon@@ 15
Bra@@ 15
Bắc. 15
C), 15
CB@@ 15
CEOs 15
Cal@@ 15
Campuchia. 15
Cann@@ 15
Co.op 15
Colom@@ 15
Comm@@ 15
Common 15
Comp@@ 15
Cậu 15
Củ 15
Danh 15
Division 15
Dr@@ 15
Dub@@ 15
Energy 15
F) 15
Facebook, 15
Fe@@ 15
Federal 15
Financial 15
Golden 15
Grill 15
Hanh 15
Hau@@ 15
He@@ 15
Huu 15
Hà, 15
I) 15
II 15
Internet. 15
Is 15
Jer@@ 15
Joint 15
Kal@@ 15
Khasi 15
Kin@@ 15
Lab@@ 15
Limited 15
Lotte 15
Ly 15
MS 15
Macron 15
Massachusetts 15
Mich@@ 15
Mil@@ 15
Mạng 15
Mẹ 15
Mỹ) 15
NH@@ 15
Na@@ 15
Nam." 15
Nan@@ 15
Nghi 15
Ngo 15
Nhu 15
OS@@ 15
Our 15
Pakist@@ 15
Pikachu 15
Professor 15
Program 15
Quynh 15
RC 15
Reuter@@ 15
Rwanda 15
Sabeco 15
Services 15
Siri 15
Sky 15
St 15
Star@@ 15
Store 15
Such 15
Sushi 15
TH@@ 15
TP.@@ 15
Tai@@ 15
Tiểu 15
Ton@@ 15
Toyota 15
Training 15
Tuấn, 15
Tâm 15
Tạp 15
UV 15
VABIOTECH 15
VN54 15
VNPT 15
Việ@@ 15
Washing@@ 15
We@@ 15
Weather 15
Willi@@ 15
Windows 15
Xu 15
]@@ 15
ach 15
acquired 15
actual 15
advance 15
allegations 15
allergy 15
ancestors 15
anda 15
ands 15
anian 15
anim@@ 15
argu@@ 15
aro 15
artists 15
as, 15
asser@@ 15
assistant 15
audience 15
author 15
axit 15
benefit 15
bian 15
billionaire 15
bitcoin 15
bread 15
brother 15
busy 15
bò@@ 15
cameras 15
campus 15
canc@@ 15
category 15
cats 15
ce@@ 15
certificates 15
chances 15
character 15
chicken 15
chiế@@ 15
chúng, 15
chế, 15
cin@@ 15
cking 15
class@@ 15
collaboration 15
communes 15
compete 15
competitive 15
computers 15
con. 15
contain@@ 15
contracting 15
controlled 15
coronavirus@@ 15
coronaviruses 15
cou@@ 15
counts 15
criticized 15
crowded 15
crude 15
crypto 15
cure 15
cấy 15
dash 15
definitely 15
delay 15
direc@@ 15
donated 15
dropping 15
dust 15
duties 15
dáng 15
dò 15
dùng. 15
dấy 15
dệt 15
dội 15
e.g. 15
earthquake 15
effectiveness 15
egg 15
electr@@ 15
electronic 15
eling 15
emic 15
emics 15
emplo@@ 15
ested 15
estimate 15
evi@@ 15
examples 15
exercises 15
floods 15
fluids 15
forcing 15
fuels 15
gence 15
gging 15
ghts 15
giáp 15
giảm. 15
giếng 15
giờ. 15
grap@@ 15
gà 15
gạ@@ 15
h. 15
hang 15
heads 15
hen 15
holds 15
hom@@ 15
hood 15
hosting 15
hum@@ 15
hung 15
hình. 15
hưởng. 15
hảo 15
hẳn 15
hồi. 15
ideas 15
ided 15
identifying 15
impose 15
instructed 15
inten@@ 15
introduce 15
invest 15
investigated 15
issuing 15
istic 15
iện 15
iện, 15
i” 15
joint 15
jud@@ 15
khôi 15
khỏ@@ 15
kilometer 15
kiện, 15
knows 15
ku 15
la). 15
legs 15
lets 15
liters 15
ll 15
logists 15
lowing 15
luck 15
lục, 15
lụt 15
m) 15
magazine 15
mai 15
maintaining 15
meal 15
medicines 15
minis@@ 15
missions 15
mothers 15
multi-@@ 15
mãi 15
móc 15
mắ@@ 15
mỏ 15
ngang 15
nghĩ@@ 15
ngầm 15
nhở 15
non-governmental 15
noodles 15
objects 15
onic 15
opposition 15
orm@@ 15
ounded 15
ova 15
pain@@ 15
parlors 15
pass@@ 15
percentage 15
phil@@ 15
phòng. 15
phố@@ 15
pick 15
pictures 15
planet 15
poli@@ 15
port@@ 15
poses 15
praised 15
premature 15
presented 15
prin@@ 15
proc@@ 15
punishment 15
quang 15
quyền. 15
quên 15
ram@@ 15
raw 15
recommendations 15
regul@@ 15
representatives 15
rescue 15
residential 15
responses 15
river 15
rắc 15
scal@@ 15
seconds 15
sely 15
sharply 15
siders 15
sides 15
sinking 15
sitting 15
ski 15
sl@@ 15
soldiers 15
son, 15
soát, 15
spell 15
ss 15
standard 15
strange 15
streaming 15
struggling 15
sustainable 15
syn@@ 15
sách, 15
số, 15
t-@@ 15
t.'] 15
talking 15
targets 15
taxes 15
telling 15
thai. 15
thinks 15
thuật, 15
thuật. 15
thêm: 15
thông. 15
thấ@@ 15
thấy, 15
thần. 15
thở. 15
thực, 15
tial 15
ting@@ 15
tool 15
tough 15
tours 15
trips 15
tro 15
trouble 15
truc@@ 15
trộn 15
tuổi@@ 15
tẩy 15
tụt 15
u.', 15
unclear 15
undergo 15
unlawful 15
va@@ 15
viewed 15
vital 15
volunteers 15
vật. 15
vẽ 15
wal@@ 15
wan 15
wine 15
xing 15
xuất. 15
Â@@ 15
Úc. 15
át, 15
ìa 15
ó 15
ôi, 15
ôn, 15
ø@@ 15
ùa 15
Điểm 15
điểm. 15
đấu. 15
đến. 15
đổi. 15
ướng 15
ưỡng 15
ạng 15
ảo. 15
ặn 15
ẻ 15
ẻ, 15
ềm 15
ền. 15
ỉ, 15
ốc, 15
ớ 15
ớt 15
ợ, 15
ủ. 15
ứ 15
‑ 15
"Bộ 14
"Những 14
'Điều 14
)." 14
00.000 14
10. 14
106 14
110 14
125 14
16th 14
17th 14
1974 14
1988 14
2013, 14
268 14
3.8 14
320 14
500,000 14
8-@@ 14
9.000 14
?” 14
AB@@ 14
AEON 14
AT 14
Accordingly 14
Additionally 14
Airlines, 14
Angela 14
Anim@@ 14
Asiad 14
Barack 14
Buenos 14
Bãi 14
Bờ 14
Castro 14
Catholic 14
Cha 14
Chan 14
Change 14
Church 14
Clinton 14
Congo 14
County 14
Cửa 14
DNA 14
Dak@@ 14
Democratic 14
Dizhi 14
Early 14
Echo 14
Egypt 14
El 14
Elizabeth 14
Exchange 14
Fam@@ 14
Fidel 14
Flappy 14
Football 14
Fore@@ 14
Forecasting 14
Frank 14
GM 14
GMA 14
Galaxy 14
Giai 14
Gro@@ 14
Guang@@ 14
Hara 14
Holdings 14
Huynh 14
Hydro 14
Infectious 14
Initiative 14
Joseph 14
Journal 14
Kas@@ 14
Kông. 14
Lan@@ 14
Ltd 14
Luxembourg 14
Lần 14
MS@@ 14
Management 14
Mark 14
Metro 14
Mid@@ 14
Music 14
Nad@@ 14
Nearly 14
Ngu@@ 14
Nis@@ 14
Năng 14
Oxford 14
Patients 14
Phú, 14
Production 14
Pu@@ 14
QR 14
Queen 14
Quá 14
Republican 14
Request 14
Resid@@ 14
Rh@@ 14
Ryan 14
Rịa-Vũng 14
SARS-CoV-2. 14
Sahar@@ 14
Sao 14
Sars 14
Society 14
Ste@@ 14
Sub@@ 14
Sud@@ 14
Thung 14
Thắng 14
Timothy 14
Tiếng 14
Tiếp 14
Trading 14
Traffic 14
Trinh 14
Trump@@ 14
Tuy@@ 14
Upon 14
VFS 14
VND1 14
Ver@@ 14
Vinamilk 14
Vũng 14
WHO@@ 14
Warner 14
Wat@@ 14
Wiesel 14
Wool@@ 14
Xuất 14
Youtube 14
['Một 14
abilities 14
accel@@ 14
accept 14
adays 14
afraid 14
ak 14
ales 14
alive 14
aly@@ 14
and, 14
antibiotics 14
anu@@ 14
appearing 14
apping 14
applying 14
approximately 14
arri@@ 14
ase 14
ased 14
astic 14
atically 14
bilateral 14
blockchain 14
bonds 14
boys 14
brings 14
broadcasting 14
bubble 14
burn 14
báo. 14
bắ@@ 14
bắc, 14
bọt 14
calcul@@ 14
cat 14
centres 14
charity 14
chea@@ 14
cher 14
chers 14
child@@ 14
chose 14
chu 14
church 14
chuyể@@ 14
chóng. 14
chùa 14
chật 14
chế. 14
circul@@ 14
circumstances 14
cited 14
cle 14
clients 14
closures 14
clusters 14
cockroach 14
collabor@@ 14
collection 14
comfort 14
competent 14
complic@@ 14
complicated 14
connect 14
connecting 14
contaminated 14
contractor 14
crow@@ 14
crowds 14
custo@@ 14
cuồng 14
cúng 14
cảm. 14
cầ@@ 14
cứ@@ 14
dark 14
deals 14
deser@@ 14
determin@@ 14
dig@@ 14
directive 14
discussed 14
dismis@@ 14
disputes 14
dist@@ 14
distributed 14
dle 14
dor@@ 14
drinks 14
dặm 14
dục. 14
eaten 14
eding 14
efs 14
elev@@ 14
emissions 14
employment 14
eng 14
enh@@ 14
enny 14
entation 14
entrepreneurs 14
episo@@ 14
eral 14
eri@@ 14
esh 14
ession 14
etc 14
eting 14
evacuated 14
exemp@@ 14
experim@@ 14
explain 14
fair 14
fare 14
featured 14
fill 14
finals 14
flies 14
flower 14
fluid 14
fol@@ 14
ford 14
frequent 14
fusion 14
gathered 14
generate 14
generations 14
gifts 14
giảm, 14
gov@@ 14
graduation 14
gre@@ 14
greatly 14
guaran@@ 14
guide 14
gỗ 14
hardest 14
hear 14
herself 14
hiếp 14
hosts 14
hydroxychloroquine 14
hã@@ 14
hại, 14
ide@@ 14
iding 14
immigrants 14
impor@@ 14
industries 14
injection 14
install 14
intense 14
interested 14
internationally 14
interview 14
invasive 14
involvement 14
involves 14
ison 14
itate 14
iz 14
journal@@ 14
journey 14
jumped 14
k. 14
kem 14
king@@ 14
kiêm 14
kiên 14
ky 14
kì 14
kể. 14
lad@@ 14
landslides 14
lang 14
lay 14
lear@@ 14
leg@@ 14
legi@@ 14
liance 14
license 14
life@@ 14
lit@@ 14
loaded 14
lood 14
lying 14
làm. 14
lí 14
lưng 14
lưỡi 14
lập, 14
lỡ 14
lực, 14
m.', 14
mall 14
manufacturer 14
math 14
measured 14
mel@@ 14
mented 14
mer 14
mi 14
midnight 14
minimum 14
modified 14
mountain 14
moves 14
movies 14
muscle 14
máu, 14
mù 14
mươi 14
mại, 14
mặ@@ 14
mỹ 14
nesses 14
ng). 14
ng.'] 14
nghi@@ 14
nghiệp@@ 14
nhi 14
nhé@@ 14
nhịp 14
nuts 14
năng, 14
oldest 14
oma 14
on. 14
ona 14
opinion 14
opportunities 14
orts 14
oted 14
outdoor 14
passport 14
permit 14
permits 14
phiếu, 14
photo 14
phụ 14
phí@@ 14
phú@@ 14
phút. 14
polis 14
popularity 14
posi@@ 14
pot 14
poverty 14
preventable 14
priority 14
progres@@ 14
prolonged 14
pt 14
r. 14
rad@@ 14
rail 14
rank 14
ray 14
recommends 14
recycling 14
referred 14
relationships 14
relative 14
rele@@ 14
rely 14
remin@@ 14
remote 14
repatriation 14
rer 14
resistance 14
restrict 14
roles 14
rum@@ 14
runway 14
rừ@@ 14
sch@@ 14
ser 14
shareholders 14
sharp 14
sinh@@ 14
sor 14
sport 14
spreads 14
stitu@@ 14
stone 14
stor@@ 14
storms 14
strengthen 14
stroke 14
studio 14
sub-@@ 14
substance 14
suitable 14
supports 14
surprise 14
sà@@ 14
sạn, 14
sụp 14
sỹ 14
targeted 14
targeting 14
technique 14
tel 14
thank 14
theaters 14
thôi 14
thực. 14
tings 14
tiền, 14
traders 14
trang. 14
transgender 14
tri 14
trics 14
trogen 14
truly 14
truy@@ 14
tweet 14
tùng 14
tường 14
tắt 14
tỏ@@ 14
tối, 14
tối. 14
unless 14
ura 14
ution 14
val 14
valued 14
violate 14
vitamin 14
vỏ 14
walking 14
wash 14
watching 14
wealth 14
websites 14
winner 14
xi@@ 14
xuân 14
yen 14
yuan 14
Ú@@ 14
ân@@ 14
ãi. 14
è. 14
Đo@@ 14
Độ. 14
đêm, 14
đạn 14
đắp 14
định@@ 14
đổi, 14
đụng 14
ư 14
ư, 14
̣ng 14
ải, 14
ật@@ 14
ằ@@ 14
ặng 14
ẻ. 14
ị, 14
ọc, 14
ủ 14
ủ@@ 14
ữ, 14
“Nếu 14
“không 14
(6@@ 13
(T@@ 13
(U@@ 13
(V@@ 13
(tiếng 13
000-@@ 13
10th 13
12,000 13
135 13
142 13
157 13
18th 13
1980 13
1989 13
2.6 13
2014. 13
2030. 13
25th 13
262 13
30.000 13
370 13
6.5 13
6th 13
8.000 13
90@@ 13
AC 13
AU@@ 13
Ail@@ 13
Andrew 13
Ansley 13
Anthony 13
Apart 13
Army 13
Aside 13
Ath@@ 13
Be 13
Bieber 13
Billboard 13
Board 13
Bol@@ 13
Bão 13
Bởi 13
CB 13
Campuchia, 13
Champ@@ 13
Columbia 13
Conte 13
Câu 13
Còn 13
Cường, 13
Dai 13
Danish 13
Diego 13
Dương. 13
Dưới 13
E, 13
Em@@ 13
Est@@ 13
FDA 13
Falkland 13
Filipino 13
Fine 13
Five 13
Gal@@ 13
Gao 13
Grab 13
Green 13
Guard 13
Guatem@@ 13
HCM@@ 13
Hiến 13
Human 13
Huỳnh 13
Hyundai 13
Hùng, 13
Hữu 13
H’@@ 13
I, 13
ICU 13
Inc 13
Indonesian 13
Insider 13
Invalids 13
Iraq@@ 13
Istan@@ 13
J 13
Kenya 13
Kho@@ 13
Kuwait 13
Lex@@ 13
Like 13
Linh, 13
Lumpur 13
Lãnh 13
Lôi 13
Lúc 13
Lạp 13
Lạt 13
Mariem 13
Massons 13
Motor 13
Muni@@ 13
Món 13
NO@@ 13
Nag@@ 13
Nature 13
Ngôi 13
Nielsen 13
Nien 13
Now@@ 13
Nuenen 13
O) 13
OS 13
Pas@@ 13
Pepsi@@ 13
Poland 13
Poli@@ 13
RON92 13
Railway 13
Resort 13
Rio 13
Rum@@ 13
SARS-CoV-2, 13
SU290 13
Sa, 13
Sai 13
Scot@@ 13
Senegal 13
Sin@@ 13
Sto@@ 13
Sup@@ 13
Symptoms 13
Sử 13
TB 13
TC 13
Tea 13
Tes@@ 13
Thiên-Huế 13
Thường 13
Tiki 13
Time 13
Tom 13
Tower 13
Turkmenistan 13
Tám 13
Tô 13
Tưởng 13
USNS 13
Ul@@ 13
Ultra 13
Un 13
VF@@ 13
VFS-@@ 13
VND10 13
Vientiane 13
Vietnam@@ 13
Water@@ 13
Without 13
Young 13
Zealand, 13
\xa0 13
absor@@ 13
accommodation 13
accounted 13
accurate 13
achieve 13
acter@@ 13
activi@@ 13
ades 13
adopted 13
aero@@ 13
alization 13
alternative 13
ambi@@ 13
antly 13
anxiety 13
apologi@@ 13
appointed 13
archit@@ 13
asp@@ 13
assaul@@ 13
assessment 13
attractive 13
autonomous 13
aven@@ 13
bacterial 13
badly 13
banana 13
barriers 13
bene@@ 13
bet 13
bill 13
biết." 13
biết@@ 13
bones 13
bound 13
brief@@ 13
burns 13
bắp 13
bệnh@@ 13
bụ@@ 13
bụng 13
cake 13
cast 13
categories 13
celebrated 13
chatbo@@ 13
chatbots 13
checked 13
checking 13
chép 13
chúa 13
chốt 13
chứng, 13
cian 13
cinemas 13
cm 13
coc@@ 13
cockroaches 13
colon@@ 13
comply 13
compu@@ 13
concept 13
container 13
contains 13
contin@@ 13
contributed 13
contribution 13
controver@@ 13
cool 13
cop@@ 13
correct 13
correspon@@ 13
crash 13
creation 13
critically 13
cryptocurrencies 13
cảnh. 13
cấp@@ 13
cột 13
củng 13
cử@@ 13
cực. 13
dai 13
daughters 13
day, 13
debt 13
deceased 13
defendants 13
defin@@ 13
depar@@ 13
depic@@ 13
desig@@ 13
destroyed 13
developers 13
diarrhea 13
direction 13
disaster 13
dium 13
dog 13
dollar 13
doub@@ 13
dow@@ 13
downp@@ 13
dưỡ@@ 13
dựng. 13
earnings 13
ech@@ 13
edition 13
efficiency 13
eh 13
elec@@ 13
elled 13
emphas@@ 13
employers 13
enjoyed 13
ensive 13
entirely 13
epidemio@@ 13
evacuate 13
examination 13
exporters 13
facil@@ 13
fas@@ 13
fastest 13
fatigue 13
fiers 13
fire@@ 13
fri@@ 13
g. 13
genetically 13
gged 13
giận 13
giục 13
glo@@ 13
graduates 13
gram 13
graph@@ 13
greatest 13
gì. 13
gồm: 13
hair 13
harm 13
hat@@ 13
hol@@ 13
holidays 13
hoping 13
hormones 13
hoạ 13
hoại 13
hà 13
hùng 13
hỗn 13
i-@@ 13
im 13
imm@@ 13
implementation 13
inated 13
ine. 13
ining 13
ink 13
insul@@ 13
intensi@@ 13
internal 13
interpre@@ 13
intervention 13
investigations 13
ites 13
iện. 13
journal 13
khoáng 13
không? 13
khẩu, 13
khẩu. 13
khứ 13
kin@@ 13
ké@@ 13
kỷ. 13
la), 13
land. 13
laser 13
le, 13
leg 13
let@@ 13
letters 13
lev@@ 13
lists 13
lize 13
locality 13
lychees 13
là: 13
lụ@@ 13
mag@@ 13
marathon 13
massage 13
master 13
maximum 13
maybe 13
measuring 13
medication 13
moon@@ 13
mountains 13
muscles 13
mặt, 13
mỏng 13
mộ@@ 13
ne, 13
nes@@ 13
ng”. 13
nhóc 13
night@@ 13
nit@@ 13
non 13
nặng, 13
nọc 13
object 13
of@@ 13
ok 13
ological 13
omin@@ 13
oned 13
painting 13
part@@ 13
paying 13
permitted 13
pho 13
phosph@@ 13
phy@@ 13
phà 13
phàn 13
phục, 13
player 13
plus 13
poisoning 13
possibility 13
post@@ 13
postp@@ 13
predicted 13
procedure 13
provider 13
psycho@@ 13
psychologists 13
pub@@ 13
pushed 13
quar@@ 13
rainy 13
ranging 13
rapper 13
red@@ 13
researcher 13
resorts 13
resur@@ 13
reti@@ 13
returnees 13
revolution 13
rolls 13
sashimi 13
seafood 13
seas 13
secre@@ 13
seismic 13
selected 13
selfie 13
sentence 13
seo 13
severity 13
shel@@ 13
shoo@@ 13
sit@@ 13
sity 13
sky@@ 13
solve 13
sory 13
spo@@ 13
stand@@ 13
steel 13
sting 13
stre@@ 13
stronger 13
struc@@ 13
stuck 13
submitted 13
subsidiary 13
substances 13
suc@@ 13
sugar 13
sum 13
summit 13
supposed 13
surprised 13
surprising 13
sàn 13
sát. 13
sẻ, 13
sử, 13
sử@@ 13
t.” 13
tab@@ 13
tancy 13
tells 13
tent 13
tern 13
tha 13
theory 13
thr@@ 13
threat@@ 13
thuần 13
thy 13
tháp 13
thép 13
thôi. 13
thă@@ 13
thị@@ 13
timate 13
tis 13
ton. 13
tration 13
triggered 13
tropol@@ 13
trương 13
trẻ. 13
trời, 13
ture@@ 13
tâ@@ 13
tù@@ 13
tạng 13
tạo, 13
uation 13
unhealthy 13
verse 13
virut 13
viên@@ 13
vors 13
vạch 13
wallets 13
wed 13
welcome 13
welcomed 13
wish 13
won@@ 13
workplace 13
worsening 13
xe, 13
xô 13
xả 13
yn 13
ái, 13
ã, 13
ét, 13
ệ@@ 13
òn 13
úc 13
úi 13
Đoàn 13
Định 13
Đồn 13
đán 13
đáy 13
đẻ 13
đề, 13
ũ 13
Ước 13
ạ, 13
ạch@@ 13
ạnh, 13
ảng, 13
ẩn. 13
ậy 13
ằm 13
ặt 13
ẹn 13
ề, 13
ều 13
ỉ. 13
ỗ, 13
ủi 13
ứng, 13
ứt 13
ừ 13
ừng 13
ửa, 13
“Khi 13
“L@@ 13
"Cô 12
"Người 12
'Các 12
'Nhưng 12
'Tuy 12
(4@@ 12
(US@@ 12
(ví 12
.vn 12
/8 12
0.5 12
000. 12
1,2 12
1,3@@ 12
1.1 12
11. 12
12.000 12
13.@@ 12
15.000 12
160 12
179 12
18.@@ 12
2"" 12
2.2 12
2001 12
209 12
23% 12
233 12
280 12
3"" 12
43@@ 12
5%. 12
500@@ 12
6-@@ 12
60% 12
60,000 12
7,000 12
7.000 12
77@@ 12
80.000 12
80@@ 12
82 12
AH@@ 12
Abi@@ 12
Adidas 12
Aeroflot 12
Amaz@@ 12
Ambassador 12
Amid 12
Android 12
Arthur 12
Beer 12
Best 12
Black@@ 12
Bom 12
Bour@@ 12
Brazilian 12
Busin@@ 12
Bức 12
CE 12
Cambodian 12
Cameron 12
Carol@@ 12
Cases 12
Cham@@ 12
Chanh 12
Charles 12
Chaul 12
Chic@@ 12
Chil@@ 12
Chuyên 12
Chúng 12
Clin@@ 12
Clo@@ 12
Communications 12
Congress 12
Cooper@@ 12
Cre@@ 12
Croati@@ 12
Czech 12
Cát 12
DO@@ 12
Deb@@ 12
Den@@ 12
Dha@@ 12
Dru@@ 12
Dublin 12
E5 12
EF@@ 12
EU@@ 12
Eastern 12
Embraer 12
Erdo@@ 12
Ethiopia 12
Ever@@ 12
FR@@ 12
Forest 12
Francis 12
Francisco 12
Fri@@ 12
G4 12
Gaga 12
Gate 12
Gen@@ 12
Gene@@ 12
Gir@@ 12
Giống 12
Giới 12
Gogh 12
Google, 12
Govern@@ 12
Gò@@ 12
HIV/@@ 12
Hal@@ 12
Hamlet 12
Hang@@ 12
Hanson 12
Heart 12
Hien 12
Him@@ 12
Hon@@ 12
Hospit@@ 12
Hotels 12
Hundreds 12
Hygiene 12
IBM 12
Inc@@ 12
Indi@@ 12
Indones@@ 12
Initi@@ 12
Institu@@ 12
Intelligence 12
Jas@@ 12
Joong 12
Jord@@ 12
Josh 12
Karachi 12
Kim, 12
Kle@@ 12
Krasno@@ 12
Kritenbrink 12
Lank@@ 12
Liêm 12
Ltd. 12
M, 12
MC 12
ME@@ 12
Maduro 12
Manh 12
Martin 12
Matt 12
Maur@@ 12
Mauritius 12
Med@@ 12
Merkel 12
MobiFone 12
Monac@@ 12
Mạch, 12
Mới 12
NASA 12
Nav@@ 12
Ngai 12
Nhiễm 12
Nik@@ 12
Offic@@ 12
PP@@ 12
Pac@@ 12
Panasonic 12
Papua 12
Pav@@ 12
Phi. 12
Philadelphia 12
Phá@@ 12
Play@@ 12
Policy 12
Port 12
Pres@@ 12
Princ@@ 12
Raj@@ 12
Recently 12
Ris@@ 12
Rou@@ 12
Rus@@ 12
SAR@@ 12
Salustiano 12
Scarbor@@ 12
Sea@@ 12
Seychelles 12
Speci@@ 12
Storm 12
Studies 12
Syn@@ 12
Syrian 12
Sá@@ 12
TN@@ 12
Tea@@ 12
Tham 12
The@@ 12
Thuận, 12
Thương, 12
Thần 12
Tiên, 12
Tiên. 12
Tobago 12
Tra@@ 12
Trav@@ 12
Truc 12
Trúc 12
Trịnh 12
Tun@@ 12
Twit@@ 12
Tĩnh 12
USS 12
Ung 12
Up 12
VNA 12
Vegas 12
Vienna 12
Vilni@@ 12
Virgin@@ 12
Vài 12
Wel@@ 12
Within 12
Wom@@ 12
Woody 12
Wy@@ 12
Xanh 12
York, 12
Zealand@@ 12
Zi@@ 12
aband@@ 12
accuracy 12
ace@@ 12
acle 12
acqu@@ 12
agre@@ 12
agree 12
aim@@ 12
ake@@ 12
aked 12
akh 12
aled 12
algorithm 12
aller@@ 12
alum@@ 12
ama@@ 12
ami@@ 12
amin@@ 12
ancy 12
anniversary 12
arrang@@ 12
assigned 12
asymptomatic 12
atch 12
atures 12
audiences 12
ax@@ 12
backed 12
bacterium 12
banh 12
bans 12
bidden 12
bil@@ 12
bites 12
biể@@ 12
ble@@ 12
bleeding 12
bloc@@ 12
blocked 12
blue 12
boyfriend 12
branch 12
brothers 12
burned 12
bón 12
bú@@ 12
ca. 12
cancellation 12
cao@@ 12
capable 12
cardiovascular 12
celebrities 12
chat 12
chim@@ 12
chấ@@ 12
chứng. 12
cli@@ 12
climbed 12
cloth 12
cloud 12
collecting 12
combination 12
compensation 12
completion 12
compound 12
conc@@ 12
concentrated 12
confident 12
consider@@ 12
considers 12
consum@@ 12
contam@@ 12
contest 12
contributions 12
conversation 12
convic@@ 12
coo@@ 12
coordin@@ 12
costly 12
coughing 12
crashed 12
cultiv@@ 12
cups 12
cyber@@ 12
cài 12
có. 12
cô@@ 12
công@@ 12
cơm 12
cư, 12
da. 12
dairy 12
danger 12
dd@@ 12
dea@@ 12
dead@@ 12
declarations 12
defined 12
dered 12
developer 12
disc@@ 12
ditionally 12
ditions 12
doanh, 12
donors 12
doubled 12
dozen 12
drama 12
drew 12
dơi 12
dẹp 12
eal@@ 12
ealing 12
earthquakes 12
easing 12
ecosystem 12
een 12
eff@@ 12
eline 12
embar@@ 12
emer@@ 12
emergencies 12
emerging 12
emotional 12
empty 12
emy 12
enn@@ 12
ense 12
entrance 12
er. 12
erated 12
ere@@ 12
escaped 12
estra 12
evere 12
exact 12
excep@@ 12
express 12
expressway 12
extrac@@ 12
ez 12
fantas@@ 12
farms 12
feren@@ 12
ference 12
ferry 12
fertilizer 12
fir@@ 12
flown 12
foot 12
fossil 12
framework 12
franch@@ 12
fraud 12
freshwater 12
fried 12
func@@ 12
fying 12
gang 12
ght@@ 12
ghter 12
gian. 12
gift 12
git 12
giáo. 12
gl@@ 12
gol@@ 12
grocer@@ 12
gương 12
han@@ 12
hard@@ 12
harder 12
head@@ 12
headquarters 12
hin@@ 12
historic 12
hoods 12
hospitalized 12
hot@@ 12
hoã@@ 12
hunting 12
hur@@ 12
hurt 12
hình, 12
họp, 12
i.” 12
ib@@ 12
improving 12
ined 12
infant 12
ingly 12
inspection 12
intrusion 12
investigating 12
ior 12
is, 12
isa 12
itting 12
iều 12
joining 12
ken 12
ker@@ 12
khen 12
khiêu 12
khoan 12
khuyết 12
khánh 12
khí@@ 12
khỏe@@ 12
kilogram 12
kindergarten 12
km. 12
lai, 12
laun@@ 12
lawmakers 12
legally 12
leisure 12
length 12
letting 12
licensed 12
lift 12
limiting 12
limits 12
ling@@ 12
liter@@ 12
locate 12
lov@@ 12
loạ@@ 12
làm, 12
lý@@ 12
lập. 12
m." 12
maintained 12
makers 12
managing 12
mang@@ 12
mates 12
medicinal 12
mes 12
minimize 12
miss 12
mist@@ 12
mix 12
mol@@ 12
mosquito 12
multi@@ 12
mình.” 12
mòn 12
mạn 12
mẹ, 12
mẹ@@ 12
mỏ@@ 12
mỏi 12
mốc 12
mới@@ 12
nan 12
nee@@ 12
negoti@@ 12
neu@@ 12
nge 12
nha 12
nhầm 12
nhỏ, 12
nhớ@@ 12
nor 12
now@@ 12
nutrition 12
này.'] 12
não. 12
nơi, 12
nơi. 12
nồng 12
o: 12
oc 12
occup@@ 12
ola 12
ols 12
onia 12
oods 12
optim@@ 12
option 12
organisms 12
ounce 12
pair 12
panel 12
panic 12
path 12
percei@@ 12
pesticides 12
pets 12
pha@@ 12
phiền 12
physically 12
phì 12
picked 12
pil@@ 12
pink 12
plas@@ 12
pleas@@ 12
popul@@ 12
powers 12
pper 12
preliminary 12
preparation 12
prevented 12
prioritiz@@ 12
proficiency 12
promp@@ 12
properties 12
proteins 12
psychology 12
push 12
qua@@ 12
qual@@ 12
quanti@@ 12
quyền, 12
radi@@ 12
recession 12
recommend 12
ref@@ 12
register 12
registration 12
rence 12
reopened 12
repatriated 12
resistant 12
rest@@ 12
restricted 12
rich@@ 12
roll 12
royal 12
rup@@ 12
rupt 12
rừng. 12
satellite 12
satis@@ 12
sauce 12
scandal 12
scape 12
scenarios 12
secondary 12
seeks 12
septic 12
servation 12
shelter 12
shipped 12
shortly 12
sic 12
sight 12
sim@@ 12
sively 12
sixth 12
smugg@@ 12
sons 12
sounds 12
soạn 12
spokeswoman 12
sporting 12
starts 12
statistics 12
stoc@@ 12
stories 12
submit 12
suicide 12
sum@@ 12
supervision 12
suppl@@ 12
surveyed 12
sus 12
suspending 12
sáng. 12
sáp 12
só@@ 12
sản. 12
sự, 12
tackle 12
tall 12
tane@@ 12
tasked 12
tees 12
tex@@ 12
them@@ 12
thes@@ 12
thri@@ 12
thủ 12
thánh 12
thơ 12
thư. 12
thế. 12
thức@@ 12
tian 12
tim. 12
tives 12
tiếp. 12
tiền. 12
to, 12
top@@ 12
topped 12
touch 12
touched 12
tradition 12
tral 12
tre 12
trending 12
trends 12
trick 12
trưa 12
trước@@ 12
tum@@ 12
tunately 12
tune 12
turning 12
turns 12
tuy@@ 12
tuyết 12
tác, 12
tâm, 12
tư. 12
tước 12
ude 12
umes 12
underground 12
update 12
urities 12
us, 12
us. 12
uyen 12
vaccinated 12
vaping 12
vector 12
venue 12
veter@@ 12
vor 12
vory 12
ván 12
vĩ 12
vắc-xin, 12
vắc-xin. 12
vụ, 12
warehouse 12
warn 12
weighing 12
woo@@ 12
wore 12
wrapped 12
write 12
writer 12
xói 12
yan@@ 12
Ít 12
à. 12
àn. 12
ào, 12
ày@@ 12
áp, 12
ãi, 12
ình. 12
ý@@ 12
ăn@@ 12
Điển, 12
Đơn 12
đuôi 12
đê@@ 12
đêm. 12
đường. 12
đập 12
đị@@ 12
đống 12
đồi 12
đời. 12
đức 12
ơ, 12
ưỡi 12
̀i 12
ι@@ 12
ại, 12
ải. 12
ảy 12
ầu. 12
ẩn, 12
ẳng 12
ế, 12
ễ 12
ễn 12
ọn 12
ỏ, 12
ử 12
ự@@ 12
ực, 12
ực@@ 12
“Đây 12
""có 11
"Bà 11
"Nhưng 11
"['""@@ 11
# 11
'Họ 11
'Những 11
'Và 11
(AI@@ 11
(CDC) 11
-la 11
.. 11
.v@@ 11
1,8 11
116 11
127 11
128 11
13,@@ 11
14,@@ 11
165 11
199 11
1990s 11
1991 11
1993 11
20. 11
201 11
2011, 11
2025@@ 11
20th 11
21,@@ 11
22,@@ 11
24/@@ 11
240 11
25,000 11
3.3 11
33,@@ 11
5.5 11
52@@ 11
7.5 11
78 11
84@@ 11
AJ@@ 11
ASEAN@@ 11
Aar@@ 11
Ag@@ 11
Al 11
Albert 11
Alter@@ 11
Amok 11
Anton@@ 11
Arab 11
Associ@@ 11
Audi 11
Aus@@ 11
Award 11
Azerbaij@@ 11
Bakery 11
Belarus 11
Biden 11
Bl@@ 11
Bristol 11
Bud@@ 11
Buetikofer 11
Bồ 11
CAA@@ 11
CBS 11
CD4 11
CO2 11
COVID-19@@ 11
CP@@ 11
Cambridge 11
Capital 11
Carri@@ 11
Cat 11
Cen@@ 11
Chen 11
Chnam 11
Choi 11
Chánh 11
Clinic 11
Coast 11
Construction 11
Cuban 11
Cấm 11
De 11
Declaration 11
Disney 11
Doha 11
Dom@@ 11
Electronics 11
Emmanuel 11
FD@@ 11
Fair 11
Firefox 11
Fol@@ 11
Formula 11
Fox 11
Giang. 11
Globally 11
Golf 11
Graham 11
HT@@ 11
Hang-seo 11
Hano@@ 11
Having 11
Hea@@ 11
High@@ 11
Hạnh 11
Hậu 11
Iceland 11
Israeli 11
JPY 11
Jackson 11
Jama@@ 11
Jim 11
Jona@@ 11
KCNA 11
Kazakhstan 11
Kel@@ 11
Khang 11
Khu@@ 11
Kids 11
Kristeller 11
Lac 11
Las 11
Lat 11
Lạc 11
Lục 11
MH370 11
Malaysia. 11
Maldives 11
Mand@@ 11
Maritime 11
Max 11
Media 11
Meteorological 11
Microsof@@ 11
Minnea@@ 11
Miền 11
Moldova 11
Morgan 11
Morrison 11
Muslim 11
Myanmar, 11
Mô 11
ND 11
Nhật, 11
Nicholas 11
Niên 11
Norton 11
Nov@@ 11
Nộ@@ 11
Nội." 11
Oc@@ 11
Opp@@ 11
Oracle 11
Pat@@ 11
Patt@@ 11
Phi-líp-@@ 11
Phi@@ 11
Phái 11
Phố 11
Pittsbur@@ 11
Pla@@ 11
Po 11
Pokemon 11
Por@@ 11
Premier 11
Quý 11
Quả 11
R. 11
RI 11
RO@@ 11
Represent@@ 11
Response 11
Ret@@ 11
Romania 11
SUV 11
Safety 11
Sciences 11
Shincheonji 11
Sky@@ 11
Sor@@ 11
Star 11
Sĩ 11
THPT 11
Tai 11
Taoiseach 11
Techcombank 11
Tegnell 11
Tex@@ 11
Thuốc 11
Thác 11
Thạch 11
Thạnh 11
TikTok, 11
Timor 11
Trail 11
Trắng 11
Tướng 11
USA 11
Until 11
VN0054 11
VN00@@ 11
VND2 11
VO@@ 11
Vang 11
Vene@@ 11
Venezuel@@ 11
VinAI 11
Vinac@@ 11
Vinc@@ 11
Vincent 11
Vol@@ 11
W. 11
Wen@@ 11
Wit@@ 11
World@@ 11
Worldwide 11
Wozniak 11
Yem@@ 11
York. 11
You@@ 11
Your 11
Zh@@ 11
Zone 11
['Những 11
abandoned 11
abi@@ 11
abused 11
accepted 11
aching 11
acked 11
acquisition 11
addiction 11
addressed 11
adic@@ 11
adul@@ 11
adverti@@ 11
ails 11
aire 11
akers 11
akh@@ 11
ald 11
alised 11
allegedly 11
allies 11
alligator 11
aming 11
anced 11
anno@@ 11
anting 11
antiviral 11
anywhere 11
appeal 11
archipelagos 11
ared 11
ary@@ 11
asing 11
assert 11
assess 11
associ@@ 11
ast 11
atal 11
attacked 11
attacking 11
attribu@@ 11
atur@@ 11
aul@@ 11
ault 11
author@@ 11
aves 11
avoiding 11
awaiting 11
a” 11
bang. 11
barrels 11
bats 11
begins 11
belief 11
bic@@ 11
bin@@ 11
biệ@@ 11
blamed 11
bled 11
bomb 11
bottles 11
bribery 11
broadcas@@ 11
browser 11
burial 11
but@@ 11
bó@@ 11
bị@@ 11
c) 11
cab@@ 11
cancel 11
cannabis 11
card 11
careful 11
carefully 11
carries 11
casting 11
cay 11
ceed 11
cel@@ 11
celebrations 11
cement 11
channel 11
charter 11
chips 11
chron@@ 11
chua 11
chú 11
chặ@@ 11
chị@@ 11
chừng 11
ci 11
civili@@ 11
coins 11
coll@@ 11
competitors 11
complications 11
concentration 11
condoms 11
consistent 11
consumed 11
cont@@ 11
context 11
contrac@@ 11
control@@ 11
controlling 11
cooked 11
cooperating 11
critic@@ 11
cured 11
cycle 11
cá, 11
cám 11
cấ@@ 11
cận. 11
d'@@ 11
da, 11
dar@@ 11
dare 11
deal@@ 11
debate 11
deleg@@ 11
demanding 11
depend@@ 11
depres@@ 11
devi@@ 11
diagno@@ 11
dian 11
dios 11
discus@@ 11
dispute 11
distribution 11
diversi@@ 11
doc@@ 11
dol@@ 11
dreaming 11
drove 11
dumping 11
duyệt. 11
dạ@@ 11
dựng, 11
ead@@ 11
ed, 11
educ@@ 11
electrical 11
eligible 11
ello 11
ellow 11
elsewhere 11
emotions 11
enced 11
encouraging 11
ene@@ 11
engineers 11
entitled 11
establishments 11
et, 11
eters 11
etery 11
ev 11
evacu@@ 11
evacuation 11
evid@@ 11
evol@@ 11
evolution 11
exactly 11
explains 11
exploitation 11
exporter 11
ez@@ 11
failing 11
farm@@ 11
favor 11
finger 11
fled 11
foun@@ 11
foundation 11
gal@@ 11
gases 11
gent 11
geo@@ 11
gies 11
giây 11
giật 11
giặt 11
giỏi 11
grams 11
guides 11
gun@@ 11
gãy 11
hailing 11
halted 11
han 11
happening 11
hide 11
hired 11
holders 11
honored 11
hospit@@ 11
housing 11
hoạch. 11
hurric@@ 11
hypertension 11
hãm 11
hôi 11
hấp. 11
họ.', 11
hủ@@ 11
i; 11
iPhone 11
iang 11
identi@@ 11
ification 11
ifying 11
ign 11
infec@@ 11
inform@@ 11
ingredients 11
ins@@ 11
introduction 11
ion@@ 11
ired 11
is. 11
iss 11
istence 11
iting 11
ium 11
ja@@ 11
jack@@ 11
justice 11
kar@@ 11
kets 11
khan 11
khóc 11
khớp 11
kiệt 11
km, 11
kph 11
kí 11
lease 11
lers 11
lin 11
links 11
liquid 11
listening 11
liệu, 11
loads 11
loan 11
lular 11
luxury 11
lên@@ 11
lăng 11
lặng 11
lốc 11
managers 11
manufactured 11
marking 11
memories 11
mention 11
misinformation 11
miêu 11
mood 11
movements 11
murder 11
muố@@ 11
mysterious 11
máy. 11
mù@@ 11
mượn 11
mạch. 11
mỳ 11
m” 11
n.'] 11
nCoV@@ 11
nas@@ 11
nation@@ 11
naturally 11
neck 11
new@@ 11
ng.""" 11
nga 11
ngọ@@ 11
ngực 11
nhuận. 11
như@@ 11
nhỏ. 11
ninth 11
nuốt 11
nã@@ 11
nú@@ 11
nấ@@ 11
observed 11
obstacles 11
occas@@ 11
offerings 11
omi 11
oming 11
oner 11
onset 11
onym@@ 11
ope 11
operational 11
operators 11
organizers 11
organizing 11
outs 11
overing 11
owns 11
ozone 11
papers 11
pel@@ 11
perfect 11
pesticide 11
peti@@ 11
phim, 11
phoon 11
phr@@ 11
phái 11
phải. 11
phổi. 11
pilgri@@ 11
placing 11
plu@@ 11
pointed 11
policem@@ 11
pow@@ 11
powered 11
practi@@ 11
premis@@ 11
primarily 11
processed 11
produces 11
projected 11
prominent 11
promoting 11
protocol 11
rap@@ 11
rarely 11
ras@@ 11
re, 11
read@@ 11
realized 11
reasonable 11
reau 11
recoveries 11
recovering 11
recru@@ 11
recruitment 11
reduces 11
refers 11
refu@@ 11
regardless 11
regularly 11
rela@@ 11
reliable 11
rently 11
reopening 11
represents 11
requests 11
reserve 11
reservo@@ 11
residence 11
respon@@ 11
rible 11
ron 11
rub@@ 11
ruption 11
rushed 11
ruz 11
ruồi 11
rèn 11
rồi, 11
rộng. 11
salaries 11
saltwater 11
saving 11
school@@ 11
screened 11
searches 11
secretary 11
seg@@ 11
seniors 11
sens@@ 11
sexually 11
shareholder 11
shir@@ 11
sized 11
sla@@ 11
smo@@ 11
snakes 11
sort 11
spaces 11
spea@@ 11
specul@@ 11
spider 11
ssing 11
startups 11
sterile 11
stored 11
strategies 11
struggle 11
style 11
subscri@@ 11
sured 11
sus@@ 11
suspic@@ 11
sust@@ 11
sweet 11
sym@@ 11
sàng. 11
sáu, 11
t) 11
t; 11
tably 11
tag 11
tap@@ 11
tar@@ 11
tely 11
temple 11
termin@@ 11
thai, 11
thao, 11
thedral 11
theo@@ 11
thers 11
thick 11
thousand 11
threatening 11
thuốc. 11
thành, 11
thám 11
thé@@ 11
thích, 11
thính 11
thạch 11
thận, 11
thọ 11
tied 11
till 11
time@@ 11
tiếc 11
tles 11
too@@ 11
touching 11
toxins 11
transiting 11
trem@@ 11
trol@@ 11
trung, 11
tròn 11
trùm 11
trống 11
tting 11
turing 11
twins 11
tàu, 11
tôi. 11
tú@@ 11
tơ 11
tướ@@ 11
tạo. 11
tủ 11
unexpected 11
unveiled 11
uro 11
uti@@ 11
uyên 11
vast 11
vec@@ 11
vend@@ 11
ventilation 11
venues 11
victory 11
villagers 11
virus@@ 11
vision 11
visu@@ 11
viết, 11
vùng 11
vĩnh 11
w, 11
warnings 11
weigh@@ 11
wo@@ 11
worries 11
wro@@ 11
wrong 11
xong 11
xoáy 11
xuống. 11
xà 11
xí@@ 11
xứng 11
y.', 11
ycle 11
yi 11
youngest 11
youth 11
zo 11
~ 11
áp. 11
áu 11
ç@@ 11
è, 11
èo. 11
ì@@ 11
ìm 11
í 11
ính 11
íp 11
ùng, 11
ùng. 11
ü@@ 11
ül@@ 11
Đen 11
Đôn 11
điện. 11
điệu 11
đoạt 11
đói 11
đông, 11
đĩa 11
ĩa 11
ư. 11
ường, 11
ưở@@ 11
̀m 11
̉i 11
ể@@ 11
ỉnh 11
ổ. 11
ỡ@@ 11
ức@@ 11
’ll 11
“Họ 11
“Điều 11
€ 11
""các 10
"Sau 10
'Trong 10
'“@@ 10
($ 10
(2,@@ 10
(COVID-19) 10
): 10
.""']" 10
..@@ 10
.”', 10
1) 10
1,3 10
1.500 10
1.7 10
101 10
120,000 10
134 10
143 10
144 10
151 10
16,000 10
162 10
18,@@ 10
19,@@ 10
19. 10
194 10
1968 10
1975 10
2.1 10
2003, 10
21@@ 10
260 10
4,300 10
4.0@@ 10
420 10
46@@ 10
500.000 10
6/@@ 10
70.000 10
737 10
850 10
9.5 10
ATM 10
AVG 10
Agn@@ 10
Ah@@ 10
Alex@@ 10
Alexander 10
Alliance 10
Amir@@ 10
Are 10
Ari@@ 10
Artificial 10
Austral@@ 10
Auto 10
Bat@@ 10
Bec@@ 10
Bel@@ 10
Benjamin 10
Bifare@@ 10
Bir@@ 10
Bluetooth 10
Book 10
Bordeau@@ 10
Boris 10
Brow@@ 10
Brussel@@ 10
Bun@@ 10
Bureau 10
Bây 10
Bả@@ 10
Bố 10
Bộ, 10
CD4+ 10
CRISP@@ 10
Chan@@ 10
Chris 10
Chăm 10
Code 10
Corona 10
Countries 10
Cr@@ 10
Crist 10
Cá 10
Căn 10
Cẩm 10
D, 10
DI@@ 10
Daniella 10
Disaster 10
Domin@@ 10
Dutch 10
Dựa 10
E. 10
EK@@ 10
EL@@ 10
Everyone 10
F. 10
FPT 10
Facebook. 10
Fah@@ 10
Fal@@ 10
Fl@@ 10
Foo@@ 10
Forces 10
Forum 10
Further 10
G, 10
Gael 10
Gamkreli@@ 10
Geneva 10
Give 10
Gián 10
God@@ 10
Gomez 10
HIV. 10
HIV@@ 10
Haiphong 10
Heilmayr 10
Hep@@ 10
Hill@@ 10
Hoa, 10
Hoai 10
Holly@@ 10
Hond@@ 10
Howard 10
IA@@ 10
Ignaz 10
Il@@ 10
Irish 10
Isra@@ 10
JL@@ 10
Jag@@ 10
Jiang 10
Jones 10
Justice 10
Kabul 10
Khan 10
Kinh, 10
Kiri@@ 10
Kiếm 10
Kr@@ 10
Kẻ 10
L. 10
LE 10
Lagos 10
Laurel 10
Lebanon 10
Len@@ 10
Lev@@ 10
Lim 10
London@@ 10
Lyrebird 10
Làm 10
Làng 10
Lối 10
MD 10
MER@@ 10
MSN 10
Madai 10
Mali 10
Map 10
Marathon 10
MarchOn 10
Marie 10
Master 10
Mayo 10
Mexic@@ 10
Mexico, 10
Mi 10
Monogram 10
Moon 10
Morning 10
Moz@@ 10
Muangthong 10
Mười, 10
Mối 10
NBC 10
NCE 10
NG@@ 10
NS@@ 10
Neigh@@ 10
Netanyahu 10
Nha. 10
Nhìn 10
Nhưng, 10
Nà 10
OP@@ 10
Oce@@ 10
Oklahom@@ 10
Olympi@@ 10
Ortagus 10
Panther 10
Paradise 10
Paris, 10
Passengers 10
Pepsi 10
Pes@@ 10
Petersburg 10
Philippine 10
Philippines. 10
Phiên 10
Phnom 10
Phoenix 10
Plague 10
Planning 10
Politburo 10
Population 10
Portu@@ 10
Pó 10
Quality 10
Quy@@ 10
Quốc." 10
RT-@@ 10
Rem@@ 10
Rights 10
Roeb@@ 10
Rol@@ 10
Rị@@ 10
S-@@ 10
Sansha 10
Sap@@ 10
Scienti@@ 10
Search 10
Seattle 10
Sen 10
Sense 10
Shores 10
Sindh 10
Sinh, 10
Smithsonian 10
Socrates 10
Sometimes 10
Soon 10
Spirit 10
Srpska 10
Stadium 10
Stan@@ 10
Stand@@ 10
Students 10
Sĩ, 10
Sống 10
Take 10
Tal@@ 10
Tay@@ 10
Tbilis@@ 10
Techno@@ 10
Tem@@ 10
Ther@@ 10
Thiết 10
Tho@@ 10
Thorotrast 10
Thú 10
Thư 10
Thắng, 10
Touris@@ 10
Toyo@@ 10
Traditional 10
Trang, 10
Trends 10
Tro@@ 10
Trump. 10
Trấn 10
Tyum@@ 10
Tôn 10
Tĩnh, 10
Tối 10
U.@@ 10
UNCL@@ 10
USAID 10
Unlike 10
Urban 10
VTV 10
Vati@@ 10
Ve@@ 10
Vinmec 10
Viên 10
Việt, 10
Vòng 10
Vật 10
Wall 10
Watch 10
Web 10
Whit@@ 10
Wildlife 10
Wiscons@@ 10
X-@@ 10
X-ray 10
YSEALI 10
YouTube@@ 10
Zika 10
['Vào 10
['Ông 10
\u200b@@ 10
absence 10
acad@@ 10
accidents 10
accompanied 10
achi@@ 10
activ@@ 10
activated 10
ad, 10
adju@@ 10
adopt 10
ador 10
adren@@ 10
advoc@@ 10
affairs 10
afford 10
afford@@ 10
agina 10
agrant 10
ags 10
aker 10
alla 10
alling 10
almajiri 10
amazing 10
ame@@ 10
ana, 10
ander 10
anding 10
ane@@ 10
announce 10
anx@@ 10
applic@@ 10
ar, 10
argued 10
ashes 10
aspect 10
aspir@@ 10
attractions 10
auction 10
aug@@ 10
avir 10
bà 10
beach 10
begun 10
behavi@@ 10
behavioral 10
beria 10
betting 10
bie 10
bills 10
blame 10
bles 10
blog 10
boar@@ 10
bour@@ 10
bpd 10
bra@@ 10
breaks 10
broth 10
business@@ 10
buýt, 10
bám 10
bơi 10
bơm 10
bản. 10
bảy, 10
captain 10
capture 10
captured 10
cargo 10
cashew 10
cation 10
cem@@ 10
cep@@ 10
certain@@ 10
cham@@ 10
chem@@ 10
chest 10
chiế@@ 10
chur@@ 10
chuối 10
chọ@@ 10
chủng. 10
cirrhosis 10
cky 10
clea@@ 10
clip 10
closer 10
clouds 10
co, 10
cock 10
cocoa 10
commit@@ 10
commitment 10
communicate 10
components 10
concer@@ 10
condemned 10
confirming 10
conscious 10
contagious 10
contrast 10
contributing 10
convenience 10
corn 10
corporate 10
cow 10
craft 10
creates 10
credit 10
crises 10
cryptocurrency 10
cular 10
curb 10
cú@@ 10
cơ. 10
cước 10
cả, 10
cấm. 10
cố@@ 10
củ 10
dam@@ 10
damaging 10
database 10
debut 10
deforestation 10
demands 10
denti@@ 10
departure 10
depend 10
detailed 10
devas@@ 10
develo@@ 10
diesel 10
discover 10
discrimination 10
discussions 10
disinfection 10
dismissed 10
diễn. 10
do. 10
dock 10
donate 10
draws 10
drivers 10
dõi, 10
dùng, 10
dĩ 10
dưa 10
dướ@@ 10
dẫ@@ 10
dập 10
eKY@@ 10
earth 10
ecu@@ 10
ee@@ 10
eighth 10
eing 10
elds 10
elected 10
eled 10
elephant 10
ell, 10
ellow@@ 10
ems 10
encoun@@ 10
endangered 10
engage 10
enses 10
enship 10
entary 10
environ@@ 10
epidemiological 10
equipped 10
erals 10
erate 10
eric 10
ert 10
etary 10
eties 10
every@@ 10
exam@@ 10
examine 10
execu@@ 10
exha@@ 10
experiment 10
explosion 10
fan 10
fatal 10
favor@@ 10
feels 10
fem@@ 10
ferences 10
fic 10
ficiency 10
finish 10
flash@@ 10
flood@@ 10
follows 10
footage 10
formic 10
fron@@ 10
fts 10
fulness 10
funded 10
gan. 10
garden 10
gear 10
ger@@ 10
ghan 10
gin@@ 10
giọt 10
goo@@ 10
gor@@ 10
governmental 10
governor 10
graders 10
grass 10
gì, 10
góc 10
gập 10
gọn 10
hab@@ 10
handled 10
hazard 10
hazards 10
height 10
hes@@ 10
hing 10
homo@@ 10
house@@ 10
humidity 10
hundred 10
hút 10
hò 10
hôn. 10
hồi, 10
hổ 10
hộ, 10
i"" 10
iOS 10
identity 10
ify 10
illing@@ 10
improv@@ 10
improvement 10
inations 10
inci@@ 10
incredi@@ 10
independ@@ 10
indoor 10
indoors 10
induc@@ 10
inflammation 10
innov@@ 10
intensity 10
invent@@ 10
ip@@ 10
ishi 10
istan 10
istan. 10
ital 10
itation 10
itor 10
iệp 10
i”, 10
i”. 10
ju 10
keley 10
khốc 10
khứ, 10
kuiku 10
kém. 10
kể@@ 10
kịch, 10
laboratories 10
lam@@ 10
lan. 10
landfall 10
lanterns 10
latter 10
lau@@ 10
learned 10
lifestyle 10
lining 10
lip 10
literally 10
luận. 10
lông 10
lường 10
lượng, 10
lấn 10
lắ@@ 10
lồ@@ 10
lực. 10
main@@ 10
maj@@ 10
malls 10
manufac@@ 10
marine 10
mart 10
mean@@ 10
meaningful 10
metric 10
mine 10
mitigate 10
miệng, 10
motiv@@ 10
mur@@ 10
máu. 10
mũ@@ 10
mạng, 10
mọc 10
mộng 10
mờ 10
n), 10
negl@@ 10
neighbor 10
neighbouring 10
net@@ 10
netizens 10
ngly 10
ngờ. 10
ngụ 10
ngữ, 10
nhanh, 10
nhạ@@ 10
ni 10
nival 10
niêm 10
noting 10
nurse 10
nòng 10
nă@@ 10
o) 10
obj@@ 10
occasion 10
ocel@@ 10
oka 10
onel 10
ont 10
ood 10
oral 10
oration 10
ord@@ 10
ordering 10
organ@@ 10
organis@@ 10
organize 10
otic 10
oun 10
ource 10
overcome 10
ovirus 10
pal@@ 10
partly 10
passports 10
patches 10
pathogen 10
peaceful 10
peanu@@ 10
pefully 10
penalties 10
pending 10
perio@@ 10
phép. 10
phí. 10
phấn 10
phụ@@ 10
pic@@ 10
pione@@ 10
pir@@ 10
pollu@@ 10
poly@@ 10
polymerase 10
poorly 10
portfolio 10
poss@@ 10
ppers 10
precautionary 10
preclinical 10
preparations 10
probe 10
productive 10
productivity 10
prom 10
promise 10
promptly 10
prosecu@@ 10
prosp@@ 10
proto@@ 10
publishing 10
purchased 10
pylobacter 10
ranh 10
ratio 10
rejects 10
relief 10
remark@@ 10
removing 10
renewable 10
renowned 10
rents 10
repeated 10
replacement 10
resum@@ 10
resumed 10
retirement 10
reveal 10
revised 10
richest 10
rises 10
rivals 10
riêng. 10
rong 10
roots 10
ros 10
ruling 10
ruột 10
rying 10
rộ@@ 10
rộn 10
s-@@ 10
sable 10
sac@@ 10
safer 10
sali@@ 10
sand@@ 10
saved 10
scam@@ 10
schem@@ 10
sea@@ 10
secure 10
see@@ 10
seed 10
sepsis 10
shi 10
shipping 10
shocked 10
shut@@ 10
sig@@ 10
sisters 10
sleeping 10
slowed 10
smell 10
sni@@ 10
sol 10
sorry 10
soát. 10
speaker 10
speci@@ 10
sph@@ 10
spon@@ 10
stadium 10
stat@@ 10
stopping 10
stranded 10
strengthened 10
sue 10
sues 10
suits 10
surpris@@ 10
susp@@ 10
swa@@ 10
swimm@@ 10
sâu, 10
sĩ. 10
sưu 10
sưở@@ 10
sẻ: 10
sớm, 10
sởi 10
tadpol@@ 10
tas@@ 10
taught 10
teach 10
terror@@ 10
terrorist 10
tha@@ 10
theo, 10
thir@@ 10
thiện. 10
thoại, 10
thích@@ 10
thương, 10
thề 10
thị. 10
thịnh 10
thứ@@ 10
tically 10
tinc@@ 10
titled 10
titude 10
tiếng, 10
tiếng. 10
tiệ@@ 10
tough@@ 10
tract 10
traffic@@ 10
tragedy 10
transit 10
transporting 10
triệt 10
trou@@ 10
trá@@ 10
trí. 10
tră@@ 10
tural 10
tục 10
twin 10
táng 10
tóm 10
tăm 10
u) 10
ues 10
uph@@ 10
uring 10
uyết 10
vel 10
vers@@ 10
ville 10
viol@@ 10
violation 10
visi@@ 10
voted 10
voters 10
votes 10
vào. 10
vươn 10
về. 10
vị. 10
vội 10
vụ@@ 10
wa 10
wholes@@ 10
wid@@ 10
winning 10
witn@@ 10
wom@@ 10
workplaces 10
writing 10
xinh 10
xuyên, 10
xướng 10
xỉ 10
y"" 10
yar@@ 10
ye@@ 10
ys@@ 10
yếu, 10
zen 10
zer 10
zes 10
zo@@ 10
àng. 10
ánh, 10
âu, 10
âu. 10
ã. 10
ãn 10
ê. 10
ñ@@ 10
òi 10
õ@@ 10
ùn 10
úy 10
Đạt, 10
Đừng 10
đủ 10
đảo, 10
đẹp, 10
địa, 10
đồng) 10
đời, 10
đủ. 10
ơi. 10
ưa, 10
ước, 10
ướt 10
̃ 10
ạch. 10
ạp 10
ảnh, 10
ảnh. 10
ẳ@@ 10
ến@@ 10
ốc. 10
ốc@@ 10
ống, 10
ồ 10
ộm 10
ộng 10
ờ, 10
ữa, 10
ự 10
ựa 10
ựu 10
ỳ@@ 10
“các 10
“có 10
"""Tôi 9
"".']" 9
"Khi 9
'Bà 9
'Chúng 9
(9@@ 9
(L@@ 9
(S@@ 9
(bao 9
(khoảng 9
(sinh 9
...@@ 9
.000-@@ 9
0% 9
04 9
1"", 9
109 9
117 9
12% 9
13% 9
149 9
15, 9
15-@@ 9
15/@@ 9
15th 9
163 9
17,@@ 9
172 9
177 9
187 9
188@@ 9
194@@ 9
19th 9
2.8 9
20-@@ 9
2012. 9
2013. 9
2017@@ 9
23/@@ 9
24.@@ 9
245 9
25/@@ 9
250,000 9
251 9
3,5 9
3." 9
3.6 9
30-@@ 9
30th 9
369 9
510 9
550 9
6) 9
60.000 9
650 9
69@@ 9
75% 9
9-@@ 9
90,000 9
90.000 9
= 9
A3@@ 9
AG 9
AR 9
Afghan 9
Airbus 9
Ak@@ 9
Argentin@@ 9
Asi@@ 9
Azerbaijani 9
Bah@@ 9
Baha@@ 9
Bahrain 9
Baidu 9
Baku 9
Bangladesh, 9
Banja 9
Barcel@@ 9
Beverage 9
Bia 9
Bis@@ 9
Brazil, 9
Brookly@@ 9
Brown 9
Buddh@@ 9
Buff@@ 9
Bus@@ 9
Busan 9
Bá 9
Bình. 9
Bí 9
Băng 9
CG@@ 9
COC 9
COPD 9
CT 9
Cabinet 9
Californi@@ 9
California, 9
Canad@@ 9
Check 9
Chín 9
Cir@@ 9
Clara 9
Communicable 9
Compu@@ 9
Conduc@@ 9
Corp 9
Creil 9
Culture 9
Cựu 9
DB@@ 9
DC 9
Dawn 9
Decree 9
Der@@ 9
Direc@@ 9
Doc@@ 9
Duke 9
Dy@@ 9
Each 9
Ecu@@ 9
Edge 9
Eg@@ 9
Emil@@ 9
Entertainment 9
Environmental 9
Equ@@ 9
Ethiop@@ 9
Euromonitor 9
Explorer 9
Expres@@ 9
F, 9
FBI 9
Face 9
Falls 9
Floy@@ 9
Form@@ 9
Ga@@ 9
Gener@@ 9
Germanwatch 9
Ghana 9
Gil@@ 9
Gio 9
God 9
Gol@@ 9
Gren@@ 9
Guy@@ 9
Gwent 9
Gã 9
Gòn. 9
Haiyan 9
Ham@@ 9
Harry 9
Hel@@ 9
Heliogen 9
Hill 9
Hoiana 9
Hoài 9
Huan@@ 9
Huy 9
Hương, 9
Hạt 9
Hỏa 9
ICO@@ 9
Internet, 9
Investigation 9
Investigators 9
Io@@ 9
Islam@@ 9
Jack 9
Jackie 9
Java 9
Jen@@ 9
Jennifer 9
John@@ 9
Jut@@ 9
Ki 9
Kinda 9
Kite 9
Kyrgyz@@ 9
Labour 9
Lad@@ 9
Lancelo@@ 9
Land 9
Laskowski 9
Lat@@ 9
Latin 9
Lim@@ 9
Linked@@ 9
Lion 9
Liệu 9
Loan. 9
Loewenberg 9
Lào, 9
Lạng 9
Lạp, 9
Lộc, 9
MW 9
Mach@@ 9
Mail 9
Maj@@ 9
Manti@@ 9
Manu@@ 9
Mars 9
Matthe@@ 9
Mauriti@@ 9
Mem@@ 9
Michigan 9
Ministers 9
Mobile 9
Mol@@ 9
Montenegro 9
Moskva, 9
Mul@@ 9
Mumb@@ 9
N1 9
Ngu 9
Nhu@@ 9
Nhung, 9
Nish@@ 9
Nobel 9
Novel 9
Num@@ 9
Nơi 9
Nạn 9
OSHA 9
Oblast, 9
Ohi@@ 9
Onco@@ 9
Oslo 9
P, 9
PHE 9
PRE@@ 9
Paralymp@@ 9
Pen@@ 9
Petro@@ 9
Phiến 9
Phân 9
Phòng, 9
Phúc, 9
Pix@@ 9
Pokémon 9
Pouyuen 9
Pric@@ 9
Qantas 9
Qi@@ 9
Quỳnh 9
R, 9
RON95 9
Rathore 9
Rea@@ 9
Real@@ 9
Regi@@ 9
Respiratory 9
Richter 9
Risk 9
Romag@@ 9
Rome 9
Rẫ@@ 9
Rẫy 9
Rồi 9
SSI 9
Sa. 9
Samoa 9
Sang 9
Schools 9
Sed@@ 9
She@@ 9
Shop 9
Singapore. 9
Sino 9
Siêu 9
Sn@@ 9
Some@@ 9
Spec@@ 9
Sport 9
Starbu@@ 9
Stockhol@@ 9
Suga 9
Sum@@ 9
Summit 9
Super 9
Surin@@ 9
Surve@@ 9
Sus@@ 9
Syri@@ 9
Sĩ. 9
TA 9
TH 9
TO@@ 9
TS 9
Tae 9
Tajik@@ 9
Tatar@@ 9
Temple 9
Thanh, 9
Theron 9
Through 9
Thánh 9
Thơ 9
Thỏa 9
Tina 9
Toan 9
Tran@@ 9
Trans@@ 9
Trăng 9
Trận 9
Tuyet 9
Typ@@ 9
Tà@@ 9
Tác 9
Tùng, 9
Tương 9
UNICEF 9
Uganda 9
Universal 9
Using 9
Uy, 9
Uzbekistan 9
VN0062 9
VND50 9
VNG 9
VT 9
VT@@ 9
Vac 9
Vaccines 9
Vancouver 9
Vill@@ 9
Vinh, 9
Vườn 9
Vợ 9
WRI 9
Walsh 9
Water 9
Weibo 9
Why 9
Wilcox 9
Workers 9
Xi 9
Xin 9
Xét 9
['Trong 9
['“@@ 9
a"" 9
a's 9
a) 9
abad 9
aboard 9
acceptable 9
accomplices 9
activation 9
affirmed 9
age@@ 9
agen 9
agers 9
aggre@@ 9
aggressive 9
ah@@ 9
aint 9
alists 9
alled 9
alo@@ 9
alt@@ 9
altern@@ 9
amachi 9
amidst 9
analyze 9
ances@@ 9
anging 9
anner 9
anners 9
anning 9
announcing 9
answ@@ 9
answered 9
antibody 9
appoin@@ 9
archipelago 9
ard@@ 9
as. 9
atar 9
atorial 9
attached 9
attendant 9
attendants 9
attracting 9
authenti@@ 9
autumn 9
awa 9
bad@@ 9
balance 9
bank@@ 9
banking 9
basically 9
bat 9
batt@@ 9
bean 9
beating 9
beli@@ 9
belonging 9
besto@@ 9
bic 9
bird 9
bis@@ 9
biết.', 9
biết.'] 9
bling 9
bloo@@ 9
blu@@ 9
boarding 9
booking 9
botulin@@ 9
brac@@ 9
branches 9
bribes 9
bun@@ 9
buried 9
bà, 9
bá 9
bách 9
bã@@ 9
bình. 9
bóc 9
bướu 9
bản, 9
bể 9
bị, 9
cacbon 9
cakes 9
calm 9
campaigns 9
cand@@ 9
cards 9
centre 9
centuries 9
champi@@ 9
champion@@ 9
chec@@ 9
chess 9
chihuahua 9
chiên 9
chocolate 9
cholesterol 9
choosing 9
chá@@ 9
ché@@ 9
chéo 9
chì@@ 9
chức. 9
clearly 9
collap@@ 9
colleague 9
com 9
comfor@@ 9
commemor@@ 9
commission 9
commit 9
communications 9
comparison 9
competi@@ 9
con, 9
conce@@ 9
concentrate 9
conducting 9
connections 9
conservation 9
constant 9
consu@@ 9
continuous 9
contr@@ 9
cookies 9
cool@@ 9
cooperate 9
cooperated 9
corporations 9
correc@@ 9
corruption 9
coupled 9
crashes 9
creative 9
cro@@ 9
cytok@@ 9
cư@@ 9
cốc 9
cối 9
cống 9
cởi 9
củ@@ 9
c” 9
dable 9
damages 9
dang@@ 9
deb@@ 9
debts 9
deemed 9
dehydr@@ 9
dementia 9
democr@@ 9
dent 9
deny 9
design@@ 9
designer 9
desired 9
deter@@ 9
dialo@@ 9
dialysis 9
diplom@@ 9
directors 9
disadvantage 9
disappeared 9
disas@@ 9
discipl@@ 9
dispatched 9
disputed 9
disrup@@ 9
dness 9
dormitories 9
doạ 9
drawn 9
dress 9
dressed 9
drills 9
drops 9
drug@@ 9
dump@@ 9
duration 9
dying 9
dám 9
dâm 9
dặm) 9
dục@@ 9
dự@@ 9
eable 9
ealth@@ 9
eclipse 9
ed. 9
eda 9
elephants 9
elle 9
eller 9
ence@@ 9
engaged 9
engagement 9
engineer 9
enjo@@ 9
enjoying 9
enthusi@@ 9
eoro@@ 9
epicenter 9
equal 9
era 9
erosion 9
erous 9
ess, 9
ester 9
esti@@ 9
estion 9
estive 9
ether 9
everywhere 9
exhi@@ 9
expenses 9
experimental 9
explan@@ 9
explore 9
fabric 9
fail@@ 9
feared 9
fically 9
fiel@@ 9
fies 9
finds 9
flag@@ 9
floating 9
focuses 9
focusing 9
follow@@ 9
formal 9
forth 9
front@@ 9
ful@@ 9
gan, 9
gasoline 9
ge, 9
genes 9
geographical 9
giants 9
gil@@ 9
gious 9
girl@@ 9
giá, 9
giới." 9
giữ. 9
gni@@ 9
goers 9
golden 9
graduate 9
greenhouse 9
gross 9
guest 9
gì@@ 9
hatever 9
hazardous 9
headed 9
headlines 9
heat@@ 9
helpful 9
hero@@ 9
hiring 9
histor@@ 9
hits 9
hitting 9
hiểm, 9
homeless 9
hon@@ 9
hos@@ 9
hotspots 9
hoành 9
hoạn 9
humanity 9
huỷ 9
hydrogen 9
hygi@@ 9
hái 9
hại. 9
hấp, 9
hậu, 9
hẹp 9
hẻm 9
họng, 9
hồ. 9
i,” 9
i.@@ 9
igners 9
iller 9
illing 9
incentives 9
incidence 9
incidents 9
incub@@ 9
indicate 9
indictment 9
inequality 9
inev@@ 9
infants 9
inform 9
ingrad 9
ini 9
innovation 9
inspir@@ 9
instant 9
institute 9
intellectual 9
intended 9
interesting 9
intraven@@ 9
introduc@@ 9
investig@@ 9
investigators 9
iring 9
isation 9
ishing 9
isine 9
isolating 9
itors 9
iể@@ 9
jailed 9
ject 9
judge 9
judges 9
kal@@ 9
karaoke, 9
keen 9
kg. 9
khoảnh 9
khổ 9
killer 9
kins 9
kiế@@ 9
kiềm 9
knee 9
knowing 9
ky@@ 9
kịch@@ 9
kỷ@@ 9
laid 9
lake 9
lam 9
landfill 9
languages 9
laptop 9
lash 9
lawsuit 9
lawyer 9
layer 9
ld@@ 9
legr@@ 9
lem@@ 9
len@@ 9
lings 9
listing 9
liveli@@ 9
liệu. 9
lo, 9
load@@ 9
lob@@ 9
lock@@ 9
long, 9
lunar 9
lyrics 9
lá, 9
lê 9
lò@@ 9
lôi 9
lõi 9
lươn 9
lượng. 9
lậ@@ 9
lễ@@ 9
mad 9
mak@@ 9
manner 9
manslaughter 9
mechan@@ 9
mechanism 9
medications 9
membrane 9
mentally 9
messaging 9
meth@@ 9
migration 9
milit@@ 9
millennial 9
minh. 9
minor 9
mitting 9
mobil@@ 9
modi@@ 9
mom@@ 9
mosque 9
multin@@ 9
museum 9
musi@@ 9
máy, 9
múa 9
mũ 9
mạnh@@ 9
mắm 9
mề@@ 9
nar@@ 9
naval 9
navigation 9
newborn 9
ng"", 9
nghẹt 9
nghệ. 9
người." 9
ngạ@@ 9
ngựa 9
nhiên@@ 9
nhiều, 9
nhũng 9
nhất@@ 9
nhựa, 9
niên, 9
non-profit 9
northwest 9
né@@ 9
nôn 9
nạ@@ 9
nứt 9
nữ@@ 9
o.', 9
obesity 9
observation 9
observers 9
obtained 9
occupying 9
oes 9
olds 9
oles@@ 9
ologist 9
ond@@ 9
oners 9
ool 9
oom 9
opens 9
opinions 9
orest 9
oro@@ 9
os@@ 9
otherwise 9
ough@@ 9
oven 9
overloaded 9
ownership 9
ozon 9
pa 9
parliament 9
partially 9
participate 9
participating 9
particles 9
pathogens 9
perf@@ 9
perhaps 9
personality 9
petrol 9
phim. 9
phiếu. 9
phác 9
phải, 9
pledged 9
plex 9
politics 9
portal 9
portion 9
precautions 9
prepares 9
princip@@ 9
probable 9
program@@ 9
programme 9
prompting 9
pron@@ 9
proportion 9
proud 9
proven 9
provi@@ 9
providers 9
psychological 9
purchasing 9
questioned 9
quá@@ 9
quầy 9
racing 9
radiation 9
re. 9
reactions 9
readers 9
recogn@@ 9
reference 9
refrain 9
regard 9
regre@@ 9
remarked 9
repair 9
repatri@@ 9
repe@@ 9
repor@@ 9
resides 9
responded 9
restric@@ 9
returns 9
reveal@@ 9
rob@@ 9
robo@@ 9
roughly 9
routine 9
rs 9
runners 9
rush 9
ruộng 9
rơm 9
rải 9
rỉ 9
sa. 9
safely 9
sanc@@ 9
sanitizers 9
satisfy 9
scar@@ 9
scenario 9
scenes 9
scor@@ 9
se, 9
searching 9
sement 9
sensus 9
servers 9
set@@ 9
settings 9
settle 9
shape 9
shipments 9
shortages 9
shutdown 9
signal 9
sings 9
situated 9
skil@@ 9
slowly 9
soccer 9
soil 9
solidarity 9
song@@ 9
sourced 9
spar@@ 9
spotted 9
ssi@@ 9
stan@@ 9
stance 9
sters 9
stick 9
stics 9
stimu@@ 9
stolen 9
stom@@ 9
straight 9
straw 9
substantial 9
succeeded 9
sudden 9
suddenly 9
sunlight 9
suppor@@ 9
surance 9
surged 9
sustain 9
swallowing 9
symbol 9
sơn 9
sướng 9
sạt 9
sở@@ 9
tag@@ 9
tains 9
tam@@ 9
tears 9
technological 9
teenage 9
teenager 9
textile 9
theme 9
there@@ 9
thermal 9
thi. 9
thiết, 9
thoại. 9
throw 9
thrown 9
thân, 9
thích. 9
thôn, 9
thư, 9
thương. 9
thườ@@ 9
thải, 9
thải. 9
thế, 9
thế@@ 9
thợ 9
tile 9
tility 9
tine@@ 9
tioning 9
tment 9
to. 9
toil@@ 9
tol@@ 9
tonight 9
topic 9
tops 9
toxicity 9
transmit 9
transparency 9
transparent 9
treat@@ 9
tres 9
tribu@@ 9
trăn 9
trị@@ 9
trọn 9
tual 9
tuary 9
tuổ@@ 9
twel@@ 9
tà@@ 9
tâm. 9
tân 9
tình, 9
tích. 9
tư@@ 9
tản 9
tị 9
tống 9
tục, 9
tức, 9
tức. 9
u." 9
ui 9
uk 9
um, 9
uma 9
unchanged 9
underwent 9
unemployment 9
unh@@ 9
unlikely 9
unnecessary 9
urging 9
uống, 9
valu@@ 9
vap@@ 9
vegetable 9
verify 9
versions 9
vi-@@ 9
viewing 9
viru@@ 9
viế@@ 9
vocational 9
vong, 9
vy 9
vá 9
về@@ 9
vị@@ 9
vời, 9
vụ. 9
waivers 9
walks 9
wealthy 9
week@@ 9
wif@@ 9
wildfire 9
witch 9
wl 9
workforce 9
worsen 9
worsened 9
ximity 9
xy 9
xăm 9
y." 9
ye 9
yers 9
yme 9
zoo 9
zu@@ 9
ành@@ 9
át. 9
èo 9
éo 9
ùi 9
Đam 9
Đáng 9
Đáp 9
Đô 9
Đăng 9
Đạo 9
Đắc 9
Đị@@ 9
Đống 9
đam 9
đoán, 9
đà 9
đá, 9
đê 9
đường, 9
đại, 9
đấu, 9
đấy 9
đền 9
địa. 9
ũng 9
ơn. 9
̀a 9
́p 9
̣i 9
ản 9
ảy, 9
ặng. 9
ặt. 9
ẹo 9
ếc 9
ến. 9
ều, 9
ể 9
ễn, 9
ện. 9
ịch 9
ỏi 9
ồn. 9
ổ@@ 9
ộ, 9
ộc, 9
ộc. 9
ộn 9
ỡ. 9
ợi 9
ửi 9
“Những 9
“sự 9
.""@@ 8
AS 8
Americ@@ 8
BC 8
Ben@@ 8
Bet@@ 8
Brune@@ 8
By@@ 8
Christ@@ 8
Co.@@ 8
Coun@@ 8
Dal@@ 8
Eng@@ 8
Er@@ 8
FA 8
Fo@@ 8
Fr@@ 8
GD@@ 8
Goo@@ 8
Gra@@ 8
Harv@@ 8
Hear@@ 8
JP@@ 8
Kab@@ 8
Kore@@ 8
Lanc@@ 8
Las@@ 8
Lati@@ 8
Lau@@ 8
Lombar@@ 8
Medic@@ 8
Mosk@@ 8
Nha@@ 8
Nhi@@ 8
Os 8
Pak@@ 8
Pau@@ 8
Prof@@ 8
Sul@@ 8
Ted@@ 8
TikTo@@ 8
Trin@@ 8
Tĩ@@ 8
Up@@ 8
Ur@@ 8
VnEx@@ 8
Ya@@ 8
abin@@ 8
abinet 8
accid@@ 8
acity 8
ague 8
aller 8
anks 8
anned 8
ant@@ 8
antibio@@ 8
apar@@ 8
appropri@@ 8
arch@@ 8
arian 8
arily 8
ario 8
attrac@@ 8
bel 8
bert 8
bir@@ 8
bon 8
broad@@ 8
cardi@@ 8
ceremon@@ 8
challe@@ 8
chan@@ 8
chil@@ 8
chipel@@ 8
cil 8
cip@@ 8
citiz@@ 8
cked 8
commerce 8
compan@@ 8
critici@@ 8
ction 8
curren@@ 8
cy 8
deploy@@ 8
dge 8
dio 8
distribu@@ 8
dows 8
earing 8
edy 8
ela 8
ember 8
emis@@ 8
ene 8
enfor@@ 8
enna 8
enters 8
epid@@ 8
escap@@ 8
estab@@ 8
ester@@ 8
estic 8
eth 8
eth@@ 8
eves 8
ex 8
experi@@ 8
expo@@ 8
fif@@ 8
figh@@ 8
formation 8
frau@@ 8
friend@@ 8
gas@@ 8
gible 8
gradu@@ 8
gri@@ 8
guil@@ 8
gun 8
heavi@@ 8
hel@@ 8
hep@@ 8
hes 8
hydr@@ 8
hồ@@ 8
igh 8
ign@@ 8
ika 8
ila 8
implem@@ 8
inclu@@ 8
ind 8
ink@@ 8
inno@@ 8
inspec@@ 8
issu@@ 8
ition 8
jum@@ 8
jump 8
jurisdiction 8
kei 8
ket 8
keys 8
kh 8
khe 8
khác.', 8
khéo 8
khét 8
khăn, 8
ki 8
kic@@ 8
kilos 8
kis@@ 8
kla@@ 8
km2 8
kĩ 8
kỉ 8
kỳ. 8
kỳ@@ 8
l, 8
laborers 8
lacti@@ 8
lad 8
laptops 8
lasted 8
lasting 8
laze 8
le. 8
leadership 8
learing 8
leep 8
legisl@@ 8
lethal 8
liers 8
lighted 8
like@@ 8
limit@@ 8
lions 8
liqu@@ 8
lish@@ 8
lishing 8
listen 8
lit 8
liệt. 8
lockdowns 8
log@@ 8
logies 8
lon 8
loroqu@@ 8
lot@@ 8
lão. 8
lùi 8
lư@@ 8
lạnh. 8
lầ@@ 8
lắm 8
lỏ@@ 8
lờ@@ 8
lục. 8
m: 8
magnitude 8
mandu 8
mar 8
mary 8
matory 8
me, 8
measu@@ 8
merchant 8
mercury 8
metal 8
metro 8
migrants 8
mile 8
milli@@ 8
molecu@@ 8
monitors 8
mons 8
mption 8
mun@@ 8
municipalities 8
muq@@ 8
mutual 8
myself 8
mà@@ 8
mâm 8
mì@@ 8
măng 8
mạch, 8
mắn. 8
mẻ 8
mẽ, 8
mồ 8
n). 8
nal@@ 8
nam, 8
nasty 8
ne. 8
necess@@ 8
needlestick 8
nees 8
neighborhood 8
neso@@ 8
neuro@@ 8
ngắm 8
nh-@@ 8
nhai 8
nhanh. 8
nhiễm@@ 8
nhôm 8
nhạc, 8
nhện, 8
nights 8
nik 8
nitr@@ 8
niên. 8
nn 8
nom@@ 8
notable 8
này.” 8
nô 8
nướ@@ 8
nạn, 8
nấm 8
nếm 8
nổ@@ 8
n”, 8
n”. 8
o-@@ 8
obile 8
obli@@ 8
offshore 8
olar 8
olten@@ 8
om, 8
onom@@ 8
oph@@ 8
or, 8
organisations 8
originating 8
orities 8
orporeal 8
ould 8
outlined 8
outstanding 8
ov 8
overwhel@@ 8
oxygenation 8
packaging 8
packed 8
pard 8
patri@@ 8
pedestrian 8
pee 8
pei 8
pen 8
perial 8
periods 8
pet@@ 8
pharmac@@ 8
pharmacies 8
photograph@@ 8
phu 8
physics 8
phép, 8
phộng 8
pieces 8
pills 8
pla@@ 8
pled 8
poaching 8
pocong 8
politicians 8
polypill 8
posite 8
positi@@ 8
pounds 8
prac@@ 8
prec@@ 8
prescri@@ 8
pressing 8
presti@@ 8
pretty 8
preval@@ 8
prevents 8
priced 8
privi@@ 8
prospec@@ 8
protects 8
protested 8
ption 8
publisher 8
pushing 8
puts 8
quarantines 8
quarters 8
quit 8
quo@@ 8
quãng 8
quả@@ 8
quỵ 8
rammed 8
rape 8
ratings 8
rav@@ 8
recei@@ 8
recep@@ 8
reck@@ 8
recommendation 8
recur@@ 8
referring 8
refin@@ 8
refrigerated 8
relating 8
religion 8
removal 8
remy 8
renew@@ 8
replacing 8
replic@@ 8
represent 8
represented 8
reputation 8
res, 8
residency 8
residues 8
resili@@ 8
resolved 8
respondents 8
restricting 8
retailers 8
rett 8
reverse 8
revoked 8
ring@@ 8
risky 8
ro, 8
robotics 8
rus 8
rushing 8
rõ@@ 8
rũ 8
s: 8
safe@@ 8
sam@@ 8
sat 8
scandals 8
sci@@ 8
scoring 8
scrap 8
scri@@ 8
searched 8
seas@@ 8
seasons 8
sections 8
seemed 8
sef 8
semen 8
sero@@ 8
server 8
sett@@ 8
sh 8
shall 8
shan 8
shed 8
shor@@ 8
shots 8
shri@@ 8
si 8
sib@@ 8
siella 8
silent 8
silk 8
similar@@ 8
simul@@ 8
skyrock@@ 8
smith 8
solid 8
som@@ 8
somewhere 8
soph@@ 8
southeast 8
specialized 8
specifically 8
spee@@ 8
spends 8
spirit 8
spok@@ 8
spots 8
st, 8
stadiums 8
statements 8
stead@@ 8
stepped 8
steril@@ 8
stimulus 8
stormquakes 8
stricken 8
stridium 8
strikes 8
structures 8
struggled 8
stry 8
sunk 8
surge@@ 8
switch 8
symbo@@ 8
symp@@ 8
sympath@@ 8
sôi 8
sưng 8
sớm. 8
tablet 8
tac@@ 8
tak@@ 8
tang 8
te-@@ 8
technicians 8
tee 8
teen@@ 8
telec@@ 8
telecommunic@@ 8
telli@@ 8
tem@@ 8
thanked 8
theast 8
therapies 8
thiế@@ 8
thiệ@@ 8
thoả 8
threw 8
thu, 8
thunderstorms 8
thuẫn 8
thuế, 8
thành. 8
tháo 8
thân. 8
thăng 8
thưởng, 8
thấy. 8
thầm 8
thị, 8
timately 8
tist 8
title 8
tiếp, 8
tobacco 8
toes 8
tom 8
tongue 8
tou@@ 8
tower 8
towns 8
toxic@@ 8
toxin 8
toà@@ 8
toán, 8
train@@ 8
tranh, 8
transited 8
transition 8
translation 8
triều 8
trustwor@@ 8
trúng 8
trân 8
trình, 8
trúng 8
trút 8
trạng, 8
trộ@@ 8
tti 8
tude 8
tured 8
twe@@ 8
tàu. 8
tó@@ 8
tôm 8
tập. 8
tệ@@ 8
ulu@@ 8
ume 8
uncommon 8
uncovered 8
underway 8
unt 8
updates 8
upper 8
ural 8
uras 8
ury 8
usage 8
use@@ 8
useppe 8
usting 8
uvin 8
vacation 8
vanol 8
vas@@ 8
vegetarian 8
veness 8
venti@@ 8
vention 8
verdic@@ 8
vering 8
vi, 8
vic@@ 8
vice@@ 8
vid@@ 8
video, 8
villages 8
violated 8
violent 8
visit@@ 8
vity 8
viếng 8
voluntarily 8
vom@@ 8
von 8
vành 8
vặt 8
vị, 8
vịnh 8
vịt 8
vựng 8
wage 8
wall 8
weak 8
wed@@ 8
wet 8
wildfires 8
window 8
withdrawn 8
witness 8
wonder 8
worn 8
worry 8
wrap 8
xes 8
xưa 8
xưởng 8
xấp 8
y-@@ 8
yang 8
yeong@@ 8
yi@@ 8
yintan 8
yip 8
yu@@ 8
Áo 8
Áo, 8
É@@ 8
ày 8
át-x@@ 8
ãnh 8
æ@@ 8
éc 8
ê-@@ 8
ígu@@ 8
ính. 8
ñor@@ 8
óp 8
ùy 8
ú. 8
úng 8
út, 8
ün@@ 8
ăm 8
Điể@@ 8
Địa 8
Độ@@ 8
Đợt 8
đa@@ 8
điên 8
điệ@@ 8
đô). 8
đô. 8
đúng. 8
đươ@@ 8
đạo. 8
đảo. 8
đầ@@ 8
đậm 8
đố 8
đớn 8
đực 8
ũ. 8
ưởng. 8
̀n 8
̃@@ 8
γ@@ 8
ạn, 8
ạnh. 8
Ả@@ 8
ấu. 8
ẫy 8
ậy, 8
ắm 8
ắng 8
ặng, 8
ếm 8
ịu 8
ọng 8
ọng, 8
ỗ. 8
ột. 8
ới@@ 8
ủy, 8
ửa 8
ữ. 8
ỵ@@ 8
“Có 8
“một 8
“những 8
* 7
AQ@@ 7
Aer@@ 7
Afghan@@ 7
Bei@@ 7
Brit@@ 7
Commer@@ 7
Cris@@ 7
Dan@@ 7
Davi@@ 7
Dem@@ 7
Emir@@ 7
Franc@@ 7
Goog@@ 7
Inst@@ 7
Joh@@ 7
Jour@@ 7
Laz@@ 7
Madri@@ 7
Mari@@ 7
More@@ 7
Mosco@@ 7
Net@@ 7
Nẵ@@ 7
Organiz@@ 7
Philipp@@ 7
Pom@@ 7
Rail@@ 7
Saig@@ 7
Tur@@ 7
UA@@ 7
Veg@@ 7
Vic@@ 7
Vietj@@ 7
VinF@@ 7
Vir@@ 7
ada 7
affir@@ 7
ager 7
ames 7
amoun@@ 7
anded 7
anj@@ 7
announ@@ 7
apo@@ 7
approv@@ 7
ascular 7
attle 7
autonom@@ 7
aver@@ 7
bol@@ 7
brea@@ 7
bud@@ 7
cally 7
cee@@ 7
certific@@ 7
chair@@ 7
chat@@ 7
chloroqu@@ 7
chủ@@ 7
ckro@@ 7
coas@@ 7
contribu@@ 7
cum@@ 7
currencies 7
custom@@ 7
cướ@@ 7
dormit@@ 7
drome 7
dru@@ 7
duyệ@@ 7
e.@@ 7
eat@@ 7
effici@@ 7
ellers 7
employ@@ 7
enberg 7
enter@@ 7
entially 7
esides 7
esp@@ 7
eum 7
exac@@ 7
fal@@ 7
fam@@ 7
fan@@ 7
fav@@ 7
flo@@ 7
gar 7
gene@@ 7
gy 7
hou 7
hó@@ 7
icro@@ 7
ida 7
ier 7
igh@@ 7
ilities 7
immigr@@ 7
infor@@ 7
istent 7
itch@@ 7
itco@@ 7
ive 7
iểu 7
iệm 7
khứ@@ 7
km@@ 7
kno@@ 7
ledge 7
li 7
liam@@ 7
ligh@@ 7
liz@@ 7
longed 7
lịch@@ 7
mand@@ 7
mark@@ 7
mater@@ 7
maz@@ 7
mes@@ 7
migr@@ 7
mit@@ 7
moder@@ 7
motor@@ 7
motorbi@@ 7
nel 7
ngue 7
ngườ@@ 7
nhự@@ 7
nà@@ 7
obs 7
occur@@ 7
oce@@ 7
ok@@ 7
onics 7
ordin@@ 7
origin@@ 7
ouring 7
ouse 7
oxy@@ 7
pack@@ 7
precau@@ 7
presid@@ 7
prev@@ 7
priv@@ 7
publi@@ 7
purch@@ 7
rau@@ 7
recogni@@ 7
requi@@ 7
retail@@ 7
rev@@ 7
revi@@ 7
ris 7
roup, 7
san@@ 7
sco@@ 7
shore 7
short@@ 7
sing@@ 7
six@@ 7
spac@@ 7
spe@@ 7
ssed 7
sses 7
sto@@ 7
stric@@ 7
subsidi@@ 7
succ@@ 7
sugges@@ 7
surve@@ 7
sả@@ 7
sẵ@@ 7
tension 7
terns 7
territ@@ 7
therap@@ 7
tis@@ 7
tivity 7
tory 7
tral@@ 7
transi@@ 7
trav@@ 7
tric 7
trol 7
tumn 7
umb@@ 7
utions 7
uyện 7
versal 7
wered 7
whi@@ 7
xychloroquine 7
yan 7
yế@@ 7
Ô 7
Ô@@ 7
ành, 7
ành. 7
áy 7
ãng 7
ä@@ 7
èm 7
ía 7
ín 7
òng, 7
điể@@ 7
đẹ@@ 7
đổ@@ 7
ĩ 7
ơn, 7
ường. 7
ưỡ@@ 7
ấn, 7
ập. 7
ẽ, 7
ều. 7
ống. 7
ới. 7
ờ. 7
ức, 7
ỵ 7
ỹ@@ 7
']" 6
.”@@ 6
290 6
Af@@ 6
Airlin@@ 6
Alibab@@ 6
Angel@@ 6
Auc@@ 6
Bab@@ 6
Blu@@ 6
Braz@@ 6
Communic@@ 6
Ebol@@ 6
Faceboo@@ 6
Fed@@ 6
Flor@@ 6
Found@@ 6
Fur@@ 6
Hai@@ 6
Hum@@ 6
Ind@@ 6
Indus@@ 6
Inf@@ 6
King@@ 6
MO 6
PH@@ 6
PT 6
Philadel@@ 6
Phili@@ 6
Produc@@ 6
Prov@@ 6
SC 6
Satur@@ 6
Sear@@ 6
Sene@@ 6
Sey@@ 6
Sing@@ 6
Singapore@@ 6
Tao@@ 6
Woo@@ 6
accep@@ 6
acti@@ 6
adop@@ 6
advan@@ 6
agg@@ 6
agno@@ 6
agon 6
ailed 6
alg@@ 6
alley 6
anci@@ 6
anese 6
apers 6
ashimi 6
ass 6
atitis 6
atively 6
atta@@ 6
aut@@ 6
avail@@ 6
berculosis 6
bies 6
boy@@ 6
brow@@ 6
bướ@@ 6
bệ@@ 6
campaig@@ 6
care@@ 6
cer 6
cies 6
cling 6
commis@@ 6
commun@@ 6
condem@@ 6
consci@@ 6
consequ@@ 6
continu@@ 6
crimin@@ 6
cyto@@ 6
cụ@@ 6
dated 6
dden 6
declar@@ 6
decreas@@ 6
dev@@ 6
develop@@ 6
diffe@@ 6
dingly 6
dividu@@ 6
dõ@@ 6
dặ@@ 6
dọ@@ 6
ece 6
edom 6
engine@@ 6
eni@@ 6
enterpris@@ 6
entrepreneur@@ 6
eorological 6
ext 6
ferred 6
ferti@@ 6
fli@@ 6
foot@@ 6
geograph@@ 6
giớ@@ 6
hat 6
havi@@ 6
homel@@ 6
hoo@@ 6
human@@ 6
hun@@ 6
hyper@@ 6
ially 6
il, 6
illenni@@ 6
illions 6
ince 6
inflam@@ 6
iri@@ 6
istance 6
iển 6
iệt 6
ke, 6
know@@ 6
lar@@ 6
ld 6
licen@@ 6
lier 6
lightly 6
lim@@ 6
liệ@@ 6
lom@@ 6
loy@@ 6
lus 6
lõ@@ 6
manag@@ 6
may@@ 6
medic@@ 6
mod@@ 6
mou@@ 6
moun@@ 6
mula 6
neg@@ 6
nger 6
nhiễ@@ 6
norm@@ 6
north@@ 6
parliam@@ 6
penal@@ 6
perman@@ 6
phtheria 6
pilo@@ 6
play@@ 6
plying 6
posal 6
produc@@ 6
prohi@@ 6
prote@@ 6
pylob@@ 6
rain@@ 6
recor@@ 6
remo@@ 6
remov@@ 6
requ@@ 6
rescu@@ 6
resear@@ 6
resh 6
resid@@ 6
resu@@ 6
ric 6
rol@@ 6
scap@@ 6
sensi@@ 6
sia 6
slow@@ 6
sour@@ 6
spid@@ 6
spor@@ 6
ston 6
store@@ 6
stro@@ 6
subsi@@ 6
sẻ@@ 6
tack@@ 6
tening 6
thố@@ 6
tici@@ 6
tionary 6
tress 6
trigg@@ 6
trí@@ 6
tầ@@ 6
ultural 6
uynh 6
vac@@ 6
versities 6
vis@@ 6
vit@@ 6
voc@@ 6
volunt@@ 6
vulner@@ 6
wea@@ 6
weap@@ 6
xuy@@ 6
xy@@ 6
yone 6
°@@ 6
µ@@ 6
ão 6
å@@ 6
ình, 6
ùm 6
úa 6
đú@@ 6
Š@@ 6
š@@ 6
ược 6
ε@@ 6
ν@@ 6
ς 6
ấc 6
ậu 6
ắc, 6
ịch@@ 6
ộp 6
ới 6
ừa 6
ực. 6
ỳ 6
ỷ@@ 6
ὑ@@ 6
医@@ 6
火@@ 6
(CD@@ 5
Ara@@ 5
BM 5
Bak@@ 5
Bangk@@ 5
ByteD@@ 5
CL@@ 5
COVID@@ 5
Cel@@ 5
Clar@@ 5
CoV@@ 5
Colum@@ 5
Commit@@ 5
Dec@@ 5
Def@@ 5
Ear@@ 5
Elec@@ 5
Electr@@ 5
Epidemio@@ 5
Exp@@ 5
Exper@@ 5
Fili@@ 5
Francis@@ 5
Genev@@ 5
Hun@@ 5
IO@@ 5
Internet@@ 5
Investig@@ 5
Ira@@ 5
Leban@@ 5
Luxembour@@ 5
March@@ 5
Massachuset@@ 5
Met@@ 5
Michi@@ 5
Minis@@ 5
NS 5
Pap@@ 5
Part@@ 5
Pennsylvan@@ 5
Pet@@ 5
Phoeni@@ 5
Phone 5
Phu@@ 5
Plus 5
Pompe@@ 5
Republi@@ 5
Resp@@ 5
Respon@@ 5
Rich@@ 5
Roosev@@ 5
Saf@@ 5
Sau@@ 5
Shin@@ 5
Stre@@ 5
Thiên-@@ 5
Tren@@ 5
VABIOTEC@@ 5
Victor@@ 5
Vil@@ 5
Wild@@ 5
Wo@@ 5
]" 5
_@@ 5
abo@@ 5
accur@@ 5
addre@@ 5
ainable 5
algorith@@ 5
allow@@ 5
alter@@ 5
alysis 5
arly 5
assa@@ 5
ast, 5
astern 5
ata 5
atar@@ 5
atly 5
atmosph@@ 5
atories 5
awa@@ 5
bacter@@ 5
bassad@@ 5
block@@ 5
bo 5
botu@@ 5
buil@@ 5
bus@@ 5
cac@@ 5
celeb@@ 5
chick@@ 5
chol@@ 5
cial 5
cinem@@ 5
circum@@ 5
cla@@ 5
cohol 5
compon@@ 5
connec@@ 5
conveni@@ 5
cooper@@ 5
coron@@ 5
cộ@@ 5
delay@@ 5
ditional 5
div@@ 5
dou@@ 5
dow 5
downs 5
dur@@ 5
ech 5
ef@@ 5
elines 5
elt 5
emor@@ 5
equality 5
ergy 5
essor 5
estim@@ 5
estyle 5
ew@@ 5
exerc@@ 5
fab@@ 5
fat@@ 5
fed@@ 5
ferring 5
festi@@ 5
ffs 5
fici@@ 5
fisher@@ 5
flow@@ 5
found@@ 5
four@@ 5
fresh@@ 5
fru@@ 5
gency 5
gens 5
get@@ 5
gical 5
harm@@ 5
harv@@ 5
hậ@@ 5
illance 5
inal 5
inces 5
indus@@ 5
ingredi@@ 5
instruc@@ 5
iors 5
iously 5
ishment 5
jected 5
keting 5
kie 5
kindergar@@ 5
lawful 5
leng@@ 5
lig@@ 5
lã@@ 5
maint@@ 5
mature 5
menti@@ 5
mit 5
miti@@ 5
miệ@@ 5
mosph@@ 5
neighb@@ 5
neighbor@@ 5
noon 5
num@@ 5
obt@@ 5
occu@@ 5
ona@@ 5
onable 5
ook 5
org@@ 5
orig@@ 5
orm 5
ort 5
ought 5
pan@@ 5
pharm@@ 5
phẩ@@ 5
phủ@@ 5
pment 5
pne@@ 5
pois@@ 5
poration 5
pot@@ 5
preh@@ 5
prep@@ 5
profession@@ 5
questi@@ 5
quick@@ 5
rainf@@ 5
rd 5
regar@@ 5
riê@@ 5
rough 5
rằ@@ 5
sad@@ 5
saf@@ 5
sage 5
scen@@ 5
schedu@@ 5
sel 5
sian 5
slau@@ 5
soldi@@ 5
sovere@@ 5
spit@@ 5
strong@@ 5
strugg@@ 5
subsequ@@ 5
success@@ 5
surg@@ 5
sway 5
syst@@ 5
tea@@ 5
thered 5
thê@@ 5
tomatic 5
tricts 5
trig@@ 5
triể@@ 5
trẻ@@ 5
tted 5
ua 5
ured 5
versity 5
vide@@ 5
vắc-x@@ 5
writ@@ 5
you@@ 5
òa, 5
ĩ, 5
ō 5
ō@@ 5
ườn 5
ạt, 5
Ấ@@ 5
ễm 5
Ố@@ 5
ời, 5
ởi 5
ợ 5
ợt 5
ụt 5
ụy 5
ững 5
神@@ 5
雷@@ 5
(WHO@@ 4
Andro@@ 4
Anth@@ 4
Banglades@@ 4
Brazili@@ 4
Bris@@ 4
Campuchi@@ 4
Cong@@ 4
Corona@@ 4
Covid@@ 4
Cử@@ 4
Dani@@ 4
Enter@@ 4
Ep@@ 4
Epid@@ 4
Explo@@ 4
Fire@@ 4
Flapp@@ 4
Fun@@ 4
Hop@@ 4
Jac@@ 4
Jack@@ 4
Jet@@ 4
LGB@@ 4
LI 4
Link@@ 4
Lon@@ 4
Lum@@ 4
Mek@@ 4
Mold@@ 4
Moskv@@ 4
Mr@@ 4
Musli@@ 4
Myanmar@@ 4
Netfli@@ 4
Pik@@ 4
Previ@@ 4
Quố@@ 4
RON@@ 4
Resear@@ 4
SARS-@@ 4
SU@@ 4
Sind@@ 4
Smith@@ 4
Smithson@@ 4
Spe@@ 4
Spea@@ 4
Swit@@ 4
Syd@@ 4
Thom@@ 4
Tob@@ 4
Tokyo@@ 4
Tư@@ 4
Ug@@ 4
Vacc@@ 4
Var@@ 4
Xu@@ 4
Zimbab@@ 4
accom@@ 4
accoun@@ 4
acu@@ 4
administr@@ 4
adv@@ 4
aff 4
alleg@@ 4
along@@ 4
ambo@@ 4
aper 4
ario@@ 4
ashion 4
assess@@ 4
atellite 4
ateral 4
audi@@ 4
aur@@ 4
aving 4
bott@@ 4
brink 4
bum 4
busin@@ 4
cancel@@ 4
chang@@ 4
civi@@ 4
coho@@ 4
commer@@ 4
compar@@ 4
compens@@ 4
conn@@ 4
consid@@ 4
conven@@ 4
corona@@ 4
corpor@@ 4
cris@@ 4
cryp@@ 4
darity 4
dat@@ 4
dents 4
did@@ 4
duce 4
dues 4
eak 4
ealth 4
eigh@@ 4
ele@@ 4
emon 4
encing 4
ension 4
entive 4
eping 4
equi@@ 4
erc@@ 4
eutical 4
eve 4
fer 4
frequ@@ 4
giu@@ 4
glas@@ 4
grou@@ 4
haps 4
hec@@ 4
husb@@ 4
hẻ@@ 4
iana 4
icide 4
idity 4
illion 4
impl@@ 4
influenz@@ 4
inis@@ 4
iso@@ 4
istant 4
isters 4
isure 4
itary 4
itbur@@ 4
ji 4
khol@@ 4
kilom@@ 4
kland 4
labor@@ 4
lege 4
lio 4
majiri 4
mal 4
mas 4
mec 4
minent 4
mits 4
monium 4
municip@@ 4
nee 4
nes 4
ngoà@@ 4
nific@@ 4
nur@@ 4
ogen 4
ople 4
opportun@@ 4
ord 4
ots 4
overy 4
oxide 4
oz@@ 4
p-@@ 4
parti@@ 4
partment 4
peace@@ 4
perc@@ 4
phen@@ 4
phenomen@@ 4
phiế@@ 4
photo@@ 4
plac@@ 4
pregn@@ 4
pric@@ 4
prohib@@ 4
promis@@ 4
prot@@ 4
protes@@ 4
pur 4
pus 4
pus@@ 4
ques 4
rati@@ 4
reads 4
reduc@@ 4
refriger@@ 4
rements 4
revol@@ 4
sanitiz@@ 4
selves 4
sent@@ 4
servi@@ 4
sha 4
sider 4
simil@@ 4
sley 4
sof@@ 4
spital 4
stadi@@ 4
strength@@ 4
struction 4
sures 4
surroun@@ 4
sycho@@ 4
t-x@@ 4
tain@@ 4
tari@@ 4
techn@@ 4
than@@ 4
through@@ 4
thí@@ 4
ticle 4
tik@@ 4
tionally 4
tournam@@ 4
tow@@ 4
tox@@ 4
tricity 4
tự@@ 4
une 4
unity 4
uro@@ 4
usb@@ 4
vậ@@ 4
wee@@ 4
ween 4
wil@@ 4
yo 4
young@@ 4
Å@@ 4
É 4
Ö@@ 4
àu 4
èn 4
ē@@ 4
ė@@ 4
ğ@@ 4
ĩnh 4
ũi 4
ũng, 4
ưởng 4
ượt 4
ɕ@@ 4
ˈ@@ 4
ˠ@@ 4
̃ng 4
μ@@ 4
ặp 4
ọt 4
ỏ. 4
ới, 4
ời. 4
Ụ@@ 4
山@@ 4
(COVID-19@@ 3
> 3
ASEA@@ 3
AV@@ 3
Acad@@ 3
AirPo@@ 3
Alzheim@@ 3
Aug@@ 3
Belar@@ 3
CO 3
Catho@@ 3
Chec@@ 3
Cour@@ 3
Egyp@@ 3
Emer@@ 3
Febru@@ 3
Fil@@ 3
Fren@@ 3
Icel@@ 3
Ign@@ 3
Instagr@@ 3
Inves@@ 3
Ire@@ 3
Israel@@ 3
Jav@@ 3
Ky@@ 3
Leb@@ 3
Lot@@ 3
Malaysi@@ 3
Melbour@@ 3
Micro@@ 3
MobiF@@ 3
Mườ@@ 3
NAS@@ 3
Niel@@ 3
Nig@@ 3
Niñ@@ 3
Nuen@@ 3
Nă@@ 3
ON 3
OSH@@ 3
Parac@@ 3
Peter@@ 3
Pub@@ 3
Rw@@ 3
SARS-CoV@@ 3
SEA@@ 3
Samad@@ 3
Samo@@ 3
Thomp@@ 3
Tok@@ 3
UNES@@ 3
Vancou@@ 3
Varad@@ 3
Ving@@ 3
Wei@@ 3
accept@@ 3
acles 3
adequ@@ 3
ading 3
adise 3
aggres@@ 3
allig@@ 3
amaz@@ 3
amboo 3
amework 3
amin 3
antin@@ 3
appear@@ 3
aran@@ 3
archipel@@ 3
aster 3
atell@@ 3
auth@@ 3
ban@@ 3
barri@@ 3
bei 3
benef@@ 3
bes@@ 3
bậ@@ 3
campa@@ 3
carri@@ 3
charg@@ 3
communic@@ 3
convers@@ 3
cularly 3
datab@@ 3
daugh@@ 3
dding 3
denly 3
dest 3
destin@@ 3
diction 3
discrimin@@ 3
dispu@@ 3
dit 3
divor@@ 3
eca 3
eco 3
ecti@@ 3
ectively 3
edged 3
encour@@ 3
ens@@ 3
ept 3
erely 3
etion 3
eved 3
fertiliz@@ 3
finis@@ 3
floo@@ 3
foc@@ 3
fran@@ 3
gencies 3
giề@@ 3
grow@@ 3
gã@@ 3
hist@@ 3
hoo 3
hormon@@ 3
hou@@ 3
ials 3
icals 3
ilies 3
infrastruc@@ 3
inning 3
intru@@ 3
ird 3
iri 3
irst 3
isten@@ 3
ister 3
jour@@ 3
ka@@ 3
kel@@ 3
kies 3
lined 3
lish 3
lished 3
lux@@ 3
magaz@@ 3
marri@@ 3
mation 3
meaning@@ 3
memb@@ 3
membran@@ 3
merch@@ 3
metho@@ 3
ministr@@ 3
mugg@@ 3
mượ@@ 3
nav@@ 3
navi@@ 3
need@@ 3
ngoá@@ 3
obst@@ 3
ondary 3
ooth 3
other@@ 3
oul 3
overs 3
patched 3
patho@@ 3
pay@@ 3
ph 3
phò@@ 3
plom@@ 3
pneum@@ 3
polyp@@ 3
power@@ 3
prehensive 3
present@@ 3
prevent@@ 3
probl@@ 3
prog@@ 3
public@@ 3
pulation 3
ques@@ 3
quest 3
raid 3
recruit@@ 3
regist@@ 3
rel 3
replac@@ 3
repres@@ 3
repu@@ 3
rests 3
retur@@ 3
reve@@ 3
rison 3
rom 3
rush@@ 3
shar@@ 3
sibly 3
signific@@ 3
smar@@ 3
soli@@ 3
sov@@ 3
stol@@ 3
stormqu@@ 3
succee@@ 3
suff@@ 3
sự@@ 3
tainment 3
tedly 3
thunder@@ 3
ticians 3
tiv@@ 3
tizens 3
tled 3
tning 3
tour@@ 3
touris@@ 3
tralized 3
travel@@ 3
treprene@@ 3
trướ@@ 3
tube 3
ually 3
usti@@ 3
vals 3
veget@@ 3
victim@@ 3
wai@@ 3
wift 3
wild@@ 3
wise 3
¥ 3
âng 3
ìn 3
î@@ 3
Ă@@ 3
Đă@@ 3
đớ@@ 3
ē 3
ĩ. 3
Ư@@ 3
ưới 3
ə@@ 3
ạnh 3
ạy 3
Ẩ@@ 3
ẫu 3
Ặ@@ 3
ẹp 3
ẹt 3
ệnh 3
ịp 3
ọi 3
ớp 3
ợp 3
ụng 3
ức. 3
″ 3
五@@ 3
克@@ 3
木@@ 3
武@@ 3
汉@@ 3
火 3
院 3
院@@ 3
*@@ 2
;@@ 2
=@@ 2
Adid@@ 2
Afric@@ 2
Agric@@ 2
Amer@@ 2
Amo@@ 2
AstraZen@@ 2
Bill@@ 2
Blo@@ 2
Byte@@ 2
COP@@ 2
COVI@@ 2
CRI@@ 2
Chair@@ 2
Daeg@@ 2
Democr@@ 2
Develo@@ 2
Emb@@ 2
Ener@@ 2
Europe@@ 2
FB@@ 2
Foot@@ 2
GB@@ 2
Gallu@@ 2
Hang-@@ 2
Heil@@ 2
Heli@@ 2
Huawe@@ 2
Hyund@@ 2
Iran@@ 2
Jenni@@ 2
KCN@@ 2
KY@@ 2
Kras@@ 2
Lux@@ 2
Octo@@ 2
Petersbur@@ 2
Pha@@ 2
Philippin@@ 2
Premi@@ 2
Rath@@ 2
SI 2
SP@@ 2
Schul@@ 2
Semmelwe@@ 2
Seychell@@ 2
Soci@@ 2
Spr@@ 2
Sr@@ 2
Stadi@@ 2
Thorotr@@ 2
Turkmen@@ 2
UNICE@@ 2
Uzbe@@ 2
Uzbek@@ 2
Vide@@ 2
Vinamil@@ 2
Vinas@@ 2
Wed@@ 2
Wilco@@ 2
X-r@@ 2
YSEA@@ 2
\@@ 2
^@@ 2
abs@@ 2
acco 2
accor@@ 2
acter 2
aga 2
agen@@ 2
agos 2
agr@@ 2
airy 2
ans@@ 2
anxi@@ 2
ashed 2
asy@@ 2
axy 2
az 2
bea@@ 2
beauti@@ 2
bec@@ 2
beg@@ 2
bp@@ 2
bub@@ 2
buý@@ 2
camer@@ 2
cancell@@ 2
categ@@ 2
centr@@ 2
chael 2
challeng@@ 2
common@@ 2
compli@@ 2
concentr@@ 2
conduc@@ 2
confid@@ 2
conta@@ 2
crap 2
culo@@ 2
decis@@ 2
dergar@@ 2
dership 2
detail@@ 2
dition 2
doms 2
duy@@ 2
eared 2
eather 2
effic@@ 2
ellec@@ 2
ensur@@ 2
epic@@ 2
esterday 2
etes 2
euro@@ 2
everage 2
exper@@ 2
fall@@ 2
famili@@ 2
fig@@ 2
forestation 2
ghing 2
giene 2
gion 2
guid@@ 2
gồ@@ 2
haz@@ 2
hấ@@ 2
hẳ@@ 2
icon 2
ied 2
iku 2
import@@ 2
incenti@@ 2
incid@@ 2
inks 2
insec@@ 2
intellec@@ 2
invas@@ 2
invol@@ 2
itage 2
itchen 2
itt@@ 2
jing 2
kar 2
karao@@ 2
kel 2
khẩ@@ 2
kra@@ 2
landsli@@ 2
lap@@ 2
leges 2
longing 2
loro@@ 2
mach@@ 2
maxim@@ 2
mic 2
millenni@@ 2
mith@@ 2
mob@@ 2
mon 2
n'@@ 2
natur@@ 2
nea@@ 2
newsp@@ 2
nex@@ 2
nings 2
ofer 2
ogram 2
onds 2
onstr@@ 2
op 2
organiz@@ 2
ority 2
ouris@@ 2
overies 2
partments 2
pati@@ 2
pating 2
perform@@ 2
phas@@ 2
phim@@ 2
phổ@@ 2
plat@@ 2
poin@@ 2
popular@@ 2
portfo@@ 2
pover@@ 2
pread 2
preced@@ 2
preci@@ 2
prepar@@ 2
probab@@ 2
proced@@ 2
pse 2
rail@@ 2
ral 2
recomm@@ 2
remon@@ 2
represent@@ 2
resi@@ 2
ress 2
restaur@@ 2
revo@@ 2
rics 2
rities 2
riting 2
rock@@ 2
roun@@ 2
sbur@@ 2
scienti@@ 2
sev@@ 2
seven@@ 2
sharp@@ 2
simp@@ 2
sited 2
slaughter 2
ssel@@ 2
step@@ 2
storm@@ 2
stra@@ 2
strate@@ 2
stration 2
streng@@ 2
strik@@ 2
stru@@ 2
substanti@@ 2
suffici@@ 2
tainous 2
technic@@ 2
techno@@ 2
thal 2
thes 2
thly 2
thong 2
thqu@@ 2
tific@@ 2
tish 2
trepreneur@@ 2
tria 2
trian 2
trop@@ 2
trạ@@ 2
typ@@ 2
tỉ@@ 2
tử@@ 2
ued 2
ulture 2
unic@@ 2
ventions 2
vil 2
vill@@ 2
vin 2
volunte@@ 2
who@@ 2
wr@@ 2
xa@@ 2
yle 2
yond 2
³ 2
À 2
Ã 2
× 2
×@@ 2
Ü@@ 2
ß@@ 2
ï@@ 2
óa 2
óm 2
ć 2
Č@@ 2
đ 2
İ@@ 2
ı@@ 2
Ō 2
ū 2
ū@@ 2
ž@@ 2
ơm 2
ươn 2
ɪ@@ 2
ɾ@@ 2
ʌ@@ 2
ʑ@@ 2
ʰ@@ 2
έ@@ 2
ή 2
ή@@ 2
ί 2
ί@@ 2
δ@@ 2
ο@@ 2
π@@ 2
τ@@ 2
χ@@ 2
ό@@ 2
М@@ 2
Н@@ 2
р@@ 2
Ạ@@ 2
ắc-@@ 2
Ế@@ 2
ếng 2
ỏa 2
ỏng 2
Ồ@@ 2
ỗn 2
Ờ@@ 2
ỳnh 2
ỹ 2
ἐ@@ 2
Ὑ@@ 2
ῆ@@ 2
オ@@ 2
ッ@@ 2
ピ@@ 2
リ@@ 2
ン@@ 2
中@@ 2
九@@ 2
夏@@ 2
天@@ 2
季@@ 2
市@@ 2
年@@ 2
心@@ 2
新@@ 2
生@@ 2
省@@ 2
行 2
通@@ 2
金 2
金@@ 2
食@@ 2
신@@ 2
천@@ 2
2030@@ 1
< 1
<@@ 1
>@@ 1
AE@@ 1
AID 1
Afgh@@ 1
Bang@@ 1
Bear@@ 1
Beard@@ 1
Belgi@@ 1
Buetik@@ 1
CD4@@ 1
COVID-@@ 1
Cambo@@ 1
Campu@@ 1
Coca-@@ 1
Coca@@ 1
Die@@ 1
Eliz@@ 1
Emmanu@@ 1
Environ@@ 1
FL@@ 1
Feb@@ 1
German@@ 1
Guine@@ 1
Hã@@ 1
IOT@@ 1
Inv@@ 1
Jus@@ 1
Kazakh@@ 1
Krist@@ 1
Kriten@@ 1
Kyrgy@@ 1
Loew@@ 1
Lt@@ 1
Lyre@@ 1
MH@@ 1
Malay@@ 1
Montenegr@@ 1
Nichol@@ 1
Obl@@ 1
Olymp@@ 1
Paste@@ 1
Phi-@@ 1
Pok@@ 1
Pouyu@@ 1
Prot@@ 1
Roo@@ 1
SARS-CoV-@@ 1
Scar@@ 1
Sci@@ 1
Shang@@ 1
Soc@@ 1
Swe@@ 1
TNH@@ 1
Tegn@@ 1
Thurs@@ 1
Tik@@ 1
WH@@ 1
Wedn@@ 1
With@@ 1
Wozni@@ 1
YouTu@@ 1
`@@ 1
abis 1
accompan@@ 1
accompli@@ 1
ahu@@ 1
ainst 1
allets 1
anitarian 1
anni@@ 1
annivers@@ 1
apper 1
approxim@@ 1
argo 1
assy 1
atedly 1
aters 1
atest 1
athon 1
ause 1
bable 1
bery 1
billionai@@ 1
bran@@ 1
cate@@ 1
chester 1
chihuahu@@ 1
chocol@@ 1
cident 1
cides 1
claim@@ 1
coco@@ 1
combank 1
compet@@ 1
complet@@ 1
crypto@@ 1
củ@@ 1
decla@@ 1
defend@@ 1
derly 1
dern 1
diarr@@ 1
diarrhe@@ 1
dless 1
dorm@@ 1
doz@@ 1
dral 1
dư@@ 1
earthqu@@ 1
eases 1
ecli@@ 1
edu@@ 1
effecti@@ 1
egr@@ 1
embly 1
endang@@ 1
entage 1
entia 1
ept@@ 1
equival@@ 1
erings 1
esity 1
esterol 1
etings 1
ety 1
eval@@ 1
exic@@ 1
expan@@ 1
expor@@ 1
extrem@@ 1
fati@@ 1
feat@@ 1
ffic@@ 1
fish@@ 1
greenh@@ 1
gues 1
health@@ 1
hew 1
hind 1
hiên 1
hợ@@ 1
iden 1
idney 1
illion@@ 1
incial 1
increas@@ 1
incu@@ 1
individu@@ 1
inking 1
inte@@ 1
inves@@ 1
isition 1
itely 1
ito 1
juana 1
juris@@ 1
jus@@ 1
kilomet@@ 1
larg@@ 1
limin@@ 1
liminary 1
live@@ 1
lomerate 1
lymp@@ 1
meas@@ 1
mercur@@ 1
messa@@ 1
minu@@ 1
mir 1
mitted 1
monit@@ 1
mosqu@@ 1
mosquit@@ 1
movi@@ 1
munic@@ 1
nic 1
nin@@ 1
offic@@ 1
ored 1
ort@@ 1
ortation 1
ources 1
ovascular 1
overed 1
owski 1
oxygen@@ 1
parl@@ 1
pedes@@ 1
perfor@@ 1
phé@@ 1
piec@@ 1
pig@@ 1
poc@@ 1
popu@@ 1
proper@@ 1
relev@@ 1
rels 1
rency 1
resting 1
resul@@ 1
rhosis 1
rist@@ 1
rough@@ 1
rought 1
sati@@ 1
scand@@ 1
sear@@ 1
secu@@ 1
seis@@ 1
selfi@@ 1
sengers 1
sep@@ 1
sewhere 1
ship@@ 1
sius 1
ska 1
stances 1
startu@@ 1
strai@@ 1
stud@@ 1
sớ@@ 1
tality 1
tch 1
tech@@ 1
telecom@@ 1
tels 1
thern 1
thiop@@ 1
thổ@@ 1
tice 1
trag@@ 1
transpa@@ 1
traven@@ 1
trict 1
tware 1
uck 1
urch 1
uris@@ 1
veh@@ 1
vered 1
versi@@ 1
vices 1
ware@@ 1
yed 1
zer@@ 1
¡ 1
¡@@ 1
¢ 1
« 1
· 1
» 1
½ 1
¾ 1
À@@ 1
Â 1
Ý@@ 1
ø 1
ā@@ 1
č@@ 1
ī@@ 1
Ơ@@ 1
ười 1
ǒ@@ 1
ǔ@@ 1
ș 1
ș@@ 1
ə 1
ɛ@@ 1
ɡ@@ 1
ʲ@@ 1
ː 1
ː@@ 1
̩@@ 1
̪@@ 1
Ν@@ 1
α 1
α@@ 1
η 1
η@@ 1
ấ 1
Ầ@@ 1
ẩy 1
ắ 1
ẳ 1
ẵ@@ 1
ểu 1
Ệ@@ 1
ện 1
Ị@@ 1
ịnh 1
Ố 1
Ộ@@ 1
Ớ@@ 1
Ờ 1
ụp 1
Ủ@@ 1
Ử 1
ữu 1
Ự 1
ựng 1
’t 1
ク 1
ク@@ 1
地 1
地@@ 1
城 1
封@@ 1
木 1
神 1
育 1
育@@ 1
肺@@ 1
行@@ 1
衢 1
衢@@ 1
雷 1
지 1
지@@ 1
