, 457380
. 404362
the 312804
&apos; 170426
in 132395
of 129602
to 116767
and 114092
a 104951
ve 100526
@ 89932
&quot; 79243
" 77942
bir 77459
- 65589
/ 53495
for 51873
on 46991
's 46049
is 45466
that 42330
da 39611
) 39018
( 38977
de 32960
with 30448
bu 30199
as 28487
by 28026
için 27908
said 25836
will 25585
an 24265
it 23893
be 23223
-- 21315
are 21156
at 20562
ın 20139
has 20012
have 18296
from 18269
nin 18223
: 18157
European 17606
EU 17505
AB 17503
he 17241
was 16988
nın 16478
not 16414
Kosovo 16391
ile 15910
Kosova 14629
@-@ 14611
Sırbistan 14578
günü 14574
this 14493
en 14427
its 14031
olarak 14012
e 13798
Serbia 12822
olan 12691
daha 12334
Times 12055
Southeast 11501
i 11285
ler 11245
dedi 11245
country 11235
also 11161
Avrupa 10913
which 10868
Minister 10859
government 10856
we 10849
SETimes 10793
[ 10723
] 10717
söyledi 10692
but 10419
their 10417
% 10239
yeni 10201
his 10099
S@@ 9949
NATO 9611
dan 9598
they 9461
would 9344
new 9303
Türkiye 9286
year 9283
leri 9242
daki 9073
lar 8936
re@@ 8839
t 8838
göre 8838
al@@ 8812
been 8698
10 8685
olduğunu 8629
Sırp 8608
&#93; 8606
&#91; 8604
çok 8590
iki 8512
s@@ 8469
Turkey 8420
in@@ 8400
one 8346
yer 8345
K@@ 8255
two 8218
; 8199
or 8189
11 8124
son 8012
were 7954
all 7950
ya 7878
s 7839
k@@ 7816
more 7726
ları 7697
ı 7684
o 7677
I 7661
ing 7657
den 7651
C@@ 7605
tarafından 7596
arasında 7596
BiH 7580
her 7578
countries 7523
an@@ 7457
un 7365
Makedonya 7357
after 7308
büyük 7253
yıl 7232
who 7217
ar@@ 7211
at@@ 7187
M@@ 7178
inin 7175
B@@ 7161
BH 7126
ye 7032
devam 7008
etti 6963
Serbian 6814
other 6786
ının 6784
' 6758
t@@ 6748
ilgili 6733
ta 6713
T@@ 6695
kadar 6667
un@@ 6618
can 6602
Macedonia 6580
D@@ 6567
en@@ 6554
Hırvatistan 6520
p@@ 6445
Belgrade 6420
12 6411
i@@ 6409
ancak 6370
c@@ 6359
co 6296
political 6287
diğer 6214
te 6172
g@@ 6171
me 6138
Belgrad 6131
P@@ 6053
siyasi 6033
there 6029
about 6011
es 5972
Croatia 5969
over 5968
yaptığı 5962
H@@ 5955
A@@ 5954
u 5944
up 5938
G@@ 5899
ine 5881
f@@ 5841
09 5806
according 5760
d@@ 5759
ma 5754
told 5744
konusunda 5728
m 5724
Arnavutluk 5723
uluslararası 5705
first 5681
y@@ 5679
Getty 5678
üzere 5670
L@@ 5631
last 5631
Images 5627
05 5623
Prime 5606
07 5597
ise 5586
li 5584
euros 5583
06 5572
people 5566
Turkish 5542
than 5525
ini 5500
during 5499
Bakanı 5490
ını 5473
Reuters 5448
ülkenin 5448
04 5442
il@@ 5440
08 5431
03 5427
y 5424
E@@ 5424
lerin 5404
ların 5386
ABD 5325
olduğu 5324
e@@ 5323
R@@ 5309
AFP 5297
ted 5271
international 5262
er@@ 5245
Karadağ 5221
President 5218
m@@ 5206
as@@ 5201
ına 5192
Bulgaristan 5167
ten 5153
z@@ 5147
only 5138
years 5135
state 5130
between 5113
milyon 5094
önemli 5066
operation 5065
n@@ 5049
de@@ 5031
al 5028
eski 4990
le 4978
sonra 4967
karşı 4950
N@@ 4928
k 4909
ilk 4898
larının 4896
Yunanistan 4887
Romanya 4885
UN 4879
BM 4871
if 4870
gibi 4855
some 4841
ed 4829
ç@@ 4818
? 4811
no 4798
h@@ 4796
l@@ 4787
b@@ 4770
j@@ 4770
Albania 4764
should 4724
v@@ 4712
Bulgaria 4695
iyi 4689
er 4683
ver@@ 4677
fazla 4675
F@@ 4673
Montenegro 4619
le@@ 4608
1 4603
had 4589
or@@ 4567
per 4540
yap@@ 4535
haberi 4534
O@@ 4531
time 4504
deki 4483
economic 4473
larını 4465
lerini 4456
20 4447
former 4435
ak@@ 4411
talks 4410
yüzde 4407
ic 4385
la@@ 4384
while 4378
against 4377
ti@@ 4362
yılında 4347
mak 4343
verdiği 4342
Romania 4341
ting 4329
Cumhurbaşkanı 4325
ation 4304
is@@ 4293
di@@ 4273
Greece 4250
kabul 4247
u@@ 4238
ülke 4237
mesi 4226
ay 4215
however 4188
o@@ 4171
under 4161
et@@ 4157
maya 4156
r@@ 4138
di 4122
most 4110
Balkan 4105
police 4098
could 4096
I@@ 4096
şekilde 4091
US 4088
our 4065
me@@ 4060
lerinin 4049
Europe 4040
2 4038
olmak 4037
Bosna 4034
la 4028
ne 4017
iç 4012
on@@ 4010
ol@@ 4007
three 4003
birlikte 4003
says 4002
mek 3984
now 3976
15 3974
önce 3948
li@@ 3947
ş@@ 3932
te@@ 3928
inde 3922
Türk 3912
nun 3888
ekonomik 3851
üç 3835
out 3821
3 3818
well 3814
ad@@ 3812
support 3804
ması 3798
sahip 3775
AP 3773
since 3771
into 3764
V@@ 3763
içinde 3758
ında 3741
public 3739
ac@@ 3729
when 3725
lara 3725
30 3708
lere 3705
bin 3689
sonrasında 3675
part 3663
el@@ 3663
ul@@ 3656
yaklaşık 3654
war 3645
do 3641
ma@@ 3633
cent 3594
region 3585
Monday 3585
such 3580
ate 3580
Croatian 3580
im@@ 3573
ediyor 3553
devlet 3552
ıyor 3551
kal@@ 3539
larına 3538
acak 3528
Pazartesi 3527
dis@@ 3517
them 3513
veya 3510
Z@@ 3506
process 3503
yapılan 3503
üzerinde 3496
Greek 3494
officials 3492
başkanı 3483
Albanian 3459
meye 3459
foreign 3458
ası 3456
şöyle 3455
many 3447
st@@ 3446
masına 3438
Bosnia 3432
agreement 3425
Hersek 3413
savaş 3413
oldu 3409
The 3407
gelen 3403
Başbakan 3395
ay@@ 3366
lı 3361
ev@@ 3353
ro@@ 3344
değil 3343
25 3328
lik 3328
Hırvat 3328
meeting 3315
lerine 3312
açıklamada 3309
ik@@ 3297
ileri 3287
ayında 3285
söz 3282
so 3277
end 3246
Herzegovina 3235
because 3232
law 3228
02 3219
led 3214
ar 3211
geçen 3206
ana 3203
member 3199
si@@ 3197
report 3182
J@@ 3167
genel 3166
including 3159
d 3158
Kıbrıs 3145
hükümet 3144
us 3135
masını 3130
bütün 3125
eden 3111
fakat 3109
Macedonian 3106
Wednesday 3106
01 3102
members 3096
Dışişleri 3092
oviç 3091
those 3084
am@@ 3066
party 3059
Y@@ 3052
bunun 3051
Çarşamba 3048
what 3024
ayrıca 3023
ir@@ 3022
hafta 3013
belirtti 2996
elections 2992
reform 2984
os 2975
authorities 2974
it@@ 2973
polis 2967
unun 2966
var 2955
local 2945
expected 2944
ri@@ 2943
must 2939
17 2939
yüksek 2937
Party 2934
yol 2930
6 2929
she 2922
a@@ 2918
işbirliği 2917
iş@@ 2913
Başbakanı 2905
Tuesday 2899
month 2894
day 2893
Pristina 2892
4 2892
any 2891
aynı 2881
made 2876
ts 2872
es@@ 2867
among 2866
yerel 2866
ter 2865
2004 2865
üyelik 2859
düzenlenen 2857
um@@ 2851
geri 2842
Salı 2833
crimes 2832
16 2830
W@@ 2823
ers 2821
Ankara 2820
ki 2819
geldi 2817
alıyor 2814
security 2813
w@@ 2813
take 2809
yönelik 2806
mesine 2805
ovic 2801
avro 2800
iz@@ 2795
göster@@ 2793
7 2791
week 2778
ur@@ 2776
em@@ 2762
bil@@ 2760
yerine 2756
both 2751
work 2751
IMF 2749
sıra 2746
se 2745
isi 2743
biri 2741
say 2739
Priştine 2737
these 2734
Zagreb 2733
iş 2731
demeçte 2725
bazı 2723
tan 2716
way 2714
parliament 2708
Serb 2706
before 2698
13 2696
özel 2684
tek 2667
mesini 2665
bulun@@ 2665
mayı 2663
hakkında 2662
International 2654
kullan@@ 2654
18 2652
issue 2642
3@@ 2638
yi 2635
con@@ 2634
konusu 2630
l 2622
yönünde 2620
arak 2615
number 2611
verdi 2607
membership 2606
ated 2600
man@@ 2595
27 2595
yanı 2592
ıl@@ 2586
Council 2581
8 2579
2@@ 2575
arasındaki 2575
14 2569
pek 2568
military 2554
el 2552
karar 2552
yana 2549
still 2547
be@@ 2546
able 2541
being 2540
alan 2539
aç@@ 2539
us@@ 2536
4@@ 2534
var@@ 2531
gerektiğini 2528
Ar@@ 2524
ly 2513
project 2510
next 2498
future 2492
parties 2491
aldı 2490
çalış@@ 2487
ic@@ 2481
5 2480
Bulgarian 2480
diği 2478
news 2475
May 2474
business 2473
visit 2471
March 2467
through 2467
2007 2458
ü 2456
ından 2454
konuşan 2454
Arnavut 2453
June 2452
uzun 2452
An@@ 2449
esi 2444
Mart 2441
yeniden 2441
yardım 2439
October 2433
inden 2428
Foreign 2426
General 2424
world 2420
olacak 2414
den@@ 2410
ortak 2405
lan@@ 2403
Mayıs 2403
21 2396
Ekim 2395
Thursday 2394
bi@@ 2388
Haziran 2388
very 2387
December 2384
citizens 2383
where 2382
mış 2382
decision 2380
leaders 2373
mi 2373
Perşembe 2367
50 2366
media 2365
çeşitli 2364
sadece 2362
2008 2360
24 2357
progress 2350
unu 2348
gel@@ 2347
Aralık 2342
se@@ 2337
met 2334
Başkanı 2330
January 2322
kon@@ 2321
ç 2312
maları 2312
p 2309
güvenlik 2309
az 2307
minister 2306
Ocak 2305
held 2302
Bank 2302
ter@@ 2301
ex@@ 2301
diyen 2300
tüm 2296
plan 2295
Balkans 2295
ıyla 2295
una 2294
status 2293
9 2291
you 2288
gün 2288
ICTY 2287
g 2282
amaçlı 2279
ek@@ 2270
os@@ 2268
im 2267
Makedon 2267
announced 2266
important 2262
22 2258
Romanian 2258
ab@@ 2251
hükümetin 2251
... 2247
reforms 2245
iyor 2245
hükümeti 2243
miş 2236
anda 2226
bulundu 2226
corruption 2223
based 2222
geç@@ 2222
long 2220
19 2213
U@@ 2209
lerinden 2209
edil@@ 2208
anlaşma 2208
2006 2207
ka 2207
ra@@ 2207
ag@@ 2205
ayı 2205
ev 2204
saying 2203
manın 2196
Mar@@ 2195
dört 2195
place 2194
November 2193
28 2192
23 2191
July 2187
Skopje 2182
won 2182
accession 2181
leader 2179
kur@@ 2178
man 2177
ating 2176
Pazar 2176
larından 2172
high 2171
ia 2171
institutions 2170
yetkililer 2170
şu 2169
destek 2161
hem 2159
par@@ 2158
lık 2158
make 2157
2005 2157
lardan 2153
Temmuz 2153
company 2150
added 2148
even 2146
Kasım 2141
karşın 2136
April 2135
dı 2130
z 2123
Sarajevo 2122
26 2121
months 2117
enerji 2117
independence 2112
called 2110
system 2108
etnik 2108
ding 2105
integration 2104
İ@@ 2103
5@@ 2100
Üsküp 2100
opposition 2099
Nisan 2097
Serbs 2095
power 2095
açısından 2095
ations 2093
su@@ 2088
ım 2079
Yunan 2079
çık@@ 2076
four 2075
et 2074
president 2070
ds 2062
bulunuyor 2060
ent 2059
relations 2056
towards 2054
2009 2052
national 2051
right 2049
efforts 2047
Sunday 2047
UNMIK 2045
geçtiğimiz 2043
n 2037
tions 2036
len@@ 2027
yı 2027
araya 2024
head 2020
Saraybosna 2016
issues 2014
September 2012
help 2011
Dünya 2008
group 2007
ek 2006
çıkar@@ 2003
dahil 2003
av@@ 2002
various 2001
lerinde 2000
Balkanlar 1999
-@@ 1993
Eylül 1986
aldığı 1984
Bulgar 1984
rağmen 1983
community 1978
chief 1978
Boris 1976
ap@@ 1975
organised 1975
may 1974
energy 1974
situation 1968
euro 1967
sources 1966
pro@@ 1965
same 1959
masının 1959
signed 1955
meyi 1955
mevcut 1955
mücadele 1955
him 1953
February 1953
ılar 1953
tam 1951
Cyprus 1950
Commission 1949
.@@ 1949
th@@ 1948
United 1948
ik 1947
ziyaret 1945
az@@ 1943
World 1942
ge 1939
regional 1939
ecek 1939
for@@ 1936
Bosnian 1934
need 1930
Athens 1927
Kostunica 1924
Şubat 1924
üyesi 1917
Kosovalı 1917
res@@ 1915
19@@ 1915
main 1914
ama 1914
vote 1913
ot@@ 1911
tı 1911
c 1910
ut@@ 1908
2010 1907
another 1900
Democratic 1895
Sofia 1893
around 1890
ok@@ 1890
ortaya 1889
kendi 1887
bekleniyor 1886
official 1884
resmi 1883
ch@@ 1882
use 1881
set 1879
eri 1877
h 1876
indeki 1876
larda 1875
Union 1870
olması 1870
iyle 1870
several 1868
second 1868
billion 1864
gerekiyor 1863
continue 1862
etmek 1862
Bu 1860
Atina 1859
ın@@ 1858
29 1856
AK 1855
ans 1854
6@@ 1851
ıp 1851
lerle 1848
lerde 1846
görüş@@ 1846
policy 1845
crisis 1845
border 1840
ış@@ 1840
teki 1838
Mil@@ 1836
am 1833
af@@ 1833
negotiations 1832
deal 1831
sırasında 1831
sa 1828
ü@@ 1825
Konseyi 1823
economy 1822
key 1819
EC 1817
kazan@@ 1816
RS 1815
lerden 1812
bo@@ 1811
baş@@ 1811
başka 1810
kamu 1809
aya 1803
ikinci 1801
ina 1800
yapılacak 1799
Komisyonu 1797
zaman 1796
following 1794
see 1791
measures 1788
yalnızca 1787
na 1786
B92 1784
market 1783
Tadiç 1781
Rehn 1778
iz 1776
diyerek 1775
milyar 1775
Partisi 1774
sun@@ 1773
altında 1773
üye 1769
askeri 1768
şey 1767
court 1765
States 1765
ün 1765
iler 1763
KFOR 1761
aş@@ 1761
larla 1760
Uluslararası 1753
become 1752
ce 1749
without 1748
40 1747
crime 1745
possible 1745
kap@@ 1745
acağını 1744
Rusya 1743
ethnic 1738
within 1738
recent 1734
para 1732
financial 1731
unda 1728
ministry 1724
move 1723
ally 1722
ca 1720
development 1719
men 1719
har@@ 1716
co@@ 1714
1995 1712
kişi 1711
go 1709
7@@ 1709
ekledi 1709
bul@@ 1708
il 1708
yıllık 1706
ünü 1702
five 1700
good 1696
ko 1694
per@@ 1693
ov 1693
mesinin 1692
event 1691
söylüyor 1689
major 1688
down 1688
avroluk 1688
past 1683
Washington 1680
ec@@ 1677
ded 1677
statement 1676
how 1675
ti 1674
August 1674
2003 1672
say@@ 1672
Friday 1671
ati@@ 1670
problem 1669
until 1668
1@@ 1668
çek@@ 1667
problems 1666
Cuma 1666
nedeniyle 1666
tribunal 1665
iste@@ 1665
üst 1665
lo@@ 1664
der 1664
görev 1664
bir@@ 1663
yatırım 1662
diyor 1661
ulusal 1660
der@@ 1659
AKP 1659
seçim 1659
kar@@ 1657
bulunan 1657
then 1654
Tadic 1654
altı 1654
diğini 1651
sp@@ 1650
general 1649
programme 1649
gu@@ 1648
ling 1648
yakın 1648
due 1647
left 1646
companies 1644
sayıda 1641
edilen 1641
mission 1640
top 1639
election 1638
Ağustos 1636
further 1635
much 1635
iye 1634
like 1633
ha@@ 1633
yaş@@ 1633
Cumhuriyeti 1633
larında 1632
ne@@ 1630
PKK 1628
r 1627
yar@@ 1627
katılım 1627
rights 1626
100 1626
enin 1626
insan 1626
gör@@ 1623
ön@@ 1621
ed@@ 1620
Zoran 1619
beş 1619
ünün 1616
Brussels 1615
amacıyla 1615
op@@ 1613
EULEX 1612
ir 1610
aları 1610
states 1609
Bosnalı 1607
case 1606
ulaş@@ 1605
old 1604
BBC 1599
conference 1595
als 1594
Ç@@ 1594
basın 1592
Ahtisaari 1591
Al@@ 1590
bunu 1588
gas 1586
plan@@ 1585
öner@@ 1585
ruling 1580
ak 1580
Brüksel 1579
Nikola 1578
ilişkin 1577
bu@@ 1575
tr@@ 1574
top@@ 1573
ciddi 1569
current 1564
hiçbir 1564
Ş@@ 1563
ıları 1562
ısı 1562
tut@@ 1560
film 1559
oy 1556
team 1556
dile 1556
alı 1555
National 1554
New 1550
ou@@ 1549
join 1546
kaynaklar 1546
men@@ 1542
ız 1542
sor@@ 1541
Tirana 1541
sa@@ 1541
SC 1537
did 1536
already 1535
he@@ 1528
gereken 1527
da@@ 1524
days 1524
kapsamında 1524
pre@@ 1523
ties 1523
ist@@ 1522
meleri 1522
eğitim 1522
Russia 1521
off 1520
ı@@ 1518
sona 1515
sector 1514
menin 1514
yönündeki 1514
ındaki 1513
agreed 1511
ken 1509
ardından 1509
ye@@ 1508
level 1506
tan@@ 1505
Kar@@ 1505
ilerleme 1505
dış 1502
başladı 1500
Security 1494
inşa 1493
back 1490
does 1488
Hague 1488
ılması 1488
si 1485
kısa 1483
open 1482
lar@@ 1481
ja 1479
1999 1478
kültür 1477
took 1476
plans 1475
cultural 1474
hazır@@ 1474
just 1473
ig@@ 1473
ist 1473
kat@@ 1473
ele 1472
full 1471
meet 1471
trade 1471
meanwhile 1468
Tiran 1468
representatives 1463
Western 1463
derece 1461
meydana 1458
Lahey 1458
city 1456
mar@@ 1455
bölgesel 1455
günkü 1453
ül@@ 1450
durumda 1450
9@@ 1449
sınır 1449
şeklinde 1449
line 1447
ov@@ 1445
ous 1444
budget 1443
mali 1441
elde 1441
alın@@ 1438
O 1436
yarat@@ 1434
ty 1433
under@@ 1432
üne 1429
special 1428
Basescu 1428
hal@@ 1426
parti 1426
acağı 1426
ment 1425
hi@@ 1424
role 1423
ies 1422
parti@@ 1422
get 1421
adlı 1421
tes 1420
dur@@ 1419
prime 1419
bile 1419
güçlü 1418
Bucharest 1416
ica 1414
dığı 1414
önümüzdeki 1413
final 1412
iy@@ 1412
DPA 1411
gir@@ 1409
Bankası 1406
ity 1404
uk@@ 1404
asında 1404
açık 1404
ci@@ 1403
six 1401
areas 1400
used 1398
far 1397
dil@@ 1396
start 1395
mo@@ 1394
Istanbul 1394
Sanader 1392
taki 1392
ge@@ 1391
suç 1391
sözlerine 1390
ru@@ 1389
İstanbul 1387
ö@@ 1387
um 1385
red 1384
lu 1383
katıl@@ 1382
gelecek 1382
early 1381
ım@@ 1380
ce@@ 1379
yılın 1379
yas@@ 1378
tur@@ 1375
x@@ 1375
age 1374
31 1373
free 1371
Sofya 1371
coalition 1370
art@@ 1370
Re@@ 1370
women 1369
hale 1368
Yugoslav 1366
bak@@ 1365
anı 1365
suç@@ 1365
kararı 1364
ministers 1361
ülkede 1361
yet 1359
ah@@ 1359
Güvenlik 1359
tion 1358
du@@ 1358
festival 1358
gi@@ 1356
standards 1355
increase 1355
8@@ 1355
uy@@ 1355
Bakanlığı 1355
ten@@ 1352
less 1350
Erdoğan 1350
söyle@@ 1349
ifade 1349
bölge 1349
better 1348
toplam 1348
Genel 1347
Mladiç 1347
Secretary 1346
500 1346
abil@@ 1346
60 1344
ovski 1344
conditions 1343
opened 1343
Mladic 1342
ilerin 1342
Bükreş 1339
Güneydoğu 1336
bırak@@ 1335
each 1334
yan@@ 1333
quoted 1332
investment 1331
forces 1331
iç@@ 1331
Demokrat 1331
başlat@@ 1331
çoğu 1329
sınır@@ 1329
clear 1327
farklı 1327
barış 1327
want 1326
change 1324
mas@@ 1324
office 1324
Batı 1324
conflict 1323
earlier 1323
In@@ 1322
ere 1320
up@@ 1319
düşük 1318
lu@@ 1317
Almanya 1317
think 1316
construction 1316
my 1315
solution 1315
1,@@ 1314
çözüm 1314
press 1313
ağ@@ 1313
ekonomi 1313
rec@@ 1309
lığı 1309
süre 1307
makla 1305
order 1303
found 1301
children 1300
durum 1300
joint 1299
ilerle@@ 1298
come 1296
yaşanan 1295
together 1293
ass@@ 1293
results 1292
savunma 1292
$ 1291
own 1290
ettiği 1288
late 1285
artır@@ 1285
dılar 1284
mal@@ 1283
üzerine 1279
centre 1278
po@@ 1278
qu@@ 1277
province 1277
gerekli 1277
money 1276
hazır 1275
best 1274
erek 1273
dığını 1272
lama 1271
dön@@ 1271
del 1270
est 1267
step 1265
gün@@ 1264
growth 1263
med 1262
remains 1262
Recep 1262
working 1260
yine 1260
liği 1258
force 1256
2002 1256
Erdogan 1256
majority 1255
ur 1255
hedef@@ 1255
küçük 1254
sür@@ 1254
dav@@ 1253
defence 1252
Tayyip 1252
aday 1252
do@@ 1251
Gruevski 1250
interest 1249
Yardımcısı 1248
ian 1247
eceğini 1247
les 1246
came 1246
over@@ 1246
artık 1246
masından 1246
değiş@@ 1245
human 1244
asının 1243
position 1242
cases 1241
düzey 1240
ey@@ 1239
currently 1237
yle 1237
eş@@ 1237
oluşan 1237
x 1236
although 1236
ama@@ 1235
engel@@ 1235
anın 1235
ülkeleri 1235
yüz@@ 1235
parliamentary 1234
imi 1234
yolunda 1234
C 1232
ders 1230
to@@ 1227
suçları 1226
ago 1225
experts 1225
yaşındaki 1225
bas@@ 1224
bakan 1223
id@@ 1222
Rum 1222
taken 1221
area 1221
iti@@ 1219
nde 1219
candidate 1218
ke@@ 1218
saldır@@ 1217
T 1216
asını 1215
ite 1214
ır@@ 1213
yok 1212
lideri 1212
geliş@@ 1212
Er@@ 1210
fight 1209
adı 1209
Parliament 1207
km 1207
leriyle 1207
san@@ 1206
lay@@ 1206
yabancı 1205
düşün@@ 1205
diler 1204
ail@@ 1203
güven@@ 1202
ülkesinin 1202
yargı 1200
olay@@ 1200
ence 1199
mu@@ 1198
göz@@ 1197
etme 1197
and@@ 1196
2001 1195
sat@@ 1195
mada 1194
f 1191
edecek 1191
ings 1190
building 1190
ele@@ 1189
olmadığını 1189
yarış@@ 1189
v 1186
om@@ 1186
olma@@ 1186
halinde 1184
yaz@@ 1182
kaldır@@ 1181
düzenle@@ 1181
State 1180
stability 1179
başar@@ 1179
Ponte 1178
Cypriot 1176
social 1175
education 1175
ülkedeki 1175
günlük 1174
2011 1172
katıldı 1172
Agency 1171
life 1171
od@@ 1171
iddia 1171
sorun 1170
given 1169
mıştı 1169
Ulusal 1168
zorunda 1167
200 1165
buna 1165
mekle 1165
ran@@ 1164
ğ@@ 1164
min@@ 1162
reported 1162
getir@@ 1161
if@@ 1160
com@@ 1159
ler@@ 1159
teslim 1159
du 1158
ıldı 1158
Irak 1158
fir@@ 1157
Germany 1157
j 1157
satın 1157
provide 1156
sağla@@ 1156
uz@@ 1155
director 1154
bin@@ 1154
tar@@ 1154
may@@ 1154
erken 1154
campaign 1152
olumlu 1152
her@@ 1151
sen@@ 1151
Yugoslavya 1150
TV 1149
bar@@ 1149
legal 1148
mer@@ 1148
Ratko 1148
politicians 1147
information 1147
uyor 1147
başla@@ 1146
larıyla 1145
term 1144
remain 1144
northern 1142
70 1142
projects 1142
organize 1141
zamanda 1141
changes 1140
ık@@ 1140
gra@@ 1138
Albanians 1138
İki 1138
anlar 1135
konuşmada 1135
S 1134
bağlı 1134
sonunda 1133
eli 1132
daily 1131
gönder@@ 1129
whether 1127
gerek@@ 1127
kredi 1127
put 1126
counterpart 1125
include 1125
lider 1125
believe 1124
P 1123
han@@ 1123
received 1122
tak@@ 1122
layan 1122
ada 1121
izin 1121
urged 1120
pos@@ 1120
başta 1120
later 1119
different 1119
Association 1118
lis@@ 1117
despite 1116
ul 1114
every 1113
Srebrenica 1113
gerçekleş@@ 1112
uygula@@ 1111
boyunca 1110
1.@@ 1108
Vojislav 1108
dair 1107
inc@@ 1104
action 1104
birkaç 1104
ahead 1103
agency 1103
Pro@@ 1103
sürdür@@ 1103
masında 1102
uk 1101
luk 1101
ıların 1101
face 1100
özellikle 1100
ırken 1099
git@@ 1098
Con@@ 1097
hope 1096
third 1096
strong 1095
ova 1095
tic 1094
peace 1094
ters 1094
News 1094
çıkan 1094
total 1093
asyon 1093
run 1092
yasa 1092
uygun 1091
madan 1090
isinin 1090
alan@@ 1089
burada 1089
no@@ 1088
show 1088
tra@@ 1088
van@@ 1086
needs 1085
Centre 1085
Gotovina 1084
isini 1083
ülkelerin 1083
reform@@ 1082
ci 1080
ara 1080
tartış@@ 1080
sorumlu 1080
summit 1079
fa@@ 1079
soon 1078
gen@@ 1078
oy@@ 1078
arada 1078
kazandı 1078
medi@@ 1077
positive 1077
yer@@ 1077
elektrik 1077
duy@@ 1076
ant 1075
anoviç 1071
eceği 1069
nda 1069
kuzey 1068
ber@@ 1067
alar 1065
yapıl@@ 1065
kan@@ 1063
ayr@@ 1062
herhangi 1062
1992 1061
kötü 1061
veril@@ 1061
democratic 1060
mal 1059
makta 1059
Slovenya 1059
sağlık 1059
bur@@ 1057
merkezli 1057
girişim@@ 1055
ır 1053
ticaret 1053
açıkladı 1052
along 1051
ca@@ 1051
Film 1051
yüzünden 1050
olacağını 1048
temel 1048
name 1047
siz 1047
yandan 1047
least 1046
bid 1046
ilen 1046
large 1045
anlaş@@ 1045
capital 1043
hâlâ 1040
getirdi 1040
town 1038
ekonom@@ 1037
Slobodan 1036
rol 1036
yaptı 1036
Yugoslavia 1034
çi 1034
ves 1033
Solana 1033
ch 1032
groups 1032
yetkili 1032
bölgede 1031
period 1030
arı 1030
justice 1029
koy@@ 1029
ger@@ 1028
açtı 1028
gr@@ 1027
million 1027
bağ@@ 1027
sel 1026
üyeliği 1026
malar 1026
net 1025
mişti 1024
asına 1024
vi@@ 1023
son@@ 1023
Ashdown 1023
George 1022
oluştur@@ 1022
Fransa 1021
administration 1020
Saturday 1020
ımı 1020
implementation 1018
öne 1018
nation 1017
sion 1017
Romen 1017
hak@@ 1016
henüz 1016
çağırdı 1016
takdirde 1014
adım 1014
point 1011
ans@@ 1011
making 1010
pazar@@ 1010
raporda 1010
Bar@@ 1009
eleri 1009
konulu 1009
control 1007
Ko@@ 1007
ban@@ 1007
ho@@ 1006
presidency 1006
masıyla 1006
violence 1004
mis@@ 1003
Cumartesi 1003
sahibi 1002
aday@@ 1002
muhalefet 1001
Iraq 1000
Kon@@ 1000
savun@@ 1000
tarihi 998
funds 997
ülkeler 997
alarını 996
toplum 995
Merkezi 995
hükümetinin 995
necessary 993
lack 992
pat@@ 992
tourism 992
trial 992
Russian 991
ülkelerinin 991
abilir 990
ür@@ 989
SAA 988
lü 987
bunların 987
ıcı 987
Ministry 986
uc@@ 986
Montenegrin 986
serious 985
dialogue 985
din@@ 985
karar@@ 985
undan 985
Ch@@ 984
Podgorica 981
mümkün 981
2000 980
likely 980
reached 980
taking 979
few 979
ac 979
nasıl 978
visa 977
near 977
culture 977
meden 977
largest 976
bağımsızlık 976
yapan 976
result 975
ren@@ 975
kentinde 975
Court 974
lin@@ 974
nearly 974
fe@@ 973
review 972
Agreement 972
lik@@ 970
gösteriyor 970
oil 969
proj@@ 969
açıkla@@ 969
others 968
Deputy 968
Mahkemesi 968
so@@ 967
bring 967
yılı 967
Man@@ 966
yolsuzluk 966
tamam@@ 966
yardımcı 965
En@@ 964
Roma 964
kaydetti 964
yayınlanan 964
leme 962
arrest 960
etme@@ 960
mekte 960
Dairesi 959
ıyorlar 959
düş@@ 958
laws 957
young 957
global 956
meclis 956
potential 955
inter@@ 955
türlü 955
yetkil@@ 955
dir 954
bağımsız 954
home 953
edilmesi 953
fer@@ 952
ettiğini 952
ors 951
bloc 951
small 950
pay 950
ary 950
Luka 949
gerçekleşti 949
decided 948
eye 948
seç@@ 948
destekle@@ 947
merkez@@ 947
bilim 947
br@@ 946
ates 944
bilgi 944
doğru 944
nations 943
Par@@ 943
lider@@ 943
ort@@ 942
bölgedeki 942
başlarında 942
organisation 941
though 941
hala 941
açıdan 941
especially 940
Republika 940
ilan 940
give 939
return 939
je 939
ready 938
onu 938
mesinden 938
Olli 937
zor 937
family 936
esini 936
olduğuna 936
asyon@@ 936
dev@@ 935
University 935
yaşayan 935
recently 934
ski 934
tin 934
low 933
ip 933
sonuna 933
ying 932
Libya 930
ob@@ 930
petrol 930
adding 929
rate 929
ılan 929
improve 928
haline 927
temsil 926
Dayton 924
kaynak@@ 924
serbest 924
ış 923
anti 922
don 921
trans@@ 921
th 920
York 920
sur@@ 919
needed 919
Banja 919
taraf@@ 919
Anlaşması 919
find 918
population 918
France 918
Srpska 918
yıldır 917
görün@@ 917
tu@@ 916
non 916
altına 916
goal 915
pe@@ 915
yol@@ 914
alacak 914
approved 913
bank 913
eviç 913
Alliance 912
Slovenia 912
b 911
süren 911
ünde 910
sivil 910
gerçek 909
yetkilileri 909
sağlay@@ 909
fil@@ 908
aimed 907
kes@@ 907
süreci 907
karşıya 906
15@@ 904
diye 904
independent 903
güç@@ 903
significant 902
tal@@ 902
verilen 902
Bo@@ 901
Italy 901
out@@ 900
kor@@ 900
toplum@@ 900
isine 899
görülüyor 899
mevkidaşı 899
tah@@ 899
Festival 898
freedom 897
air 897
build 896
began 896
beri 896
operasyon@@ 896
yaklaş@@ 896
geçir@@ 896
Milosevic 895
dü 895
veren 895
ülkeden 895
Radovan 894
reports 893
Karadzic 893
tri@@ 893
haber 893
ard@@ 892
German 892
aralarında 892
tive 891
close 890
önceki 890
sub@@ 889
ks 889
Dodik 889
Parti 889
turizm 889
İtalya 889
vergi 888
doğrudan 888
diplomatic 887
activities 887
esinin 887
tax 886
35 886
discuss 886
şimdi 886
80 884
ser@@ 883
Annan 883
mey@@ 883
established 882
ph@@ 882
OSCE 882
tes@@ 882
üyeleri 882
etmeye 882
ep@@ 881
A 881
yor 881
küresel 880
suçu 880
onun 879
sosyal 879
noted 878
opening 878
ta@@ 878
geliyor 878
seven 877
len 877
başvur@@ 877
fact 876
etmesi 875
başlıca 875
anlaşması 875
coming 874
mü@@ 874
known 873
troops 873
private 873
ötürü 873
300 872
ilişkileri 872
duyurdu 872
Birliği 871
tür 871
İnternet 871
AGİT 871
boost 870
üçüncü 870
asked 869
ces@@ 869
gerçekleşen 869
mediğini 869
sız 869
Representative 868
Br@@ 868
belir@@ 868
dünya 867
launched 866
dar@@ 866
bel@@ 866
proje 866
Ivo 865
arrested 865
değerlendir@@ 864
İş 864
land 863
eight 863
tir@@ 863
mad@@ 863
kim@@ 863
dönemde 863
kapat@@ 861
health 860
sign 858
liğini 858
Tomislav 857
Commissioner 857
Or@@ 857
yolsuzlukla 857
fi@@ 856
mer 855
steps 854
ık 854
bilateral 853
Euro 853
again 852
vize 852
M 851
tic@@ 851
R 851
partisi 851
dönüş@@ 851
oranında 850
İngiltere 850
grup 849
seviy@@ 848
Ortaklık 848
ladı 847
örgüt@@ 847
too 846
rule 845
increased 845
demokratik 844
sh@@ 842
ad 842
Sorumlu 842
whose 841
domestic 841
latest 840
Adalet 840
services 839
mon@@ 839
warned 839
seen 839
olmasına 839
parlamento 839
today 838
living 838
adopted 837
sonuç@@ 837
post 836
Abdullah 836
doğ@@ 836
konuş@@ 836
landı 836
ses 835
road 834
hold 834
kez 834
dünyanın 834
ck 832
kent@@ 832
yasal 832
lead 831
kö@@ 831
sözcüsü 831
annual 830
çalışma 830
hakkındaki 828
dışişleri 826
durum@@ 826
constitution 825
ola@@ 825
neden 825
kay@@ 824
işaret 824
oldukça 824
production 823
ones 823
ha 823
ilere 823
regime 822
sev@@ 822
eti 822
başarılı 822
yön@@ 822
fied 821
expressed 821
duyur@@ 820
gar@@ 819
prosecutor 819
Dragan 819
maların 819
tasar@@ 818
tly 817
difficult 817
wants 817
stressed 817
mı 817
görev@@ 817
artış 817
1990 816
ensure 816
ediliyor 816
yaşam@@ 815
por@@ 814
Group 814
Mitrovica 814
bundan 814
Sırplar 814
başına 814
privatisation 813
Scheffer 813
king 813
ls 812
charges 812
property 812
Ban@@ 812
ılıyor 812
leş@@ 812
plant 811
edildi 811
ederek 811
şart@@ 811
here 810
port 810
assistance 810
ıs@@ 810
Hoop 809
analysts 809
soruştur@@ 809
round 808
def@@ 806
Li@@ 806
leading 805
pressure 805
kişinin 805
minority 804
ming 804
debt 804
cumhurbaşkanı 804
toplantısında 804
tü@@ 804
central 803
ari 803
önde 803
karşılaş@@ 803
belediye 803
sağlayacak 802
half 801
2,@@ 801
VOA 801
sorun@@ 801
students 800
ren 800
ait 800
bekle@@ 800
ziyaret@@ 800
infrastructure 799
dışında 799
bütçe 799
constitutional 798
Ali 798
1st 798
war@@ 797
re 797
üzerindeki 796
real 795
Bu@@ 795
İş@@ 795
mahkeme 795
benzer 795
expect 794
şirketi 794
durumu 793
done 792
form 792
Per@@ 792
ni@@ 791
ülkeye 791
şiddet 791
liğin 790
sed 789
common 789
ref@@ 788
aj 788
Sekreteri 788
genç 788
bugüne 788
proposed 787
proposal 787
involved 786
Development 786
ün@@ 786
önünde 786
konuştu 786
sorunu 786
ila 785
referendum 785
aların 785
means 784
of@@ 784
reporters 783
ments 783
cr@@ 783
Fatmir 783
ing@@ 783
parçası 783
geniş 783
tarih@@ 783
north 782
Rus 782
sonraki 782
oran@@ 781
ıya 781
legislation 780
strategy 779
siz@@ 779
alma 779
cumhurbaşkanlığı 779
anlamına 779
yılından 779
alarının 779
cul@@ 778
kuruluş@@ 778
ve@@ 777
rol@@ 777
çağrısında 777
tanım@@ 777
muş 777
focus 776
committed 776
list 776
St@@ 776
yeterli 776
going 775
Justice 775
kurul@@ 775
once 774
ide 774
bütç@@ 774
tır@@ 774
yedi 774
ilerinin 774
Barış 773
sti@@ 772
sahipliği 772
ş 771
merkezi 771
trafficking 770
alk@@ 770
Berisha 769
voters 769
duğu 769
eylem@@ 769
protection 768
sözlerinde 768
yen 767
ordu 767
suçla@@ 767
gö@@ 767
higher 765
Igor 765
ük@@ 765
konusundaki 765
date 764
customs 764
sekiz 764
dönem 764
school 763
edi@@ 763
uygulan@@ 763
tanı@@ 763
öz@@ 763
kalan 763
discussed 762
Vladimir 761
great 760
Central 760
ra 760
ali 760
gerektiği 760
society 759
fully 759
prices 758
British 758
ore 758
esine 758
madı 758
ilişkiler 758
mesinde 758
Mu@@ 757
Festivali 757
act 756
anlaşmanın 756
ça 756
initiative 755
seçimleri 755
halkın 755
ists 754
bal@@ 754
Do@@ 754
sözü 754
imp@@ 753
sent 753
Kurdish 753
tekrar 753
sayısı 753
böyle 753
vurguladı 753
90 752
using 752
brought 752
çe 752
çab@@ 752
Üniversitesi 752
GDP 751
18@@ 751
let@@ 751
ken@@ 751
önem 751
yılki 751
vo@@ 750
ill 750
weeks 750
Peace 750
ikili 750
yılda 750
Institute 749
Radio 749
laştır@@ 749
started 748
las@@ 748
w 748
işle@@ 748
savc@@ 748
almost 747
terms 747
envoy 747
mil@@ 747
liderleri 747
ez@@ 746
ged 746
ent@@ 746
kesim@@ 746
sağlamak 746
receive 745
rather 745
Army 744
K 744
hakları 744
Sali 743
allow 743
fiyat@@ 743
hızlandır@@ 743
we@@ 742
ised 742
issued 742
Olympic 742
criminal 741
car@@ 741
ani 741
history 741
resolution 741
anayasa 741
tığı 741
Savunma 741
price 740
effort 740
adi@@ 740
sağlan@@ 740
ful 739
2012 739
Defence 739
adet 739
cez@@ 739
Yüksek 739
yetkililerin 739
sal@@ 738
1991 738
şirket 738
olmayan 738
yüzden 738
ülkeyi 738
bakanlığı 738
uyla 738
Goran 737
karşıla@@ 737
medi 736
dizi 736
imiz 736
comes 735
st 735
almak 735
belli 735
kontrol 735
job 734
3,@@ 734
inan@@ 734
istiyor 734
müzakerelerin 734
ator 733
Republic 733
cabinet 733
teknik 733
Mir@@ 732
related 732
İstikrar 732
ple@@ 731
Rumen 731
B 731
su 731
tamamen 731
Vuk 729
RFE 729
tehdit 729
piyas@@ 729
Komisyon 729
ettiler 729
light 728
anovic 728
RL 728
konu 728
giderek 728
organisations 727
Bor@@ 727
boru 727
document 726
ance 726
hopes 726
Kr@@ 726
mem@@ 726
des 726
ıdır 726
Alman 726
failed 725
ko@@ 725
side 724
reformları 724
reach 723
kuruluşu 723
begin 722
ages 722
aj@@ 722
yen@@ 722
day@@ 722
Berişa 722
laş@@ 722
yay@@ 722
ug@@ 721
Di@@ 721
service 721
0@@ 721
statü 721
tek@@ 720
14@@ 720
ceremony 720
Mo@@ 720
maz 720
ısını 720
ry 719
hava 719
cap@@ 718
ger 718
Karamanlis 718
sürekli 718
ner 717
gre@@ 717
ators 717
religious 717
killed 717
temsilc@@ 717
GSYİH 717
cost 716
tas@@ 716
mir 716
ade 715
ili@@ 715
FT 714
ely 713
ban 713
D 713
İçişleri 713
bulunduğu 713
ker 712
nden 712
halkı 712
ended 711
tro@@ 711
SFOR 711
E 710
ula@@ 710
know 710
fi 710
1998 709
işbirliğini 709
yardımcısı 709
ılmış 709
points 708
çalışan 708
üm@@ 708
onay@@ 708
id 707
tab@@ 707
G 707
ülkesi 707
politika 707
ability 706
terrorism 706
illegal 706
High 706
savaş@@ 706
koviç 706
statüsü 706
sec@@ 705
eleştir@@ 705
olmaya 705
pl@@ 704
data 704
South 704
SE 704
Thaci 704
medya 704
birleş@@ 704
koruma 704
terör 704
reportedly 703
investigation 703
Jovanovic 703
French 703
kut@@ 703
umut 703
yapılması 703
esinde 703
tutuklan@@ 703
entry 702
voiced 702
ning 702
0m 701
bri@@ 701
atı 701
umu 701
nihai 701
ol 700
ni 700
don@@ 700
çağrıda 700
ıyı 700
across 699
ıc@@ 699
halkının 699
birinci 699
workers 698
sic 698
neredeyse 698
ılara 698
anlaşmaz@@ 698
yılına 698
faaliyet@@ 698
kadın 697
malarını 697
Avrupalı 697
olo@@ 696
Gül 696
prosecutors 695
ture 695
2.@@ 695
ap 695
ai@@ 695
hizmet 695
destek@@ 695
değer@@ 695
iddi@@ 695
lük 695
merkez 695
ever 694
pol@@ 694
fon@@ 694
usu 694
ön 694
times 692
water 692
öde@@ 692
inf@@ 691
science 691
cal@@ 691
au@@ 690
fin@@ 690
bakış 690
win 689
scheduled 689
bugün 689
Baş@@ 689
lic@@ 688
forward 688
planned 688
ip@@ 688
ılacak 688
aşırı 688
considered 687
responsibility 687
similar 687
included 687
Parlamentosu 687
avroya 687
Kürt 687
Milorad 686
lam@@ 686
dikkat 686
ble 685
biggest 685
Sar@@ 685
kü@@ 685
ft 684
Barroso 684
Ber@@ 684
ede@@ 684
Miloseviç 684
sürdü 684
yoluyla 684
delegation 683
enough 683
let 683
malı 683
müzakere 683
bro@@ 682
ici 682
cı 682
yönetim 682
lamak 682
acaktır 682
includes 681
sek@@ 681
Karadziç 681
kaynak 681
araştır@@ 681
Rad@@ 680
pla@@ 680
tığını 680
present 679
access 679
ğini 679
hard 678
particularly 678
operate 678
ef@@ 678
Traian 678
ces 677
ear@@ 677
might 677
behind 677
sır@@ 677
çev@@ 677
uyar@@ 677
democracy 676
dispute 676
enter 676
hareket 676
sides 675
described 674
baş 674
gelir@@ 674
mektedir 674
cal 673
Ser@@ 673
vatandaş@@ 673
comp@@ 672
communities 672
ws 672
offer 672
ub@@ 672
competition 672
average 671
yasadışı 671
attacks 670
nik 670
gaz 670
başında 670
üye@@ 670
uzlaşma 670
öncesinde 670
iler@@ 670
released 669
halk 669
ız@@ 669
taraf 669
direct 668
min 668
ildi 668
lık@@ 668
görül@@ 668
ging 667
F 667
kriz 667
victims 666
ham@@ 666
memnuniyetle 666
Office 665
Ste@@ 665
electricity 665
kanıt@@ 665
yayın@@ 665
adayı 665
13@@ 664
hay@@ 664
zor@@ 664
ıyoruz 664
maaş@@ 664
senior 663
internet 663
doğal 663
journalists 662
tors 662
Social 662
Paul 662
mak@@ 662
investors 661
Si@@ 661
Ak@@ 661
hemen 661
verildi 661
attended 660
addition 660
yat@@ 660
söylediler 660
address 659
judicial 659
entity 659
maması 659
spor 657
Atlantik 657
asker@@ 657
kaç@@ 657
olsa 657
isinde 657
ven 656
Pap@@ 656
toplumun 656
açık@@ 656
wor@@ 655
bat@@ 655
yon 655
sistemi 655
ebil@@ 655
ılmasını 655
emekli 655
responsible 654
lines 654
ative 654
ven@@ 654
hat@@ 654
Har@@ 654
investments 653
Gal@@ 653
stand 653
meyeceğini 653
sırada 653
art 652
20@@ 652
pipeline 651
ndan 651
azınlık 651
olası 651
ast 650
training 650
Georgi 650
olmadığı 650
ğine 650
create 649
Pan@@ 649
kas@@ 649
capacity 648
ising 648
presented 648
bank@@ 648
etti@@ 648
büyüme 648
ihtilaf@@ 648
Tar@@ 647
Ahmet 647
deputy 647
instead 647
siyaset@@ 647
lanan 647
certain 646
,@@ 646
ölçüde 646
mesiyle 646
ışı 646
hiç 646
site 645
went 645
ars 645
düzenlediği 645
talep 645
uş@@ 645
provided 644
ust@@ 644
risk 644
azalt@@ 644
army 643
tor 643
Atlantic 643
followed 643
loan 643
etkil@@ 643
madığını 643
ük 643
Doğu 643
kovic 642
island 642
officers 642
değiştir@@ 642
bunlar 642
Kalkınma 642
concern 641
Branko 641
politics 641
hand 641
Co@@ 641
sağ@@ 641
giden 641
dağıt@@ 641
keep 640
ze 640
your 640
5th 640
tor@@ 640
HDZ 640
söz@@ 640
Üyesi 640
gümrük 640
liyor 640
ilmesi 640
Jovanoviç 639
Antonio 638
Kur@@ 638
Gu@@ 638
üz@@ 638
previous 637
sürecinin 637
agreements 636
sports 636
sahip@@ 636
genişle@@ 636
beklen@@ 636
never 635
became 635
Moldova 635
Gul 635
dini 635
arası 635
tanın@@ 634
kesin 634
üm 634
blo@@ 633
Roman 633
ör@@ 633
üyle 633
soruşturma 633
oranı 633
Bush 632
uz 632
öl@@ 632
example 631
evic 631
At@@ 631
ber 631
400 631
Tariceanu 631
okul@@ 631
ıyordu 631
call 630
governments 630
Ro@@ 630
Haber 630
anlaşmaya 630
seçimler 630
Linda 629
nine 629
rest@@ 629
Ne@@ 629
kil@@ 629
nuclear 629
binlerce 629
yorum@@ 629
paylaş@@ 629
ou 628
presidential 628
yöneti@@ 628
çünkü 628
olabilir 628
ically 627
interests 627
wing 627
pi@@ 627
Ambassador 627
Mal@@ 627
siyas@@ 627
istikrar 627
güvence 627
alanında 627
ünden 627
miyor 627
madığı 627
regarding 626
complete 626
EBRD 626
maktadır 626
görevi 626
nükleer 626
confidence 625
halk@@ 625
desteği 625
dikleri 625
vision 624
published 624
ro 624
Su@@ 624
adan 624
Enstitüsü 624
ayın 624
yorlar 624
cor@@ 623
liderler 623
uzmanlar 623
natural 622
mini 622
dem@@ 622
makam@@ 622
malarına 622
soldiers 621
calls 621
ently 621
candidates 621
zira 621
getiril@@ 621
teşvik 621
terrorist 620
participants 620
0,000 620
industry 620
hedef 620
öte 620
üyor 620
fair 619
L 619
sektör@@ 619
opportunity 618
Enlargement 618
üs@@ 618
Orta 618
visited 617
Parvanov 617
Le@@ 617
ize 617
baskı 617
away 616
Karadaku 616
Mi@@ 616
Kal@@ 616
sar@@ 616
defa 616
kaybet@@ 616
eli@@ 615
aid 615
outside 615
Mon@@ 615
yet@@ 615
çalışıyor 615
hükümet@@ 615
bask@@ 615
potansiyel 615
short 614
3.@@ 614
credit 614
sions 614
rest 614
mandate 614
iktidar 614
importance 613
try 613
eg@@ 613
deficit 613
uzman@@ 613
Jo@@ 613
isim 613
Avusturya 613
elerini 612
sorunları 612
.5 611
büyükelç@@ 611
Kurulu 611
success 610
go@@ 610
Lajcak 610
Güney 610
pr@@ 609
single 609
tik@@ 609
başkan 609
ediyorlar 609
kendisini 609
trying 608
judiciary 608
sch@@ 608
ics 608
Her@@ 608
impact 607
modern 607
gösteren 607
Milan 606
beginning 606
Top@@ 606
milletvekili 606
zarar 606
olma 606
olup 606
irken 606
gs 605
confirmed 605
150 605
lardaki 605
ons 604
Beta 604
oyn@@ 604
mede 604
çıktı 604
ilerine 604
Müslüman 604
ice 603
ri 603
üy@@ 603
fre@@ 602
events 602
paid 602
Schengen 602
liğe 602
lower 601
summer 601
cu 601
yonu 601
dağ@@ 601
representative 600
required 600
ses@@ 600
exhibition 600
Ex@@ 600
ımız 600
lanması 600
ortadan 600
ke 599
45 599
commander 599
sing 599
Telekom 599
büyü@@ 599
sel@@ 598
thousands 598
Kom@@ 598
ical 598
agree 598
question 598
accused 598
live 598
ayan 598
ıt@@ 598
bölgenin 598
having 597
view 597
turn 597
ih@@ 597
fu@@ 597
sürüyor 597
açıl@@ 597
alarında 597
markets 596
program@@ 596
Sosyal 596
ortak@@ 596
eh@@ 595
engel 595
Sırpların 595
pres@@ 594
od 594
eğ@@ 594
sonuç 594
bakanları 594
olumsuz 594
jobs 593
operations 593
rac@@ 593
dek 593
ins@@ 592
Muslim 591
lost 590
declaration 590
lic 590
ete 590
şirket@@ 590
prison 589
ship 589
12th 589
resi@@ 589
why 589
Türk@@ 589
ticari 589
bölün@@ 589
dışı 589
Ajansı 589
edebil@@ 589
larındaki 589
Mer@@ 588
Georgiev 587
res 587
spokesman 587
ili 587
anal@@ 587
ilerini 587
civarında 587
banks 586
priority 586
conducted 586
acağına 586
Stipe 585
ede 585
müdürü 585
gerek 585
bakanı 585
environment 584
draft 584
,5 584
duğunu 584
Cor@@ 583
kov 583
kad@@ 583
ısının 583
dıkları 583
uyorlar 583
debate 582
criteria 582
car 582
ins 582
eme@@ 582
Javier 582
ism 582
Finance 582
sok@@ 582
geçiş 582
yaşam 582
yapıyor 582
hit 581
pledged 581
düşür@@ 581
ıkları 581
abileceğini 581
uma 580
ayrı 580
koalisyon 580
kıs@@ 580
hızlı 580
planlıyor 580
completed 579
karış@@ 579
additional 578
Austria 578
eler 578
osu 578
görülen 578
dava 578
kaçak 578
agenda 577
artan 577
sürecini 577
taş@@ 577
ilik 577
actions 576
Trans@@ 576
itself 576
civil 576
va 576
highest 576
bizim 576
travel 575
wanted 575
the@@ 575
Novi 575
Ter@@ 575
çiz@@ 575
Maliye 575
ste@@ 574
bi 574
East 574
ton 574
sho@@ 574
rates 574
van 574
orta 574
challenges 573
isti@@ 573
alleged 573
ents 573
continued 573
implement 573
mez@@ 573
unc@@ 573
Ö@@ 573
session 572
successful 572
yakında 572
insanların 572
luğu 572
seçim@@ 572
big 571
Bur@@ 571
fas@@ 571
demokrasi 571
günlerde 571
politik@@ 570
lemek 569
ıma 569
yatırım@@ 569
joining 568
meler 568
landır@@ 568
ısrar 568
ovska 567
overall 567
study 567
nak@@ 567
Yeni 567
tik 567
işlet@@ 567
alarına 567
üyeliğine 567
madalya 567
joined 566
whole 566
interview 566
lo 566
Buckovski 566
Büyükelçisi 566
unemployment 565
sol@@ 565
nation@@ 565
layarak 565
söyleyerek 565
respect 564
6th 564
Pet@@ 564
award 564
tiği 564
sistem@@ 564
yak@@ 563
hazırlan@@ 563
pen@@ 562
abroad 562
works 562
Sam@@ 562
Martti 562
tu 562
ebilir 562
söylüyorlar 562
Se@@ 561
kaldı 561
mediği 561
kültürel 561
İngiliz 561
tourists 560
Val@@ 560
yapmak 560
Macaristan 560
air@@ 559
commitment 559
File 559
not@@ 559
ilk@@ 559
ayrıl@@ 559
teşkil 559
alınan 559
projenin 559
votes 558
implementing 558
Paris 558
gazetecilere 558
katılım@@ 558
takım 558
diplomat 556
fo@@ 556
3rd 556
Tele@@ 556
yebil@@ 556
tarım 556
idea 555
şeyi 555
alar@@ 554
play 554
prevent 554
indictees 554
toplantı 554
Talat 553
görüşme 553
isteyen 553
bor@@ 552
8th 552
sert 552
Liberal 552
yanlısı 552
yapacak 551
yıldan 551
16@@ 550
mark 550
koşul@@ 550
opinion 549
path 549
dokuz 549
çiler 549
alması 549
köy@@ 549
4th 548
ked 548
tepki 548
tamamlan@@ 548
solda 548
görüşmede 548
bildir@@ 548
endiş@@ 548
yık@@ 548
tin@@ 547
elected 547
San@@ 547
jan 547
Kan@@ 547
Ban 547
ılığı 547
verdiler 547
yürürlüğe 547
hukuk 547
partinin 547
concerns 546
charged 546
Mor@@ 546
alised 546
things 546
launch 546
oj@@ 546
signing 546
EP 546
mi@@ 546
alt@@ 546
Demokratik 546
göz 546
neden@@ 546
ılarını 546
yaptıkları 546
management 545
amount 545
ground 545
geçmiş@@ 545
protesto 545
Fran@@ 544
sorunlar 544
7th 543
mine 543
10th 543
15th 543
establish 543
II 543
planı 543
olasılıkla 543
welcomed 542
DP 542
vadeli 542
bazıları 542
engelle@@ 542
Olimpiyat 542
uyardı 542
partiler 542
As@@ 541
municipalities 541
verme 541
kır@@ 541
lenmesi 541
düğünü 541
series 540
cut 540
network 540
food 540
dik@@ 540
eceğine 540
bekliyor 540
abilecek 540
ms 539
compared 539
invest 539
vak@@ 539
müzakereleri 539
üzerinden 539
İran 539
tem@@ 538
mit@@ 538
union 538
Mis@@ 538
ot 538
Fo@@ 538
eler@@ 538
hattı 538
Mesiç 538
mut@@ 537
ff@@ 537
faaliyet 537
aylık 537
sık@@ 537
Interior 536
75 536
Jan@@ 536
estimated 536
mayan 536
yardım@@ 536
liderliğindeki 536
stri@@ 535
Sto@@ 535
Bir@@ 535
kurum@@ 535
Com@@ 534
failure 534
village 534
10@@ 534
ris@@ 534
ıla@@ 534
toplantıda 534
işbirliğinin 534
onayladı 534
ire 533
Ohrid 533
everything 533
om 533
55 533
War 533
dır@@ 533
seçil@@ 533
çatış@@ 533
silah 533
gösterdi 533
planlanan 533
yakın@@ 533
beklenen 533
yaz 533
hel@@ 532
products 532
explained 532
kul@@ 532
rapor 532
often 531
threat 531
sil@@ 531
firm 531
judges 531
uç@@ 531
boz@@ 531
maktan 531
katılan 531
kaz@@ 531
eva 530
2nd 530
tain 530
Bas@@ 530
ish 530
mekten 530
silahlı 530
kork@@ 530
etkili 530
İnsan 530
seeking 529
dır 529
anlaşmayı 529
konuda 529
Cinciç 529
sive 528
share 528
ways 528
12@@ 528
research 528
ering 528
biri@@ 528
uyuşturucu 528
something 527
Hasani 527
ket 527
lat@@ 527
hed 527
iri 527
DS 527
yerli 527
gücü 527
açıldı 527
ağı 527
tılar 527
closed 526
ake 526
Roman@@ 526
Petersen 526
siç 526
sonucunda 526
protest 525
Tra@@ 525
commission 525
gez@@ 525
nite@@ 525
çağr@@ 525
ure 524
set@@ 524
ving 524
Car@@ 524
cen@@ 524
zaman@@ 524
ular@@ 523
iyorlar 523
oper@@ 522
indic@@ 522
ants 522
calling 522
mek@@ 522
stratejik 522
kuvvet@@ 522
table 521
sız@@ 521
bildirildi 521
Hungary 520
sü@@ 520
analistler 520
altın 520
doğalgaz 520
VMRO 519
facing 519
Pav@@ 519
can@@ 519
built 519
basis 519
Jessen 519
mahkeme@@ 519
elçisi 519
yürütülen 519
De@@ 518
doing 518
izi 518
eceğ@@ 518
ılmasına 518
yarg@@ 518
olduklarını 518
little 517
ises 517
Cypriots 517
tel 517
PSD 517
Rugova 517
Fil@@ 517
asker 517
gü@@ 517
haber@@ 517
kurulması 517
komşu 517
kural@@ 517
hizmet@@ 517
ihtiyaç 517
strategic 516
starting 516
field 516
edeceğini 516
yolu 516
tarihli 516
acil 516
başbakan 516
Kültür 516
mahkemesi 516
ika 515
anti@@ 515
polls 515
Bi@@ 515
Ad@@ 514
passed 514
ince 514
amay@@ 514
elerin 514
attack 513
fighting 513
Blic 513
yan 513
Sp@@ 513
Devlet 513
durdur@@ 513
movement 512
documents 512
criticised 512
Djindjic 512
mes@@ 512
Ver@@ 511
flo@@ 511
Ceza 511
stratej@@ 511
bilir 511
lığa 511
ion 510
victory 510
response 510
Den@@ 510
yapt@@ 510
alara 510
Hollanda 510
leave 509
Sh@@ 509
İsrail 509
çaba 509
tarihleri 509
evidence 508
weapons 508
reduce 508
önüne 508
sonuçlar 508
çağır@@ 508
suz 508
araştırma 508
accept 507
gal@@ 507
enler 507
yakal@@ 507
üstlen@@ 507
dü@@ 507
lıklar 507
SDP 506
speaking 506
suspects 506
Papandreou 506
Dan@@ 506
Mesic 506
kararını 506
davet 506
toplant@@ 506
yakalan@@ 506
ongoing 505
Committee 505
participation 505
9th 505
Berlin 505
Miroslav 505
Merkel 505
sak@@ 505
düşünüyor 505
çerçevesinde 505
ılabil@@ 505
continues 504
hours 504
özelleştirme 504
ciç 504
görüşmeler 504
izle@@ 504
test 503
participate 503
Stabilisation 503
katkıda 503
geçici 503
elere 503
dular 503
sonucu 503
Fransız 503
17th 502
gh@@ 502
tur 502
gelecekte 502
iliyor 502
effect 501
house 501
faces 501
schools 501
ast@@ 501
mir@@ 501
eme 501
başlay@@ 501
uygulanması 501
diğine 501
öldürül@@ 501
dist@@ 500
prospects 500
nes@@ 500
rap@@ 500
davran@@ 500
imzal@@ 500
öldür@@ 500
somut 500
asyonu 500
olmakla 500
uses 499
ok 499
technology 499
arrived 499
quality 499
El@@ 498
kom@@ 498
hareket@@ 498
ıy@@ 498
gelir 498
taşıyor 498
polisi 498
alındı 498
ödül@@ 498
tahmin 498
has@@ 497
lawmakers 497
lot 497
rejected 497
entire 497
gn@@ 497
sin@@ 497
yu 497
mev@@ 497
mıştır 497
ısına 497
devlet@@ 497
owned 496
cing 496
exchange 496
requirements 496
tesine 496
seçimlerin 496
Sosyalist 496
redde@@ 496
öğrenc@@ 496
normal 495
mat@@ 495
programı 495
Ci@@ 494
finance 494
kendisine 494
yerini 494
etk@@ 493
technical 493
forum 493
Nik@@ 493
iade 493
asındaki 493
konular@@ 493
anların 493
policies 492
Federation 492
framework 492
ey 492
hav@@ 492
madde@@ 492
yapmaya 492
İlk 492
müz@@ 492
20th 491
era 491
rules 491
ret@@ 491
dan@@ 491
dayan@@ 491
haberlerinde 491
çevre 491
presence 490
achieve 490
Islamic 490
wn 490
21st 490
armed 490
message 490
devletin 490
partisinin 490
becoming 489
Borisov 489
gele@@ 489
meli 489
grubu 489
,000 488
ality 488
indicted 488
worth 488
aims 488
Ordusu 488
övgüde 488
alınması 488
oluş@@ 488
parts 487
stable 487
4.@@ 487
atan@@ 487
DPMNE 487
Carla 487
dar 487
Arşiv 487
çözüm@@ 487
kriz@@ 487
açıkça 487
hayata 487
borç@@ 487
cl@@ 486
ef 486
ori@@ 486
tec@@ 486
grup@@ 486
silah@@ 486
offered 485
DSS 485
ness 485
yani 485
STK 485
throughout 484
consider 484
football 484
Bil@@ 484
mez 484
oranda 484
kın@@ 484
ences 483
created 483
güç 483
veriyor 483
kenti 483
çocuk 483
saf@@ 482
reason 482
Crvenkovski 482
gener@@ 482
rise 482
cs 482
seats 482
Mostar 482
yon@@ 482
işsizlik 482
teklif 482
tedbirler 482
sın@@ 482
17@@ 481
Pop@@ 481
Laura 481
ard 481
escu 481
25@@ 481
Britain 481
şirketin 481
içer@@ 481
hakkı 481
gerçekten 481
Derneği 481
üreti@@ 481
gözden 481
CNN 480
des@@ 480
kan 480
ians 480
dik 480
mıyor 480
raporunda 480
kiş@@ 480
influence 479
language 479
Ho@@ 479
tender 479
sal 479
karşılıklı 479
ığ@@ 479
longer 478
za 478
chance 478
territory 478
Ger@@ 478
recognise 478
Bal@@ 478
sık 478
nitelendirdi 478
duruş@@ 478
lük@@ 478
başkanlık 478
Kesimi 478
yönetimi 478
politi@@ 477
suggested 477
vis@@ 477
banka 477
miştir 477
malıdır 477
kurulan 477
meyen 477
tür@@ 477
gecik@@ 477
görüşmelerde 477
gerçekleştir@@ 477
structures 476
Director 476
Ma@@ 476
yal@@ 476
strengthen 476
EUFOR 476
üst@@ 476
sürdü@@ 476
laması 476
tiğini 476
ased 475
obligations 475
death 475
Department 475
dra@@ 475
rej@@ 475
exports 475
families 475
Rum@@ 475
ark@@ 475
Sch@@ 475
tarihte 475
rekabet 475
layacak 475
nor@@ 474
SEE 474
ches 474
Italian 474
Dav@@ 474
inci 474
olas@@ 474
Grubu 474
Meclis 474
işi 474
ps 473
believes 473
package 473
condition 473
anniversary 473
Sav@@ 473
lak 473
hapis 473
durumun 473
Müdürü 473
verecek 473
diplomasi 473
oluşturuyor 473
EU@@ 472
Affairs 472
wi@@ 472
cy 472
unsur@@ 472
geti@@ 472
Ticaret 472
diplomatik 472
kaydedilen 472
bakanlık 472
goods 471
stop 471
always 471
gun@@ 471
cons@@ 471
arken 471
yanıt 471
çöz@@ 471
örgüt 471
saygı 471
alanda 471
ölüm@@ 471
üş@@ 471
likle 471
popular 470
ira@@ 470
Vo@@ 470
minorities 470
ley@@ 470
performance 470
Games 470
Sal@@ 470
Kat@@ 470
kilit 470
ısında 470
şey@@ 470
met@@ 469
ships 469
Natasa 469
emin 469
iyet 469
vermek 469
memesi 469
yayınladığı 469
finans 469
Sen@@ 468
aim 468
dol@@ 468
survey 468
org@@ 468
Oper@@ 468
film@@ 468
zam@@ 468
olmasını 468
kesinlikle 468
acağız 468
edilmiş 468
müzakerelerinin 468
hastan@@ 468
closer 467
oz@@ 467
growing 467
thus 467
planning 467
Criminal 467
lendir@@ 467
seçimlerde 467
reformu 467
likler 467
course 466
resolved 466
American 466
11th 466
promote 466
1990s 466
remaining 466
Gazprom 466
reformların 466
İz@@ 466
düzen@@ 466
lıyor 466
seyahat 466
Av@@ 465
murder 465
pri@@ 465
iktidardaki 465
gizli 465
tiril@@ 465
konuşmasında 465
tesis@@ 465
crucial 464
ona 464
ledi 464
Ekonomi 464
ılık 464
ağır 464
supported 463
19th 463
themselves 463
ned 463
Stefan 463
uygulamaya 463
vur@@ 463
kabin@@ 463
specific 462
changed 462
divided 462
Jose 462
recognised 462
Paddy 462
tesi 462
businesses 461
Drag@@ 461
olmadan 461
siyaset 461
bağımsızlığını 461
başkanlığını 461
yılındaki 461
düzenlen@@ 461
diklerini 461
ülmesi 461
insanlar 461
çocuk@@ 461
mes 460
65 460
self 460
inflation 460
çı 460
satış@@ 460
ihtiyacı 460
değişiklik 460
İtalyan 460
yönde 460
komutanı 460
ortalama 460
Sim@@ 459
soci@@ 459
0 459
poor 459
Energy 459
elen@@ 459
sim@@ 459
gergin@@ 459
olanak 459
fark@@ 459
acaklar 459
dış@@ 459
declared 458
hing 458
fall 458
funding 458
att@@ 458
otur@@ 458
incele@@ 458
ılı 458
ılarına 458
uygulama 458
lenen 458
ilgilen@@ 458
geleneksel 458
pro 457
198@@ 457
ath@@ 457
resources 457
iv@@ 457
iyileş@@ 457
demand 456
Os@@ 456
mid 456
Bloomberg 456
600 456
increasing 456
tre@@ 456
120 456
yerleş@@ 456
aldığını 456
altyapı 456
sürecinde 456
gold 455
Vuk@@ 455
haf@@ 455
kind 455
Dnevnik 455
isim@@ 455
olay 455
andığını 455
olacaktır 455
Zagrep 455
tutuk@@ 455
almaya 455
active 454
PASOK 454
Mehmet 454
dir@@ 454
devr@@ 454
oyla@@ 454
diğ@@ 454
güçlendir@@ 454
nokt@@ 454
malarının 454
Jaap 453
Rights 453
oc@@ 453
bah@@ 453
kam@@ 453
abileceği 453
yaşan@@ 453
nüfus 453
Socialist 452
Bek@@ 452
borders 452
Sea 452
shows 452
kolay 452
tep@@ 452
liğinin 452
istifa 452
Papandreu 452
Moscow 451
Ceku 451
Milo 451
kir@@ 451
takım@@ 451
böl@@ 451
look 450
ba 450
Seydiu 450
düğü 450
died 449
officially 449
neighbouring 449
tedbir@@ 449
verilecek 449
göreve 449
amid 448
achieved 448
century 448
uv@@ 448
Orthodox 448
dığında 448
sağ 448
geleceği 448
dönem@@ 448
belirtiyor 448
yıl@@ 448
serve 447
equipment 447
via 447
indictment 447
Ti@@ 447
etin 447
müzakereler 447
adımlar 447
inanıyor 447
temsilcileri 447
credi@@ 446
Ivan 446
ortam@@ 446
mayacağını 446
Kosor 445
hand@@ 445
din 445
sign@@ 445
Cup 445
greater 445
Split 445
mobile 445
Tu@@ 445
onları 445
kurma 445
etkinlik 445
dolar 445
ilişkiler@@ 445
endişe 445
eyaletin 445
analyst 444
protect 444
omir 444
genocide 444
başlattı 444
tığ@@ 444
Arnavutlar 444
ziyarette 444
claims 443
citing 443
night 443
seek 443
SE@@ 443
decide 443
N 443
biz 443
korun@@ 443
imzalanan 443
oluyor 443
recognition 442
decisions 442
0.@@ 442
wo@@ 442
sto@@ 442
ovac 442
eti@@ 442
ulan 442
başk@@ 442
ziyareti 442
forced 441
ali@@ 441
involvement 441
Olympics 441
ğe 441
istem@@ 441
ğin 441
Genişlemeden 441
yüksel@@ 441
İslam 441
minin 441
experience 440
immediately 440
Slovenian 440
Mediapool 440
ord@@ 440
makamları 440
eşit 440
ihal@@ 440
kolaylaştır@@ 440
implemented 439
28th 439
stand@@ 439
mp@@ 439
lev@@ 439
kararl@@ 439
diyalog 439
olacağı 439
belirten 439
eyi 439
yasanın 439
söyleyen 439
either 438
800 438
Tri@@ 438
Iran 438
matter 438
Kos@@ 438
tim 438
belirle@@ 438
hatta 438
belirtildi 438
imzalan@@ 438
binden 438
operating 437
concrete 437
Pol@@ 437
4,@@ 437
Hal@@ 437
reformlar 437
yıla 437
sözleri 437
ğinin 437
Sejdiu 436
fiscal 436
allowed 436
ide@@ 436
Ju@@ 436
transport 436
örneğin 436
edilecek 436
likleri 436
leadership 435
effective 435
prepared 435
approval 435
coun@@ 435
figures 435
yıllardır 435
komut@@ 435
görüşme@@ 435
fy 434
raf@@ 434
lığın 434
içindeki 434
reddetti 434
Eski 434
interior 433
existing 433
levels 433
Vla@@ 433
Ante 433
X@@ 433
Federasyonu 433
istikrar@@ 433
uş 433
eur@@ 432
cam@@ 432
Michael 432
Gre@@ 432
Nabucco 432
Kor@@ 432
temsilcisi 432
andığı 432
sisteminin 432
row 431
CHP 431
5.@@ 431
jan@@ 431
Be@@ 431
imzaladı 431
çabalarını 431
elerine 431
Ortodoks 431
cri@@ 430
str@@ 430
13th 430
Po@@ 430
kayb@@ 430
gave 429
Culture 429
labour 429
Tribunal 429
Ciocoiu 429
stra@@ 429
ck@@ 429
ati 429
birisi 429
idari 429
ıda 429
benefit 428
6.@@ 428
chairman 428
aff@@ 428
unit 428
spor@@ 428
saat 428
zamandır 428
Anlaş@@ 428
azın@@ 428
haberlerde 428
toplumsal 428
imzaladılar 428
sektörü 428
fire 427
char@@ 427
üre@@ 427
Ü@@ 427
Amerikan 427
konum@@ 427
özel@@ 427
adalet 427
basında 427
uyarınca 427
İspanya 427
Boşnak 427
Merkez 427
nothing 426
est@@ 426
Gen@@ 426
particular 426
raise 426
Eur@@ 426
lığına 426
ürün@@ 426
istedi 426
inşaat 426
establishment 425
wat@@ 425
organiz@@ 425
dec@@ 425
formed 425
Ac@@ 425
ved 425
Djukanovic 425
mesele@@ 425
görevdeki 425
çalışmaları 425
suçla 425
Marina 424
approach 424
ku 424
lığını 424
tanınmış 424
rakam@@ 424
ği 424
kapsamlı 424
lives 423
14th 423
ann@@ 423
les@@ 423
costs 423
ut 423
hayatını 423
biraz 423
kazanan 423
kız@@ 423
bakan@@ 423
protests 422
promised 422
equ@@ 422
UNESCO 422
alism 422
ously 422
kasab@@ 422
kampanya 422
sayesinde 422
sorunun 422
authority 421
tra 421
submitted 421
board 421
improved 421
Col@@ 421
biz@@ 421
durumunda 421
dığına 421
employees 420
milit@@ 420
Co 420
moun@@ 420
concerning 420
release 420
ory 420
bom@@ 420
vatandaşların 420
hitaben 420
çabaları 420
tutum@@ 420
ilişkilerin 420
futbol 420
talep@@ 420
Eastern 419
registered 419
body 419
bağımsız@@ 419
yenil@@ 419
maç@@ 419
analist 419
â@@ 419
kurumları 419
positions 418
bre@@ 418
stat@@ 418
So@@ 418
kol@@ 418
dolaş@@ 418
partilerin 418
arkadaş@@ 418
val@@ 417
ped 417
ble@@ 417
Pre@@ 417
ime 417
Gi@@ 417
Bog@@ 417
Nastase 417
yalı 417
kaçakç@@ 417
Moskova 417
etmeyi 417
ulması 417
front 416
courts 416
ular 416
marked 416
inv@@ 416
improving 416
ial 416
climate 416
showed 416
Plan@@ 416
iyet@@ 416
oldukları 416
uğ@@ 416
gelece@@ 416
challenge 415
stage 415
tir 415
maz@@ 415
yapma 415
andır@@ 415
dıklarını 415
sürecine 415
named 414
16th 414
opportunities 414
sem@@ 414
32 414
cel@@ 414
account 414
sanat@@ 414
misyon@@ 414
nitelendir@@ 414
bet@@ 413
communist 413
Fund 413
Blerta 413
şart 413
zanl@@ 413
ilgi 413
acy 412
rep@@ 412
ong 412
secure 412
model 412
evo 412
UNDP 412
yıllarda 412
prosedür@@ 412
Birliğe 412
places 411
igh@@ 411
holds 411
elerinin 411
alarak 411
mostly 410
professor 410
Yar@@ 410
terk 410
haberlere 410
dic@@ 409
spec@@ 409
charge 409
takes 409
partner 409
care 409
zi 409
istediğini 409
partileri 409
dık 409
critical 408
turned 408
possibility 408
tional 408
southern 408
financing 408
Human 408
tele@@ 408
ılarının 408
ayır@@ 408
milletvekilleri 408
borç 408
25th 407
30th 407
lies 407
pan@@ 407
protest@@ 407
ow@@ 407
toplan@@ 407
Bri@@ 406
match 406
sites 406
benefits 406
focused 406
ology 406
hol@@ 406
kararın 406
katı 406
belgede 406
Popescu 405
praised 405
compromise 405
committee 405
zone 405
EurActiv 405
enlargement 405
ner@@ 405
müş 405
getirmek 405
bağlant@@ 405
yerek 405
Komitesi 405
Suriye 405
happen 404
super@@ 404
Manuel 404
gi 404
programmes 404
ade@@ 404
viz@@ 404
fikir 404
liğinde 404
Çin 404
dolarlık 404
meetings 403
drug 403
cour@@ 403
che@@ 403
council 403
Pri@@ 403
Babacan 403
kısmı 403
kaydedil@@ 403
develop 402
DUI 402
250 402
believed 402
ita 402
Tan@@ 402
Nikolovski 402
providing 402
rapor@@ 402
sale 401
dam 401
expects 401
23rd 401
visitors 401
1,000 401
bes@@ 401
etkilen@@ 401
başlayan 401
Afganistan 401
müzakerelerini 401
imzalandı 401
örgütü 401
milliyetçi 401
bölgesinde 401
belediy@@ 401
ija 400
ordin@@ 400
Can@@ 400
stay 400
Hol@@ 400
cur@@ 400
Dimitris 400
IC@@ 400
ederken 400
taraflı 400
getiren 400
İs@@ 400
değer 400
ty@@ 399
fal@@ 399
34 399
contract 399
dr@@ 399
evski 399
PfP 399
liğine 399
gazeteci 399
tiler 399
değişiklikler 399
sağda 399
adım@@ 399
uğra@@ 399
biçimde 399
çift@@ 399
indi@@ 398
2013 398
adil 398
sürecin 398
televizyon 398
mücadelede 398
ıldığı 398
saat@@ 398
öngörülüyor 398
mahkemenin 398
22nd 397
record 397
Th@@ 397
etki 397
yapacağı 397
mahkemesiyle 397
tören@@ 397
til@@ 396
wh@@ 396
appointed 396
Rama 396
Der@@ 396
süre@@ 396
ihlal 396
geldiler 396
rejim@@ 396
establishing 395
Mustafa 395
Ab@@ 395
rak@@ 395
phase 395
staff 395
Spain 395
municipality 395
tüm@@ 395
ılarak 395
bunları 395
vardı 395
sağlama 395
lanıyor 395
Nikoliç 395
Adriatic 394
resolve 394
ram@@ 394
Az@@ 394
professional 394
18th 394
col@@ 394
Jos@@ 394
Sad 394
LDK 394
ilerden 394
İgor 394
indir@@ 394
toprak@@ 394
demonstr@@ 393
! 393
Tr@@ 393
shown 393
Bro@@ 393
Pe@@ 393
sini 393
bölgesi 393
bildiride 393
çekil@@ 393
lardı 393
Em@@ 392
Inter@@ 392
Makfax 392
gaz@@ 392
tır 392
lü@@ 392
win@@ 391
Guardian 391
ie 391
partners 391
Independent 391
geldiğini 391
belirtiliyor 391
konferans@@ 391
katılmak 391
gitti 391
bilg@@ 391
Gj@@ 390
upcoming 390
hundreds 390
6,@@ 390
rating 390
Sor@@ 390
erkek 390
projesi 390
lerindeki 390
gider@@ 390
dük@@ 390
belirlen@@ 390
Afghanistan 389
36 389
heads 389
Police 389
Elec@@ 389
io 389
headed 389
reli@@ 389
kav@@ 389
oğlu 389
Adriyatik 389
malara 389
geril@@ 389
ver 388
makes 388
ben 388
negative 388
ekler 388
kalkınma 388
sayısının 388
yanında 388
herkes 388
bölgeler@@ 388
cic 387
available 387
lif@@ 387
extre@@ 387
Pr@@ 387
his@@ 387
anlat@@ 387
gerçekleşecek 387
artış@@ 387
any@@ 386
ges 386
cre@@ 386
gor@@ 386
els 386
liber@@ 386
avoid 386
ult 386
kin 386
aile 386
birbir@@ 386
Kuzey 386
kontrol@@ 386
Ivica 385
negotiating 385
discussions 385
tics 385
ays 385
Kofi 385
Euobserver 385
birinin 385
bize 385
onaylan@@ 385
hisse@@ 385
Middle 384
akis 384
27th 384
ena 384
mainly 384
hi 384
EC@@ 384
evi 384
sundu 384
görüşmek 384
koalisyon@@ 384
içişleri 384
Çek 384
ödül 384
sözleş@@ 384
Fer@@ 383
Assembly 383
continuing 383
movie 383
Nov@@ 383
ovo 383
poll 383
traditional 383
geli@@ 383
Zrvenkovski 383
hukukun 383
Hakları 383
fla@@ 382
allegedly 382
ei 382
lan 382
Bes@@ 382
ack@@ 382
host 382
thing 382
Mit@@ 382
iyordu 382
verdiğini 382
olabil@@ 382
memiş 382
yürüt@@ 382
krizin 382
sergi 382
yasak@@ 382
toplantısı 382
rev@@ 381
huge 381
Bel@@ 381
Robert 381
kamuoyu 381
bildirdi 381
görüyor 381
üyelerinin 381
ateş@@ 381
şartları 381
Gaz@@ 380
sought 380
gan 380
moving 380
Czech 380
cities 380
iden 380
Hav@@ 380
sine 380
yurt@@ 380
röportajda 380
heyeti 380
teşkilat@@ 380
grubun 380
affairs 379
strengthening 379
person@@ 379
loc@@ 379
bol 379
görünüyor 379
ür 379
hedefi 379
çoğunluğu 379
gazetesinin 379
ron@@ 378
dri@@ 378
Economy 378
spending 378
NA 378
miktar@@ 378
uzak 378
puan 378
girişim 378
tel@@ 377
Aleksandar 377
enti@@ 377
cha@@ 377
institution 377
sure 377
ga@@ 377
verilmesi 377
komş@@ 377
ülkelere 377
ülkelerine 377
memur@@ 377
katliam@@ 377
Sy@@ 376
Vienna 376
1996 376
mac@@ 376
becer@@ 376
üretim 376
komünist 376
uygulanan 376
kalma 376
karşılan@@ 376
tried 375
ton@@ 375
send 375
Ivan@@ 375
looking 375
ished 375
ket@@ 375
Enerji 375
amacı 375
Örgütü 375
ıydı 375
nüfusun 375
tarih 375
leştir@@ 375
başa 375
ological 374
saw 374
finally 374
He@@ 374
moment 374
Eurovision 374
erini 374
dayalı 374
kaçın@@ 374
kararlı 374
belirt@@ 374
gro@@ 373
stance 373
tures 373
mean 373
voting 373
facilities 373
ital 373
1993 373
oned 373
onlara 373
fırsat@@ 373
durumdaki 373
olursa 373
sonu 373
amak 373
ecektir 373
bağış@@ 373
çalışmalar@@ 373
Meclisi 373
referandum@@ 373
Ram@@ 372
born 372
dge 372
isation 372
served 372
bomb@@ 372
Greeks 372
priorities 372
employment 372
Davor 372
edin@@ 372
dur 372
gündem@@ 372
ifadesi 372
ecekler 372
tanıt@@ 372
Bir 372
Viyana 372
kişilerin 372
lıkları 372
mesaj@@ 372
kurtarma 372
personal 371
ns 371
ata 371
everyone 371
music 371
economies 371
contr@@ 371
bab@@ 371
eni 371
risk@@ 371
toprak 371
birçok 371
Ohri 371
getiriyor 371
zamanı 371
gazetesine 371
bununla 371
affected 370
urging 370
26th 370
las 370
band 370
Zaman 370
lim 370
dür@@ 370
olasılığı 370
yazar 370
ünlü 370
gerekti@@ 370
meyecek 370
log@@ 369
Israel 369
Plus 369
transfer 369
procedures 369
kr@@ 369
0,@@ 369
uyarıda 369
asından 369
inş@@ 369
Milososki 368
poverty 368
historic 368
cited 368
econom@@ 368
Austrian 368
tü 368
iyoruz 368
sonuçları 368
Gor@@ 367
Daniel 367
letter 367
caused 367
5,@@ 367
request 367
Sergey 367
karmaşık 367
karşı@@ 367
sah@@ 367
etkin@@ 367
açıklama 367
person 366
played 366
Clinton 366
adaki 366
liy@@ 366
dışındaki 366
güvenli 366
bölünmüş 366
esiyle 366
ga 365
Un@@ 365
acts 365
supply 365
agencies 365
Putin 365
exten@@ 365
gri@@ 365
dy 365
Nikolic 365
Jeremiç 365
geçiril@@ 365
istikrarı 365
diğinde 365
alık 365
conflicts 364
goals 364
pic@@ 364
reasons 364
Economic 364
fol@@ 364
Luk@@ 364
stan@@ 364
ju@@ 364
verg@@ 364
hiss@@ 364
süredir 364
işe 364
haberine 364
tecek 364
hin@@ 363
contribute 363
cross 363
developments 363
persons 363
ney 363
assessment 363
loans 363
kanal@@ 363
etkile@@ 363
düşünüyorum 363
alanı 363
etmekle 363
yakınlarındaki 363
önceden 363
Temsilci 363
Haşim 363
rela@@ 362
ced 362
43 362
Dusan 362
residents 362
em 362
bilin@@ 362
program 362
census 362
endi@@ 362
imizi 362
fikir@@ 362
düzey@@ 362
düzeyde 362
potansiy@@ 362
denet@@ 362
ıl 362
takımı 362
görevden 362
mekaniz@@ 362
başlayacak 362
yok@@ 361
internal 361
Alexander 361
Museum 361
interested 361
claimed 361
ene 361
pazar 361
memnun 361
liste@@ 361
teknoloj@@ 361
bağl@@ 361
main@@ 360
33 360
Sarkozy 360
SDSM 360
normal@@ 360
helping 360
ask@@ 360
yük@@ 360
şehir 360
ilerle 360
liberalisation 359
settlement 359
attend 359
Öz@@ 359
Durres 359
yo@@ 359
öğretim 359
bloğun 359
gelen@@ 359
concluded 358
ition 358
lav@@ 358
NGOs 358
ale 358
reg@@ 358
serv@@ 358
currency 358
Yıl@@ 358
speci@@ 358
Makedon@@ 358
Gün@@ 358
demokras@@ 358
ulus@@ 358
anayas@@ 358
duyduğu 358
Polonya 358
ikna 358
altyap@@ 358
head@@ 357
basic 357
ai 357
cover 357
CE@@ 357
zar@@ 357
yayın 357
firması 357
tutukla@@ 357
geçerli 357
lüğü 357
transition 356
ens 356
suspected 356
our@@ 356
attempt 356
tourist 356
Inzko 356
Hashim 356
hak 356
arz@@ 356
belge 356
olsun 356
adına 356
Savaş 356
raised 355
placed 355
kab@@ 355
tav@@ 355
bula@@ 355
derecede 355
öğren@@ 355
yönetmen 355
politikası 355
sürece 355
700 354
bringing 354
edition 354
separ@@ 354
Slav@@ 354
imler 354
uzman 354
okul 354
oloji 354
dünyası 354
uluyor 354
elinde 354
teş@@ 354
affect 353
ners 353
spent 353
Nebojsa 353
V 353
Echo 353
dim 353
deniz 353
araç@@ 353
arın 353
yargılan@@ 353
gerekse 353
birlik 353
principles 352
traffic 352
ched 352
safe 352
tal 352
ley 352
attention 352
quickly 352
bar 352
ji 352
House 352
pay@@ 352
cular 352
söylen@@ 352
ılacağını 352
eser@@ 352
metre@@ 352
sürec@@ 352
individuals 351
offers 351
hosted 351
37 351
bek@@ 351
cated 351
Bak@@ 351
yo 351
boy@@ 351
muştu 351
verici 351
ıyorum 351
görüş 351
lıkla 351
teklif@@ 351
korum@@ 351
atory 350
inten@@ 350
Trade 350
ther@@ 350
criminals 350
HINA 350
USAID 350
inde@@ 350
kaçır@@ 350
katk@@ 350
itibaren 350
süreç 350
döneminde 350
altını 350
threats 349
book 349
jevic 349
iu 349
int 349
Croats 349
gin@@ 349
Yas@@ 349
istif@@ 349
serbest@@ 349
terör@@ 349
toplu 349
Kupası 349
tahmin@@ 349
kaçakçılığı 349
yapmayı 349
meclis@@ 349
Speaker 348
follow 348
decades 348
statements 348
noting 348
standing 348
wide 348
tains 348
territorial 348
Var@@ 348
iled 348
ain 348
ör 348
sey@@ 348
kurumsal 348
tör 348
daire@@ 348
seçimlerinde 348
çoğunluk 348
00m 347
track 347
carried 347
export 347
Democracy 347
personnel 347
30@@ 347
ran 347
environmental 347
nez@@ 347
lem 347
onların 347
melerini 347
performans@@ 347
teknoloji 347
invitation 346
voted 346
pre 346
Res@@ 346
ödeme@@ 346
kalkın@@ 346
zorlu 346
vermeye 346
yaygın 346
askıya 346
dıktan 346
gain 345
backed 345
criticism 345
vic@@ 345
entr@@ 345
Christian 345
Valentin 345
stake 345
Vi@@ 345
Cer@@ 345
Noel 345
güvenliği 345
esindeki 345
konuyla 345
bildiriliyor 345
amaç@@ 345
görüşündeler 345
geliştir@@ 345
Demokrasi 345
range 344
asi@@ 344
29th 344
Muslims 344
48 344
AR@@ 344
uzat@@ 344
ucu 344
hayal 344
altındaki 344
yorum 344
nı 344
koş@@ 344
sürecek 344
ımını 344
sigara 344
television 343
amendments 343
Rice 343
Ven@@ 343
theatre 343
Anadolu 343
mas 343
Med@@ 343
Halk 343
yoğun 343
öğrenci 343
Bakanlar 343
represent 342
off@@ 342
ities 342
Democrats 342
pass 342
rek@@ 342
kapasi@@ 342
çekti 342
hükümete 342
usunda 342
kayde@@ 342
alarda 342
gerçek@@ 342
individual 341
adoption 341
ious 341
ust 341
located 341
Black 341
China 341
Has@@ 341
incident 341
survi@@ 341
5m 341
bol@@ 341
korunması 341
girişimi 341
esinden 341
taşı@@ 341
başlaması 341
şark@@ 341
görevli 341
taxes 340
Jeremic 340
missions 340
ered 340
sman 340
bit@@ 340
Tanjug 340
questions 340
Topi 340
Lu@@ 340
figure 340
tar 340
Min@@ 340
Yorgo 340
asla 340
dikten 340
sağlayan 340
taşıyan 340
reddet@@ 340
hazırlanan 340
terörle 340
uları 340
ılık@@ 340
olmay@@ 340
artırmak 340
tedbirleri 340
provides 339
fac@@ 339
refugees 339
Bakan 339
Özel 339
dolu 339
speech 338
pu@@ 338
pun@@ 338
Free 338
tot@@ 338
tac@@ 338
ase 338
mul@@ 338
eb@@ 338
kat 338
İttifak 338
düğ@@ 338
resmen 338
sonlarında 338
bilgisayar 338
telefon 338
iri@@ 337
Deutsche 337
24th 337
ward 337
Petar 337
turnout 337
tells 337
hy@@ 337
ülkelerde 337
muhalefetteki 337
harcam@@ 337
diğer@@ 337
güçlük@@ 337
tesinin 337
mayacak 337
yansıt@@ 337
temsilciler 337
journalist 336
hur@@ 336
London 336
ges@@ 336
metre 336
Press 336
.com 336
partnership 336
tensions 336
yüzlerce 336
cla@@ 335
speed 335
aging 335
46 335
down@@ 335
Croat 335
süreç@@ 335
filmi 335
şi 335
rolü 335
sorumlusu 335
aldılar 335
tık@@ 335
yetkililerle 335
istikrarlı 335
ping 334
John 334
monitoring 334
iting 334
block 334
Te@@ 334
alisation 334
Microsoft 334
aki 334
lov@@ 334
suz@@ 334
mamış 334
Arnavut@@ 334
çök@@ 334
receğini 334
düzenlendi 334
zaten 334
açılan 334
öden@@ 334
emergency 333
reac@@ 333
break 333
cu@@ 333
acqu@@ 333
noktası 333
ıldığını 333
tehlikeye 333
ceza 333
önlemek 333
adam@@ 333
pas@@ 332
task 332
youth 332
ly@@ 332
fourth 332
Kad@@ 332
Calin 332
7.@@ 332
ikisi 332
malarda 332
değil@@ 332
eceklerini 332
kuş@@ 332
tartışma 332
Muhamet 331
neighbours 331
bill 331
red@@ 331
tran@@ 331
separate 331
phone 331
olan@@ 331
isten@@ 331
turist 331
uya 331
ulaştı 331
parç@@ 331
temiz@@ 331
Belediye 331
üyorlar 331
Birliğin 331
görmek 331
secretary 330
factory 330
feel 330
51 330
dj@@ 330
sectors 330
initial 330
44 330
Bosniak 330
imports 330
mar 330
Prlenda 330
anan 330
dukları 330
başarı 330
güven 330
uzlaş@@ 330
mahkemeye 330
gers 329
alists 329
Sol@@ 329
far@@ 329
cep@@ 329
fabri@@ 329
acı 329
önem@@ 329
vermesi 329
sorunların 329
düzenledi 329
gerçekleştirilen 329
supporters 328
nor 328
determined 328
viola@@ 328
target 328
cas@@ 328
Bra@@ 328
cher 328
cin@@ 328
Maj@@ 328
developed 328
visits 328
OHR 328
outcome 328
Ay@@ 328
PDK 328
idi 328
cep 328
duğ@@ 328
çevre@@ 328
mücadele@@ 328
gelecekteki 328
sergil@@ 328
komün@@ 328
bölüm@@ 328
tespit 328
kutla@@ 328
houses 327
uni@@ 327
La@@ 327
ame@@ 327
numerous 327
medical 327
haz@@ 327
motion 327
Obama 327
anl@@ 327
melidir 327
sonrası 327
artırma 327
ülen 327
worst 326
views 326
accepted 326
chi@@ 326
hands 326
buildings 326
peaceful 326
chec@@ 326
participated 326
structure 326
treatment 326
na@@ 326
ette 326
şunları 326
ilerinden 326
yetkilisi 326
derhal 326
kaydet@@ 326
seviyede 326
santral@@ 326
firms 325
values 325
indicated 325
opoulos 325
revenues 325
Netherlands 325
prosecution 325
41 325
produc@@ 325
lili@@ 325
çözül@@ 325
geçti 325
liğinden 325
oyu 325
amaya 325
niyet@@ 325
Başkan 325
Böl@@ 325
harekete 325
döne@@ 325
şimdiye 325
concerned 324
aret@@ 324
stands 324
aring 324
eline 324
connection 324
massacre 324
Partnership 324
000 324
siyasiler 324
kimse 324
atılmış 324
genç@@ 324
referandum 324
yatırımc@@ 324
uldu 324
tüketic@@ 324
got 323
space 323
participating 323
MPs 323
47 323
Pas@@ 323
ayla 323
özgürlüğü 323
karş@@ 323
yapması 323
birliği 323
lığının 323
işbirliğine 323
tation 322
hood 322
ily 322
Lo@@ 322
creating 322
ack 322
conclu@@ 322
ada@@ 322
Dubrovnik 322
seçimlere 322
yavaş 322
gazetesi 322
açtığı 322
raporu 322
gıda 322
ching 321
ulated 321
eventually 321
Jean 321
waiting 321
Research 321
Mak@@ 321
land@@ 321
Strate@@ 321
9.@@ 321
SP 321
42 321
Vlado 321
homes 321
hız@@ 321
ülkelerden 321
bulundular 321
umut@@ 321
ğinde 321
sağlanması 321
kıy@@ 321
düşüş 321
Geçen 321
sold 320
peacekeeping 320
marks 320
MIA 320
drew 320
oun@@ 320
gathered 320
roads 320
fans 320
sell 320
limited 320
sav@@ 320
Mun@@ 320
ımına 320
anlaşmasının 320
essential 319
prior 319
bla@@ 319
entities 319
kara 319
yum@@ 319
çalışmaya 319
kişisel 319
doğruladı 319
rakam 319
dönüştür@@ 319
yecek 319
confir@@ 318
bility 318
docum@@ 318
supports 318
Moisiu 318
pop@@ 318
gin 318
Tribune 318
systems 318
ülk@@ 318
Anayasa 318
üc@@ 318
genel@@ 318
Radiç 318
polisin 318
bekleyen 318
yanlış 318
yönetic@@ 318
istiyoruz 318
1997 317
negoti@@ 317
bs 317
Ce@@ 317
exhibi@@ 317
ately 317
artists 317
warning 317
hem@@ 317
Nano 317
Mc@@ 317
idir 317
landığı 317
tercih 317
güc@@ 317
sektöründe 317
ction 316
leg@@ 316
allowing 316
ask 316
ANA 316
Mem@@ 316
ska 316
Facebook 316
ister 316
IT 316
fear 316
önce@@ 316
kendisi 316
elerde 316
urken 316
tehdit@@ 316
yasayı 316
yanıt@@ 316
alone 315
expert 315
appe@@ 315
Ku@@ 315
income 315
pain@@ 315
multi@@ 315
Pal@@ 315
civilians 315
Akdeniz 315
Gö@@ 315
anlam@@ 315
kıyasla 315
çı@@ 315
İçin 315
yardımı 315
maliyet@@ 315
safety 314
giving 314
fle@@ 314
films 314
agriculture 314
rup@@ 314
app@@ 314
are@@ 314
val 314
8.@@ 314
ected 314
Vukovar 314
Am@@ 314
örnek 314
görevini 314
Mahke@@ 314
şüphel@@ 314
götür@@ 314
görüşmelerin 314
tatil 314
harc@@ 314
Zeljko 313
5,000 313
tour 313
AT@@ 313
simply 313
woman 313
Mirko 313
industrial 313
players 313
above 313
gradu@@ 313
regula@@ 313
entertainment 313
tle 313
Nor@@ 313
özgür 313
ihracat 313
heyet@@ 313
mahke@@ 313
ilerlet@@ 313
müzakerelere 313
consensus 312
38 312
units 312
damage 312
questi@@ 312
incidents 312
G17 312
Haris 312
buy 312
stations 312
OM 312
dos@@ 312
tti 312
medy@@ 312
kurulu 312
uğr@@ 312
düzenlenecek 312
öv@@ 312
açan 312
öncesi 312
koruy@@ 312
milyon@@ 312
mit 311
favour 311
ach 311
therefore 311
Mediterranean 311
ual 311
Filip 311
Str@@ 311
En 311
Yap@@ 311
çevir@@ 311
entegrasyon@@ 311
açıklamasında 311
olanağı 311
kendilerini 311
İsviçre 311
koalisyonu 311
aktif 311
ımız@@ 311
profesyonel 311
supporting 310
Integration 310
Radic 310
mate 310
ba@@ 310
managed 310
ball 310
ese 310
dic 310
really 310
Is@@ 310
H 310
travel@@ 310
merkezinde 310
katılma 310
geldiği 310
kişilik 310
lerdeki 310
sıkı 310
dikkate 310
kurban@@ 310
decade 309
Bos@@ 309
appeared 309
visiting 309
newly 309
UN@@ 309
facility 309
Ves@@ 309
jik 309
hayat@@ 309
alarından 309
alanlarda 309
üç@@ 309
Karadağlı 309
müzakerelerine 309
iyeti 309
tasarruf 309
dest@@ 308
executive 308
Stojanovska 308
W. 308
zan@@ 308
ib@@ 308
Mic@@ 308
door 308
For@@ 308
Roundup 308
command 308
kamp@@ 308
amadı 308
işç@@ 308
kleri 308
ifade@@ 308
sağlam 308
süresi 308
solve 307
institutional 307
ending 307
Cur@@ 307
Dutch 307
salaries 307
Ru@@ 307
lah 307
getirilmesi 307
zorun@@ 307
lecek 307
egemen@@ 307
asıyla 307
genişleme 307
tesinde 307
ımızı 307
readiness 306
wit@@ 306
West 306
Special 306
Dra@@ 306
refer@@ 306
Dem@@ 306
ela 306
sand@@ 306
hon@@ 306
Ki 306
krizi 306
ihtiyaç@@ 306
ğ 306
maintain 305
veto 305
intelligence 305
Herald 305
creation 305
organ@@ 305
sunuz 305
tartışmalı 305
müzik 305
Hafta 305
ution 304
Christmas 304
Mayor 304
race 304
deadline 304
talk 304
hep@@ 304
oruz 304
suçlu 304
cumhurbaşkan@@ 304
mesele 304
seçen@@ 304
devam@@ 304
müdahal@@ 304
melerin 304
İvo 304
kayg@@ 304
yılının 304
eylem 304
anu 303
ight 303
Xinhua 303
demands 303
Mur@@ 303
video 303
eng@@ 303
fugitive 303
işbir@@ 303
acağ@@ 303
edip 303
ihracat@@ 303
Londra 303
Amerika 303
tiğ@@ 303
birim@@ 303
halka 303
sunduğu 303
sc@@ 302
cer@@ 302
Peter 302
application 302
Turks 302
kent 302
kalk@@ 302
popüler 302
standartlarına 302
suçlanan 302
enflasyon 302
maaş 302
assets 301
ined 301
holding 301
headquarters 301
hes 301
resolving 301
carry 301
posed 301
Poland 301
getting 301
approximately 301
decentralisation 301
On@@ 301
size 301
HIV 301
iniz 301
sağladı 301
istlerin 301
çaplı 301
yılları 301
Sloven 301
iliği 301
lerken 301
şans@@ 301
trust 300
Ivanov 300
back@@ 300
newspaper 300
Agim 300
PA 300
encourage 300
gan@@ 300
Q@@ 300
katılıyor 300
istek@@ 300
karşıtı 300
ığına 300
fırsat 300
bölgeye 300
etkiley@@ 300
acaklarını 300
karşıladı 300
short@@ 299
overcome 299
commercial 299
bridge 299
produce 299
lendi 299
meyeceği 299
leyen 299
ecekleri 299
Ukrayna 299
anket@@ 299
consequences 298
discovered 298
ets 298
mur@@ 298
largely 298
gies 298
Bul@@ 298
Tur@@ 298
sizlik 298
ankete 298
şek@@ 298
dey@@ 298
başkanlığı 298
üyeliğinin 298
Dünyasında 298
etmiş 298
eyal@@ 298
İyi 298
contribution 297
controversial 297
republic 297
fru@@ 297
relationship 297
dges 297
assassination 297
wait 297
Day 297
final@@ 297
Financial 297
diz@@ 297
işleri 297
kapasite@@ 297
ayındaki 297
larca 297
vatandaşları 297
Karadeniz 297
ılmasının 297
lamaya 297
mış@@ 297
Kürt@@ 297
haberlerine 297
beyond 296
vil@@ 296
62 296
administrative 296
Geoana 296
NGO 296
Ljub@@ 296
ain@@ 296
Je@@ 296
treaty 296
viewed 296
baz@@ 296
eği 296
kişiler 296
vazgeç@@ 296
matik 296
melerine 296
kalacak 296
belirgin 296
tarafı 296
karşılığında 296
bölümü 296
ıyor@@ 296
yararlan@@ 296
dead@@ 295
division 295
elimin@@ 295
discussion 295
ports 295
efficient 295
quarter 295
kg 295
running 295
addressing 295
cop@@ 295
Kostas 295
ends 295
image 295
moon 295
bad 295
AN@@ 295
aat 295
sağlıyor 295
eksik@@ 295
televizyon@@ 295
gazetec@@ 295
öngören 295
sözde 295
seçmenlerin 295
Ros@@ 294
Du@@ 294
electoral 294
annually 294
Macedonians 294
UPI 294
bon@@ 294
Schilling 294
verim@@ 294
savunuyor 294
milli 294
kültür@@ 294
complex 293
Chief 293
commitments 293
completely 293
Vis@@ 293
Law 293
score 293
wish 293
reaching 293
Bozidar 293
FBiH 293
7,@@ 293
başkan@@ 293
kaydettiği 293
sözlerini 293
layıcı 293
odaklan@@ 293
usunun 293
girdi 293
kovski 292
tat@@ 292
strike 292
cy@@ 292
clas@@ 292
Bojana 292
returned 292
Technology 292
ula 292
AKI 292
kilometre 292
lilik 292
ekonominin 292
ladığını 292
üçte 292
fazlası 292
Müz@@ 292
başsavcısı 292
katılımc@@ 292
İşbirliği 292
diç 292
standart@@ 292
gets 291
gru@@ 291
je@@ 291
Barbutov 291
plants 291
mor@@ 291
kavuş@@ 291
şüph@@ 291
yapıldı 291
umu@@ 291
seçmen 291
mültec@@ 291
alanlarında 291
ute 290
tionally 290
aware 290
sovereignty 290
reiterated 290
himself 290
85 290
permanent 290
source 290
cle@@ 290
Ol@@ 290
Ili@@ 290
delay 290
inter 290
organ 290
Hay@@ 290
idar@@ 290
bulmak 290
şeyin 290
milletvekil@@ 290
uzak@@ 290
Olimpiyat@@ 290
festival@@ 290
ileriyle 290
nüfus@@ 290
hastal@@ 290
olduğundan 290
appointment 289
advis@@ 289
break@@ 289
books 289
Pat@@ 289
anything 289
autonomy 289
vet@@ 289
highly 289
Liber@@ 289
sak 289
tiri@@ 289
yasaları 289
izde 289
sinin 289
ücret@@ 289
ılan@@ 289
tarihinde 289
kurumlarının 289
aktar@@ 289
sırasıyla 289
imizin 289
şeklindeki 289
mesaj 289
şartlar 289
çözüme 289
eğlence 289
weekend 288
temporary 288
cat@@ 288
Patri@@ 288
defin@@ 288
Theatre 288
clearly 288
ola 288
vir@@ 288
dropped 288
Richard 288
SA@@ 288
boş@@ 288
nedeni 288
almayı 288
korumak 288
kaynağı 288
sorumluluk 288
toplumu 288
bazda 288
büyük@@ 288
şidde@@ 288
Embassy 287
observers 287
details 287
FI@@ 287
introduced 287
ros@@ 287
Jov@@ 287
banking 287
Marko 287
Bay@@ 287
eurozone 287
U 287
ilan@@ 287
nün 287
kentin 287
beklediğini 287
birini 287
station 286
arrests 286
ancient 286
winning 286
ora 286
Foniqi 286
Labus 286
ories 286
197@@ 286
Syria 286
1.5 286
macı 286
acak@@ 286
paket@@ 286
undaki 286
hesap@@ 286
çabalarına 286
yönetim@@ 286
kriter@@ 286
göre@@ 286
insanları 286
claim 285
vice 285
hun@@ 285
ots 285
cli@@ 285
respectively 285
'm 285
ery 285
00,000 285
collec@@ 285
ino 285
semin@@ 285
Brammertz 285
W 285
tif@@ 285
ınday@@ 285
etmesini 285
misyonu 285
önerilen 285
etkinlikte 285
tarafın 285
ödülü 285
çerçev@@ 285
entegrasyon 285
tutar@@ 285
web 284
leaving 284
wrote 284
ES@@ 284
han 284
prec@@ 284
allegations 284
reconstruction 284
Belene 284
Del@@ 284
alt 284
nationalist 284
63 284
primary 284
Kosov@@ 284
amp@@ 284
Go@@ 284
kurumlar 284
umuz 284
değişiklik@@ 284
ekip@@ 284
ışık 284
gördüğü 284
larken 284
temaslarda 284
Nehri 284
prominent 283
harmon@@ 283
acted 283
enjoy@@ 283
Romanians 283
53 283
vised 283
cks 283
push 283
Ba@@ 283
airport 283
feder@@ 283
dev 283
içeren 283
düzel@@ 283
önünü 283
açıklan@@ 283
kazandır@@ 283
çalışan@@ 283
paper 282
Movement 282
finding 282
faced 282
reconciliation 282
offices 282
get@@ 282
Chamber 282
med@@ 282
Bla@@ 282
representing 282
increasingly 282
developing 282
67 282
operational 282
mass 282
Adrian 282
Medi@@ 282
yor@@ 282
etkin 282
recek 282
görüşmesi 282
idare 282
rahat@@ 282
yeşil 282
acakları 282
Macar 282
ceviç 282
şampiyon@@ 282
gönderil@@ 282
artırılması 282
kesinti@@ 282
ifades@@ 282
worked 281
ate@@ 281
require 281
shi@@ 281
prov@@ 281
player 281
Kol@@ 281
rant 281
Lju@@ 281
federal 281
Boyko 281
diplomats 281
Airlines 281
erte@@ 281
katkı 281
asıl 281
muhalef@@ 281
bütün@@ 281
yesi 281
zafer 281
turnuv@@ 281
kuzey@@ 281
nüfusunun 281
kullanılacak 281
kred@@ 281
başbakanı 281
dördüncü 281
programına 281
finished 280
Thessaloniki 280
ects 280
trend 280
moved 280
Sr@@ 280
helped 280
thers 280
requires 280
reality 280
regular 280
Stan@@ 280
bay@@ 280
harek@@ 280
tamamlanması 280
ortasında 280
ortaklık 280
antik 280
dönemi 280
bizi 280
duyulan 280
olojik 280
liç 280
eastern 279
resignation 279
procedure 279
ably 279
Nimetz 279
raising 279
addressed 279
iti 279
story 279
practice 279
eding 279
KLA 279
nomin@@ 279
sical 279
Dimitrova 279
ılabilir 279
klerini 279
Afrika 279
rapora 279
mülteci 279
başı 279
geç 279
örgütün 279
sandalye 279
activity 278
zic 278
kers 278
stal@@ 278
2,000 278
streets 278
oran 278
Ben@@ 278
directly 278
Church 278
numbers 278
widely 278
medal 278
gar 278
Wil@@ 278
genelinde 278
uyoruz 278
ortada 278
suçladı 278
istler 278
Selanik 278
çapında 278
müdahale 278
Çalış@@ 278
zayıf 278
olabileceğini 278
meş@@ 278
functioning 277
restrictions 277
ect 277
Cen@@ 277
9,@@ 277
elik 277
ziy@@ 277
eleş@@ 277
bulunduğunu 277
ladığı 277
kuz@@ 277
operasyon 277
Radyosu 277
açılış 277
ilerde 277
etmesine 277
kurmak 277
getirme 277
canlandır@@ 277
yetkililere 277
heyet 277
kısıt@@ 277
sivil@@ 277
yaşadığı 277
fund 276
ening 276
trip 276
sustainable 276
Hungarian 276
rising 276
Boz@@ 276
oration 276
part@@ 276
Meta 276
lj@@ 276
Seli@@ 276
yaşıyor 276
mensuplarına 276
lığ@@ 276
eğitim@@ 276
Sanat 276
yazar@@ 276
olduğ@@ 276
tiç 276
çalışması 276
ekonomisi 276
önündeki 276
lau@@ 275
Sel@@ 275
student 275
explos@@ 275
differences 275
Iraqi 275
wr@@ 275
heritage 275
Ukraine 275
Daily 275
adopt 275
civilian 275
aside 275
hospital 275
ılığının 275
ayrıntılı 275
devleti 275
kritik 275
eriş@@ 275
secret 274
ument 274
mutual 274
probably 274
law@@ 274
season 274
seat 274
Marija 274
acting 274
termin@@ 274
code 274
luk@@ 274
taz@@ 274
ımızın 274
değiştiril@@ 274
şansı 274
ndeki 274
bilinen 274
verilere 274
eğiti@@ 274
miş@@ 274
enerj@@ 274
struc@@ 273
strongly 273
People 273
Au@@ 273
continu@@ 273
doesn 273
fak@@ 273
opposed 273
cars 273
base 273
remained 273
Sur@@ 273
communication 273
biti@@ 273
Andre@@ 273
dal@@ 273
isti 273
alındığında 273
onayla@@ 273
adığını 273
vaat@@ 273
katıldığı 273
radikal 273
iptal 273
Araştır@@ 273
telefonu 273
BHF 273
seems 272
Gra@@ 272
sou@@ 272
recommen@@ 272
guard 272
David 272
lis 272
nav@@ 272
net@@ 272
ministries 272
tradi@@ 272
ep 272
aylarda 272
işlem@@ 272
haklarını 272
güçleri 272
kısıtla@@ 272
anayasal 272
toplantıya 272
düzenli 272
owner 271
wel@@ 271
teams 271
fore@@ 271
tical 271
Danube 271
friends 271
Parti@@ 271
measure 271
suggest 271
leştirme 271
yöntem@@ 271
kaybe@@ 271
abilmek 271
vatandaşlar 271
uğraş@@ 271
yağ@@ 271
yolundaki 271
mayla 271
kitab@@ 271
çoğ@@ 271
value 270
unless 270
blocked 270
pping 270
ony 270
drop 270
hoping 270
reduced 270
cause 270
bis@@ 270
ace 270
apart@@ 270
ions 270
au 270
dam@@ 270
Stra@@ 270
erdi 270
adal@@ 270
Davutoğlu 270
Oyun@@ 270
makamlarının 270
etmişti 270
minden 270
değildir 270
düşüş@@ 270
duyuruda 270
Action 269
improvement 269
oning 269
aca 269
matic 269
granted 269
Dejan 269
ener@@ 269
regulations 269
Pen@@ 269
iydi 269
şüpheli 269
yönet@@ 269
süreyle 269
olanak@@ 269
tiyatro 269
ekliyor 269
filed 268
refused 268
internationally 268
substantial 268
officer 268
31st 268
Forces 268
offering 268
ment@@ 268
theastern 268
Elek@@ 268
melere 268
kısmını 268
edilemez 268
rebil@@ 268
zengin 268
başkent@@ 268
cru@@ 267
owners 267
verdict 267
tives 267
mun@@ 267
university 267
yur@@ 267
alternative 267
describing 267
deleg@@ 267
Iz@@ 267
Ev@@ 267
özelleştir@@ 267
inanıyorum 267
doğru@@ 267
araç 267
dolayısıyla 267
kaf@@ 267
İsveç 267
parlament@@ 267
usunu 267
soykırım 267
bot@@ 266
promises 266
Kap@@ 266
rich 266
ols 266
ah 266
Ottoman 266
Angela 266
şirketler 266
çoğunluğ@@ 266
edilmesini 266
olur 266
tirilmesi 266
sefer@@ 266
likte 266
gösterdiği 266
oyunc@@ 266
sergile@@ 266
kabine 266
temel@@ 266
ılığını 266
çılar 266
symbol@@ 265
sentence 265
Constitutional 265
historical 265
lined 265
dent 265
Kemal 265
sk@@ 265
Investment 265
River 265
benz@@ 265
Asya 265
olmayı 265
Hükümet 265
planını 265
istihdam 265
anlaşmasını 265
maruz 265
ülkelerinde 265
sayısını 265
pace 264
equal 264
rotating 264
CEFTA 264
fic@@ 264
're 264
reduction 264
compla@@ 264
fes@@ 264
Ayhan 264
liter@@ 264
appro@@ 264
athletes 264
ranked 264
appear 264
scientists 264
intended 264
retired 264
ros 264
Soren 264
etkisi 264
çağrısı 264
mahkemesinin 264
çağdaş 264
kaydedildi 264
arş@@ 264
conduct 263
difficulties 263
meant 263
chan@@ 263
Jadranka 263
prove 263
ational 263
1989 263
tonnes 263
Sek@@ 263
parents 263
Banka 263
del@@ 263
yse 263
Kathimerini 263
cezası 263
davanın 263
düzenleme 263
Belçika 263
Müzesi 263
irler 263
Cukanoviç 263
ring 262
easy 262
North 262
attract 262
designed 262
anyone 262
Stanishev 262
Prizren 262
formal 262
Christofias 262
dil 262
çıkıyor 262
hukuki 262
maden@@ 262
Seçim 262
sayf@@ 262
seçildi 262
ığın 262
Osmanlı 262
ures 261
explo@@ 261
Organ@@ 261
Costas 261
ster@@ 261
But@@ 261
yineledi 261
dairesi 261
şim@@ 261
Mücadele 261
ılarından 261
Polis 261
alınacak 261
mamız 261
bulunarak 261
kuruluş 261
Tuzla 260
linked 260
Mat@@ 260
subject 260
arri@@ 260
Il@@ 260
emphas@@ 260
Nobel 260
star 260
reas@@ 260
involving 260
atör@@ 260
eğil@@ 260
edildiği 260
leyecek 260
parlamentonun 260
faaliyetleri 260
taraftar@@ 260
Tuna 260
ılacağı 260
iletişim 260
önlem@@ 260
doğrultusunda 260
iyorum 260
işlenen 260
lanmış 260
ambassador 259
chapters 259
Dora 259
arms 259
apply 259
Sports 259
acceler@@ 259
associ@@ 259
Ara@@ 259
GERB 259
Schwarz 259
exercise 259
iste 259
inşası 259
konuşma 259
ağır@@ 259
ziyaretinde 259
sokak@@ 259
İkinci 259
YTD 259
ods 258
scre@@ 258
1244 258
western 258
rely 258
represented 258
taining 258
option 258
accoun@@ 258
CoE 258
insan@@ 258
cev@@ 258
aktarılan 258
tanık 258
katılması 258
itibar@@ 258
liderlerinin 258
Avusturyalı 258
ilg@@ 258
yenilen@@ 258
onlar 258
imposed 257
sentenced 257
acknowle@@ 257
stressing 257
assist 257
obser@@ 257
sup@@ 257
66 257
Street 257
Mladen 257
winner 257
Sil@@ 257
Racan 257
zam 257
iğ@@ 257
bulunması 257
hedefine 257
gösterdiğini 257
üyeliğini 257
güney@@ 257
liderlerin 257
bölge@@ 257
tutul@@ 257
planlarını 257
toplul@@ 257
abuse 256
thought 256
exp@@ 256
Foundation 256
ranking 256
54 256
initially 256
cuts 256
DPS 256
unut@@ 256
ediyoruz 256
İl@@ 256
sağlamaya 256
öncelik 256
sermaye 256
factors 255
ordered 255
street 255
construc@@ 255
goes 255
destroyed 255
eth@@ 255
Cam@@ 255
opens 255
blog@@ 255
duties 255
hour 255
elin 255
Uz@@ 255
49 255
church 255
yordu 255
kilis@@ 255
alarıyla 255
safh@@ 255
firma 255
sahne 255
benim 255
aslında 255
beklenti@@ 255
genelde 255
Tat@@ 254
founded 254
remarks 254
City 254
setting 254
proposals 254
municipal 254
Vas@@ 254
read@@ 254
highway 254
tun@@ 254
mode@@ 254
Dnevnik.bg 254
Kostov 254
liman@@ 254
planla@@ 254
adanın 254
kalıyor 254
bür@@ 254
çocuklar 254
boykot 254
gösteril@@ 254
Josipoviç 254
Teknoloji 254
elçi 254
etkinliğe 254
kurulacak 254
guarantee 253
happy 253
Post 253
salary 253
The@@ 253
nas@@ 253
invited 253
threatened 253
EK 253
ple 253
Vice 253
Cap@@ 253
direction 253
fell 253
Sin@@ 253
ıt 253
gec@@ 253
iyileştir@@ 253
tiyle 253
katılımı 253
fırsatı 253
GDA 253
üniversite 253
istihbarat 253
bekli@@ 253
sanayi 253
gruplar 253
kadın@@ 253
kesin@@ 253
dünyada 253
deneti@@ 253
adını 253
görüşünde 253
değişik@@ 253
ong@@ 252
Tom@@ 252
risks 252
double 252
solutions 252
constitu@@ 252
tw@@ 252
smaller 252
Stream 252
Ali@@ 252
austerity 252
berg 252
Bulgar@@ 252
Coun@@ 252
Kabashi 252
kayıt@@ 252
ebileceğini 252
Batılı 252
Spor 252
katılacak 252
kentindeki 252
yavaş@@ 252
bulma 252
kullanma 252
yapıcı 252
göç 252
şi@@ 252
bankacılık 252
ruh@@ 252
agrees 251
profes@@ 251
ils 251
contributed 251
sense 251
Education 251
counter@@ 251
akes 251
lose 251
concert 251
jur@@ 251
forms 251
sales 251
unable 251
56 251
Frattini 251
eci 251
çıkardı 251
memiz 251
ihraç 251
zirv@@ 251
komisyon 251
şah@@ 251
hizmetleri 251
yıllar 251
dö@@ 251
doğrul@@ 251
Müslüman@@ 251
yetki 251
sistem 251
enforcement 250
welcome 250
Forum 250
understanding 250
Pi@@ 250
attempts 250
regions 250
rose 250
decline 250
mayor 250
sam@@ 250
consu@@ 250
PIC 250
hu@@ 250
kop@@ 250
sen 250
bakanlığının 250
iriz 250
attığı 250
liğ@@ 250
Ön@@ 250
başarısız@@ 250
görevl@@ 250
ısındaki 250
hazırladığı 250
sorununun 250
yetiş@@ 250
enlerin 250
başlatma 250
müşter@@ 250
olmaları 250
derin 250
avantaj@@ 250
ötesi 250
alanındaki 250
imza 250
Brajshori 249
depends 249
deb@@ 249
pursu@@ 249
vely 249
sponsor@@ 249
RT@@ 249
killing 249
ease 249
room 249
tax@@ 249
seriously 249
ature 249
adequate 249
To@@ 249
slow 249
57 249
bana 249
ier 249
kin@@ 249
Oz@@ 249
test@@ 249
yetk@@ 249
çeşit@@ 249
verimli 249
kaybetti 249
ıklarını 249
Büyük 249
konular 249
iktidar@@ 249
çalışmalarını 249
üret@@ 249
euroluk 249
words 248
Anton@@ 248
neither 248
adds 248
exce@@ 248
've 248
run@@ 248
Sa@@ 248
Academy 248
SNSD 248
lob@@ 248
Verheugen 248
fugitives 248
olar@@ 248
uyumlu 248
neler 248
ilerek 248
açıklamaya 248
yurtdışında 248
başkanlığ@@ 248
Savaşı 248
kuzeydeki 248
powers 247
ordinary 247
eded 247
Public 247
tap@@ 247
phy@@ 247
broadcas@@ 247
aban@@ 247
BSP 247
og@@ 247
8,@@ 247
tekrar@@ 247
kaldırılması 247
protesto@@ 247
kı 247
sorununa 247
efficiency 246
nar@@ 246
willing 246
39 246
previously 246
boycott 246
gel 246
assembly 246
mid@@ 246
tiv@@ 246
wards 246
Libyan 246
ilik@@ 246
kararının 246
saldırı 246
kurumların 246
tedbir 246
daş@@ 246
leh@@ 246
layıp 246
ajans@@ 246
Dinkiç 246
dost@@ 246
güney 246
başlangıçta 246
alternatif 246
finanse 246
gelişme 246
vatandaşlarının 246
uzmanları 246
Biljana 245
eful 245
transit 245
dealing 245
battle 245
SRS 245
vers@@ 245
elec@@ 245
prepare 245
Rasim 245
denied 245
KSF 245
moderniz@@ 245
receğ@@ 245
cumhurbaşkanının 245
izleme 245
patla@@ 245
leyici 245
alarla 245
manı 245
Mü@@ 245
yöne@@ 245
çekiyor 245
açığı 245
eleştirdi 245
represents 244
dated 244
52 244
satisfied 244
detained 244
missing 244
child 244
tain@@ 244
Internet 244
ICJ 244
kullanıl@@ 244
öğrenciler 244
yoğun@@ 244
eşi 244
aray@@ 244
çoğunlukla 244
belirli 244
fır@@ 244
konser@@ 244
gören 244
kendilerine 244
transferred 243
injured 243
SDA 243
obtain 243
choice 243
expan@@ 243
preparing 243
ines 243
Journal 243
preparations 243
crossing 243
ration 243
Rohan 243
computer 243
mark@@ 243
hes@@ 243
1,5 243
duk 243
uğu 243
kullanılan 243
imzalam@@ 243
yaparak 243
alırken 243
kurum 243
festivali 243
luyor 243
statüs@@ 243
ekonomisinin 243
ınız 243
kısmen 243
discrimination 242
understand 242
Z 242
sever@@ 242
ordination 242
lin 242
arab@@ 242
alg@@ 242
eşit@@ 242
abilmesi 242
kalar 242
osunun 242
sez@@ 242
ilişk@@ 242
darbe 242
öğ@@ 242
Yatırım 242
gazete@@ 242
ceğini 242
dalg@@ 242
katılmaya 242
giriş@@ 242
uments 241
spokesperson 241
ruled 241
external 241
We@@ 241
fields 241
determine 241
Andri@@ 241
Dr@@ 241
Spiri@@ 241
repe@@ 241
design@@ 241
lem@@ 241
mus@@ 241
kala 241
deste@@ 241
ecek@@ 241
yükümlülüklerini 241
standartları 241
duyg@@ 241
Finlandiya 241
dondur@@ 241
hakim@@ 241
Ekonomik 241
çocuğ@@ 241
attı 241
olayları 241
olduğunda 241
belirti@@ 241
üreticisi 241
sayısında 241
ayda 241
happened 240
significantly 240
generally 240
statistics 240
insisted 240
academ@@ 240
sponsored 240
location 240
roun@@ 240
Euronews 240
south 240
eds 240
2014 240
Science 240
identified 240
Dimitri@@ 240
savcılar 240
üçlü 240
olur@@ 240
gerç@@ 240
tavsiye 240
kurtar@@ 240
iddian@@ 240
ımın 240
şirketleri 240
meslektaş@@ 240
cumhuriyet@@ 240
lıklarını 240
izni 240
politically 239
enterprises 239
true 239
relevant 239
oms 239
ats 239
dead 239
deep@@ 239
que 239
foun@@ 239
arrangement 239
stric@@ 239
Business 239
contest 239
fulfil@@ 239
ranks 239
iade@@ 239
yla 239
duruma 239
gözaltına 239
ılardan 239
yum 239
ulaştırma 239
sat 238
Policy 238
arg@@ 238
upon 238
identity 238
ost 238
Van@@ 238
tou@@ 238
ez 238
operator 238
supplies 238
stan 238
işten 238
mahkum 238
izlen@@ 238
ırsa 238
değişiklikleri 238
yıldönümü 238
hüküm@@ 238
direktörü 238
yarar@@ 238
yönetme@@ 238
Temsilciler 238
Şampiyonası 238
î 238
ığı 238
failing 237
MP 237
abol@@ 237
promoting 237
ose 237
ue 237
Japan 237
gen 237
medals 237
Pra@@ 237
appeal 237
Ra@@ 237
ulos 237
tiren 237
çarptır@@ 237
irse 237
şartlarını 237
kişiyi 237
tutuklandı 237
umutları 237
alışver@@ 237
geliştirme 237
gelerek 237
mecliste 237
ağ 237
sandık 237
Dış 237
kadınların 237
planladığını 237
geleceğini 237
suçlular@@ 237
dikkat@@ 237
müzakerelerde 237
kötüye 237
kamuoy@@ 237
obstacle 236
exclu@@ 236
investig@@ 236
association 236
elj@@ 236
entered 236
extended 236
primarily 236
Davutoglu 236
Cav@@ 236
Gru@@ 236
park 236
BC 236
sorunlara 236
ihtilafı 236
sınırları 236
olmasının 236
tedar@@ 236
powerful 235
gue 235
moves 235
Welle 235
targets 235
bud@@ 235
Novak 235
Ljubljana 235
initiatives 235
itsa 235
zafer@@ 235
Dur@@ 235
Mark@@ 235
uzmanı 235
gücünün 235
anlamda 235
desteklemek 235
şimdiden 235
tutuklama 235
erişim 235
Gürcistan 235
ımının 235
halen 235
hakim 235
sıkınt@@ 235
ımıza 235
tesini 235
karak@@ 235
Slovakya 235
compar@@ 234
Predrag 234
sis 234
marking 234
Georgia 234
thu@@ 234
predic@@ 234
Chairman 234
heavy 234
asa 234
reti@@ 234
Vojvodina 234
Studies 234
Petrov@@ 234
tip 234
Turk@@ 234
95 234
göl@@ 234
düz@@ 234
luğ@@ 234
sahi@@ 234
zamanlar 234
Markoviç 234
Draskoviç 234
tamamla@@ 234
kolay@@ 234
fiyat 234
konsorsi@@ 234
bütünleşme 234
belirttiler 234
critics 233
frequ@@ 233
64 233
witness 233
networks 233
comments 233
boosting 233
Tro@@ 233
voter 233
Zi@@ 233
hor@@ 233
ehol@@ 233
Simeon 233
slow@@ 233
azi 233
Socialists 233
stronger 233
fuel 233
0th 233
nel 233
communications 233
Bat@@ 233
ulu 233
diğimiz 233
anla@@ 233
ertele@@ 233
getirmesi 233
çisi 233
belgeler@@ 233
gesi 233
geride 233
yolda 233
isinden 233
sürede 233
başlıklı 233
ledil@@ 233
uyordu 233
aç 233
mül@@ 233
ademi 233
görü@@ 233
sınırlı 233
itiraz@@ 233
şebek@@ 233
Olimpiyatları 233
Israeli 232
existence 232
Force 232
profit 232
seeks 232
Dinkic 232
ki@@ 232
spend 232
Tok@@ 232
pensions 232
ost@@ 232
Radikal 232
yükümlülük@@ 232
olağanüstü 232
cumhur@@ 232
Kö@@ 232
Giri@@ 232
kaynakları 232
olduğunun 232
üğ@@ 232
şirketlerin 232
planlanıyor 232
kadınlar 232
faiz 232
adamları 232
work@@ 231
propos@@ 231
PS 231
Wall 231
low@@ 231
accord 231
ima@@ 231
mot@@ 231
regardless 231
obstacles 231
Ergenekon 231
af 231
Bilim 231
ydi 231
uyorum 231
memnun@@ 231
ayına 231
trafi@@ 231
hangi 231
yenler 231
üniversite@@ 231
yürü@@ 231
tör@@ 231
tehlikeli 231
avronun 231
görüldü 231
Komiseri 231
işler 231
geçmişte 231
gay@@ 231
sunulan 231
herkesin 231
lied 230
Board 230
Ap@@ 230
ened 230
cho@@ 230
game 230
unacceptable 230
Josipovic 230
honour 230
agricultural 230
after@@ 230
Svetla 230
BDP 230
Ministers 230
plas@@ 230
itation 230
Vlora 230
mah@@ 230
sızlık 230
zirvesinde 230
önle@@ 230
ıdan 230
arke@@ 230
kül@@ 230
üretimi 230
yönel@@ 230
atların 230
Stanişev 230
sabit 230
kuruldu 230
impres@@ 229
jana 229
motiv@@ 229
VAT 229
vac@@ 229
scale 229
op 229
handed 229
sum@@ 229
users 229
showing 229
Organisation 229
Supreme 229
expectations 229
ecting 229
new@@ 229
hen@@ 229
pension 229
Nic@@ 229
UNICEF 229
Kurds 229
bun@@ 229
içi 229
vek@@ 229
istis@@ 229
milliyet@@ 229
yans@@ 229
diğerleri 229
olmaması 229
mayın 229
fayd@@ 229
KDV 229
İslamcı 229
ümü 229
olasılığını 229
kazandığı 229
başarısız 229
malıyız 229
uyum 229
giriş 229
çocukların 229
Karaciç 229
danovic 228
James 228
lers 228
tine 228
spring 228
integrity 228
rov@@ 228
obj@@ 228
purchase 228
ensuring 228
factor 228
Kas@@ 228
Holkeri 228
zayıf@@ 228
Doğ@@ 228
anlay@@ 228
Eğitim 228
amaçlayan 228
donan@@ 228
huzur@@ 228
Temsilcisi 228
gelmesi 228
eceğiz 228
mahkemesine 228
muh@@ 228
öy@@ 228
barik@@ 228
kayıtlı 228
davası 228
fark 228
almış 228
imaj@@ 228
spoke 227
links 227
monit@@ 227
ND 227
istic 227
violations 227
rer 227
bids 227
names 227
Svetozar 227
chances 227
troub@@ 227
Men@@ 227
ril@@ 227
görüy@@ 227
üp 227
muyor 227
tanınan 227
adli 227
yayınlan@@ 227
kampany@@ 227
dayanarak 227
çilerin 227
satış 227
harcan@@ 227
oranının 227
Stef@@ 226
Freedom 226
Alfred 226
Vujanovic 226
lawyer 226
patri@@ 226
enable 226
insists 226
changing 226
Ge@@ 226
sanctions 226
dro@@ 226
yardımc@@ 226
uncu 226
aykırı 226
yayınla@@ 226
sanat 226
içine 226
strateji 226
yapısal 226
sürdürüyor 226
hikay@@ 226
biçim@@ 226
birimi 226
yakınlarında 226
vizesiz 226
guilty 225
closely 225
website 225
wife 225
gy 225
structural 225
aran@@ 225
scientific 225
kes 225
Ashton 225
polis@@ 225
özgürlüğ@@ 225
vurgula@@ 225
sayg@@ 225
şefi 225
vergil@@ 225
liye 225
ündeki 225
koydu 225
bağış 225
Hükümeti 225
bekliyoruz 225
oranla 225
uyruk@@ 225
sınıf@@ 225
düştü 225
fulfil 224
ums 224
transparency 224
envisions 224
considering 224
below 224
ards 224
shel@@ 224
suggests 224
restructuring 224
Bitola 224
deneyim@@ 224
Birlik 224
yasası 224
Birleşik 224
kasının 224
gündeme 224
konser 224
umuyor 224
pasaport@@ 224
Kıbrıslı 224
borc@@ 224
biraraya 224
fiyatları 224
vatandaşı 224
asylum 223
appears 223
Maria 223
Draskovic 223
Jelena 223
Balkan@@ 223
ort 223
Des@@ 223
ku@@ 223
cak 223
bulunmak 223
seçmen@@ 223
birinde 223
alardan 223
istediği 223
gerekçe 223
istik 223
oyuncul@@ 223
ızı 223
invested 222
tained 222
certainly 222
mines 222
expansion 222
Mas@@ 222
Switzerland 222
losses 222
receiving 222
writer 222
Africa 222
awards 222
suspen@@ 222
actors 222
technolo@@ 222
& 222
minimum 222
Fin@@ 222
olu 222
lular@@ 222
Turizm 222
üyeler@@ 222
vereceğini 222
oğ@@ 222
onaylanması 222
ceği 222
görevine 222
yapımı 222
müdür@@ 222
yoksa 222
vererek 222
Hareketi 222
Japonya 222
oynay@@ 222
konferans 222
yeri 222
itiraz 222
cezalandır@@ 222
karara 222
parlamentosu 222
scene 221
Bon@@ 221
architec@@ 221
1994 221
tru@@ 221
sin 221
appar@@ 221
72 221
cover@@ 221
vention 221
democr@@ 221
rement 221
shares 221
Ah@@ 221
purch@@ 221
Contact 221
Nicosia 221
adem@@ 221
güzel 221
seçimlerden 221
deney@@ 221
görüştü 221
yaptığını 221
dayanan 221
personel 221
bildiri@@ 221
üt@@ 221
kampanyası 221
iddiaları 221
bünyesinde 221
meselesi 221
iyor@@ 221
Taçi 221
Tas@@ 220
determination 220
ith@@ 220
recogn@@ 220
alist 220
search 220
preser@@ 220
plo@@ 220
rati@@ 220
Ren@@ 220
tennis 220
pul@@ 220
Islam 220
stood 220
refugee 220
cum@@ 220
some@@ 220
fur@@ 220
fast 220
smuggling 220
Erlis 220
eder@@ 220
Boc 220
Pac@@ 220
optimistic 220
Son@@ 220
alin 220
fon 220
arama 220
ndaki 220
yoruz 220
zanlısı 220
önemini 220
kaydetti@@ 220
elç@@ 220
hatır@@ 220
kı@@ 220
landığını 220
cinayet@@ 220
sınırı 220
getirdiği 220
konuları 220
exist 219
paying 219
ffer 219
presidents 219
tion@@ 219
centres 219
glu 219
rock 219
flag 219
ption 219
Diary 219
gol@@ 219
consortium 219
Baj@@ 219
Zv@@ 219
consumers 219
fraud 219
bel 219
eta 219
78 219
reducing 219
isa 219
ardı 219
bağımsızlığı 219
karşılık 219
zorluk@@ 219
umduğunu 219
yıldönüm@@ 219
standartlarını 219
koordin@@ 219
ayaklan@@ 219
saatlerde 219
kasabasında 219
yaş 219
Parlamen@@ 219
immediate 218
serving 218
neighbour@@ 218
MPA 218
resort 218
broad 218
'll 218
ule 218
Stoj@@ 218
loss 218
ree 218
aries 218
competitive 218
ther 218
Taci 218
rejiminin 218
olaylar 218
koru@@ 218
ılıkla 218
umutlarını 218
gelişim@@ 218
kimlik 218
Büyükelçiliği 218
sürdürülebilir 218
bahse@@ 218
çoğunun 218
tamamladı 218
sanatçı 218
demokr@@ 218
ajansı 218
yayınladı 218
katılımcılar 218
lendirec@@ 218
giy@@ 218
artması 218
değerlendirme 218
göçmen@@ 218
ilişkil@@ 218
bakanlık@@ 218
ulti@@ 217
quar@@ 217
speak 217
convicted 217
suspect 217
whom 217
occurred 217
demanding 217
fifth 217
Alexand@@ 217
sparked 217
produced 217
department 217
lam 217
extradition 217
Pamuk 217
enjoy 217
cil@@ 217
tent 217
counts 217
zan 217
Burns 217
sürerek 217
leniyor 217
aranan 217
Günlüğü 217
kayıt 217
kapan@@ 217
yaşay@@ 217
Temas 217
ettikleri 217
dönemine 217
belediye@@ 217
sektörünün 217
sebe@@ 217
amac@@ 217
yapılandır@@ 217
dy@@ 216
grant 216
principle 216
commen@@ 216
someone 216
signal 216
Cre@@ 216
vie@@ 216
3,000 216
struction 216
chair@@ 216
Championship 216
anov 216
Kuk@@ 216
republics 216
Dj@@ 216
author@@ 216
Me@@ 216
los@@ 216
perspective 216
tary 216
Armen@@ 216
NIS 216
Kay@@ 216
tık 216
görüşmeleri 216
maddi 216
artıyor 216
ilişkilerini 216
konferansta 216
daire 216
suçlanıyor 216
belki 216
Haradinay 216
döviz 216
10,000 215
finan@@ 215
protected 215
oked 215
forming 215
wartime 215
modern@@ 215
pa@@ 215
Belgium 215
aw@@ 215
Ham@@ 215
soğ@@ 215
işini 215
hiç@@ 215
cezasına 215
yeter@@ 215
önerdi 215
gece 215
soru 215
zirvede 215
yollarını 215
kazand@@ 215
gerektiğine 215
getirdiler 215
gı@@ 215
olacağ@@ 215
ordunun 215
düzeyinde 215
haberleşme 215
iyimser 215
otherwise 214
belon@@ 214
Arab 214
Chi@@ 214
effects 214
ths 214
damaged 214
danger 214
Fr@@ 214
Pa@@ 214
cates 214
ema 214
posing 214
Alek@@ 214
Government 214
Jas@@ 214
uring 214
educational 214
Fena 214
DI@@ 214
58 214
Commander 214
deli@@ 214
acknowledged 214
hiding 214
oylama 214
üğü 214
komşular@@ 214
siyle 214
Koruma 214
ğun@@ 214
ısından 214
demiryolu 214
savcı 214
Kilisesi 214
liğiyle 214
sakin@@ 214
gelenek@@ 214
becomes 213
impossible 213
considerable 213
combat 213
announcement 213
sha@@ 213
2m 213
Dec@@ 213
68 213
Wisner 213
900 213
constructive 213
kova 213
azından 213
işlev@@ 213
yasaların 213
grupları 213
açıklanan 213
mağ@@ 213
dünyasından 213
kategor@@ 213
çalışmalarının 213
lamda 213
sanık@@ 213
Demokratlar 213
yapmış 213
Sırp@@ 213
Arnavutların 213
statüsünü 213
sıral@@ 213
kâr 213
plana 213
vowed 212
Rus@@ 212
istance 212
pass@@ 212
route 212
condem@@ 212
kept 212
lery 212
submit 212
suspended 212
transportation 212
consul@@ 212
sees 212
lec@@ 212
evalu@@ 212
Health 212
insurance 212
cus@@ 212
Kam@@ 212
Jap@@ 212
giz@@ 212
jin@@ 212
eren 212
değ@@ 212
udaki 212
parlamentoda 212
amaz 212
ttiği 212
ülkelerinden 212
planları 212
kiler@@ 212
gerçekleştirdi 212
nedenle 212
insanın 212
üstün@@ 212
bü@@ 212
liler 212
devri@@ 212
kök@@ 212
fav@@ 211
iling 211
nevertheless 211
mist@@ 211
wal 211
generals 211
applic@@ 211
wage 211
Ek@@ 211
Y 211
Fon@@ 211
rad@@ 211
yu@@ 211
Geli@@ 211
nek@@ 211
cilik 211
süreli 211
lukla 211
bağlantılı 211
terörist 211
ücü 211
eğilim@@ 211
ayından 211
Kaide 211
tilmesi 211
yürüten 211
üretic@@ 211
açıyor 211
idi@@ 210
cement 210
Ha@@ 210
comple@@ 210
instr@@ 210
isting 210
Hy@@ 210
ous@@ 210
fication 210
silver 210
prize 210
Stability 210
bodies 210
sea 210
unity 210
St. 210
alise 210
ied 210
Slovakia 210
Kab@@ 210
Yak@@ 210
tti@@ 210
imize 210
avrodan 210
olmuş 210
olmaktan 210
veriliyor 210
paketi 210
sı 210
mayacağı 210
iddiasıyla 210
vatandaşlarına 210
olayı 210
oturum@@ 210
memuru 210
dokunulmaz@@ 210
yaşında 210
seyir@@ 210
seviyesinde 210
sistemini 210
yetersiz 210
avukat@@ 210
conf@@ 209
achieving 209
deputies 209
Bakoyannis 209
Protection 209
dangerous 209
aled 209
rants 209
tol@@ 209
software 209
List 209
maf@@ 209
reser@@ 209
end@@ 209
Bulgarians 209
entegrasyonu 209
yerde 209
hizmete 209
Yunanl@@ 209
anları 209
fotoğraf@@ 209
oluşuyor 209
gençler 209
resi 209
Ljajiç 209
ankette 209
bulunacak 209
yatırımcılar 209
orlar 209
konumunda 209
evre 209
turiz@@ 209
removed 208
Jak@@ 208
ency 208
Service 208
Qaeda 208
oglu 208
club 208
Art 208
didn 208
Sab@@ 208
completion 208
villages 208
EP@@ 208
green 208
happen@@ 208
san 208
carrying 208
ffe@@ 208
Pact 208
Sekerinska 208
kar 208
edec@@ 208
sahn@@ 208
ıtı 208
göstererek 208
kapsayan 208
leşme 208
taşıy@@ 208
başlatılan 208
oyuncu 208
meseles@@ 208
zanlı 208
çoktan 208
yasalar 208
açılması 208
candidacy 207
influ@@ 207
weak@@ 207
Sezer 207
entering 207
compet@@ 207
reunification 207
Euro@@ 207
actual 207
collection 207
jo@@ 207
requirement 207
Haradinaj 207
Kosumi 207
cro@@ 207
widespread 207
Rexhepi 207
Mac@@ 207
Kermabon 207
poz@@ 207
şikay@@ 207
destekleyen 207
tartışmalar 207
üni@@ 207
dalar 207
desteğini 207
yoksul 207
olurken 207
hasar 207
şiddetli 207
Daciç 207
gümüş 207
ortamı 207
puan@@ 207
sorumluluk@@ 207
Komutanı 207
father 206
manufac@@ 206
Media 206
rai@@ 206
ification 206
organisers 206
mind 206
dly 206
mail 206
extradi@@ 206
Spanish 206
wins 206
Jur@@ 206
covering 206
Dimitrov 206
argues 206
Tran@@ 206
Mec@@ 206
neg@@ 206
Kul@@ 206
Bakoyanni 206
Arap 206
kend@@ 206
idaresi 206
üstesinden 206
siyasilerin 206
gerekecek 206
projeler 206
şeyler 206
tarihinin 206
dönüş 206
Ödül@@ 206
çileri 206
aleyhinde 206
buradaki 206
resident 205
dit 205
circ@@ 205
metres 205
holiday 205
ash@@ 205
withdra@@ 205
page 205
split 205
Seselj 205
radi@@ 205
performed 205
ideas 205
Politika 205
Mediafax 205
kit@@ 205
SA 205
TA 205
ham 205
Yah@@ 205
dım 205
sorununu 205
siste@@ 205
sü 205
önerisini 205
güçlerinin 205
bildiril@@ 205
kredis@@ 205
ediyorum 205
ağa 205
heyk@@ 205
doldur@@ 205
geçirilmesi 205
olacağına 205
santrali 205
projeye 205
Recepi 205
tatbikat@@ 205
tured 204
acceptable 204
Society 204
ify 204
meets 204
Mircea 204
citizenship 204
losing 204
museum 204
objective 204
dered 204
camp 204
unilateral 204
telecom 204
Telecom 204
udi 204
Rupel 204
Bey@@ 204
trik 204
sonuc@@ 204
anlaşmazlık 204
değişim 204
İli@@ 204
arttı 204
ayrınt@@ 204
kayıp 204
kondu 204
lüğünü 204
ödülünü 204
bankası 204
oluşturan 204
ekib@@ 204
planının 204
çalışmalarına 204
Hırvatlar 204
Yolsuz@@ 204
Veli@@ 203
witnesses 203
gives 203
eventual 203
vehicles 203
Programme 203
fail 203
IA 203
towns 203
adviser 203
ith 203
manner 203
ala 203
Tourism 203
title 203
hosts 203
tex@@ 203
graph@@ 203
road@@ 203
English 203
Gar@@ 203
mam@@ 203
monthly 203
hir 203
yürütül@@ 203
diyalog@@ 203
insani 203
kovuştur@@ 203
Araştırma 203
havayolu 203
kâ@@ 203
sergilen@@ 203
yapılmış 203
gelişmiş 203
köpr@@ 203
Kaddafi 203
League 202
judge 202
obligation 202
specif@@ 202
applied 202
ech@@ 202
except 202
promo@@ 202
effectively 202
Sre@@ 202
sul@@ 202
wages 202
doctors 202
Rompres 202
surrender 202
Emil 202
rar@@ 202
investigations 202
balance 202
eas@@ 202
ink 202
menistan 202
AIDS 202
Steiner 202
Hak@@ 202
daveti 202
leştirilmesi 202
anlığı 202
hazırla@@ 202
gösteric@@ 202
grev@@ 202
farklılık@@ 202
direk@@ 202
gelecek@@ 202
ertelen@@ 202
lenmiş 202
fotoğraf 202
denetim 202
hattının 202
askerleri 202
nüfuz@@ 202
Ana 201
rene@@ 201
Rama@@ 201
larger 201
representation 201
kaya 201
proved 201
shot 201
coast 201
Stav@@ 201
competitiveness 201
rural 201
Bus@@ 201
mation 201
comprehensive 201
Vetevendosje 201
square 201
governance 201
multiethnic 201
Van 201
Stambol@@ 201
Alb@@ 201
yard@@ 201
ılığın 201
kurdu 201
yoksul@@ 201
ithal 201
taşın@@ 201
belirterek 201
anlaşmada 201
bakanlarının 201
yoksulluk 201
ürken 201
oyun@@ 201
adalete 201
ılarıyla 201
temsilci 201
Dahası 201
madal@@ 201
emlak 201
bakanlar 201
rekabet@@ 201
receği 201
Dar@@ 200
confident 200
Ahmeti 200
Asia 200
Sec@@ 200
instal@@ 200
INA 200
Markovic 200
directed 200
favour@@ 200
Open 200
Met@@ 200
aves 200
CEO 200
ining 200
integr@@ 200
depos@@ 200
lowest 200
awareness 200
Boskovski 200
işçi 200
sizliği 200
milletvekillerinin 200
kriterleri 200
ilave 200
uluk 200
lardır 200
yürütü@@ 200
Kurul@@ 200
dığ@@ 200
kitap@@ 200
kalıcı 200
binin 200
tük@@ 200
paralel 200
İlişkiler 200
exam@@ 199
choose 199
Ivanovic 199
shall 199
drugs 199
Afri@@ 199
platform 199
Oliver 199
delayed 199
inside 199
destination 199
eld 199
facilitate 199
shared 199
dance 199
pil@@ 199
hous@@ 199
tory 199
Cos@@ 199
burg 199
liberal 199
openha@@ 199
tasks 199
zer@@ 199
che 199
Tito 199
Kre@@ 199
Corporation 199
Dev@@ 199
malar@@ 199
kot@@ 199
sizce 199
sürmekte 199
miktarda 199
itibarıyla 199
geliştirilmesi 199
hazırlık 199
müş@@ 199
özgürlük 199
barışçı 199
derek 199
yazarı 199
oları 199
taş 199
açığ@@ 199
rekor 199
projeleri 199
görüşmelere 199
cinayet 199
sektör 199
aracılığıyla 199
karşısında 199
yakıt 199
fundamental 198
teachers 198
worldwide 198
aling 198
Condoleezza 198
ome@@ 198
features 198
sm@@ 198
medium 198
recommendations 198
bra@@ 198
apart 198
trials 198
distribution 198
UK 198
dep@@ 198
61 198
deployment 198
Andy 198
ğlu 198
haft@@ 198
gazeteciler 198
buldu 198
İn@@ 198
anlaşmalar 198
madde 198
çözmek 198
verdikleri 198
birbirine 198
muamele 198
tutumunu 198
onay 198
ilerlemeyi 198
tavsiy@@ 198
düny@@ 198
larımız 198
görevlisi 198
ülkelerle 198
eksikliği 198
meth@@ 197
Saf@@ 197
keeping 197
intensi@@ 197
extremely 197
restaur@@ 197
amaz@@ 197
backing 197
gone 197
quite 197
performances 197
Radical 197
organise 197
gress 197
arguing 197
ame 197
Luxembourg 197
Rasmussen 197
2.5 197
Robertson 197
bil 197
İbrahim 197
sorum@@ 197
anlaşmazlığı 197
devre@@ 197
belirsiz 197
sığın@@ 197
azınlıkların 197
olmadı 197
günde 197
yatır@@ 197
avroyu 197
öneri 197
yaşad@@ 197
ishing 196
Staff 196
penal@@ 196
gres@@ 196
preliminary 196
Tal@@ 196
asking 196
listed 196
shortly 196
violent 196
port@@ 196
replace 196
argue 196
priv@@ 196
initiated 196
realistic 196
Boris@@ 196
than@@ 196
Frank 196
Bayram 196
69 196
ich 196
hin 196
killings 196
mim@@ 196
edilebilir 196
harit@@ 196
diyaloğ@@ 196
halkına 196
uçak@@ 196
önleme 196
İttifakın 196
etmeleri 196
destekleme 196
desteklediğini 196
erkekler 196
yarı 196
emniyet 196
ilerletme 196
almasına 196
işaret@@ 196
bastır@@ 196
barış@@ 196
İd@@ 196
olacak@@ 196
oyla 196
şeh@@ 196
Christ@@ 195
universities 195
unique 195
cards 195
OS 195
Pot@@ 195
tradition 195
photo@@ 195
enko 195
Vlas@@ 195
interpre@@ 195
pe 195
aged 195
duty 195
terror 195
Ibrahim 195
ant@@ 195
bet 195
Biz@@ 195
TI 195
yas 195
sinden 195
istiyor@@ 195
parlamento@@ 195
destekliyor 195
suçlan@@ 195
üstünlüğü 195
ılmaz 195
baraj@@ 195
laik 195
ticareti 195
ortam 195
kredi@@ 195
kurumlarına 195
edilmesine 195
bulunuluyor 195
güçlendirme 195
açacak 195
çizdi 195
dışına 195
hidroelektrik 195
hos@@ 194
bloc@@ 194
cont@@ 194
ves@@ 194
tolerance 194
appropriate 194
qual@@ 194
sli@@ 194
controlled 194
Mol@@ 194
sovereign 194
ave 194
lated 194
momentum 194
Mik@@ 194
Relations 194
daf@@ 194
farmers 194
Diyarbak@@ 194
Yer@@ 194
taj 194
tıkları 194
hareketi 194
sözleşme 194
Vuyanoviç 194
incisi 194
faaliyete 194
Yeniden 194
toplumunun 194
geçmesi 194
şüphelen@@ 194
iği 194
bunlardan 194
sandalye@@ 194
usundaki 194
Kanada 194
advantage 193
alliance 193
Prosecutor 193
1m 193
kno@@ 193
humanitarian 193
topics 193
America 193
20,000 193
Din@@ 193
suffered 193
allies 193
greatest 193
Jon@@ 193
ess 193
Bamir 193
famous 193
Ljajic 193
estate 193
standard 193
quick 193
polic@@ 193
ony@@ 193
Rom@@ 193
tez@@ 193
ansa 193
meni 193
bıraktı 193
çözme 193
hükümetini 193
sonucuna 193
yapılmasını 193
tanık@@ 193
liliği 193
haklarının 193
zamanlarda 193
Sü@@ 193
Çağ@@ 193
kampan@@ 193
edeceği 193
ekibi 193
Sırplara 193
çözümü 193
yasaya 193
zamanında 193
kökenli 193
cema@@ 193
tavır 193
Sosyal@@ 193
shak@@ 192
accep@@ 192
successfully 192
sentences 192
enab@@ 192
ader 192
panel 192
lak@@ 192
50m 192
q@@ 192
usal 192
Cri@@ 192
signs 192
passports 192
adop@@ 192
itable 192
Mah@@ 192
EM@@ 192
expand 192
detention 192
Lazarova 192
EIB 192
pak@@ 192
hepsi 192
ortaklaşa 192
kuruluşları 192
ılığına 192
hafif@@ 192
ödeme 192
bağlantı 192
fabrik@@ 192
dür 192
şirketinin 192
vermiş 192
kampanyas@@ 192
ebilecek 192
minde 192
takip 192
getirmeye 192
Voyvodina 192
çö@@ 192
borcu 192
muhabiri 192
Lüksemburg 192
şeff@@ 192
yoldan 192
Ermeni 192
yip 192
ebileceği 192
ortağı 192
asi 191
Mr@@ 191
sett@@ 191
read 191
awarded 191
pointed 191
brief@@ 191
respondents 191
beat 191
delivered 191
demonstrate 191
Nis 191
esti@@ 191
Best 191
SDS 191
circumstances 191
mean@@ 191
tically 191
Kurdistan 191
ris 191
Canada 191
kre@@ 191
dek@@ 191
hayati 191
çıkması 191
toplantının 191
muştur 191
getirecek 191
mektir 191
anlı 191
planın 191
garanti 191
işsiz 191
gın@@ 191
atları 191
olmayacak 191
dai@@ 191
muhalefetin 191
komuta 191
Belgradlı 191
bure@@ 190
favourable 190
accounts 190
tournament 190
Chinese 190
dominated 190
processes 190
Ze@@ 190
BTA 190
Cas@@ 190
100m 190
Radov@@ 190
cession 190
Summer 190
stepped 190
Haz@@ 190
kok@@ 190
Company 190
Vit@@ 190
extend 190
ihti@@ 190
diplom@@ 190
tehdi@@ 190
eğini 190
koşulları 190
gerçekçi 190
şartı 190
fayda 190
ulacak 190
eceğinden 190
mezar@@ 190
hızla 190
kıyı 190
Geç@@ 190
böylelikle 190
ciler 190
danışmanlık 190
tepk@@ 190
tarz@@ 190
festivalde 190
ücret 190
bölgelerde 190
dolayı 190
getiri@@ 190
konus@@ 190
küçül@@ 190
meclise 190
editor 189
voicing 189
obvi@@ 189
inspec@@ 189
Irish 189
Election 189
audi@@ 189
Dacic 189
expression 189
elements 189
deep 189
nov@@ 189
jic 189
rom 189
Econom@@ 189
Saxe 189
Coburg 189
bronze 189
accompanied 189
MW 189
monetary 189
fer 189
Eli@@ 189
conven@@ 189
high@@ 189
singer 189
hat 189
nek 189
mevzu@@ 189
seçimlerinin 189
tavr@@ 189
Özgür@@ 189
gelişmeler 189
uygu@@ 189
konuk 189
inli 189
tesis 189
genişlet@@ 189
hedefliyor 189
ülkeler@@ 189
bilişim 189
lerdi 189
nok@@ 189
etmekte 189
ath 188
expor@@ 188
crossings 188
critic@@ 188
Fair 188
Ero@@ 188
gy@@ 188
Radi@@ 188
protocol 188
Hellenic 188
urges 188
bid@@ 188
improvements 188
distri@@ 188
Bran@@ 188
scandal 188
Ag@@ 188
arac@@ 188
boyut@@ 188
eminim 188
bence 188
edici 188
meclisin 188
aretin 188
dolay@@ 188
hazırlanıyor 188
edildiğini 188
ilerlemenin 188
serg@@ 188
talebi 188
aşam@@ 188
doktor@@ 188
çalışmalar 188
nispeten 188
vadede 188
aşi 188
By@@ 187
reaction 187
lock 187
knowledge 187
defined 187
resulted 187
remove 187
prised 187
initi@@ 187
massive 187
parallel 187
ras 187
Mladjan 187
ented 187
PA@@ 187
wers 187
accusations 187
occup@@ 187
oring 187
producer 187
eral 187
ater@@ 187
odor 187
endorsed 187
Vu@@ 187
scores 187
Bosniaks 187
SI@@ 187
Pla@@ 187
SPS 187
Lam@@ 187
ole 187
bus 187
abilities 187
canin 187
kadar@@ 187
dum 187
ül 187
derin@@ 187
likten 187
oyların 187
ilgil@@ 187
şikayet 187
Oyunları 187
kariy@@ 187
kuzeyindeki 187
kısmının 187
kamuoyuna 187
kapalı 187
aktardığına 187
rezerv@@ 187
spir@@ 186
direc@@ 186
solved 186
chosen 186
Budap@@ 186
350 186
dates 186
Cal@@ 186
Focus 186
returns 186
stock 186
dak 186
kets 186
ct 186
ried 186
suit 186
stu@@ 186
flights 186
percentage 186
Daianu 186
rin 186
attending 186
gu 186
hek@@ 186
çıkarıldı 186
sahte 186
laşma 186
acağından 186
desteklen@@ 186
Konsey 186
konularda 186
giren 186
kullanımı 186
muhafazak@@ 186
gerçekleşmesi 186
Hakkındaki 186
çözülmesi 186
izm 186
oynadığı 186
halde 186
ğu 186
bloğa 186
Suç@@ 186
endek@@ 186
operatörü 186
Vet@@ 185
turning 185
terrorists 185
arti@@ 185
expl@@ 185
scar@@ 185
titled 185
career 185
Information 185
bed 185
emin@@ 185
ret 185
allows 185
occas@@ 185
Edi 185
Parliamentary 185
anticip@@ 185
fun@@ 185
expec@@ 185
contracts 185
Iv@@ 185
ICG 185
gula@@ 185
mig@@ 185
uda 185
zaf@@ 185
aksi 185
elektronik 185
oluşturul@@ 185
rolünü 185
sanatçı@@ 185
şimi 185
malarla 185
üz 185
Yönetim 185
başkenti 185
regard 184
severe 184
expensive 184
reta@@ 184
but@@ 184
prompted 184
stitute 184
Tetovo 184
irregularities 184
star@@ 184
Brcko 184
inci@@ 184
multi 184
district 184
estimates 184
purpose 184
59 184
renov@@ 184
Struga 184
makers 184
orum 184
Dink 184
Bun@@ 184
hapse 184
bayrağ@@ 184
gidiyor 184
Siyasi 184
siyon@@ 184
çabalarının 184
lukta 184
Milovanoviç 184
süb@@ 184
kurulmasını 184
istikrarın 184
suikast@@ 184
rken 184
emeklilik 184
bağıml@@ 184
otomobil 184
maliye 184
ances 183
activ@@ 183
attemp@@ 183
Qu@@ 183
ordinator 183
efully 183
facts 183
Had@@ 183
wer 183
sy@@ 183
tough 183
EUobserver 183
Elen@@ 183
alising 183
leads 183
7,000 183
Prodi 183
provisions 183
0s 183
replaced 183
Award 183
SK 183
depre@@ 183
elektri@@ 183
yaptırım@@ 183
izliyor 183
yiz 183
çılık 183
müştü 183
yolcul@@ 183
reddedil@@ 183
ılarda 183
emek 183
buluş@@ 183
inoviç 183
güvenliğini 183
kitap 183
hareketin 183
giri@@ 183
varlığını 183
lıkların 183
kırsal 183
göstermesi 183
gın 183
Stankoviç 183
kaçakçılık 183
argued 182
hearing 182
Gr@@ 182
type 182
telling 182
ece 182
rea 182
ches@@ 182
sufficient 182
ben@@ 182
mist 182
Milovanovic 182
notes 182
Sweden 182
original 182
1974 182
Ljiljana 182
waste 182
besides 182
Dis@@ 182
enhance 182
lear@@ 182
responsibilities 182
patients 182
ima 182
written 182
ori 182
avro@@ 182
2015 182
2020 182
ristina 182
gur@@ 182
130 182
Cumhuriyet 182
Ey@@ 182
ıza 182
adam 182
sembol@@ 182
kararına 182
çalışmak 182
sürdürdü 182
sistemine 182
uydu 182
söyleniyor 182
hatt@@ 182
anma 182
andı 182
ımc@@ 182
gerçekleştiril@@ 182
rüşvet 182
etkinliklere 182
&amp; 182
basına 182
taslağ@@ 182
UAD 182
anlara 182
keşf@@ 182
tirecek 182
soykır@@ 182
atisation 181
doubt 181
fis@@ 181
intellectu@@ 181
fears 181
present@@ 181
secular@@ 181
actually 181
Petro@@ 181
Ken@@ 181
elsewhere 181
affor@@ 181
ety 181
Lazar@@ 181
earthqu@@ 181
100,000 181
Fatos 181
formation 181
excep@@ 181
Koha 181
Mag@@ 181
rel 181
bölgesindeki 181
lüğüne 181
tabii 181
vermeyi 181
öyle 181
askerler 181
sonr@@ 181
anlığ@@ 181
cü 181
görevlendir@@ 181
biyo@@ 181
oyun 181
otobü@@ 181
gösteri 181
geliştiril@@ 181
geçirme 181
Kalet@@ 180
ina@@ 180
Charter 180
hop@@ 180
ive 180
plus 180
online 180
entation 180
mining 180
actor 180
Telegraph 180
immunity 180
winter 180
businessmen 180
dedicated 180
spread 180
omin@@ 180
istent 180
yal 180
plays 180
revenue 180
proceedings 180
rot@@ 180
Air 180
inic 180
nature 180
draw 180
Ramadan 180
Ur@@ 180
indictee 180
lul@@ 180
sol 180
83 180
aret 180
Öğ@@ 180
sağladığı 180
eksi@@ 180
ülkem@@ 180
fazlasını 180
ihtilaf 180
kaçak@@ 180
hükümetine 180
kart@@ 180
elden 180
mükemmel 180
desteklemeye 180
ıştı 180
otel@@ 180
etkinliği 180
tutuklanması 180
çıkart@@ 180
faaliyetlerini 180
ılım@@ 180
Yaz 180
aklama 180
Miloşeviç 180
Sağlık 180
birleşme 180
elinden 180
sistemin 180
fare 179
alled 179
Chan@@ 179
instance 179
graphic 179
suspic@@ 179
serves 179
capture 179
closure 179
spe@@ 179
pra@@ 179
expla@@ 179
economist 179
accordance 179
NB@@ 179
insist 179
count 179
identi@@ 179
wrong 179
fik@@ 179
mu 179
vatandaş 179
Anayas@@ 179
Vakfı 179
sisteminde 179
acılık 179
yönetiminin 179
sinyal@@ 179
hoş@@ 179
hakkına 179
aleyhindeki 179
emek@@ 179
bildirdiğine 179
çabuk 179
seçimlerine 179
ithalat@@ 179
yargıç@@ 179
gördü 179
ölü 179
imha 179
konut 179
referand@@ 179
privati@@ 178
gained 178
cad@@ 178
teac@@ 178
maker 178
protesters 178
cation 178
legislative 178
gap 178
shop 178
uldn 178
Plan 178
swe@@ 178
railway 178
rally 178
friendly 178
Cha@@ 178
blu@@ 178
none 178
8,000 178
integrated 178
formally 178
Gabriel 178
visas 178
gun 178
Kit@@ 178
chapter 178
Fiat 178
Sov@@ 178
fikr@@ 178
öğret@@ 178
sağlayacağını 178
ılığa 178
ticaret@@ 178
malardan 178
anayasaya 178
orada 178
lıklı 178
gözlemciler 178
üyesinin 178
hafif 178
önlemler 178
öncelik@@ 178
ümüz 178
zemin 178
projeyi 178
jiç 178
hassas 178
yolunu 178
Bölgesi 178
yumuş@@ 178
Hırv@@ 178
kanıt 178
aksine 178
Lefkoşe 178
aded 177
domin@@ 177
covered 177
sending 177
tionary 177
Milen@@ 177
beli@@ 177
nica 177
auth@@ 177
heart 177
link 177
playing 177
maintaining 177
stem 177
HR 177
olum@@ 177
millions 177
Armenian 177
drawn 177
dok@@ 177
Sou@@ 177
140 177
asts 177
Da@@ 177
BB 177
PR@@ 177
1000 177
Kri@@ 177
kli 177
beli 177
gazete 177
istih@@ 177
malarında 177
kurtul@@ 177
Ortadoğu 177
birleştirme 177
ihtiyat@@ 177
tıbbi 177
olanlar 177
mesle@@ 177
kontrolü 177
endir@@ 177
yanın 177
geçmiş 177
yükseldi 177
Akademisi 177
hissesini 177
ihale 177
krize 177
mülkiyet 177
çeken 177
mülk@@ 177
kimsenin 177
düşünül@@ 177
söy@@ 177
sonuçlara 177
Bedrana 176
guarantees 176
bran@@ 176
promise 176
Ker@@ 176
advance 176
DS@@ 176
seized 176
Sta@@ 176
Mes@@ 176
Gordana 176
jum@@ 176
song 176
moreover 176
ush 176
manip@@ 176
eing 176
sitesi 176
publis@@ 176
Star@@ 176
DNA 176
Sutanovac 176
declined 176
Airport 176
increases 176
tis 176
anski 176
Adnan 176
Ardi 176
Pulaj 176
Nine 176
Chancellor 176
atures 176
Lavrov 176
Yusuf 176
stantin@@ 176
Hürriyet 176
uyu 176
yebilir 176
çıkarıl@@ 176
fak 176
iyse 176
ğiyle 176
yeceğini 176
alış@@ 176
ücretsiz 176
planına 176
şe 176
hizmeti 176
rast@@ 176
imzalay@@ 176
Çoc@@ 176
özerklik 176
skandal@@ 176
Zivkoviç 176
anket 176
yapacağını 176
kali@@ 176
manager 175
raid 175
removal 175
prosperity 175
deals 175
explains 175
inti@@ 175
justi@@ 175
placing 175
destruction 175
map 175
subsequ@@ 175
Milos 175
incumbent 175
Raj@@ 175
Stand@@ 175
where@@ 175
assured 175
degree 175
character@@ 175
pose 175
introduction 175
50,000 175
110 175
istan 175
ach@@ 175
Tek@@ 175
birleştir@@ 175
refah 175
balık@@ 175
gerekir 175
göstermek 175
Odası 175
oynanan 175
indiri@@ 175
festivalin 175
değin@@ 175
lılar 175
değişikliği 175
işkence 175
bakanlığından 175
kullanarak 175
olduk@@ 175
başından 175
İşçi 175
trafik 175
easier 174
convinced 174
suc@@ 174
archaeologists 174
protecting 174
contin@@ 174
secular 174
Hurriyet 174
repeatedly 174
Sk@@ 174
presti@@ 174
isted 174
atmosphere 174
displaced 174
cip@@ 174
wa@@ 174
oslav 174
Zo@@ 174
TK 174
blocking 174
rescue 174
Mob@@ 174
eligible 174
zinc@@ 174
Osman@@ 174
oya 174
Krasniki 174
kurmaya 174
ulaşmak 174
zarar@@ 174
tiriyor 174
Gü@@ 174
peraken@@ 174
ihlal@@ 174
bölgeyi 174
yabanc@@ 174
alacağı 174
ılacak@@ 174
sunul@@ 174
günde@@ 174
mindeki 174
dayanıyor 174
Genç@@ 174
performans 174
yolsuzluk@@ 174
karşılandı 174
diren@@ 174
Kuvvetleri 174
ulacağ@@ 174
promising 173
elect 173
practical 173
ud 173
train 173
stated 173
category 173
Golden 173
ght 173
selected 173
ress 173
easily 173
celebrated 173
vari@@ 173
refor@@ 173
Fuele 173
ome 173
home@@ 173
76 173
00 173
humanity 173
Ord@@ 173
etbeg@@ 173
AC@@ 173
Samar@@ 173
Yun@@ 173
udur 173
unuz 173
geleceğe 173
getirdiğini 173
topluma 173
usuna 173
ayd@@ 173
muhtemelen 173
varılan 173
kullanıc@@ 173
anlaştılar 173
Cumhurbaşkanlığı 173
seçilen 173
usulsüz@@ 173
kalite@@ 173
Gazetec@@ 173
durumdan 173
başkanlığındaki 173
müttefik@@ 173
kili 173
katılımcı 173
announcing 172
depend 172
drafted 172
emphasised 172
contact 172
Political 172
enhan@@ 172
derg@@ 172
Nicolas 172
clashes 172
sealed 172
note 172
analysis 172
founder 172
oto@@ 172
Wal@@ 172
ite@@ 172
Year 172
tane 172
dak@@ 172
cil 172
ettiğ@@ 172
ilerlemeye 172
malz@@ 172
Sırpları 172
gü 172
miktar 172
dolar@@ 172
açma 172
durumunu 172
yolları 172
sıf@@ 172
vurgu@@ 172
yapabil@@ 172
rejimi 172
kesiminde 172
gücünü 172
programın 172
kabul@@ 172
örü 172
konularında 172
artışla 172
zanlının 172
citizen 171
instability 171
3m 171
Traj@@ 171
evi@@ 171
Kou@@ 171
urgent 171
veter@@ 171
vil 171
minute 171
11@@ 171
ather 171
kl@@ 171
Petrov 171
ours 171
pes 171
flu 171
tress 171
youn@@ 171
kicked 171
Rem@@ 171
immigrants 171
Miroljub 171
informal 171
assess 171
tial 171
Zivkovic 171
cham@@ 171
ras@@ 171
sustain@@ 171
colleagues 171
Christi@@ 171
Dic@@ 171
consumption 171
azar 171
Dai@@ 171
ECB 171
Eri@@ 171
gidi@@ 171
KESH 171
izden 171
taraflar 171
ülkelerini 171
sürdürmeye 171
ağının 171
Avustralya 171
elinin 171
mağdur@@ 171
lıklara 171
ateş 171
balt@@ 171
şer@@ 171
futbol@@ 171
aşırılık 171
sürdürme 171
öf@@ 171
günleri 171
protokol@@ 171
liklerini 171
amaçlanıyor 171
çıkarılması 171
ölüm 171
beledi@@ 171
lanma 171
Bakanlığ@@ 171
dee@@ 170
bills 170
vital 170
furthermore 170
invol@@ 170
Trajkovski 170
profile 170
branch 170
insisting 170
sw@@ 170
lation 170
cevic 170
comment 170
Ath@@ 170
spar@@ 170
Beth 170
hus@@ 170
respon@@ 170
subsi@@ 170
tile 170
Albert 170
Regional 170
Mission 170
param@@ 170
material 170
situ@@ 170
Tes@@ 170
Ned@@ 170
Djelic 170
HR@@ 170
Ran@@ 170
Medvedev 170
forec@@ 170
Ve@@ 170
akar@@ 170
hey@@ 170
Powell 170
turn@@ 170
ders@@ 170
cid@@ 170
Değ@@ 170
Genelkurmay 170
iyetin 170
karşılamak 170
araba 170
doğum 170
süreçte 170
sı@@ 170
iyimser@@ 170
sö@@ 170
verme@@ 170
verilmiş 170
Açık 170
biyat 170
dünyas@@ 170
bulundur@@ 170
uzun@@ 170
Merkez@@ 170
milyonlarca 170
birine 170
yaralan@@ 170
ularını 170
larsa 170
müzakereler@@ 170
hoped 169
stor@@ 169
selling 169
absol@@ 169
Phil@@ 169
worse 169
shooting 169
Blair 169
Ki@@ 169
bing 169
nati@@ 169
fro@@ 169
Cvetkovic 169
MO@@ 169
81 169
coach 169
demanded 169
Sava 169
ection 169
Professor 169
Monitor 169
topic 169
governing 169
govern@@ 169
restore 169
Angel@@ 169
hap@@ 169
JAT 169
spokeswoman 169
smoking 169
Eurozone 169
RN 169
Simitis 169
compete 169
pol 169
Lit@@ 169
va@@ 169
Ül@@ 169
yerinde 169
öğretmen@@ 169
kriterlerini 169
devral@@ 169
hukuk@@ 169
deyişle 169
kem@@ 169
alarındaki 169
fazlas@@ 169
sahne@@ 169
sözcü 169
dakik@@ 169
desi 169
vansiyon@@ 169
leyic@@ 169
sunuyor 169
konferansa 169
belge@@ 169
hedefleniyor 169
Bağ@@ 169
sıcak 169
müyor 169
toplandı 169
önemlidir 169
eklerini 169
Suçları 169
threat@@ 168
ish@@ 168
1980 168
license 168
contribut@@ 168
lef@@ 168
hit@@ 168
lining 168
74 168
ys 168
accomp@@ 168
wal@@ 168
ium 168
cast 168
Novosti 168
Tech@@ 168
itu@@ 168
modernisation 168
Repor@@ 168
grad 168
payment 168
mechanism 168
audience 168
survey@@ 168
Orhan 168
Holding 168
dozens 168
inger 168
fos@@ 168
Sasa 168
temas@@ 168
çabalar 168
yatırımlar 168
bunlara 168
olmayacağını 168
grupların 168
gönderdi 168
yinele@@ 168
vanya 168
açılışını 168
vereceği 168
imin 168
yetkililerinin 168
gazetesinde 168
yatırımı 168
altın@@ 168
tehlik@@ 168
farkında 168
ışma 168
cezaev@@ 168
ura 167
Razvan 167
torate 167
grounds 167
aches 167
conc@@ 167
ano 167
aspects 167
iring 167
Turk 167
Madrid 167
Djur@@ 167
correspondent 167
politician 167
sets 167
claiming 167
lived 167
couple 167
answer 167
73 167
index 167
ement 167
lum@@ 167
Bre@@ 167
referring 167
Politi@@ 167
tif 167
enk@@ 167
maktır 167
iyileştirme 167
başlangıç 167
değişikliklerin 167
geçirdi 167
ürünleri 167
belgeleri 167
hoşgör@@ 167
hedefleri 167
cesaret 167
ikiye 167
örgütleri 167
mağlup 167
beşinci 167
senar@@ 167
asgari 167
inşaat@@ 167
komisyon@@ 167
nedir 167
ortalam@@ 167
davada 167
tarak 167
Kürdistan 167
yeterince 167
disip@@ 167
savaşı 167
isiyle 167
aciç 167
unions 166
struggle 166
habi@@ 166
deliver 166
celebrate 166
oin 166
emp@@ 166
Haj@@ 166
withdraw 166
broke 166
requested 166
82 166
ited 166
demonstrated 166
pop 166
Transport 166
stip@@ 166
Stu@@ 166
clock 166
yn@@ 166
introduce 166
passing 166
toler@@ 166
cancer 166
Poor 166
acon@@ 166
Dal@@ 166
Cumhur@@ 166
şahıs@@ 166
sendik@@ 166
pazarlık 166
uygulanmasını 166
başlama 166
başardı 166
general@@ 166
aktardığı 166
lendiri@@ 166
kıl@@ 166
yıllarında 166
kayn@@ 166
İnsan@@ 166
Günü 166
raporun 166
İstatistik 166
telefon@@ 166
başlatılması 166
sürül@@ 166
site@@ 166
Ödülü 166
KKTC 166
ayrımcılık 166
mağaz@@ 166
kel 165
turing 165
nobody 165
hment 165
preven@@ 165
celebr@@ 165
stre@@ 165
Scot@@ 165
amounts 165
Beijing 165
Vasil@@ 165
lists 165
reading 165
Sti@@ 165
UNHCR 165
memorandum 165
kov@@ 165
hailed 165
Former 165
mann 165
recovery 165
Anatol@@ 165
fail@@ 165
stration 165
10m 165
Syrian 165
Demetris 165
ury 165
84 165
avan@@ 165
itions 165
emer@@ 165
deme@@ 165
onar@@ 165
tazminat 165
Ağ@@ 165
gördüğünü 165
sonbaharda 165
şar@@ 165
ağın 165
yürüy@@ 165
sağlaması 165
getirildi 165
arkasında 165
alacağını 165
töreninde 165
şimdilik 165
gençlerin 165
değerlendiri@@ 165
festivale 165
başlang@@ 165
makroekonomik 165
sanay@@ 165
resinin 165
yüz 165
0. 165
geçi@@ 165
eyle 165
2,5 165
ades 164
lus@@ 164
atives 164
succe@@ 164
wed 164
wood 164
IN@@ 164
orial 164
twice 164
usually 164
gical 164
ID 164
ements 164
AAK 164
deta@@ 164
Kir@@ 164
capable 164
moder@@ 164
Gaddafi 164
wave 164
Lis@@ 164
connec@@ 164
telecommunications 164
AE@@ 164
fik 164
karayolu 164
yükselt@@ 164
çatışmalar 164
söylediği 164
aydan 164
gide@@ 164
geçecek 164
eyalet 164
geleri 164
jeviç 164
gerçekleştirdiği 164
Maroviç 164
bronz 164
dık@@ 164
ekip 164
açıklaması 164
alabil@@ 164
ılarında 164
impose 163
article 163
proper 163
banned 163
condemned 163
potentially 163
shops 163
olli 163
featuring 163
morning 163
display 163
Great 163
ured 163
engine@@ 163
west 163
dation 163
jun@@ 163
Agri@@ 163
Rog@@ 163
Soviet 163
doors 163
fl@@ 163
giant 163
Kovac@@ 163
lim@@ 163
steel 163
religion 163
+ 163
Miller 163
Karolos 163
Limaj 163
pilot 163
hast@@ 163
uygulamada 163
İh@@ 163
meseleler 163
takv@@ 163
lıktan 163
sonuçlan@@ 163
kalması 163
haberler 163
numaralı 163
Genişleme 163
olmuştu 163
İlerleme 163
göçmen 163
köprü 163
kişiye 163
aldıkları 163
yönetimindeki 163
misyon 163
kuş 163
constan@@ 162
negotiation 162
Fatih 162
surprise 162
violation 162
united 162
wake 162
Jacques 162
enter@@ 162
mixed 162
tia 162
Hot@@ 162
admission 162
graphy 162
donors 162
pon@@ 162
southeast 162
healthcare 162
comman@@ 162
interim 162
Biden 162
20m 162
hai 162
arily 162
dre@@ 162
housing 162
imir 162
Crimes 162
Pos@@ 162
Nicholas 162
IM@@ 162
Korid@@ 162
suçlamaları 162
nerede 162
pahalı 162
kimin 162
çerçeve 162
kurban 162
istiyorlar 162
Altın 162
eğitimi 162
finansman@@ 162
finansman 162
alılar 162
tutuyor 162
canlı 162
göstergesi 162
eyn@@ 162
tırman@@ 162
değerlendiril@@ 162
çeyre@@ 162
noktas@@ 162
aş 162
paranın 162
tüler 162
bought 161
dismissed 161
Zemun 161
chev 161
erial 161
recommended 161
Conference 161
gaining 161
prosec@@ 161
Hen@@ 161
IS@@ 161
mages 161
edoms 161
revi@@ 161
Beq@@ 161
cos@@ 161
Bajram 161
brings 161
sts 161
achievements 161
mother 161
HS@@ 161
lah@@ 161
çalıştı 161
alanları 161
kiler 161
Mısır 161
yaklaşım 161
toplama 161
İspanyol 161
oluşturulması 161
psik@@ 161
landalı 161
bütünleş@@ 161
mektupta 161
yere 161
işin 161
tanıyan 161
yiy@@ 161
birden 161
önemi 161
iktidara 161
tackle 160
acci@@ 160
impor@@ 160
tely 160
dest 160
ff 160
atrocities 160
duc@@ 160
heard 160
vers 160
Presidency 160
Pahor 160
ambassadors 160
amoun@@ 160
origin 160
tis@@ 160
begun 160
outs 160
text 160
prising 160
limit 160
generation 160
matters 160
aband@@ 160
ship@@ 160
Ky@@ 160
Lib@@ 160
atan 160
Sul@@ 160
Mad@@ 160
MR@@ 160
ker@@ 160
telekom 160
mensup 160
fikri 160
kaynaklanıyor 160
malarından 160
niyet 160
çalıştığı 160
başbakanın 160
batı 160
noktada 160
sağlanacak 160
savcısı 160
denetim@@ 160
taşıdığı 160
sanık 160
yakından 160
hakk@@ 160
yenin 160
rekab@@ 160
seçimlerini 160
challen@@ 159
resigned 159
tension 159
tries 159
sage 159
Europ@@ 159
materials 159
oted 159
preventing 159
Tassos 159
practices 159
urban 159
oppose 159
Finnish 159
ired 159
hotel 159
Djok@@ 159
wind 159
expressing 159
Web 159
sible 159
ologist 159
prise 159
tric 159
restor@@ 159
virtu@@ 159
embassy 159
pending 159
Demokr@@ 159
Trajkov 159
chem@@ 159
volun@@ 159
oured 159
AD@@ 159
Gos@@ 159
vet 159
Sof@@ 159
Svil@@ 159
beni 159
soy@@ 159
faz@@ 159
kayak 159
sorunlarla 159
istikrara 159
üzün@@ 159
olmasından 159
konuyu 159
operasyonu 159
bilecek 159
tedbirlerin 159
ölç@@ 159
yaşandı 159
ilaç 159
konse@@ 159
gelmiş 159
seçti 159
danışmanı 159
törende 159
koşullar 159
mutabakat 159
akta 159
savaşın 159
ülkelerindeki 159
ülkesinde 159
umlu 159
gönderdiği 159
belirleme 159
büyüyen 159
Divanı 159
çıkar 159
Celiç 159
Gücü 159
dolara 159
başlıyor 159
Fuarı 159
türü 159
Radyo 159
exclusive 158
neighbour 158
peacekeepers 158
import 158
stopped 158
sac@@ 158
pris@@ 158
Gjorge 158
Insight 158
with@@ 158
Kampschror 158
Tem@@ 158
cou@@ 158
diaspora 158
atic 158
sim 158
hotels 158
Peku@@ 158
Tray@@ 158
Mitev 158
Shan@@ 158
dom@@ 158
jeopardis@@ 158
Konjikusic 158
98 158
regist@@ 158
eve 158
concerts 158
RA 158
iya 158
disaster 158
closing 158
Mark 158
rin@@ 158
Standard 158
ece@@ 158
RTK 158
ild 158
atma 158
liman 158
atik@@ 158
yolsuzluğa 158
işley@@ 158
Söz@@ 158
dığından 158
yetkisi 158
düzenlediler 158
forum@@ 158
sektöründeki 158
Amerikalı 158
seyre@@ 158
bilgileri 158
profesyonel@@ 158
taleb@@ 158
katılmayı 158
bildirge@@ 158
izledi 158
kullanan 158
teşekkür 158
astır@@ 158
yazı 158
hedefini 158
olduğumuz 158
Programı 158
edeme@@ 158
zorunlu 158
Avro 158
sektörüne 158
fra@@ 157
auto@@ 157
Constitution 157
conclusion 157
Resolution 157
Gri@@ 157
camp@@ 157
Ari@@ 157
destro@@ 157
intervention 157
monitor 157
zen 157
Martin 157
context 157
Vesna 157
reactions 157
Inv@@ 157
imal 157
Youth 157
female 157
lands 157
Dimit@@ 157
Don@@ 157
sas 157
ess@@ 157
deaths 157
clar@@ 157
jes@@ 157
rain 157
gic 157
contributions 157
ison 157
GS@@ 157
rehabil@@ 157
ries 157
counterparts 157
ior 157
Moody 157
Mus@@ 157
Ramazan 157
özelleştiril@@ 157
bölges@@ 157
kutladı 157
desteğiyle 157
İvan 157
saldırıları 157
tarihten 157
çift 157
Akımı 157
bayanlar 157
tüphan@@ 157
ılarla 157
kararlaştır@@ 157
kavuştur@@ 157
diplomat@@ 157
sözc@@ 157
tarafsız 157
alışveriş 157
perform 156
section 156
Victor 156
Commun@@ 156
ived 156
collective 156
tant 156
backs 156
Georgi@@ 156
conservative 156
tell 156
presents 156
dismis@@ 156
connected 156
itary 156
encouraging 156
nj@@ 156
Reform 156
overha@@ 156
asing 156
adin 156
experi@@ 156
Kov@@ 156
Dok@@ 156
FENA 156
SEECP 156
Hadzic 156
janin 156
difference 156
polling 156
Ion 156
Radman@@ 156
El 156
Hiz@@ 156
kalmış 156
çalışanları 156
İktidardaki 156
belirlenen 156
madaki 156
sefer 156
çarp@@ 156
kesim 156
loviç 156
seçmenler 156
olayların 156
gereğini 156
doğu 156
rakip@@ 156
oluşturma 156
yanından 156
sırayı 156
uygul@@ 156
göstermeye 156
ücre@@ 156
güvenilir 156
zanlılarının 156
looks 155
stabil@@ 155
commemor@@ 155
putting 155
versi@@ 155
tom@@ 155
mental@@ 155
Hel@@ 155
Eston@@ 155
Yan@@ 155
succeed 155
finals 155
foot@@ 155
truth 155
indeed 155
market@@ 155
crow@@ 155
bo 155
delays 155
Kraj@@ 155
Muam@@ 155
Stankovic 155
Srbija 155
visions 155
satisfaction 155
grow 155
Zdrav@@ 155
Zannier 155
Meh@@ 155
imini 155
katıldılar 155
almasını 155
baskın 155
reformlara 155
üyeli 155
ucuz 155
derec@@ 155
erinin 155
sürdüğü 155
sorumluluğunu 155
Boşnak@@ 155
ılığ@@ 155
suçlar 155
attığını 155
ihrac@@ 155
yolsuzluğun 155
insanlara 155
etkinlik@@ 155
törenine 155
ısız 155
Anlaşmasının 155
ıktan 155
eyalette 155
büyümenin 155
etmektedir 155
ektir 155
farkl@@ 155
oranları 155
bilgilere 155
expen@@ 154
Matthew 154
Global 154
lots 154
luc@@ 154
behavi@@ 154
77 154
oke 154
aten 154
ral@@ 154
Even@@ 154
propag@@ 154
ownership 154
innov@@ 154
Div@@ 154
dia 154
hydro@@ 154
relatively 154
Op@@ 154
CEC 154
Gates 154
AB@@ 154
etry 154
Rompuy 154
Feith 154
sam 154
Pekin 154
fatur@@ 154
Tihiç 154
böylece 154
düşen 154
hedeflerine 154
Komisyon@@ 154
uygulanmasına 154
iyileştirilmesi 154
tarafların 154
öğrenim 154
verilmesini 154
laik@@ 154
Portekiz 154
rüzgar 154
atıl@@ 154
avukat 154
ıf 154
yardımıyla 154
üstü 154
ermesinden 154
etmenin 154
felaket@@ 154
muazzam 154
sinde 154
liderlik 154
sergide 154
Krasniqi 153
content 153
commissioner 153
post@@ 153
admitted 153
Fried 153
revealed 153
protec@@ 153
alities 153
radical 153
Swedish 153
talking 153
attracting 153
feature 153
mat 153
Community 153
ulations 153
Marovic 153
reve@@ 153
enormous 153
Prize 153
surrounding 153
express 153
White 153
combined 153
Franco 153
Bag@@ 153
Drazen 153
Mitrov@@ 153
edi 153
mıyorum 153
Bütünleşme 153
ımında 153
mühim@@ 153
şiddetle 153
insanlık 153
bildiri 153
lıyorlar 153
amayacağını 153
Zvetkoviç 153
dalında 153
ağını 153
ığımız 153
yapı 153
zanlıları 153
Konsey@@ 153
eleştiril@@ 153
atılan 153
dirme 153
göç@@ 153
Fonu 153
şehir@@ 153
kendisinin 153
alım 153
istlere 153
sayıdaki 153
bilimsel 153
hibe 153
güneydoğ@@ 153
promp@@ 152
ulate 152
oph@@ 152
Necdet 152
riots 152
else 152
Anti 152
torture 152
optimism 152
Europe@@ 152
Ri@@ 152
inovic 152
clu@@ 152
cessive 152
Todor@@ 152
Swiss 152
Novinite 152
welcoming 152
deci@@ 152
Ed@@ 152
ues 152
Red 152
elled 152
dependence 152
pati@@ 152
bailout 152
Workers 152
oljub 152
Corruption 152
Holbrooke 152
bic 152
ER@@ 152
aci 152
oda 152
avr@@ 152
Sanay@@ 152
turu 152
kuruluşlarının 152
bakıl@@ 152
itiraf 152
işbirliğiyle 152
yoktur 152
oluşturduğu 152
üzer@@ 152
Yardım 152
üsü 152
kaynaklanan 152
reter 152
karışık 152
iyileşme 152
zorla 152
üyelerinden 152
blok 152
azı 152
onur@@ 152
projesinin 152
müfettiş@@ 152
Bölgesel 152
imti@@ 152
haftalık 152
barındır@@ 152
Karş@@ 152
bilgiler 152
emez 152
mama 152
barışı 152
gönüllü 152
locations 151
function 151
laundering 151
approve 151
publicly 151
wrapped 151
strugg@@ 151
outlook 151
Vass@@ 151
launching 151
save 151
returning 151
Commerce 151
lav 151
heav@@ 151
thre@@ 151
dating 151
analy@@ 151
mechanisms 151
mentioned 151
Distri@@ 151
Zastava 151
reflect 151
Topal@@ 151
decrease 151
bers 151
missile 151
discipl@@ 151
Alp@@ 151
leti@@ 151
sov 151
pet@@ 151
elim@@ 151
istin 151
faydalan@@ 151
sonuçlarını 151
düşünüy@@ 151
çıkarlarını 151
Nataşa 151
istekli 151
başkanları 151
haklı 151
krizden 151
zanlıların 151
süres@@ 151
jisi 151
Festival@@ 151
yeten@@ 151
zirve 151
özgürlük@@ 151
kış 151
görevinden 151
üle@@ 151
perspek@@ 151
meseleleri 151
Konjikusiç 151
Hristofiyas 151
süresinin 151
efsan@@ 151
listesinde 151
complicated 150
autumn 150
dis 150
Under@@ 150
artist 150
cancel@@ 150
Pu@@ 150
communism 150
my@@ 150
exerc@@ 150
opol@@ 150
convince 150
Radmila 150
Moun@@ 150
inclu@@ 150
Gashi 150
Pow@@ 150
trac@@ 150
dering 150
av 150
respected 150
considers 150
Stein@@ 150
seeing 150
telephone 150
stead@@ 150
stone 150
onom@@ 150
interethnic 150
ami 150
cape 150
Taki 150
inations 150
TA@@ 150
dij@@ 150
Rapor@@ 150
doğan 150
değişen 150
sorunlarını 150
hayır 150
öncül@@ 150
mahal@@ 150
bölgesine 150
topraklarında 150
üyelerine 150
sayılı 150
akş@@ 150
Ort@@ 150
bilgisay@@ 150
ılığıyla 150
cinay@@ 150
ailesinin 150
ekonomist 150
Ulaştırma 150
bileceğini 150
örgütünün 150
geçiyor 150
lilik@@ 150
kaldığı 150
yıllarca 150
tüğ@@ 150
Tihic 149
unfortunately 149
bit 149
diplomacy 149
Grand 149
injur@@ 149
dow 149
otis 149
commun@@ 149
condi@@ 149
metal 149
middle 149
Sad@@ 149
Helsinki 149
author 149
migration 149
options 149
itely 149
cigar@@ 149
EXIT 149
avoi@@ 149
utility 149
onal 149
Kot@@ 149
US@@ 149
motor@@ 149
Georgievski 149
fires 149
Cin@@ 149
duk@@ 149
bine 149
uygulaması 149
yararlı 149
tıp 149
girmesi 149
alınmış 149
azaltmak 149
izleyen 149
kurul 149
piyasa 149
muad@@ 149
İngilizce 149
yürüttüğü 149
davaları 149
dahilinde 149
çısı 149
savcılık 149
şüphe@@ 149
başkentinde 149
ülkesinden 149
akıl@@ 149
kilise 149
pazarına 149
ırklı 149
divi@@ 148
Australia 148
counter 148
cevski 148
affirmed 148
Sem@@ 148
Finland 148
Arts 148
seg@@ 148
encouraged 148
4,000 148
pir@@ 148
astro@@ 148
quot@@ 148
collapse 148
Report 148
sons 148
resume 148
producers 148
unemployed 148
lit@@ 148
floods 148
pros@@ 148
mosque 148
ambi@@ 148
Alakbar 148
Raufo@@ 148
Teresa 148
open@@ 148
njak 148
cies 148
Büy@@ 148
kendis@@ 148
gereği 148
İstih@@ 148
nüfusu 148
çağırdılar 148
çifte 148
katılanların 148
doktor 148
amacının 148
görevde 148
tanesi 148
günler 148
adığı 148
görüldüğü 148
sendi@@ 148
aydır 148
payı 148
Türkler 148
ordusu 148
stratejisi 148
concept 147
comb@@ 147
spirit 147
fresh 147
opponents 147
Initiative 147
rul@@ 147
recession 147
Obrad@@ 147
Her 147
accommo@@ 147
photo 147
deployed 147
Club 147
disputes 147
Djord@@ 147
tments 147
dable 147
resses 147
Croatians 147
deteri@@ 147
avlj@@ 147
Administration 147
strikes 147
Vir@@ 147
func@@ 147
Ditore 147
esk@@ 147
pus@@ 147
Kum@@ 147
Darko 147
Yil@@ 147
sek 147
bek 147
kaygı@@ 147
muhal@@ 147
yoluna 147
Bağımsız 147
etkileri 147
Lübnan 147
aram@@ 147
kırık@@ 147
münasebetiyle 147
devredil@@ 147
sıradan 147
değerinde 147
daydı 147
şüphe 147
otoyol@@ 147
etten 147
eşlik 147
alıyorlar 147
yasal@@ 147
ölçek@@ 147
belgenin 147
incelen@@ 147
komisyonu 147
dünyadaki 147
kırıklığına 147
saklan@@ 147
sayımı 147
tered 146
controversy 146
otos 146
decisive 146
card 146
learn 146
thro@@ 146
unded 146
Islamist 146
intro@@ 146
Jankovic 146
advanced 146
Jovan 146
hosting 146
Kovacevic 146
picture 146
collaboration 146
respond 146
monopol@@ 146
Ta@@ 146
Hos@@ 146
halt 146
investigate 146
tom 146
Plav@@ 146
obli@@ 146
cked 146
Wolfgang 146
Governor 146
odi@@ 146
3.5 146
Antonela 146
Communic@@ 146
Proeski 146
evska 146
atis@@ 146
handle 146
PNL 146
Carlo 146
Cr@@ 146
fel@@ 146
alam@@ 146
vaz@@ 146
örnek@@ 146
ertesi 146
istatistik@@ 146
platform@@ 146
arkeologlar 146
rakibi 146
layık 146
taraftan 146
yumu 146
kalınt@@ 146
törü 146
vurgul@@ 146
kurmayı 146
Profesör 146
işleyen 146
alanlar 146
aktör@@ 146
olmalı 146
gerekçesiyle 146
ülkesine 146
koordine 146
yası 146
İlgili 146
teşkilatı 146
düler 146
yatırımcıların 146
Norveç 146
kalmay@@ 146
Mahkeme 146
Enver 145
assu@@ 145
exper@@ 145
birth 145
licen@@ 145
accus@@ 145
peoples 145
findings 145
reflec@@ 145
onable 145
covers 145
Bah@@ 145
radio 145
itar@@ 145
arko 145
India 145
Corridor 145
lay 145
love 145
Ul@@ 145
Dub@@ 145
vic 145
Statisti@@ 145
gressive 145
macroeconomic 145
rever@@ 145
legisla@@ 145
Vic@@ 145
unve@@ 145
gence 145
cautioned 145
Nenad 145
benef@@ 145
threshold 145
DTP 145
Ir@@ 145
RO@@ 145
idis 145
Bin@@ 145
rak 145
ilmiş 145
çalıştığını 145
planda 145
nci 145
ılabilecek 145
planladığı 145
kulü@@ 145
dakika 145
tatil@@ 145
toplantısına 145
etraf@@ 145
projede 145
ırk@@ 145
filmin 145
ılım 145
odak@@ 145
değin 145
hır@@ 145
akla 145
artışı 145
tı@@ 145
standartların 145
medyanın 145
danış@@ 145
expendi@@ 144
matically 144
utions 144
volunte@@ 144
undermine 144
weigh@@ 144
adj@@ 144
King 144
Portugal 144
fellow 144
Flor@@ 144
Industry 144
investor 144
outgoing 144
proof 144
ife 144
appre@@ 144
illu@@ 144
dian 144
dom 144
Petrescu 144
Papoulias 144
pension@@ 144
lek@@ 144
yaralandı 144
hüküm 144
çalışacak 144
sokak 144
bürokr@@ 144
güçlendirilmesi 144
itenin 144
uştur@@ 144
sizin 144
gözlemc@@ 144
çocukları 144
gisi 144
olayın 144
çekiş@@ 144
başladığı 144
taşımacılık 144
kah@@ 144
istatisti@@ 144
sürüldü 144
emri 144
mahkum@@ 144
oynam@@ 144
elerinden 144
kardeş@@ 144
girecek 144
ıcılık 144
kararları 144
maliyeti 144
partilerinin 144
uçak 144
iniç 144
yatırımları 144
düzgün 144
notunu 144
cılık 144
supp@@ 143
4.5 143
cally 143
runs 143
aus@@ 143
sear@@ 143
Papadopoulos 143
recorded 143
experienced 143
sibly 143
championship 143
atten@@ 143
subsidies 143
ny 143
temper@@ 143
isolation 143
Aegean 143
ruc@@ 143
figh@@ 143
pren@@ 143
insufficient 143
attri@@ 143
hospitals 143
Lip@@ 143
skills 143
nearby 143
6m 143
perhaps 143
sig@@ 143
shop@@ 143
corrupt 143
Erhard 143
Iliescu 143
ority 143
amada 143
zamanın 143
devlete 143
İvica 143
ayrılık@@ 143
yola 143
zamandan 143
çözüle@@ 143
mızı 143
sağlanan 143
saldırılar 143
kuvvetleri 143
İttifaka 143
çağ@@ 143
hüküme@@ 143
açabilir 143
Jankoviç 143
leştiril@@ 143
heyetinin 143
kendini 143
listesinin 143
çoğun@@ 143
öncelikli 143
Seçim@@ 143
sahipleri 143
sergisi 143
standartlara 143
yasak 143
alıp 143
elerinde 143
sahas@@ 143
taban@@ 143
Paktı 143
Lut@@ 142
tripartite 142
regar@@ 142
payments 142
portion 142
remin@@ 142
defeated 142
product 142
ump@@ 142
voice 142
competi@@ 142
itan 142
Strategic 142
Google 142
leum 142
infor@@ 142
Vecern@@ 142
prospect 142
proces@@ 142
dubbed 142
feasibility 142
Serge 142
ll 142
highlighted 142
ald 142
Environ@@ 142
num@@ 142
atur@@ 142
shap@@ 142
Lj@@ 142
1984 142
BI@@ 142
output 142
haftalarda 142
180 142
ister@@ 142
beyaz 142
1.000 142
reci 142
ayrımc@@ 142
yatırımcı 142
Başk@@ 142
Hareket 142
yargı@@ 142
anah@@ 142
önemlisi 142
kilometrelik 142
anlaşmaları 142
bağımsızlığının 142
İvanoviç 142
sunan 142
misyonun 142
suretiyle 142
kararlılığını 142
zirve@@ 142
Sivil 142
turizmi 142
araz@@ 142
bölgelerinde 142
gâ@@ 142
riyor 142
ayakta 142
sanayii 142
değildi 142
acağım 142
döndü 142
cesi 142
gidil@@ 142
yollardan 142
azaltma 142
umuzu 142
dinam@@ 142
ruhsat@@ 142
birliğinin 142
derecelendirme 142
manage 141
und 141
Palestinian 141
perce@@ 141
speculation 141
clean 141
Lat@@ 141
minutes 141
ental 141
AF@@ 141
Mihaj@@ 141
model@@ 141
Network 141
incen@@ 141
rout@@ 141
debts 141
sometimes 141
ovica 141
was@@ 141
encies 141
foster 141
visible 141
Framework 141
correc@@ 141
consolid@@ 141
Slovak 141
H5N1 141
Feder@@ 141
Kamu 141
Huk@@ 141
Süleyman 141
belirsiz@@ 141
yapım 141
birlik@@ 141
uzlaşmaya 141
ılıkları 141
ilişkilerde 141
misyonunun 141
kanun@@ 141
çatışma 141
Brezil@@ 141
kalabalık 141
ı- 141
oldular 141
Hindistan 141
dünyasında 141
kalan@@ 141
hesab@@ 141
mahkemeyle 141
şansını 141
iyileştirmek 141
amaması 141
grubunun 141
başlatıldı 141
girişimin 141
Haberleşme 141
Priv@@ 140
equality 140
thirds 140
activists 140
annis 140
unlikely 140
champion 140
watch 140
bomb 140
pledging 140
derly 140
aspirations 140
arch@@ 140
safe@@ 140
weak 140
barricades 140
tering 140
uel 140
organising 140
offen@@ 140
Recon@@ 140
warn 140
won@@ 140
cubic 140
jail 140
Uni@@ 140
RTS 140
boys 140
mental 140
üle 140
tale@@ 140
uygun@@ 140
luğunu 140
Fakültesi 140
politikasını 140
aylar 140
gidiş@@ 140
haklarına 140
Müsteş@@ 140
yemek 140
kullandı 140
Silayciç 140
toplumlar 140
Toplum 140
sinema 140
Yöne@@ 140
pratik 140
Burgaz 140
geçerek 140
çıkarma 140
kademeli 140
Gör@@ 140
geliştirmek 140
sos@@ 140
gidecek 140
laştırma 140
amayı 140
eyaletteki 140
desteğin 140
koalisyonunun 140
yayı 140
çok@@ 140
toplantıdan 140
yazılı 140
mür@@ 140
yaratmak 140
1. 140
A1 139
Zlatko 139
Faculty 139
ratified 139
mach@@ 139
Heritage 139
ombud@@ 139
attitude 139
phar@@ 139
rav@@ 139
originally 139
ides 139
lection 139
Silajdzic 139
depen@@ 139
functional 139
manship 139
conten@@ 139
connections 139
class 139
immig@@ 139
corpor@@ 139
Vele@@ 139
directors 139
tren@@ 139
Accords 139
declar@@ 139
1,500 139
pushing 139
acquired 139
8m 139
rit@@ 139
thor@@ 139
necess@@ 139
Pros@@ 139
vis 139
aire 139
88 139
legen@@ 139
eller 139
gul@@ 139
Leakey 139
gali@@ 139
bahar@@ 139
komple@@ 139
hükümetle 139
yoksun 139
parlamentoya 139
zirvesi 139
ithalat 139
vergisi 139
yolcu 139
yaptılar 139
yüksek@@ 139
alarca 139
projesine 139
reş@@ 139
Düz@@ 139
bakanlığ@@ 139
yalan@@ 139
kaldırma 139
Hıristiyan 139
şarkı 139
yarısı 139
ınlar 139
otoyol 139
kurumlara 139
çekmek 139
benzeri 139
yazılım 139
tutukladı 139
lığıyla 139
kız 139
alınmasını 139
seçenek 139
İrlanda 139
bulunmadığını 139
politikasının 139
küç@@ 139
tedavi 139
rakamın 139
tıklarını 139
güz@@ 139
şaşırt@@ 139
tüketi@@ 139
desire 138
regre@@ 138
electronic 138
passengers 138
Lie@@ 138
objectives 138
rob@@ 138
downtown 138
intention 138
96 138
lovic 138
Vuj@@ 138
ane 138
olog@@ 138
Na@@ 138
IOC 138
hum@@ 138
Cultural 138
convic@@ 138
declare 138
teur 138
PACE 138
ethnic@@ 138
professionals 138
willingness 138
tens 138
matur@@ 138
reserves 138
reporting 138
driving 138
99 138
provisional 138
simple 138
Popovski 138
KO@@ 138
Donald 138
oni 138
hac@@ 138
giu 138
erin 138
sur 138
kendi@@ 138
otel 138
Bür@@ 138
anayasanın 138
hiz@@ 138
yasasını 138
Devlet@@ 138
olabileceği 138
ımla 138
ınca 138
açığını 138
sine@@ 138
anlık 138
havaalan@@ 138
ilgisi 138
İnsanlar 138
görüşlerini 138
eğit@@ 138
maksızın 138
Lukiç 138
imzalanması 138
fela@@ 138
bütçesi 138
destekli 138
osuna 138
birleşik 138
dığımız 138
vizyon@@ 138
ekonomiyi 138
Müdür@@ 138
geleni 138
compensation 137
testi@@ 137
confis@@ 137
ored 137
entrepren@@ 137
advan@@ 137
ash 137
tank 137
Egypt 137
Tor@@ 137
isola@@ 137
suggesting 137
ager 137
speaker 137
Passy 137
embar@@ 137
posts 137
tobacco 137
fails 137
Ivana 137
dged 137
defendants 137
print 137
mits 137
acquit@@ 137
rhetoric 137
proceed 137
probe 137
Pres@@ 137
tian 137
inje 137
word 137
zburg 137
emerging 137
ser 137
contrast 137
Iranian 137
industri@@ 137
funded 137
Barack 137
Djuk@@ 137
CN@@ 137
Dow@@ 137
Io@@ 137
Ener@@ 137
Proj@@ 137
keti 137
suçların 137
çözümün 137
nitele@@ 137
onaylanan 137
sığınma 137
kapsay@@ 137
elver@@ 137
yarısında 137
müzakerec@@ 137
saydı 137
Ülk@@ 137
güneyindeki 137
öncelikleri 137
kullanıyor 137
hakkını 137
başkanının 137
komisyonun 137
kapsam@@ 137
karşılay@@ 137
doğalgaz@@ 137
fikrini 137
önerisi 137
müzis@@ 137
gayr@@ 137
taşıdığını 137
personeli 137
örneği 137
Silahlı 137
danışman@@ 137
ülkeyle 137
tartışmaya 137
hükümetler 137
Denizi 137
yangın@@ 137
cking 136
contacts 136
revol@@ 136
waters 136
Labour 136
behalf 136
71 136
resign 136
enon 136
financed 136
tre 136
astr@@ 136
magazine 136
Rocen 136
fixed 136
Vuc@@ 136
Selimaj 136
abilisation 136
Azerbai@@ 136
conce@@ 136
eljko 136
Charles 136
refin@@ 136
rival 136
customers 136
ratification 136
Catherine 136
.bg 136
sun 136
collected 136
limit@@ 136
bina 136
Kozloduy 136
ond 136
Esad 136
milletvekillerine 136
bulunduğ@@ 136
Siy@@ 136
diğinden 136
askerlerinin 136
cihaz@@ 136
vatandaşlara 136
çalışıyorlar 136
başlamasından 136
amaçlıyor 136
atıfta 136
yed@@ 136
bilgil@@ 136
yaklaşan 136
daimi 136
istiyorum 136
desteklenmesi 136
gemi 136
Danimarka 136
ımından 136
abiliyor 136
davaların 136
kışkırt@@ 136
yeme@@ 136
0.000 136
sunuldu 136
egemen 136
füze 136
gereğ@@ 136
uçağ@@ 136
getirerek 136
fulfilled 135
echo@@ 135
recor@@ 135
assume 135
PM 135
preparation 135
Pakistan 135
4m 135
consideration 135
feel@@ 135
amir 135
policemen 135
agers 135
doctor 135
river 135
yi@@ 135
Kil@@ 135
arrive 135
prepar@@ 135
fired 135
uti@@ 135
Tsvet@@ 135
liqu@@ 135
achievement 135
Aj@@ 135
astery 135
hear@@ 135
worry 135
clear@@ 135
Kragujevac 135
vulnerable 135
coastal 135
Mladen@@ 135
auti@@ 135
maximum 135
Rud@@ 135
drive 135
studies 135
utting 135
hil@@ 135
Denk@@ 135
Philip 135
Lim@@ 135
cell 135
alo@@ 135
Kriv@@ 135
KPC 135
Pon@@ 135
key@@ 135
uca 135
Tüz@@ 135
ayak@@ 135
Şeffaflık 135
yoğunlaş@@ 135
imkans@@ 135
pekiş@@ 135
dönemin 135
çıkarlarına 135
işleme 135
azalma 135
Koalis@@ 135
düşman@@ 135
aracı 135
Şimşek 135
tün 135
artırdı 135
tuttur@@ 135
kalabal@@ 135
öz 135
ilişki 135
karşılayan 135
mamakla 135
kaldığını 135
ekleri 135
davayı 135
ailesi 135
Tiyat@@ 135
raporunu 135
şarkıcı 135
sorunla 135
zengin@@ 135
gurur 135
piy@@ 135
şeffaf 135
tutum 135
sürpriz 135
bazılarının 135
evet 135
emplo@@ 134
foundation 134
160 134
upgra@@ 134
intends 134
ope 134
1.2 134
appoin@@ 134
Ilir 134
finish 134
opposes 134
ingent 134
ject 134
X 134
movies 134
dem 134
digital 134
lying 134
engagement 134
kender 134
Sadi@@ 134
Dnevni 134
dinar 134
suic@@ 134
orders 134
defic@@ 134
dynam@@ 134
Rijeka 134
lular 134
jel@@ 134
gev@@ 134
Clar@@ 134
laborat@@ 134
basket@@ 134
yasalara 134
mantık@@ 134
yükümlül@@ 134
İttifakı 134
hatırlat@@ 134
biliyor 134
köken@@ 134
tarafının 134
mün@@ 134
ladılar 134
polisinin 134
iddiana@@ 134
üb@@ 134
tutmak 134
tarihe 134
kurucu 134
puanla 134
erecek 134
Sın@@ 134
tavsi@@ 134
endişelerini 134
doğur@@ 134
tecr@@ 134
vardır 134
finans@@ 134
belirlenmiş 134
kurucusu 134
görevlerini 134
yarım 134
varan 134
Azerbaycan 134
olmas@@ 134
kans@@ 134
issu@@ 133
vol@@ 133
Tim@@ 133
Sum@@ 133
addi@@ 133
satis@@ 133
coup 133
Assistant 133
aps 133
items 133
ulation 133
ru 133
ater 133
mos@@ 133
Fu@@ 133
solid 133
friend 133
crowd 133
entary 133
dramatic 133
Ireland 133
public@@ 133
burden 133
core 133
dence 133
Strasbourg 133
retain 133
relatives 133
gh 133
30,000 133
syn@@ 133
Kurti 133
kic@@ 133
prevention 133
adap@@ 133
Military 133
transparent 133
Max@@ 133
appearance 133
Airways 133
allocated 133
parliam@@ 133
bat 133
zim 133
Bis@@ 133
buying 133
yes 133
Gent 133
Dr. 133
deli 133
Dabilis 133
nu 133
üf@@ 133
skand@@ 133
kurumlarını 133
gelişimi 133
talebinde 133
bakanlığına 133
Forumu 133
harici 133
bölümünü 133
yanl@@ 133
çıkarmak 133
sıralam@@ 133
kası 133
arasına 133
ileti@@ 133
çli 133
reter@@ 133
belgeyi 133
ısıyla 133
nitelendiren 133
parçalan@@ 133
biriydi 133
sigorta 133
liğindeki 133
düzinelerce 133
çat@@ 133
devi 133
bağlan@@ 133
sandaly@@ 133
ilç@@ 133
Büyükelçi 133
sunulacak 133
geçersiz 133
biç 133
öğrencilerin 133
mür 133
responded 132
Kaz@@ 132
congrat@@ 132
churches 132
attracted 132
bru@@ 132
sn@@ 132
categor@@ 132
opera 132
Opera 132
Simsek 132
broadcast 132
Jag@@ 132
extra@@ 132
symbol 132
Filip@@ 132
We 132
announce 132
lescu 132
legally 132
School 132
facilit@@ 132
10.@@ 132
exists 132
balan@@ 132
interven@@ 132
restric@@ 132
Lisbon 132
Bilgi 132
jazz 132
investing 132
Vil@@ 132
ESM 132
stem@@ 132
execu@@ 132
targeted 132
hop 132
J 132
Dim@@ 132
syste@@ 132
fan@@ 132
Kral@@ 132
bes 132
lal@@ 132
Fre@@ 132
Ka@@ 132
Pic@@ 132
arda 132
kanalı 132
sadık 132
melerinin 132
beş@@ 132
beraber@@ 132
inanıyorlar 132
miyorum 132
oturum 132
kuzeyde 132
tehdidi 132
öncelikle 132
suçun 132
geçirmek 132
süz 132
başladığını 132
beklendiği 132
turistler 132
terler 132
politikaları 132
kayıp@@ 132
dağıtım 132
gazetecilerin 132
çıkacak 132
adıyla 132
çap@@ 132
açıklamasına 132
meclisi 132
fonlar 132
güneş 132
bölgesinin 132
evac 131
petition 131
doub@@ 131
Lebanon 131
mly 131
treas@@ 131
sors 131
excellent 131
archaeological 131
Fouere 131
profits 131
Nikolay 131
eval 131
seem 131
scenar@@ 131
brief 131
Future 131
channel 131
registration 131
renowned 131
games 131
solidarity 131
defend 131
languages 131
Lehne 131
Book 131
objections 131
foreigners 131
Nesovski 131
adis 131
salt 131
Bildt 131
Cristian 131
lawyers 131
Eide 131
iso@@ 131
Reform@@ 131
SNS 131
Sibenik 131
Bayra@@ 131
kilo 131
zih@@ 131
zul@@ 131
Mey@@ 131
hal 131
etler 131
alev@@ 131
tadır 131
üyü 131
İktidar 131
sorumluluğu 131
olmasa 131
eleştirilere 131
şim 131
fiziksel 131
memurları 131
zede@@ 131
amadığı 131
çağıran 131
mücadelenin 131
imiyle 131
basınında 131
tenis 131
İsti@@ 131
boğ@@ 131
Tiyatrosu 131
ayolları 131
dört@@ 131
katılımını 131
yapılanma 131
ebev@@ 131
kararda 131
toplanan 131
ürün 131
azal@@ 131
bireysel 131
soruna 131
sektörünü 131
alandaki 131
duruldu 131
sahası 131
fiyatı 131
otomo@@ 131
newspapers 130
ought 130
uncertain@@ 130
poses 130
Repub@@ 130
bench@@ 130
Borislav 130
lasting 130
sively 130
sta@@ 130
alco@@ 130
bigger 130
perfor@@ 130
Anagnostop@@ 130
Online 130
postponed 130
Velchev 130
focusing 130
version 130
Sok@@ 130
Hox@@ 130
streng@@ 130
flexi@@ 130
falls 130
geo@@ 130
latter 130
Directorate 130
NA@@ 130
Shkullaku 130
Daha 130
TC 130
Rek@@ 130
lesi 130
adımları 130
tartışmalara 130
görülmemiş 130
bugün@@ 130
işareti 130
dükleri 130
polise 130
Üye@@ 130
kurulmasına 130
ılmıştı 130
başsavcı 130
larımızı 130
lerimizi 130
konferansı 130
üyelerini 130
tanın 130
seviyesine 130
ziç 130
enlere 130
buraya 130
dün 130
hayat 130
arabuluculuk 130
aklan@@ 130
malların 130
kurumun 130
çilik 130
uygulamak 130
irsiniz 130
hayatta 130
okula 130
çıkardılar 130
sürmesi 130
sektörün 130
işti 130
saatlik 130
oyunu 130
kısm@@ 130
santr@@ 130
isiç 130
alle@@ 129
nic@@ 129
felt 129
lican 129
consultations 129
Jusuf 129
custody 129
prol@@ 129
Ass@@ 129
Women 129
scored 129
200m 129
premi@@ 129
medicine 129
shut 129
Hil@@ 129
frag@@ 129
pollu@@ 129
6,000 129
thanks 129
Jer@@ 129
anne 129
sicians 129
illegally 129
determin@@ 129
Pope 129
seekers 129
emerged 129
nect 129
governmental 129
BA 129
gas@@ 129
Fitch 129
tests 129
unanim@@ 129
Tose 129
Hillary 129
atmos@@ 129
laki 129
bahar 129
imz@@ 129
Ramaz@@ 129
ışığında 129
etkileyen 129
yazık 129
sorumluluğ@@ 129
işlenmiş 129
şartların 129
işli 129
konması 129
komitesi 129
şampiyonu 129
bulunuldu 129
almıştı 129
mensup@@ 129
eş 129
şarap 129
ihtiyac@@ 129
Çerçeve 129
Lizbon 129
olabilecek 129
faktör@@ 129
aşağı 129
bazen 129
meşru 129
Hava@@ 129
eskiden 129
masız 129
cazip 129
negotiate 128
veteran 128
Catholic 128
Al 128
blame 128
stru@@ 128
Pak@@ 128
identify 128
cash 128
venture 128
lets 128
stro@@ 128
quali@@ 128
86 128
valu@@ 128
unrest 128
SO@@ 128
basketball 128
dations 128
sensitive 128
nings 128
associations 128
journ@@ 128
Avaz 128
chain 128
Latin 128
aircraft 128
Mom@@ 128
tack@@ 128
princip@@ 128
caf@@ 128
Zenica 128
calm 128
milk 128
yers 128
rapid 128
secondary 128
exac@@ 128
adar 128
ii 128
requests 128
ques 128
holidays 128
Sah@@ 128
Af@@ 128
Nok@@ 128
uf@@ 128
Entegr@@ 128
lat 128
düşünce 128
sürdürülen 128
kazanç 128
çoğunluğunun 128
hızlandırma 128
çıkarılan 128
adamı 128
bankalar 128
Teşkilatı 128
bombalı 128
duklarını 128
hepimiz 128
rakip 128
İnş@@ 128
tamamı 128
yasada 128
kör@@ 128
kurumu 128
Dağı 128
İddian@@ 128
denges@@ 128
enflasyon@@ 128
akrab@@ 128
civar@@ 128
yükselen 128
coğ@@ 128
bankanın 128
çıkarları 128
tutan 128
artırmaya 128
konusunu 128
raporuna 128
hada 128
piskop@@ 128
strongest 127
Jand@@ 127
ices 127
unprecedented 127
sit 127
excav@@ 127
caught 127
ania 127
ethn@@ 127
Lar@@ 127
evening 127
roug@@ 127
teen 127
Wi@@ 127
festiv@@ 127
thinks 127
properties 127
lear 127
friend@@ 127
rated 127
dging 127
warns 127
Fis@@ 127
limits 127
sixth 127
Bot@@ 127
News@@ 127
Ph@@ 127
uri 127
tica 127
liam 127
Wat@@ 127
ees 127
mo 127
preserve 127
ratings 127
Pula 127
kim 127
ea 127
deplo@@ 127
testimon@@ 127
Pierre 127
Mari@@ 127
Mek@@ 127
Mev@@ 127
Gele@@ 127
AS 127
hep 127
bini 127
savundu 127
çıkmaza 127
ihtiyacımız 127
ihl@@ 127
dikkatli 127
mektup 127
neh@@ 127
nakil 127
ümüz@@ 127
vurul@@ 127
gösterildi 127
gününe 127
hız 127
nihayet 127
İvanov 127
yıldızı 127
gündeminde 127
riski 127
imzaladığı 127
fizibilite 127
suçlamalar 127
talima@@ 127
kendine 127
cüsü 127
biyle 127
tüğü 127
yaşanıyor 127
yerlerinden 127
mücadeles@@ 127
ayrılan 127
asion 126
Alina 126
sugges@@ 126
Sciences 126
vide@@ 126
7m 126
begins 126
centuries 126
bases 126
conducting 126
sound 126
business@@ 126
djan 126
obtained 126
wine 126
Scho@@ 126
dat@@ 126
edu@@ 126
UDF 126
Treaty 126
nurses 126
Leg@@ 126
Congress 126
egrad 126
trained 126
Norway 126
regulation 126
researchers 126
Malta 126
tay@@ 126
DE@@ 126
Gordon 126
ean 126
Vek@@ 126
peki 126
açılacak 126
zamanla 126
gemil@@ 126
edeceğiz 126
zulüm@@ 126
masa 126
Kosteliç 126
haftaki 126
kararlar 126
öngörüyor 126
isimli 126
harcamaları 126
lükteki 126
tüke@@ 126
deprem 126
programları 126
hükümetinden 126
açılış@@ 126
mately 125
Sandzak 125
popular@@ 125
dor 125
Tahiri 125
certi@@ 125
contrary 125
sharing 125
tali@@ 125
side@@ 125
Ef@@ 125
honoured 125
breaking 125
rap 125
92 125
messages 125
slightly 125
purposes 125
draf@@ 125
OS@@ 125
monuments 125
featured 125
Lukic 125
savings 125
guests 125
psych@@ 125
hion 125
Im@@ 125
requ@@ 125
electric 125
Imple@@ 125
mentation 125
legitimate 125
informed 125
janovski 125
Tay@@ 125
reflects 125
carrier 125
Kalfin 125
eder 125
Marty 125
capacities 125
percep@@ 125
Deniz 125
Tol@@ 125
ske 125
teh@@ 125
onya 125
i- 125
ğinden 125
işlerini 125
muame@@ 125
güveni 125
eksiksiz 125
öncesine 125
eylemleri 125
statüsünün 125
desteklenen 125
makin@@ 125
ülkelerdeki 125
İmparator@@ 125
mesa@@ 125
birer 125
klas@@ 125
dönen 125
cinsel 125
duyduğunu 125
belges@@ 125
ittifak@@ 125
suikas@@ 125
reddediyor 125
bölümünde 125
profesörü 125
kür@@ 125
amede 125
birinc@@ 125
hava@@ 125
çabaların 125
rafin@@ 125
turda 125
anlaşmayla 125
nüf@@ 125
projelerin 125
ordu@@ 125
müdür 125
şub@@ 125
İk@@ 125
complaints 124
agement 124
comply 124
competing 124
jointly 124
hol 124
Ni@@ 124
UEFA 124
Let@@ 124
absor@@ 124
Executive 124
Branislav 124
fine 124
advoc@@ 124
Cris@@ 124
Son 124
kodra 124
collabor@@ 124
rag 124
dozen 124
thin@@ 124
Fat@@ 124
Bec@@ 124
compliance 124
Far@@ 124
nominated 124
pact 124
inaugurated 124
illi 124
ughter 124
black 124
Stefan@@ 124
jo 124
Gracanica 124
letin 124
Securitate 124
ISAF 124
ideal 124
rebels 124
celebrations 124
Yves 124
ARM 124
Mav@@ 124
Zir@@ 124
NMS 124
Direktörü 124
etle 124
tabi 124
komis@@ 124
Katolik 124
zanlılarını 124
anketler 124
mük@@ 124
luğun 124
karşıt@@ 124
inanılan 124
hü@@ 124
görüyorlar 124
çete@@ 124
kapasitesini 124
programının 124
protestolar 124
isyan@@ 124
geçirdiği 124
gesel 124
müzakerelerinde 124
mücadeleyi 124
güvenil@@ 124
tütün 124
İv@@ 124
meyle 124
kanı 124
suça 124
gerçekleştirildi 124
sonuçlandı 124
erkek@@ 124
helikop@@ 124
santral 124
İvan@@ 124
merkezinin 124
kurbanların 124
İslami 124
lerimiz 124
onayı 124
Sulej@@ 123
Moldovan 123
gender 123
discussing 123
reinfor@@ 123
pip@@ 123
scul@@ 123
staged 123
campaigns 123
boun@@ 123
Rome 123
ski@@ 123
Budva 123
cer 123
1.6 123
rist@@ 123
Lukoil 123
hectar@@ 123
Polt 123
influential 123
privile@@ 123
envisioned 123
prisoners 123
sharp 123
Palace 123
possibilities 123
phenom@@ 123
renewed 123
everybody 123
Assad 123
ert 123
Fir@@ 123
Express 123
appreci@@ 123
Som@@ 123
Cy@@ 123
Dan 123
prohibi@@ 123
welcomes 123
Zuk@@ 123
teor@@ 123
hac 123
gging 123
tada 123
Slj@@ 123
kimi 123
tul@@ 123
nitelik@@ 123
ilkes@@ 123
popü@@ 123
ettir@@ 123
diğim 123
arabuluc@@ 123
haberde 123
ımda 123
verirken 123
hapis@@ 123
gözlemci 123
kıyısındaki 123
takımının 123
bulg@@ 123
amaç 123
Konferansı 123
getirilen 123
teklifi 123
duyuyor 123
übü 123
düzenleyen 123
miz 123
işadamı 123
gerekç@@ 123
seçimlerinden 123
irim 123
hükümetten 123
oylamada 123
meliyiz 123
fabrikası 123
tuğunu 123
korumaya 123
bakanlığın 123
etrafında 123
servis@@ 123
diplomatlar 123
başkanlığına 123
kapsamındaki 123
cinsi@@ 123
mühendis@@ 123
açıklandı 123
luluğu 123
refa@@ 123
dija 122
arrangements 122
fe 122
attac@@ 122
Process 122
slo@@ 122
Coalition 122
shift 122
swim@@ 122
attacked 122
evol@@ 122
ationalist 122
DA 122
PD 122
adverti@@ 122
entar@@ 122
sharply 122
ults 122
Taleski 122
neli@@ 122
alling 122
assa@@ 122
doubts 122
kolek@@ 122
sures 122
titution 122
Tak@@ 122
Es@@ 122
Vlatko 122
Metohija 122
recei@@ 122
sij@@ 122
Ner@@ 122
Kazak@@ 122
jed@@ 122
rum 122
Olymp@@ 122
AM@@ 122
Bü@@ 122
azar@@ 122
stil 122
Özel@@ 122
şirketlerinin 122
açtığını 122
rebilir 122
oluşturmak 122
girebil@@ 122
teröriz@@ 122
pazarı 122
Estonya 122
Kız@@ 122
sporcu 122
uzaklaştır@@ 122
sabah 122
ıcısı 122
ayar@@ 122
temsil@@ 122
kalacağını 122
gitmek 122
kasabası 122
girmek 122
eydoğu 122
İr@@ 122
teşekküllü 122
özgürlüğünü 122
programda 122
inanıyoruz 122
elerle 122
hasta 122
güdüm@@ 122
herkes@@ 122
azaltılması 122
fiyatlar 122
yükseli@@ 122
mik 122
lerdir 122
İdar@@ 122
tatbi@@ 122
ilerinde 122
gelere 122
hı 122
opinions 121
Article 121
denti@@ 121
follows 121
Fi@@ 121
mobil@@ 121
yl@@ 121
traffic@@ 121
grew 121
weekly 121
tories 121
squ@@ 121
Wor@@ 121
Polish 121
ric 121
tled 121
presenting 121
oulos 121
drawing 121
sla@@ 121
bia 121
investigators 121
labor@@ 121
transformation 121
engaged 121
employers 121
Northern 121
Blago@@ 121
Hum@@ 121
fled 121
outstanding 121
advo@@ 121
perpetrators 121
scep@@ 121
trends 121
endor@@ 121
200,000 121
investigated 121
helicop@@ 121
dents 121
gather 121
tivity 121
zab@@ 121
Jel@@ 121
NS 121
pal@@ 121
Lul@@ 121
zi@@ 121
onto 121
xes 121
Srp@@ 121
upgrade 121
ukan@@ 121
OM@@ 121
Wel@@ 121
annes 121
bird 121
stak@@ 121
DI 121
Ok@@ 121
ıcak@@ 121
enf@@ 121
durumlarda 121
cumhurbaşkanlığının 121
sunmak 121
ümüzde 121
makamların 121
derken 121
Papadopulos 121
şimdi@@ 121
büyümeyi 121
kategorisinde 121
yaral@@ 121
açmayı 121
nefre@@ 121
mleri 121
operatör@@ 121
diyaloğu 121
mebla@@ 121
merkeziyet 121
tüş@@ 121
meyiz 121
havalim@@ 121
başladılar 121
vermişti 121
edecektir 121
meseleyi 121
dahi 121
lüğünün 121
Uygulama 121
fiili 121
Terziç 121
üs 121
programını 121
konsol@@ 121
benimse@@ 121
komite 121
finansmanı 121
kullanmak 121
confron@@ 120
Baran 120
87 120
amended 120
positi@@ 120
drivers 120
respective 120
ingly 120
finds 120
defeat 120
FIFA 120
Koste@@ 120
97 120
gran@@ 120
performers 120
BNN 120
Tanja 120
realise 120
cle 120
inos 120
computers 120
inski 120
guaranteed 120
Mot@@ 120
Alkal@@ 120
ron 120
Koci 120
mov@@ 120
Benedi@@ 120
tigh@@ 120
Steel 120
strength@@ 120
Jankul@@ 120
Adri@@ 120
attractive 120
arch 120
Zu@@ 120
anovo 120
rif@@ 120
barriers 120
izel@@ 120
John@@ 120
Joachim 120
mec@@ 120
ato 120
sfeld 120
etleri 120
uların 120
bağlayan 120
şekil@@ 120
medyas@@ 120
karşıl@@ 120
Traykovski 120
uygulanacak 120
gah@@ 120
koordinatörü 120
inanılıyor 120
öne@@ 120
işlem 120
suçlarıyla 120
Partisinin 120
değerli 120
yıldız@@ 120
izmin 120
edeki 120
danoviç 120
Iraklı 120
emr@@ 120
başlan@@ 120
santralinin 120
Güç@@ 120
devletinin 120
aylarında 120
bilim@@ 120
intihar 120
benzin 120
medik 120
askerlerin 120
dığının 120
blok@@ 120
suçlarla 120
luğunda 120
gerçekleştirilecek 120
treated 119
employed 119
speaks 119
whatever 119
significance 119
utes 119
Gro@@ 119
peri@@ 119
dle 119
gather@@ 119
triggered 119
suffer@@ 119
statisti@@ 119
mater@@ 119
yel@@ 119
ducing 119
Alt@@ 119
Yol@@ 119
yolun 119
tirebil@@ 119
dün@@ 119
belirtil@@ 119
Avrup@@ 119
üyordu 119
İliş@@ 119
çıkma 119
töreni 119
çıktığı 119
yenlerin 119
ð@@ 119
selec@@ 118
differ@@ 118
minist@@ 118
shar@@ 118
PC 118
ror 118
attr@@ 118
ć 118
PI 118
histor@@ 118
ference 118
Rec@@ 118
fair@@ 118
Ras@@ 118
ırım 118
itesi 118
politikas@@ 118
lidir 118
çıkmaz@@ 118
atlar 118
lüğ@@ 118
Temsilc@@ 118
edece@@ 118
sürdürüle@@ 118
mpion@@ 117
No@@ 117
gain@@ 117
Bab@@ 117
mely 117
Kra@@ 117
Yen@@ 117
carri@@ 116
lish 116
Part@@ 116
lights 116
eka 116
cumhurbaşkanlığ@@ 116
ileş@@ 116
umuz@@ 116
terci@@ 116
pects 115
atik 115
moderni@@ 115
esiz 115
devle@@ 115
taşımac@@ 115
ayol@@ 115
şiddet@@ 115
ologists 114
Democr@@ 114
AT 114
zen@@ 114
prac@@ 114
lerce 114
suik@@ 114
lağ@@ 114
tioning 113
Pod@@ 113
grap@@ 113
ples 113
pt 113
Uy@@ 113
üş 113
keş@@ 113
pped 112
profession@@ 112
meas@@ 112
eping 112
alth 112
cris@@ 112
nev@@ 112
Mla@@ 112
özerk@@ 112
keri 112
reun@@ 111
ederal 111
every@@ 111
cial 111
iter@@ 111
success@@ 111
May@@ 111
Program@@ 111
ign@@ 111
SN@@ 111
ghts 111
HP 111
ka@@ 111
uç 111
Hristof@@ 111
comm@@ 110
omo@@ 110
ww@@ 110
Hrist@@ 110
prof@@ 110
mütte@@ 110
muha@@ 110
Hüküme@@ 110
fulf@@ 109
writ@@ 109
scand@@ 109
demo@@ 109
Montenegr@@ 109
progra@@ 109
ague 109
tari@@ 109
Gener@@ 109
cess@@ 109
provi@@ 109
gency 109
MI@@ 109
charac@@ 109
İm@@ 109
mevkidaş@@ 109
ligence 108
voy 108
aat@@ 108
mission@@ 108
earth@@ 108
parla@@ 108
örgü@@ 108
yolsuz@@ 108
Kuvvet@@ 108
aflık 108
batt@@ 107
ural 107
Belgi@@ 107
consequ@@ 107
occ@@ 107
clos@@ 107
ildren 107
FO@@ 107
eth 107
aut@@ 107
gil@@ 107
Balk@@ 107
Zagre@@ 107
OC 107
yüküm@@ 107
ithal@@ 107
şir@@ 107
karde@@ 107
yasında 107
sad 106
Fri@@ 106
deliver@@ 106
oski 106
poin@@ 106
postpon@@ 106
boycot@@ 106
nik@@ 106
AI@@ 106
zir@@ 106
ıs 106
tüsü 106
terek 106
decek 106
vatan@@ 106
yaptır@@ 106
substan@@ 105
cus 105
Mos@@ 105
islav 105
itarian 105
ill@@ 105
Milos@@ 105
dig@@ 105
kal 105
İç@@ 105
olağ@@ 105
ıf@@ 105
küp 105
reteri 105
İsra@@ 105
civil@@ 104
ram 104
Por@@ 104
athle@@ 104
strate@@ 104
Tre@@ 104
ew 104
Fe@@ 104
har 104
arka 104
commit@@ 104
SC@@ 104
azz 104
ıyız 104
ademis@@ 104
geler@@ 104
adılar 104
şe@@ 104
rupt 103
state@@ 103
BN@@ 103
Ot@@ 103
iming 103
Nat@@ 103
Asi@@ 103
AK@@ 103
Mustaf@@ 103
adin@@ 103
Ca@@ 103
Srbi@@ 103
Jav@@ 103
Şim@@ 103
sing@@ 102
gang 102
gible 102
secon@@ 102
rele@@ 102
phan@@ 102
pec@@ 102
organis@@ 102
minal 102
legiti@@ 102
bac@@ 102
anya 102
siniz 102
spek@@ 102
ılacağ@@ 102
kurmay 102
sight 101
prin@@ 101
Sun@@ 101
ligh@@ 101
tery 101
Sand@@ 101
lap@@ 101
resul@@ 101
selves 101
büy@@ 101
rağ@@ 101
bakanın 101
etkoviç 101
discrimin@@ 100
decre@@ 100
Ob@@ 100
gg@@ 100
regular@@ 100
proto@@ 100
mous 100
nam@@ 100
ever@@ 100
pek@@ 100
ias 100
unca 100
Şampiyon@@ 100
iyat@@ 100
dama@@ 99
aving 99
dary 99
cak@@ 99
surren@@ 99
aku 99
Sır@@ 99
avu@@ 99
eydoğ@@ 99
aşa 99
equip@@ 98
electri@@ 98
describ@@ 98
jour@@ 98
estig@@ 98
lum 98
Koz@@ 98
Voj@@ 98
arly 98
sor 98
trav@@ 98
rid 98
Dün@@ 98
tiyat@@ 98
Vel@@ 97
amend@@ 97
reiter@@ 97
defe@@ 97
temp@@ 97
Fac@@ 97
regi@@ 97
enica 97
Yat@@ 97
alim@@ 97
teme@@ 97
Nicola@@ 96
Dus@@ 96
eks 96
Eng@@ 96
trig@@ 96
anim@@ 96
tron@@ 96
assass@@ 96
Jun@@ 96
Clu@@ 96
gür 96
barat 96
İ 96
çoc@@ 96
exc@@ 95
campaig@@ 95
ild@@ 95
vehic@@ 95
Serge@@ 95
proper@@ 95
ffici@@ 95
ffic@@ 95
alternati@@ 95
tad@@ 95
Aleksan@@ 95
Cv@@ 95
Tah@@ 95
demir@@ 95
tedav@@ 95
Austral@@ 94
inaugur@@ 94
Miha@@ 94
consider@@ 94
colle@@ 94
thir@@ 94
alis@@ 94
bour@@ 94
join@@ 94
tuğ@@ 94
Priş@@ 94
alet 94
hâ@@ 94
büny@@ 94
suppor@@ 93
danger@@ 93
Invest@@ 93
istant 93
uncer@@ 93
demonstra@@ 93
sta 93
Gol@@ 93
judi@@ 93
wri@@ 93
tees 93
spon@@ 93
Srebr@@ 93
seyah@@ 93
gönül@@ 93
ılar@@ 93
Karadağ@@ 93
ıdaki 93
Ke@@ 92
transpor@@ 92
techn@@ 92
Wo@@ 92
Direc@@ 92
Offic@@ 92
web@@ 92
Indu@@ 92
Alex@@ 92
Sey@@ 92
Oy@@ 92
tati@@ 92
tasarru@@ 92
müf@@ 92
versity 91
smugg@@ 91
laun@@ 91
Stojan@@ 91
hev 91
SF 91
ough 91
unds 91
Ye@@ 91
pi 91
osyal@@ 91
yeti@@ 91
mekan@@ 91
ually 90
environ@@ 90
é 90
uly 90
BH@@ 90
tırma 90
aster 89
tively 89
proce@@ 89
nolo@@ 89
lor@@ 89
lif 89
entin 89
gular 89
umar@@ 89
lüğe 89
basın@@ 89
bly 88
fri@@ 88
tiveness 88
collap@@ 88
villa@@ 88
cir@@ 88
inda 88
istri@@ 88
acc@@ 88
control@@ 88
Sloven@@ 88
administr@@ 88
Muha@@ 88
zil@@ 88
ail 88
Musli@@ 88
Kes@@ 88
Fut@@ 88
retim 88
yaln@@ 88
anlık@@ 88
birey@@ 88
tedly 87
prev@@ 87
Hungar@@ 87
thous@@ 87
yar 87
advant@@ 87
Stam@@ 87
peac@@ 87
rescu 87
Bele@@ 87
Yorg@@ 87
pasap@@ 87
unları 87
atörü 87
lusu 87
accor@@ 86
Dac@@ 86
discus@@ 86
Raz@@ 86
Char@@ 86
Net@@ 86
tas 86
lup 86
Boy@@ 86
sil 86
daş 86
.. 86
otoğ@@ 86
ketin 86
Aç@@ 86
müzaker@@ 86
quarters 85
nal 85
bute 85
Blo@@ 85
hic 85
impro@@ 85
ted@@ 85
EF 85
cağ@@ 85
kış@@ 85
ödü@@ 85
ığında 85
Teknolo@@ 85
assess@@ 84
scho@@ 84
AD 84
cab@@ 84
uty 84
caz@@ 84
real@@ 83
cele@@ 83
descri@@ 83
aper 83
ination 83
prison@@ 83
add@@ 83
apers 83
fam@@ 83
sust@@ 83
Ja@@ 83
wrap@@ 83
funda@@ 83
combin@@ 83
Lef@@ 83
distribu@@ 83
Accor@@ 83
Haf@@ 83
yürür@@ 83
ceza@@ 83
Örgü@@ 83
teknolo@@ 83
tehlike@@ 83
itiz@@ 82
aspir@@ 82
pub@@ 82
hip 82
bos@@ 82
talk@@ 82
ession 82
pect 82
Clin@@ 82
Ses@@ 82
sad@@ 82
voic@@ 82
Profes@@ 82
Stanis@@ 82
Voy@@ 82
HD@@ 82
vade@@ 82
mensu@@ 82
televiz@@ 82
utan@@ 82
muş@@ 82
ansı 82
soldi@@ 81
tour@@ 81
Tour@@ 81
Slobo@@ 81
CR 81
liam@@ 81
sandal@@ 81
entegr@@ 81
ükle@@ 81
resel 81
kaç 81
neği 81
gözlem@@ 81
Nis@@ 80
zer 80
tural 80
Jour@@ 80
ams 80
scienti@@ 80
ete@@ 80
lisi 80
dahil@@ 80
röportaj@@ 80
yükse@@ 80
iliş@@ 80
sels 79
'@@ 79
wise 79
Svet@@ 79
examp@@ 79
residen@@ 79
Moldov@@ 79
pot@@ 79
prises 79
ld 79
Monit@@ 79
simp@@ 79
mik@@ 79
önces@@ 79
ılığında 79
ation@@ 78
IS 78
passen@@ 78
rov 78
health@@ 78
like@@ 78
uyuştur@@ 78
lendiren 78
Üs@@ 78
anlığını 78
Hur@@ 77
trol 77
oting 77
celebra@@ 77
Nikol@@ 77
beg@@ 77
Egy@@ 77
inian 77
human@@ 77
form@@ 77
lier 77
resear@@ 77
kıyas@@ 77
benim@@ 77
ttiler 77
illing 76
desi@@ 76
recover@@ 76
igh 76
boos@@ 76
Bosni@@ 76
ferred 76
gest 76
archi@@ 76
umb@@ 76
EX 76
landa 76
Çer@@ 76
Sağ@@ 76
dene@@ 76
Güven@@ 76
unla 76
örne@@ 76
ront 75
commer@@ 75
Ric@@ 75
repor@@ 75
protes@@ 75
theast 75
employe@@ 75
abri@@ 75
Cro@@ 75
taj@@ 75
Diy@@ 75
lıca 75
şem@@ 75
haftal@@ 75
İttifak@@ 75
Üni@@ 75
preced@@ 74
Cour@@ 74
erc@@ 74
tations 74
proble@@ 74
lion 74
broad@@ 74
interes@@ 74
Ukra@@ 74
simil@@ 74
Nen@@ 74
sy 74
TP 74
urs 74
Dep@@ 74
nis@@ 74
Kamp@@ 74
füz@@ 74
üçün@@ 74
aleyh@@ 74
şaşır@@ 74
Komut@@ 74
dör@@ 74
one@@ 73
Tic@@ 73
q 73
focus@@ 73
diploma@@ 73
EB@@ 73
enting 73
nec@@ 73
pur@@ 73
enced 73
sion@@ 73
agnos@@ 73
itate 73
desp@@ 73
correspon@@ 73
conserv@@ 73
Kras@@ 73
itti@@ 73
bır@@ 73
genin 73
resol@@ 72
Rap@@ 72
tech@@ 72
cerem@@ 72
communic@@ 72
barri@@ 72
nos@@ 72
lement 72
Wol@@ 72
iness 72
Def@@ 72
Finan@@ 72
sof@@ 72
ion@@ 72
Bosn@@ 72
sanc@@ 72
bec@@ 72
eliç 72
ığın@@ 72
kuruc@@ 72
encour@@ 71
nesses 71
ops 71
Russi@@ 71
ound 71
neigh@@ 71
cho 71
stances 71
unil@@ 71
cust@@ 71
asks 71
stop@@ 71
diu 71
Lab@@ 71
bert 71
Kuz@@ 71
lus 71
ümü@@ 71
topl@@ 71
Saraybos@@ 71
etkovic 70
ecede 70
territ@@ 70
maj@@ 70
crimin@@ 70
Pek@@ 70
ech 70
Vec@@ 70
mers 70
raz@@ 70
Rat@@ 70
geçer@@ 70
ülke@@ 70
aman@@ 69
arran@@ 69
dispu@@ 69
prosper@@ 69
surroun@@ 69
fres@@ 69
alter@@ 69
Vak@@ 69
kri@@ 69
yin@@ 69
dul@@ 68
origin@@ 68
bership 68
stitu@@ 68
dings 68
aver@@ 68
AG@@ 68
dow@@ 68
Cez@@ 68
edeceğ@@ 68
Konfer@@ 68
memnuniyet@@ 68
cratic 67
educ@@ 67
pack@@ 67
Americ@@ 67
alth@@ 67
conv@@ 67
ainst 67
lit 67
Meto@@ 67
objec@@ 67
whe@@ 67
200@@ 67
Air@@ 67
baharda 67
özgür@@ 67
Amerik@@ 67
ölçü@@ 67
istence 66
dependent 66
transi@@ 66
importan@@ 66
adequ@@ 66
IC 66
cros@@ 66
duction 66
institu@@ 66
Lon@@ 66
develop@@ 66
rail@@ 66
bon 66
eki 66
Macar@@ 66
lül@@ 66
ızca 66
şek 66
bistan 66
gümr@@ 66
visi@@ 65
him@@ 65
itals 65
dict 65
tempor@@ 65
raf 65
ateral 65
Nes@@ 65
üste@@ 65
rö@@ 65
tris 65
İler@@ 65
aşı 65
ific@@ 64
oking 64
respec@@ 64
autonom@@ 64
attitu@@ 64
Nec@@ 64
ized 64
yel 64
rought 64
ential 64
establis@@ 64
Port@@ 64
Leh@@ 64
Oli@@ 64
SD 64
Pazar@@ 64
güdü@@ 64
diren 64
önc@@ 64
ımcısı 64
ukanoviç 64
ava 63
fif@@ 63
toral 63
riz@@ 63
dup 63
ught 63
tioned 63
happ@@ 63
liyiz 63
Konse@@ 63
çif@@ 63
kademe@@ 63
çar@@ 63
ükleer 63
akat 63
compli@@ 62
retur@@ 62
enfor@@ 62
lations 62
Hab@@ 62
pres 62
paral@@ 62
cea 62
Mart@@ 62
sional 62
Hin@@ 62
tama@@ 62
sus 62
Kup@@ 62
kü 62
Kül@@ 62
kilometre@@ 62
böyle@@ 62
prosecut@@ 61
observer 61
ow 61
ups 61
weap@@ 61
ints 61
DP@@ 61
ody 61
tronic 61
meti 61
kom 61
FA 61
Parla@@ 61
versite 61
fortun@@ 60
oppon@@ 60
odor@@ 60
ign 60
Wh@@ 60
vices 60
defend@@ 60
agre@@ 60
ind 60
airs 60
laku 60
sci@@ 60
Tir@@ 60
rüz@@ 60
barın@@ 60
Alman@@ 60
aşır@@ 60
şik@@ 60
tte@@ 60
arabul@@ 60
yment 59
utili@@ 59
peti@@ 59
convinc@@ 59
essen@@ 59
nur@@ 59
referen@@ 59
hibi@@ 59
play@@ 59
pow@@ 59
Ts@@ 59
diri@@ 59
UD@@ 59
diaspor@@ 59
uyru@@ 59
indepen@@ 58
affir@@ 58
Yor@@ 58
cracy 58
aker 58
olos 58
ansi@@ 58
there@@ 58
ei@@ 58
nes 58
Konj@@ 58
erk@@ 58
sik@@ 58
Ekonom@@ 58
Harek@@ 58
pah@@ 58
Mıs@@ 58
alogue 57
guaran@@ 57
Laj@@ 57
lal 57
ross 57
nis 57
hri 57
İslam@@ 57
Ö 57
dokun@@ 57
Afgh@@ 56
Serbi@@ 56
surance 56
resour@@ 56
Represent@@ 56
RD 56
Gür@@ 56
delay@@ 56
ax 56
uclear 56
MP@@ 56
Ital@@ 56
oks 56
Lati@@ 56
Braj@@ 56
prosed@@ 56
İsviç@@ 56
aben 56
ıca 56
grub@@ 56
dördün@@ 56
Hıristi@@ 56
eğlen@@ 56
şekl@@ 56
Yard@@ 56
spok@@ 55
esses 55
usu@@ 55
tiv 55
effici@@ 55
Bler@@ 55
Ash@@ 55
meslek@@ 55
Bağıms@@ 55
Kilis@@ 55
Portug@@ 54
reconc@@ 54
uge 54
ümüzdeki 54
yıld@@ 54
Seç@@ 54
ğa 54
Rady@@ 54
ikti@@ 54
Başbak@@ 54
ıyan 54
ulty 53
Yug@@ 53
Rau@@ 53
particip@@ 53
orities 53
Brit@@ 53
fiz@@ 53
usul@@ 53
karşılık@@ 53
idde@@ 53
vendosje 52
cess 52
dru@@ 52
chae@@ 52
Dani@@ 52
Gabri@@ 52
sus@@ 52
Milov@@ 52
NE 52
büyüy@@ 52
Ukray@@ 52
sigar@@ 52
numar@@ 52
iet 51
coast@@ 51
gered 51
Soci@@ 51
gine@@ 51
relation@@ 51
eke@@ 51
ights 51
Sci@@ 51
solid@@ 51
eff@@ 51
agen@@ 51
Belç@@ 51
tazmin@@ 51
berab@@ 51
karmaş@@ 51
iyat 51
mete 51
diya 51
effec@@ 50
announ@@ 50
follow@@ 50
cross@@ 50
ongest 50
argu@@ 50
oming 50
fic 50
resig@@ 50
Ga@@ 50
Bit@@ 50
PK@@ 50
six@@ 50
rar 50
ortal@@ 50
serma@@ 50
Ensti@@ 50
ressed 49
tho@@ 49
okr@@ 49
adver@@ 49
administ@@ 49
rying 49
ashi 49
employ@@ 49
iran 49
difficul@@ 49
Ulus@@ 49
Isla@@ 49
Presiden@@ 49
archae@@ 49
Vl@@ 49
som@@ 49
HI@@ 49
Day@@ 49
Od@@ 49
bii 49
emenin 49
işim 49
areti 49
gide 49
oo@@ 48
lows 48
guarante@@ 48
omis@@ 48
individu@@ 48
religi@@ 48
phas@@ 48
parlamen@@ 48
adışı 48
reş 48
Danim@@ 48
ision 47
edn@@ 47
scen@@ 47
gle 47
doc@@ 47
Novin@@ 47
ymp@@ 47
ople 47
pru@@ 47
gor 47
röpor@@ 47
kate@@ 47
mektu@@ 47
Büyükelç@@ 47
Eu@@ 46
Regi@@ 46
ially 46
uld 46
Peter@@ 46
elds 46
etary 46
perman@@ 46
Rece@@ 46
ests 46
sici@@ 46
tention 46
commo@@ 46
bağım@@ 46
mevki@@ 46
reco@@ 45
dou@@ 45
LA 45
accompan@@ 45
thly 45
envisi@@ 45
feasi@@ 45
gether 45
ands 45
curr@@ 45
FE@@ 45
aks 45
buil@@ 45
ason 45
Prote@@ 45
hter 45
itors 45
Geo@@ 45
raz 45
habil@@ 45
efi 45
ıms@@ 45
Podgor@@ 45
þ@@ 45
tice 44
alleg@@ 44
ffer@@ 44
hosp@@ 44
atro@@ 44
Georg@@ 44
gory 44
Atlan@@ 44
İstatisti@@ 44
mekte@@ 44
nihay@@ 44
kamu@@ 44
köt@@ 44
şampiy@@ 44
Schwar@@ 43
confi@@ 43
ume 43
Fak@@ 43
MS 43
conduc@@ 43
jus@@ 43
ciary 43
Ziv@@ 43
lenin 43
ınt@@ 43
letvek@@ 43
İnter@@ 43
inaug@@ 42
New@@ 42
aide 42
Zam@@ 42
compens@@ 42
kez@@ 42
incre@@ 42
ternal 42
busin@@ 42
eku 42
é@@ 42
rosu 42
süz@@ 42
takdir@@ 42
ığını 42
lası 42
İddi@@ 42
Cul@@ 41
fin 41
thern 41
Govern@@ 41
curren@@ 41
ove 41
rven@@ 41
ço@@ 41
Birleş@@ 41
faal@@ 41
Frans@@ 41
qi 40
sco@@ 40
highligh@@ 40
week@@ 40
olution 40
concep@@ 40
Prosec@@ 40
joy 40
esting 40
FOR 40
terr@@ 40
contribu@@ 40
hn 40
Lefkoş@@ 40
andır 40
ube 40
chers 39
Stru@@ 39
ruption 39
ld@@ 39
ht 39
bour 39
concer@@ 39
wher@@ 39
rüş@@ 39
tiğimiz 39
oş@@ 39
mektup@@ 39
düzin@@ 39
çim@@ 39
alu@@ 38
Abdul@@ 38
ovina 38
psy@@ 38
Administ@@ 38
mary 38
Karad@@ 38
fig@@ 38
lobo@@ 38
facil@@ 38
eda 38
mr@@ 38
poration 38
lika 38
Dimitrov@@ 38
mel 38
Avustral@@ 38
söyl@@ 38
tels 37
oblig@@ 37
Minist@@ 37
oples 37
decis@@ 37
cau@@ 37
Mov@@ 37
Leban@@ 37
veness 37
ladi@@ 37
occur@@ 37
Buc@@ 37
Spe@@ 37
champ@@ 37
orandum 37
tov 37
lid@@ 37
Sark@@ 37
çey@@ 37
huz@@ 37
iskop@@ 37
eful@@ 36
maj 36
Ott@@ 36
erre 36
speak@@ 36
atural 36
Chur@@ 36
titu@@ 36
massac@@ 36
domes@@ 36
tev 36
nak 36
plat@@ 36
Olimp@@ 36
ğü 36
böy@@ 36
Üniversi@@ 36
gür@@ 36
kontr@@ 36
ridor 35
compu@@ 35
imple@@ 35
goti@@ 35
mitted 35
het@@ 35
expres@@ 35
Bud@@ 35
minent 35
Pam@@ 35
Q 35
Fit@@ 35
appropri@@ 35
opti@@ 35
xed 35
Wolf@@ 35
eanu 35
Oh@@ 35
biy@@ 35
çözü@@ 35
Eğ@@ 35
üniversi@@ 35
yeş@@ 35
Uygula@@ 35
ısal 35
arkeolog@@ 35
anno@@ 34
oman 34
commem@@ 34
lectu@@ 34
lej@@ 34
teach@@ 34
Busin@@ 34
sour@@ 34
asy@@ 34
itis 34
conflic@@ 34
erke@@ 34
yür@@ 34
hendis@@ 34
lüyor 34
rests 33
viol@@ 33
Alf@@ 33
Agre@@ 33
nific@@ 33
proced@@ 33
tment 33
practi@@ 33
perpet@@ 33
cade 33
vulner@@ 33
dies 33
edr@@ 33
deter@@ 33
tronik 33
Mücade@@ 33
müfetti@@ 33
teşek@@ 33
ibilite 33
Silah@@ 33
resign@@ 32
orge 32
provisi@@ 32
jeop@@ 32
FTA 32
Palest@@ 32
iqi 32
Stre@@ 32
senten@@ 32
disp@@ 32
CE 32
Commer@@ 32
Haber@@ 32
başlangıç@@ 32
işle 32
teşkil@@ 32
İtal@@ 32
müm@@ 32
cra@@ 31
atings 31
Oc@@ 31
lings 31
vot@@ 31
gement 31
gent 31
believ@@ 31
ilies 31
umn 31
sym@@ 31
dana 31
elop@@ 31
smal@@ 31
unfortun@@ 31
cine 31
guil@@ 31
criter@@ 31
Hun@@ 31
tern 31
milli@@ 31
Portek@@ 31
Bük@@ 31
gön@@ 31
Teşkil@@ 31
Ş 31
abakat 31
tow@@ 30
magaz@@ 30
ressing 30
ashes 30
doz@@ 30
Syri@@ 30
esa 30
moment@@ 30
ator@@ 30
Hoo@@ 30
fiy@@ 30
otoy@@ 30
gazetes@@ 30
ültesi 30
hisses@@ 30
fı 30
aştır@@ 30
Katol@@ 30
orig@@ 29
seem@@ 29
tire 29
elek@@ 29
isha 29
elena 29
Cathol@@ 29
power@@ 29
Cz@@ 29
Fra@@ 29
Tür@@ 29
dina 29
NG@@ 29
ibi 29
Büt@@ 29
Hakk@@ 29
müda@@ 29
umi 28
prop@@ 28
Tuz@@ 28
ested 28
ë@@ 28
reven@@ 28
ploma@@ 28
remain@@ 28
Herz@@ 28
drag 28
Papand@@ 28
theless 28
Sw@@ 28
iliation 28
assos 28
hija 28
com 28
dül@@ 28
tesp@@ 28
rezer@@ 28
materi@@ 27
stitut@@ 27
fore 27
consum@@ 27
scal@@ 27
seri@@ 27
perspec@@ 27
Span@@ 27
aspor@@ 27
ouli@@ 27
türel 27
hidro@@ 27
parator@@ 27
çün@@ 27
Genel@@ 27
preme 26
inging 26
Pad@@ 26
col 26
mechan@@ 26
rebel@@ 26
stren@@ 26
refu@@ 26
rastructure 26
ween 26
hn@@ 26
dish 26
Gad@@ 26
Swed@@ 26
konom@@ 26
vik 26
dedi@@ 26
ükü@@ 26
Müslü@@ 26
performan@@ 26
enti 26
Islam@@ 25
ˈ@@ 25
tegrated 25
ington 25
cent@@ 25
ims 25
circum@@ 25
avail@@ 25
max@@ 25
dn 25
mom@@ 25
overs 25
idarity 25
Cham@@ 25
ugen 25
nun@@ 25
hil 25
Komis@@ 25
EI@@ 25
bail@@ 25
bourg 25
deler 25
fazak@@ 25
Eğiti@@ 25
alkın@@ 25
achiev@@ 24
care@@ 24
ern@@ 24
cade@@ 24
Saraj@@ 24
nament 24
ardis@@ 24
Sej@@ 24
other@@ 24
decentr@@ 24
Aff@@ 24
optimis@@ 24
Mediap@@ 24
Sep@@ 24
Rex@@ 24
FE 24
ihtiy@@ 24
graph 23
vidu@@ 23
allow@@ 23
announc@@ 23
nan 23
zko 23
awar@@ 23
quic@@ 23
cot@@ 23
Prosecut@@ 23
Qa@@ 23
Pf@@ 23
sürpri@@ 23
ö 23
lında 23
begin@@ 22
ukat 22
gements 22
det 22
Belgra@@ 22
avo@@ 22
them@@ 22
sibility 22
* 22
tact 22
Pub@@ 22
prote@@ 22
Est@@ 22
eness 22
hoto 22
č@@ 22
Vete@@ 22
Got@@ 22
near@@ 22
amba 22
Swis@@ 22
kra@@ 22
hede@@ 22
övgü@@ 22
ıp@@ 22
görüşün@@ 22
isay@@ 22
Süley@@ 22
çer@@ 22
mese@@ 22
lâ 22
N1 21
Aust@@ 21
tims 21
hensive 21
fairs 21
sensi@@ 21
start@@ 21
Rober@@ 21
Integr@@ 21
Irak@@ 21
gram@@ 21
Initi@@ 21
mila 21
suring 21
sul 21
zak 21
Ör@@ 21
andum 21
bire@@ 21
Finlan@@ 21
fizik@@ 21
terror@@ 20
ful@@ 20
lary 20
ced@@ 20
Academ@@ 20
Alban@@ 20
ens@@ 20
PN@@ 20
etty 20
Polic@@ 20
bbed 20
ember 20
Kath@@ 20
Educ@@ 20
overty 20
dzic 20
bele@@ 20
grated 20
Saray@@ 20
vendos@@ 20
cient 20
anni@@ 20
Zem@@ 20
Novos@@ 20
dra 20
tz 20
salar@@ 20
else@@ 20
Mahk@@ 20
dokunul@@ 20
Lüb@@ 20
º@@ 20
Obra@@ 19
Comp@@ 19
treat@@ 19
kilome@@ 19
emen 19
tee 19
further@@ 19
elj 19
tere 19
Kür@@ 19
Çarş@@ 19
büt@@ 19
Belgrad@@ 19
Hırvati@@ 19
yaban@@ 19
öriz@@ 19
büro@@ 19
teşekkül@@ 19
outh 18
restruc@@ 18
intel@@ 18
foreig@@ 18
ovar 18
š@@ 18
ofi 18
versary 18
Micha@@ 18
İT 18
internation@@ 18
invi@@ 18
ESC@@ 18
üksel 18
tisa@@ 18
Avustur@@ 18
Ü 18
mün 18
İngiliz@@ 18
faction 17
paralle@@ 17
reign 17
inska 17
perpetr@@ 17
certain@@ 17
ocide 17
craft 17
Thessal@@ 17
cellor 17
Deme@@ 17
ply 17
ause 17
ë 17
Papadop@@ 17
portun@@ 17
tware 17
Rug@@ 17
ebe@@ 17
aykır@@ 17
fay@@ 17
ayolu 17
arkada@@ 17
isel 17
alandır@@ 17
elic 16
oric 16
Commit@@ 16
yed 16
ffic 16
inet 16
isms 16
epers 16
б@@ 16
ardian 16
utsch@@ 16
Karadz@@ 16
rastruc@@ 16
undering 16
relev@@ 16
lightly 16
Cath@@ 16
DK 16
kün 16
kims@@ 16
Akademis@@ 16
Haş@@ 16
eniz 16
ibil@@ 16
etteki 16
dless 15
hey 15
Iran@@ 15
approxima@@ 15
Pass@@ 15
OA 15
consorti@@ 15
compre@@ 15
sile 15
Must@@ 15
inste@@ 15
zu@@ 15
bul 15
oluk 15
uki 15
Orto@@ 15
Direk@@ 15
Genişle@@ 15
Yük@@ 15
sorumlul@@ 15
hic@@ 15
utsche 14
Secur@@ 14
will@@ 14
Roc@@ 14
entre 14
agri@@ 14
chal@@ 14
ž@@ 14
lenic 14
Slovak@@ 14
langu@@ 14
offer@@ 14
fut@@ 14
Fren@@ 14
Spec@@ 14
easi@@ 14
usin@@ 14
iljana 14
anik 14
phere 14
rab@@ 14
UE@@ 14
nei@@ 14
Priz@@ 14
prom 14
gim 14
iceanu 14
Teş@@ 14
doğrult@@ 14
tart@@ 14
sorsi@@ 14
anüstü 14
diyal@@ 14
Kıbrıs@@ 14
fax 13
Swe@@ 13
percent@@ 13
adv@@ 13
marily 13
Jerem@@ 13
Develop@@ 13
kills 13
Ira@@ 13
ugiti@@ 13
mework 13
EX@@ 13
bbi 13
sorti@@ 13
ć@@ 13
Bakoy@@ 13
tish 13
Nab@@ 13
ˈ 13
viz 13
YT@@ 13
uyg@@ 13
mükem@@ 13
Bütün@@ 13
yolsuzluğ@@ 13
gili 13
makro@@ 13
konferan@@ 13
üküm@@ 13
şüp@@ 13
ambassad@@ 12
Foun@@ 12
strong@@ 12
Satur@@ 12
UI 12
consen@@ 12
Skop@@ 12
ool 12
Š@@ 12
kot 12
irregular@@ 12
tainment 12
ugg@@ 12
enor@@ 12
Dut@@ 12
Aug@@ 12
numer@@ 12
oft 12
holid@@ 12
sages 12
serb@@ 12
hout 12
Yugoslav@@ 12
oğu 12
Dubrov@@ 12
Kı@@ 12
ahası 12
bün@@ 12
steş@@ 12
Müs@@ 12
opportun@@ 11
aken@@ 11
til 11
aty 11
Herzeg@@ 11
urth 11
fem@@ 11
antly 11
boj@@ 11
osen 11
Cio@@ 11
gagement 11
controversi@@ 11
ufac@@ 11
throug@@ 11
Isra@@ 11
wle@@ 11
Yugos@@ 11
= 11
bron@@ 11
İsla@@ 11
elendirme 11
potansi@@ 11
mücade@@ 11
Taç@@ 11
indu@@ 10
Vladi@@ 10
MRO 10
dafi 10
Sax@@ 10
eduled 10
nish 10
stry 10
oci@@ 10
Austri@@ 10
vement 10
Gracan@@ 10
Fes@@ 10
KD@@ 10
aths 10
hua 10
candid@@ 10
resc@@ 10
thew 10
leader@@ 10
EurAc@@ 10
huk@@ 10
\ 10
Jad@@ 10
aur@@ 10
enj@@ 10
edeyse 10
İktidar@@ 10
Savun@@ 10
mahk@@ 10
muz 10
kil 10
Cob@@ 9
liance 9
Rij@@ 9
bah 9
approx@@ 9
transpar@@ 9
Parliam@@ 9
Slov@@ 9
hec@@ 9
ldwide 9
stac@@ 9
Tet@@ 9
metz 9
dogan 9
ifa@@ 9
Brus@@ 9
Festiv@@ 9
iyas 9
nowle@@ 9
° 9
achi@@ 9
kışkır@@ 9
enom@@ 9
oniki 9
ampiy@@ 9
sade@@ 9
ğun 9
şü@@ 9
wide@@ 8
ander 8
Thurs@@ 8
versities 8
acan 8
roeconomic 8
citizen@@ 8
candi@@ 8
lex@@ 8
sequ@@ 8
grow@@ 8
spokes@@ 8
ó@@ 8
Neboj@@ 8
duced 8
à 8
dures 8
rhet@@ 8
quick@@ 8
promot@@ 8
í@@ 8
Geor@@ 8
beha@@ 8
apos@@ 8
Condoleez@@ 8
iday 8
zay@@ 8
eum 8
risti@@ 8
partite 8
shori 8
Croati@@ 8
Wis@@ 8
Ergen@@ 8
199@@ 8
Jadran@@ 8
Vuy@@ 8
dilik 8
û@@ 8
başarıs@@ 8
milletvek@@ 8
Perşem@@ 8
maş@@ 8
İspan@@ 8
lararası 8
concre@@ 7
seek@@ 7
agues 7
estima@@ 7
demon@@ 7
inciples 7
suspec@@ 7
iku@@ 7
vul@@ 7
Goo@@ 7
Dnevnik@@ 7
custom@@ 7
geted 7
munity 7
đ@@ 7
Fati@@ 7
how@@ 7
onger 7
urity 7
Montene@@ 7
edon 7
edrana 7
Tomis@@ 7
.b@@ 7
feld 7
Boş@@ 7
doğal@@ 7
işa 7
çte 7
İsp@@ 7
Şub@@ 7
Gaze@@ 7
Hır@@ 7
big@@ 6
actu@@ 6
potenti@@ 6
presiden@@ 6
г 6
Liz@@ 6
cades 6
cipl@@ 6
reshold 6
ï@@ 6
sibil@@ 6
wro@@ 6
therine 6
É@@ 6
ques@@ 6
_ 6
duce 6
UNMI@@ 6
hist@@ 6
Ž@@ 6
uters 6
â 6
riyet 6
Azer@@ 6
bune 6
osia 6
Silaj@@ 6
Demo@@ 6
Os 6
Hür@@ 6
Gord@@ 6
ozar 6
г@@ 6
dikk@@ 6
yav@@ 6
Silay@@ 6
telef@@ 6
Ý@@ 6
GSY@@ 6
aley@@ 6
Lüksem@@ 6
Macedon@@ 5
compan@@ 5
ICT@@ 5
spiri@@ 5
jug 5
€ 5
Sime@@ 5
represent@@ 5
chap@@ 5
anted 5
haps 5
lexi@@ 5
partment 5
Drask@@ 5
edon@@ 5
Stras@@ 5
offici@@ 5
ATO 5
Medve@@ 5
ulaj 5
ihra@@ 5
tene@@ 5
Azerbay@@ 5
Wash@@ 5
konfer@@ 5
veç 5
lül 5
sızın 5
Davut@@ 5
Tadi@@ 4
Krasni@@ 4
Seker@@ 4
esn 4
Econ@@ 4
knowle@@ 4
dreds 4
versy 4
sibilities 4
Thur@@ 4
iddle 4
peaceke@@ 4
Wedn@@ 4
engen 4
ovision 4
incumb@@ 4
jing 4
Septem@@ 4
idar 4
Rup@@ 4
atedly 4
Febru@@ 4
Luxem@@ 4
Mediter@@ 4
 4
Xin@@ 4
Grac@@ 4
Orthodo@@ 4
Lux@@ 4
Face@@ 4
nd 4
beh@@ 4
Mold@@ 4
ø@@ 4
Kragu@@ 4
Fou@@ 4
Josip@@ 4
Ι@@ 4
Α 4
# 4
KK@@ 4
SDS@@ 4
cell@@ 4
Jacqu@@ 4
Ire@@ 4
Karada@@ 4
oulias 4
enna 4
р 4
я 4
omberg 4
Ortad@@ 4
Sutan@@ 4
kence 4
ustos 4
Ç 4
steri 4
münas@@ 4
î@@ 4
Kraguj@@ 4
event@@ 3
grat@@ 3
orad 3
overe@@ 3
imed 3
cused 3
politici@@ 3
thodo@@ 3
º 3
á@@ 3
particul@@ 3
Nabuc@@ 3
chur@@ 3
prelimin@@ 3
djic 3
у@@ 3
Cypri@@ 3
ignty 3
sored 3
sug@@ 3
½ 3
elop 3
Kostun@@ 3
ozone 3
imum 3
precedented 3
Κ@@ 3
Ο@@ 3
Anad@@ 3
vodina 3
more@@ 3
Resear@@ 3
± 3
effer 3
{ 3
cko 3
Şeff@@ 3
işev 3
Avust@@ 3
müzak@@ 3
profesyon@@ 3
asgar@@ 3
iyim@@ 3
laşa 3
EUL@@ 3
Gürc@@ 3
elerce 3
^ 3
İngil@@ 3
atıf@@ 3
&@@ 3
likop@@ 3
А@@ 2
municip@@ 2
Ukr@@ 2
offic@@ 2
therlands 2
deman@@ 2
Ã 2
© 2
USA@@ 2
Leak@@ 2
Papandre@@ 2
hance 2
UNIC@@ 2
Constitu@@ 2
gedly 2
limin@@ 2
astase 2
achim 2
 2
Ahtisa@@ 2
omes 2
ERB 2
< 2
bassad@@ 2
ekon 2
ristian 2
urg 2
Т@@ 2
espec@@ 2
mussen 2
è@@ 2
¾ 2
 2
KES@@ 2
Jess@@ 2
Mladi@@ 2
SAF 2
sovere@@ 2
legis@@ 2
μ@@ 2
ñ@@ 2
ý@@ 2
Nicho@@ 2
jured 2
Octo@@ 2
х 2
ï 2
Dit@@ 2
} 2
ranean 2
Mois@@ 2
ecu@@ 2
Djin@@ 2
sociation 2
ъ@@ 2
л@@ 2
а@@ 2
р@@ 2
и@@ 2
л 2
edings 2
Pah@@ 2
osyal 2
muhteme@@ 2
dipl@@ 2
kullaku 2
retiyle 2
Arnav@@ 2
gaze@@ 2
Ljubl@@ 2
umhur@@ 2
ofias 2
Þ@@ 2
İsv@@ 2
üküm 2
İkti@@ 2
İH 2
İtti@@ 2
kür 2
Cinci@@ 2
constru@@ 1
А 1
sterity 1
entre@@ 1
implemen@@ 1
ä@@ 1
campa@@ 1
е 1
cate@@ 1
о@@ 1
esday 1
hate@@ 1
SCE 1
fficient 1
atured 1
Buchar@@ 1
Đ@@ 1
comed 1
Α@@ 1
Ε@@ 1
Ε 1
irman 1
opin@@ 1
Execu@@ 1
‑ 1
š 1
æ 1
> 1
brahim 1
promis@@ 1
¦ 1
Č@@ 1
ý 1
Thess@@ 1
nership 1
remov@@ 1
licop@@ 1
mited 1
cow 1
М@@ 1
ingness 1
à@@ 1
3r@@ 1
requi@@ 1
never@@ 1
Anat@@ 1
atest 1
£ 1
Ι 1
koalis@@ 1
Diyar@@ 1
Amer@@ 1
Kathim@@ 1
Miloş@@ 1
silc@@ 1
ozy 1
amanlis 1
iyana 1
krar 1
MNE 1
muaz@@ 1
başlangı@@ 1
afax 1
ð 1
anistan 1
ª@@ 1
Bram@@ 1
mecl@@ 1
astava 1
Arşi@@ 1
dürü 1
Cumar@@ 1
çeve 1
Ljaj@@ 1
ege@@ 1
Adriy@@ 1
Condole@@ 1
dikal 1
Ğ@@ 1
Kıbr@@ 1
SOK 1
Holbro@@ 1
üküme@@ 1
item@@ 1
Afg@@ 1
ihtila@@ 1
doks 1
madeupword0000 0
madeupword0001 0
madeupword0002 0
madeupword0003 0
