, 25291
the 23799
. 19980
to 12858
of 12470
and 11981
và 11177
in 10009
a 8163
của 8075
các 7531
đã 7461
một 6760
được 6181
" 6172
có 6101
- 6020
trong 5356
người 5347
cho 5315
là 4967
với 4380
for 4209
The 3985
on 3886
ở 3784
is 3671
vào 3650
that 3607
đến 3428
những 3390
tháng 3245
tại 3225
không 3205
từ 3200
with 3040
ngày 3010
from 2969
năm 2867
để 2850
Việt 2829
khi 2804
công 2787
này 2769
was 2580
thể 2574
Nam 2533
bị 2465
số 2416
as 2386
at 2362
về 2308
sẽ 2284
are 2213
’s 2213
have 2206
has 2201
by 2196
bệnh 2171
đầu 2155
Vietnam 2122
việc 2067
trường 2050
nhân 2043
) 1999
nhà 1974
' 1920
sự 1919
gia 1914
be 1900
said 1893
ra 1890
thành 1889
hợp 1831
trên 1825
rằng 1803
an 1776
( 1749
it 1687
Trung 1667
quan 1662
đang 1635
thứ 1592
biết 1581
hàng 1581
dịch 1569
nước 1551
19 1549
học 1534
quốc 1504
như 1473
nhận 1468
tế 1466
were 1458
động 1458
hiện 1457
Quốc 1441
nhiễm 1433
họ 1421
sau 1398
hơn 1388
phát 1388
dụng 1378
or 1378
had 1373
nhiều 1351
” 1344
cách 1328
cũng 1327
year 1318
do 1316
ông 1311
not 1305
chính 1302
báo 1301
làm 1289
people 1289
cả 1285
been 1278
thông 1277
điều 1263
will 1241
đó 1226
“ 1216
their 1210
viên 1178
lại 1171
who 1167
nhất 1161
theo 1161
phải 1131
chỉ 1118
's 1117
also 1116
xuất 1095
its 1090
hai 1067
hành 1065
cơ 1061
xác 1055
March 1052
Các 1051
coronavirus 1045
đồng 1038
khác 1020
this 1016
more 1015
hoặc 1001
thực 997
trở 983
they 982
cuộc 979
dân 972
can 970
triệu 969
sử 958
sản 951
định 946
Covid 943
đối 941
first 933
tiếp 928
thời 927
sinh 923
cases 915
tăng 914
mới 911
which 910
ty 908
virus 908
phố 905
Vào 904
On 901
con 894
chức 888
viện 886
mà 875
In 874
3 873
cầu 866
vì 862
China 861
Bộ 858
thế 852
trước 851
two 848
bay 845
2 841
bao 838
after 830
cứu 830
khách 827
đại 824
vụ 823
other 820
he 817
10 808
cáo 808
one 806
but 803
thấy 798
all 795
lên 794
Hoa 791
đi 791
toàn 790
tính 789
nghiệm 786
pháp 781
his 779
country 775
nhưng 775
Hà 771
than 771
cấp 770
so 766
tin 765
chúng 762
bởi 760
giảm 759
y 757
lớn 756
gồm 754
1 752
new 752
lượng 751
đưa 750
liên 749
bạn 735
khu 734
trị 734
Vietnamese 731
trung 731
tiên 730
kiểm 724
du 720
qua 720
giới 719
bắt 715
cao 715
her 715
giá 711
hội 708
million 708
tỉnh 707
confirmed 706
Một 699
địa 698
(@@ 688
bằng 687
2020 686
tôi 686
lý 684
bố 681
lịch 679
kết 678
tâm 671
ca 667
nghiên 667
cô 663
would 662
cùng 660
up 658
còn 657
: 654
about 653
phòng 640
you 640
over 630
phương 630
mình 623
Anh 618
dự 616
quyền 615
Covid-19 614
gần 607
máy 606
truyền 605
loại 602
điểm 602
– 600
trình 599
tình 597
triển 596
cảnh 594
tuổi 594
tỷ 593
vực 592
đề 592
chứng 591
độ 587
$ 584
cửa 582
A 581
nói 580
percent 580
phủ 580
yêu 580
ly 579
ta 579
thị 576
time 576
I 575
phụ 575
nữ 572
hoạt 570
năng 568
bộ 567
tất 567
It 566
Trong 566
thường 565
health 564
hệ 563
sức 563
tự 562
khoảng 559
she 559
Ông 556
ứng 556
phần 553
thống 551
bất 545
4 544
Bệnh 544
nghiệp 543
vẫn 541
ảnh 541
Hanoi 540
gây 538
anh 535
nơi 535
Theo 534
tới 532
xét 532
bảo 530
hình 529
old 529
He 528
cần 527
15 526
giải 524
hôm 523
some 520
sát 519
ba 515
case 515
them 515
nó 514
tử 514
ngoài 513
many 512
sở 512
countries 511
into 508
quả 508
rất 508
when 505
nào 504
reported 503
thu 502
ban 500
3, 497
thiết 496
years 496
U. 493
Y 492
phẩm 492
khẩu 491
including 490
tư 490
Chinese 489
trẻ 489
14 488
5 487
Health 485
""@@ 484
liệu 484
nên 484
tìm 484
đô 482
day 481
chuyến 476
đây 476
20 474
kinh 473
nhập 473
đường 473
] 471
out 471
Công 469
kể 469
tác 467
could 465
kỳ 465
three 465
last 464
lần 464
tạo 464
chuyển 463
điện 463
tra 462
being 460
government 460
[ 458
tổ 454
number 453
only 453
tiền 453
gian 452
Nội 450
chủ 448
cộng 448
mặt 448
này. 448
sĩ 448
world 448
lây 446
trang 446
tập 446
tài 445
lực 443
đó, 443
12 441
Kỳ 441
30 440
doanh 439
sống 439
trưởng 439
xã 439
days 437
xe 437
there 435
đất 432
7 431
hiệu 430
vấn 430
lập 428
mọi 427
tổng 427
chất 425
quyết 425
city 424
giao 423
ăn 423
đóng 420
trọng 418
đình 418
mức 417
tiếng 417
vị 415
bán 414
may 413
COVID 412
; 411
dẫn 410
kế 410
thì 409
Đại 409
such 408
tuyên 407
most 406
no 406
hạn 404
S. 403
phép 403
6 402
giúp 402
vật 402
gọi 401
home 401
February 400
Hospital 400
giờ 400
đổi 399
cung 397
em 396
khỏe 396
mỗi 393
thức 393
tiêu 393
đàn 391
Ministry 390
This 390
pandemic 390
8 389
án 389
thương 388
while 388
trợ 387
since 386
Mỹ 385
South 385
cuối 384
Nam, 381
District 380
tuần 378
khí 377
thêm 376
hay 374
hưởng 373
bản 372
thay 372
9 371
đánh 370
tương 368
chế 367
company 367
if 367
like 367
chiến 366
phía 365
vi 365
chống 364
ý 364
% 363
before 363
bình 363
high 362
use 362
New 361
patients 360
according 359
announced 358
biến 358
11 355
bỏ 354
quá 354
này, 350
positive 349
Những 348
disease 348
kiến 348
we 348
giữa 347
thuộc 347
cảm 346
around 345
chia 344
tham 344
“@@ 344
sách 343
thủ 343
vùng 342
man 340
đều 340
diễn 339
khoa 339
đặc 339
16 338
Minh 338
hoạch 337
mạnh 337
those 337
trực 337
between 335
nghệ 335
thuốc 335
25 334
Nguyen 334
Nguyễn 334
public 334
under 334
tục 332
chuyên 331
tested 331
United 330
cá 329
local 329
these 329
well 329
dương 328
used 328
biệt 325
2019 324
mua 323
trí 323
They 322
biện 322
Nhật 321
nếu 321
soát 321
sáng 321
nguy 319
She 318
khỏi 317
hóa 314
now 313
patient 312
hoàn 311
lan 311
work 311
dùng 310
thử 310
City 309
because 309
kiện 309
Thanh 308
quarantine 307
13 306
gì 306
mở 306
found 305
vệ 303
'@@ 301
17 301
Thái 301
nguồn 300
22 299
HCMC 299
children 299
đặt 299
giáo 298
mang 298
tốt 298
April 297
Bắc 297
chết 297
đốc 296
where 295
Hai 293
nhóm 293
four 290
Đà 290
đạo 289
medical 288
ít 288
hospital 287
same 286
24 285
khả 285
vận 285
An 283
chưa 283
nhiên, 283
authorities 282
áp 282
Nam. 281
billion 281
của 281
sang 281
made 280
Hàn 279
ngăn 279
quy 279
bác 278
châu 278
vaccine 278
18 276
giám 276
take 276
through 276
during 275
tấn 275
January 274
make 274
hồi 273
province 273
COVID-19 272
nay 272
thuật 272
woman 272
Chính 271
phục 271
National 270
Tuy 270
dài 270
total 270
xúc 270
23 269
Trump 269
"@@ 268
As 268
any 268
khiến 268
ghi 267
Đông 267
2020, 266
27 266
due 266
tàu 266
xảy 266
chiếc 265
/ 264
But 264
told 264
hết 263
giữ 262
help 262
nguyên 262
sẻ 262
According 261
spread 261
lãnh 260
outbreak 260
vong 260
against 259
cấm 259
miền 259
nay, 259
lợi 258
social 258
your 258
based 257
cư 257
s@@ 257
trạng 257
khó 256
phản 256
just 254
still 254
areas 253
month 253
tên 253
market 252
ô 252
Province 250
dù 250
tích 250
bài 249
chi 249
đoàn 249
26 248
di 248
hướng 248
xem 248
yếu 248
Sau 246
bùng 246
danh 246
infection 246
la 246
lời 245
phân 245
hỗ 244
muốn 244
mạng 244
thích 244
Tổng 243
cổ 243
family 243
says 243
Người 242
biểu 242
bà 242
Vũ 241
bên 241
cái 241
school 241
mất 240
students 240
50 239
tuổi, 239
S@@ 238
second 238
sân 238
tuyến 238
28 237
Bình 237
quản 237
21 236
Hồ 236
five 236
international 236
several 236
Facebook 235
both 235
down 235
infected 234
m@@ 234
trả 234
100 233
cố 233
phạm 233
tranh 233
Minister 232
H@@ 231
Quang 231
TP 231
information 230
lệnh 230
should 230
âm 230
minh 229
national 229
travel 229
nhiên 228
tiến 228
However 227
Họ 227
Quốc, 227
air 227
rộng 227
buộc 226
khai 226
đội 225
2, 224
Thủ 224
lệ 224
nhiệt 224
States 223
biển 223
contact 223
tiết 223
what 223
đảo 223
Chủ 222
Nhưng 222
months 222
then 222
University 220
d@@ 218
diện 218
nhanh 218
nổi 218
thi 218
tướng 218
vài 218
Thành 217
until 217
xuống 217
Lan 216
đoạn 216
B@@ 215
food 215
off 215
per 215
phí 215
police 215
đáng 215
đơn 215
get 214
hãng 214
xây 214
Korea 213
M@@ 213
bé 213
chí 213
study 213
3@@ 212
@@ 212
chặn 212
dục 212
n@@ 212
tay 212
’ 212
back 211
hộ 211
kiếm 211
miễn 210
mắc 210
re@@ 210
thanh 210
tịch 210
văn 210
vòng 209
even 208
long 208
treatment 208
-@@ 207
group 207
person 207
trùng 207
women 207
độc 207
dựng 206
measures 206
risk 206
did 205
ký 205
nhau 205
T@@ 204
called 204
dưới 204
kỹ 204
luật 204
next 204
nghi 204
report 204
Bản 203
chương 203
each 203
đạt 203
đồ 203
Airlines 202
cụ 202
flight 202
ngay 202
week 202
hữu 201
central 200
ngành 200
vắc-xin 200
xử 200
['@@ 199
chuẩn 199
b@@ 197
g@@ 197
media 197
nhiệm 197
online 197
t@@ 197
5@@ 196
C@@ 196
Department 196
World 196
bốn 196
part 196
top 196
trận 196
very 196
mục 195
place 195
từng 194
without 194
International 193
Tây 193
phim 193
workers 193
đủ 193
Japan 192
June 192
Long 192
gửi 192
nghiêm 192
càng 191
huyện 191
lưu 191
Bà 190
Da 190
death 190
gặp 190
hậu 190
lo 190
video 189
among 188
control 188
nghỉ 188
quân 188
thiếu 188
water 188
Quảng 187
foreign 187
state 187
system 187
xin 187
đứng 187
ấy 187
Ninh 186
quận 186
câu 185
later 185
Liên 184
Tại 184
phi 184
— 184
May 183
chăm 183
họp 183
nghĩa 183
nhằm 183
phá 183
set 183
tượng 183
31 182
If 182
July 182
c@@ 182
major 182
mối 182
research 182
đăng 182
2018 181
40 181
Italy 181
khác. 181
l@@ 181
mẹ 181
Chí 180
Sa 180
US 180
infections 180
lễ 180
mặc 180
ngừa 180
working 180
Khi 179
L@@ 179
ng@@ 179
our 179
say 179
services 179
him 178
known 178
nam 178
nhỏ 178
nặng 178
nền 178
29 177
căn 177
life 177
mẫu 177
nạn 177
Năm 176
become 176
cây 176
data 176
gái 176
using 176
Wuhan 175
came 175
deaths 175
director 175
land 175
mô 175
phê 175
test 175
trò 175
N@@ 174
VND 174
added 174
flights 174
hại 174
returned 174
đảm 174
trách 173
Á 173
Ba 172
We 172
end 172
face 172
lúc 172
môi 172
symptoms 172
thoại 172
tối 172
Quốc. 171
sóc 171
August 170
corona 170
dõi 170
vô 170
đấu 170
"" 169
Hong 169
biên 169
lao 169
người. 169
way 169
4@@ 168
tải 168
HCM 167
Ngày 167
caused 167
khoản 167
vậy 167
Điều 167
A@@ 166
ai 166
another 166
ch@@ 166
Binh 165
For 165
Nẵng 165
Thế 165
WHO 165
how 165
luận 165
nội 165
3. 164
Trường 164
companies 164
cạnh 164
dữ 164
họ. 164
my 164
nông 164
phổ 164
taken 164
thư 164
thấp 164
đông 164
chọn 163
duy 163
dành 163
khuyến 163
nằm 163
n’t 163
suy 163
Hồng 162
Mai 162
Nang 162
R@@ 162
nghị 162
nâng 162
passengers 162
tạm 162
ước 162
dựa 161
hơn. 161
include 161
ngoại 161
northern 161
products 161
support 161
thúc 161
early 160
After 159
Malaysia 159
chịu 159
mùa 159
sàng 159
team 159
thăm 159
AI 158
Cô 158
Thailand 158
community 158
cứ 158
trải 158
." 157
Chi 157
Friday 157
Nhà 157
V@@ 157
least 157
much 157
tránh 157
tế, 157
6@@ 156
D@@ 156
expected 156
h@@ 156
hủy 156
k@@ 156
mại 156
quarantined 156
tội 156
Ấn 156
Google 155
Iran 155
P@@ 155
asked 155
order 155
tức 155
Đức 155
At 154
One 154
area 154
business 154
close 154
cập 154
hút 154
ministry 154
need 154
riêng 154
six 154
vừa 154
biết, 153
go 153
hầu 153
r@@ 153
Hải 152
Son 152
biết. 152
body 152
come 152
masks 152
nghĩ 152
phó 152
thải 152
Philippines 151
able 151
human 151
kỷ 151
n't 151
quán 151
rice 151
đó. 151
), 150
Văn 150
following 150
giai 150
region 150
sao 150
Ha 149
Monday 149
TikTok 149
care 149
citizens 149
developed 149
every 149
phiếu 149
Covid-19. 148
K@@ 148
across 148
global 147
khác, 147
lớp 147
officials 147
others 147
schools 147
hỏi 146
lấy 146
money 146
must 146
phạt 146
2016 145
Hoàng 145
There 145
cực 145
giới. 145
kéo 145
making 145
đời 145
Nga 144
Van 144
nhu 144
.', 143
G@@ 143
good 143
HIV 142
capital 142
chơi 142
head 142
mình. 142
phong 142
quần 142
uống 142
? 141
President 141
Sơn 141
Wednesday 141
bang 141
chuyện 141
largest 141
members 141
p@@ 141
prevent 141
put 141
ra, 141
thân 141
trái 141
Asia 140
Nếu 140
chủng 140
far 140
hạ 140
món 140
ngày. 140
). 139
does 139
dấu 139
giả 139
khẩn 139
morning 139
ngại 139
recent 139
technology 139
đứa 139
Singapore 138
bắc 138
cử 138
low 138
ngôn 138
tiện 138
Châu 137
closed 137
sent 137
thiện 137
đầy 137
8@@ 136
kêu 136
late 136
related 136
times 136
Đây 136
đẩy 136
development 135
dễ 135
few 135
hit 135
i@@ 135
novel 135
quay 135
results 135
third 135
đoán 135
.'] 134
60 134
7@@ 134
9@@ 134
These 134
Thị 134
large 134
list 134
men 134
past 134
show 134
testing 134
tế. 134
Kim 133
Many 133
own 133
trì 133
Covid-19, 132
Ho 132
Viện 132
When 132
experts 132
hiểu 132
official 132
500 131
E@@ 131
Some 131
chấp 131
cải 131
died 131
hours 131
less 131
see 131
weeks 131
Ý 131
Center 130
Sunday 130
increase 130
news 130
ngày, 130
production 130
seven 130
users 130
F@@ 129
Giang 129
Tuesday 129
loài 129
mắt 129
returning 129
rõ 129
American 128
Dong 128
age 128
bổ 128
important 128
plans 128
provinces 128
sáu 128
xếp 128
Asian 127
cơn 127
kháng 127
o 127
200 126
2017 126
Ngoài 126
Patient 126
\ 126
a, 126
cities 126
cánh 126
having 126
nghìn 126
sơ 126
tourists 126
Kong 125
Korean 125
Zealand 125
nhìn 125
nước. 125
stay 125
tưởng 125
vọng 125
Australia 124
Giám 124
chiếm 124
giới, 124
hấp 124
rời 124
showed 124
young 124
Sea 123
change 123
half 123
lâu 123
m 123
nỗ 123
thí 123
Âu 123
All 122
Cơ 122
Do 122
People 122
buổi 122
bóng 122
earlier 122
hòa 122
meeting 122
period 122
researchers 122
thập 122
đá 122
2@@ 121
I@@ 121
Kỳ, 121
Saturday 121
dầu 121
máu 121
ngờ 121
nhạc 121
suspended 121
within 121
Indonesia 120
affected 120
further 120
in@@ 120
lạc 120
nửa 120
result 120
took 120
2020. 119
Biển 119
France 119
Trước 119
blood 119
chung 119
coi 119
different 119
level 119
recently 119
staff 119
sư 119
sớm 119
toán 119
un@@ 119
Đài 119
e 118
gốc 118
khăn 118
might 118
nearly 118
nóng 118
right 118
trăm 118
vốn 118
chú 117
cắt 117
o@@ 117
taking 117
tố 117
1, 116
Pháp 116
Việc 116
activities 116
dạng 116
industry 116
khủng 116
kích 116
night 116
project 116
recorded 116
t 116
tòa 116
vai 116
Anh, 115
Internet 115
bàn 115
giống 115
negative 115
phiên 115
siêu 115
tinh 115
trai 115
trước, 115
us 115
Control 114
September 114
better 114
continue 114
increased 114
population 114
suất 114
thở 114
web 114
đợt 114
C 113
India 113
Prime 113
State 113
ers 113
free 113
i 113
phổi 113
s 113
security 113
thuận 113
viêm 113
Ban 112
Central 112
Nhiều 112
SARS 112
Tất 112
away 112
border 112
demand 112
doctors 112
law 112
likely 112
mưa 112
nh@@ 112
nhật 112
released 112
sẵn 112
trước. 112
đôi 112
300 111
Phó 111
allowed 111
child 111
events 111
hospitals 111
niên 111
tuyển 111
CEO 110
General 110
drug 110
economic 110
heart 110
led 110
received 110
residents 110
safety 110
thật 110
tim 110
treated 110
worth 110
Cho 109
Ngoại 109
O@@ 109
given 109
người, 109
quality 109
thiệt 109
waste 109
English 108
Saigon 108
York 108
center 108
eight 108
giấy 108
going 108
lĩnh 108
nay. 108
nữa 108
often 108
Độ 108
""." 107
70 107
Air 107
diseases 107
en@@ 107
thậm 107
tồn 107
Ở 107
"", 106
39 106
Russia 106
Thursday 106
cost 106
ed 106
especially 106
game 106
khắp 106
living 106
năm. 106
reports 106
response 106
thái 106
And 105
Phu 105
Từ 105
chứa 105
employees 105
giết 105
prices 105
service 105
suspected 105
trừ 105
Hiệp 104
Japanese 104
gắng 104
hoãn 104
hô 104
khởi 104
loạt 104
me 104
rate 104
small 104
vợ 104
Có 103
Cộng 103
Institute 103
Pacific 103
US$ 103
a. 103
cha 103
chuỗi 103
cường 103
decided 103
find 103
mới. 103
năm, 103
pollution 103
power 103
price 103
rừng 103
sạn 103
đa 103
đáp 103
Germany 102
Government 102
Không 102
London 102
Nội, 102
Sở 102
To 102
bước 102
chóng 102
hiểm 102
hải 102
know 102
lâm 102
places 102
too 102
went 102
British 101
Nó 101
Reuters 101
UK 101
dừng 101
es 101
held 101
internet 101
lot 101
plan 101
popular 101
statement 101
thất 101
tờ 101
ổn 101
ASEAN 100
Danang 100
Sự 100
ago 100
decision 100
góp 100
ngân 100
situation 100
started 100
sứ 100
tái 100
Trần 99
With 99
already 99
average 99
bức 99
cận 99
department 99
e@@ 99
enough 99
feel 99
highest 99
ninh 99
process 99
sung 99
want 99
& 98
Vingroup 98
emergency 98
facilities 98
fever 98
firm 98
lộ 98
noted 98
parents 98
sốt 98
today 98
trillion 98
via 98
xuyên 98
"""@@ 97
Airport 97
ate 97
began 97
best 97
businesses 97
bảy 97
bệnh. 97
cause 97
chặt 97
f@@ 97
growth 97
hôn 97
ing 97
leading 97
live 97
phù 97
provide 97
ro 97
term 97
thịt 97
transmission 97
1@@ 96
36 96
Hán 96
Hội 96
J@@ 96
along 96
deputy 96
epidemic 96
er 96
management 96
ngôi 96
oil 96
outside 96
sợ 96
tests 96
Mặc 95
Phát 95
currently 95
dis@@ 95
levels 95
mother 95
on@@ 95
pay 95
sóng 95
territories 95
think 95
vũ 95
Apple 94
Chúng 94
North 94
almost 94
ation 94
chạy 94
gấp 94
km 94
lives 94
o, 94
scientists 94
ting 94
”. 94
.” 93
COVID-19. 93
Europe 93
Kể 93
Với 93
Washington 93
addition 93
distancing 93
evidence 93
move 93
màu 93
ngoái, 93
ngừng 93
nhấn 93
start 93
strong 93
sâu 93
tiêm 93
viết 93
October 92
Paris 92
Phúc 92
Tokyo 92
USD 92
app 92
bringing 92
buýt 92
conditions 92
cậu 92
growing 92
it@@ 92
nối 92
ra. 92
sông 92
ung 92
v@@ 92
đây, 92
đới 92
35 91
East 91
Park 91
Tổ 91
bão 91
chiều 91
considered 91
former 91
hoảng 91
required 91
respiratory 91
rủi 91
southern 91
starting 91
student 91
thưởng 91
trú 91
xa 91
ích 91
18@@ 90
Disease 90
Dịch 90
Kỳ. 90
Le 90
Southeast 90
Tập 90
available 90
avoid 90
chúng 90
gi@@ 90
huyết 90
killed 90
n 90
sắc 90
thiểu 90
1,000 89
400 89
Bạch 89
November 89
Pakistan 89
Sáu 89
Two 89
Xuân 89
a@@ 89
chồng 89
common 89
customers 89
discharged 89
give 89
hạng 89
học, 89
lại. 89
mình, 89
nước, 89
open 89
qua, 89
return 89
trao 89
visitors 89
Ủy 89
Microsoft 88
Nguyên 88
Phuc 88
Public 88
Thi 88
Trang 88
am@@ 88
arrived 88
er@@ 88
hương 88
issued 88
kẻ 88
mới, 88
recovered 88
rác 88
tạp 88
tổn 88
tụ 88
vaccines 88
vượt 88
đám 88
4, 87
European 87
Nghiên 87
Tran 87
Tư 87
Vương 87
YouTube 87
admitted 87
an@@ 87
coming 87
de 87
develop 87
domestic 87
estimated 87
fight 87
khuẩn 87
khảo 87
latest 87
lòng 87
nation 87
shows 87
visa 87
vậy, 87
… 87
7, 86
CDC 86
Taiwan 86
Tan 86
ated 86
became 86
cà 86
developing 86
hơn, 86
military 86
similar 86
things 86
thuế 86
tons 86
tourism 86
website 86
đổ 86
! 85
Cup 85
Group 85
Hàng 85
Thai 85
Tân 85
agencies 85
bối 85
chân 85
cũng 85
da 85
dưỡng 85
ph@@ 85
possible 85
problems 85
restrictions 85
rights 85
trụ 85
đau 85
đeo 85
2015 84
Company 84
Kinh 84
al 84
approved 84
bầu 84
heavy 84
i, 84
left 84
personal 84
site 84
son 84
vàng 84
đích 84
đồng. 84
đột 84
Diseases 83
Nha 83
bào 83
chị 83
gạo 83
khích 83
line 83
operations 83
previous 83
qu@@ 83
reduce 83
share 83
thảo 83
áo 83
đe 83
đêm 83
Bach 82
Committee 82
Cục 82
Donald 82
Samsung 82
Thông 82
big 82
example 82
groups 82
higher 82
khuyên 82
khám 82
leave 82
near 82
nghe 82
nhà. 82
quảng 82
run 82
stop 82
suốt 82
thổ 82
tệ 82
tốc 82
vắc 82
43 81
Canada 81
Ch@@ 81
La 81
Lê 81
Số 81
Th@@ 81
bảng 81
duyệt 81
giác 81
impact 81
individuals 81
jobs 81
khẳng 81
means 81
parts 81
phán 81
really 81
regulations 81
rơi 81
saying 81
st@@ 81
tuân 81
viện. 81
yet 81
Để 81
34 80
90 80
Giáo 80
Phi 80
Phú 80
Since 80
Sài 80
VND@@ 80
cháy 80
dịch. 80
future 80
goods 80
hát 80
li@@ 80
lá 80
lượt 80
phone 80
song 80
tiềm 80
xâm 80
Úc 80
Đồng 80
ủng 80
CoV 79
Hòa 79
Kông 79
Tính 79
You 79
chẳng 79
ensure 79
entering 79
environment 79
got 79
history 79
humans 79
keep 79
launched 79
lead 79
lower 79
reached 79
thai 79
tiểu 79
trích 79
đẹp 79
Thụy 78
Vì 78
again 78
al@@ 78
buy 78
bánh 78
chiếu 78
followed 78
general 78
learning 78
little 78
localities 78
office 78
quanh 78
tù 78
whether 78
đương 78
Israel 77
Thu 77
animals 77
bày 77
car 77
chữa 77
equipment 77
gia, 77
gián 77
included 77
isolation 77
k 77
ngoái. 77
s, 77
sắp 77
though 77
thủy 77
visited 77
45 76
Dương 76
Last 76
News 76
Phòng 76
T 76
biggest 76
bữa 76
effective 76
em@@ 76
friends 76
lo@@ 76
mật 76
ngàn 76
nhớ 76
phối 76
placed 76
potential 76
pressure 76
sai 76
self 76
supply 76
t, 76
19@@ 75
37 75
38 75
Foreign 75
Vu 75
Và 75
W@@ 75
Xuan 75
active 75
biết: 75
buôn 75
father 75
house 75
n, 75
nhận. 75
once 75
or@@ 75
p 75
plant 75
private 75
real 75
th@@ 75
thiên 75
tuyệt 75
... 74
Bac 74
December 74
Dự 74
Hue 74
So 74
ar@@ 74
co@@ 74
declared 74
lỗi 74
mong 74
quý 74
remain 74
seen 74
tai 74
thần 74
tảng 74
vẻ 74
1.@@ 73
80 73
By 73
Cuộc 73
Gia 73
Truong 73
am 73
born 73
compared 73
deal 73
difficult 73
getting 73
giành 73
great 73
hand 73
here 73
hạt 73
job 73
luôn 73
lợn 73
lục 73
lựa 73
nine 73
niệm 73
prevention 73
produce 73
published 73
rise 73
soon 73
special 73
tourist 73
ts 73
tám 73
tỏa 73
ví 73
800 72
as@@ 72
building 72
campaign 72
dung 72
economy 72
entry 72
hãy 72
i. 72
instead 72
khá 72
làng 72
nations 72
plastic 72
ship 72
thắng 72
u 72
usually 72
weather 72
wife 72
đúng 72
,” 71
Cùng 71
Dung 71
Hiện 71
Hoang 71
Nhân 71
Nội. 71
Phong 71
That 71
Thương 71
Thứ 71
While 71
chờ 71
create 71
crisis 71
cut 71
dọa 71
dụ 71
full 71
girl 71
họ, 71
meet 71
qua. 71
sa 71
sold 71
thuê 71
thận 71
thụ 71
tr@@ 71
tỏ 71
2011 70
Brazil 70
Chỉ 70
Deputy 70
His 70
Islands 70
Khu 70
My 70
Other 70
Tôi 70
ating 70
bãi 70
carrier 70
chẩn 70
coronavirus. 70
cục 70
ever 70
fully 70
gan 70
hồ 70
illegal 70
name 70
nhờ 70
phóng 70
samples 70
sửa 70
t. 70
traditional 70
truy 70
​​sẽ 70
.""" 69
6, 69
Global 69
In@@ 69
More 69
Tropical 69
Tư. 69
U@@ 69
access 69
bus 69
chỗ 69
giấc 69
hơi 69
incident 69
lockdown 69
longer 69
ngoài. 69
ngoái 69
nhân, 69
president 69
saw 69
trade 69
tán 69
works 69
2014 68
Báo 68
Chung 68
Lao 68
Nepal 68
Prevention 68
climate 68
construction 68
discovered 68
doctor 68
efforts 68
identified 68
increasing 68
khối 68
khổng 68
kê 68
linked 68
mobile 68
nationals 68
ngủ 68
ngữ 68
ri@@ 68
sex 68
ted 68
thao 68
thẩm 68
visit 68
xu 68
65 67
Beijing 67
From 67
Loan 67
Of 67
Organization 67
Triều 67
banned 67
comes 67
current 67
di@@ 67
e, 67
involved 67
kh@@ 67
không. 67
member 67
ng. 67
nó. 67
phút 67
phận 67
ro@@ 67
rượu 67
serious 67
something 67
stock 67
tầm 67
value 67
vé 67
2. 66
2019, 66
Con 66
Cảnh 66
Dinh 66
Research 66
TV 66
chairman 66
cân 66
date 66
gói 66
hy 66
minister 66
nhuận 66
shares 66
systems 66
thác 66
trial 66
tính. 66
worldwide 66
ưu 66
‘ 66
2021 65
53 65
Association 65
French 65
Lai 65
Mỹ, 65
ac@@ 65
chối 65
concerns 65
education 65
financial 65
hoa 65
leaders 65
main 65
mơ 65
necessary 65
ordered 65
phương. 65
sea 65
stated 65
thú 65
tin. 65
trời 65
tầng 65
virus. 65
đón 65
“Tôi 65
Airways 64
Hơn 64
Medical 64
Nông 64
Quận 64
aircraft 64
attention 64
clinical 64
dạy 64
event 64
families 64
field 64
follow 64
however 64
học. 64
numbers 64
phẫu 64
problem 64
red 64
rest 64
tô 64
Đối 64
"""Bệnh 63
1,@@ 63
10@@ 63
32 63
Bảo 63
Du 63
Hồi 63
Tết 63
Z@@ 63
amid 63
brain 63
bring 63
capacity 63
chấn 63
dã 63
effect 63
el@@ 63
energy 63
es@@ 63
essential 63
investment 63
khử 63
lai 63
luyện 63
makes 63
present 63
quickly 63
regions 63
sources 63
won 63
ẩn 63
0@@ 62
America 62
Development 62
During 62
Nẵng, 62
Street 62
Tư, 62
X@@ 62
agency 62
airport 62
always 62
arrested 62
cancer 62
condition 62
done 62
either 62
failure 62
ho@@ 62
issues 62
lái 62
lọc 62
mainland 62
mét 62
môn 62
nhựa 62
sales 62
severe 62
source 62
thừa 62
various 62
y, 62
đỡ 62
’re 62
Cả 61
Duc 61
Hai, 61
Russian 61
Times 61
băng 61
bệnh, 61
call 61
export 61
exposure 61
fell 61
gia. 61
h 61
ha 61
hoang 61
immune 61
legal 61
markets 61
never 61
nhau. 61
nào. 61
não 61
program 61
receive 61
rồi 61
season 61
side 61
trấn 61
tuổi. 61
vui 61
ways 61
đào 61
đốt 61
25@@ 60
5, 60
Africa 60
Americans 60
California 60
Khoa 60
Linh 60
Mekong 60
behind 60
daily 60
dần 60
enter 60
form 60
holiday 60
kg 60
khắc 60
loss 60
model 60
ng, 60
scheduled 60
transport 60
tả 60
vehicles 60
Đến 60
4. 59
Cambodia 59
Gòn 59
Highlands 59
Lan, 59
Nations 59
Tr@@ 59
Vietjet 59
aged 59
chẽ 59
chụp 59
coffee 59
cặp 59
hard 59
investigation 59
lương 59
music 59
named 59
nhất. 59
nhắc 59
nuôi 59
nữa. 59
poor 59
protect 59
role 59
significant 59
thẳng 59
tắc 59
đây. 59
2012 58
42 58
8, 58
EU 58
Hán, 58
K. 58
Moscow 58
S 58
Vinh 58
action 58
brought 58
bạc 58
bờ 58
certain 58
chỉnh 58
de@@ 58
drugs 58
experience 58
fishing 58
ha@@ 58
immediately 58
j@@ 58
lồ 58
mạch 58
nhận, 58
north 58
position 58
room 58
safe 58
thousands 58
thách 58
tới. 58
y. 58
150 57
55 57
Commune 57
Ngọc 57
Security 57
adding 57
allow 57
birth 57
built 57
dòng 57
et@@ 57
fall 57
greater 57
healthcare 57
homes 57
hoàng 57
hundreds 57
investors 57
kém 57
lack 57
lại, 57
lạm 57
lẻ 57
m, 57
minutes 57
mẽ 57
needs 57
nguyện 57
normal 57
nấu 57
play 57
quarter 57
skin 57
survey 57
together 57
tôn 57
tận 57
u, 57
xung 57
ánh 57
đồn 57
động. 57
“Chúng 57
AIDS 56
Affairs 56
Also 56
Associated 56
Bamboo 56
Bài 56
Forbes 56
Myanmar 56
Ph@@ 56
Phạm 56
Spain 56
Tiên 56
Y@@ 56
bại 56
coronavirus, 56
dịch, 56
fact 56
female 56
foreigners 56
gió 56
is@@ 56
look 56
natural 56
ngồi 56
non-@@ 56
núi 56
over@@ 56
physical 56
point 56
programs 56
sector 56
someone 56
sp@@ 56
store 56
try 56
warned 56
why 56
worked 56
Đức, 56
're 55
3,@@ 55
Agency 55
Birx 55
Bạn 55
Games 55
Hợp 55
Italian 55
Trên 55
VinFast 55
at@@ 55
changes 55
claimed 55
căng 55
do@@ 55
dược 55
giãn 55
ho 55
nhất, 55
nổ 55
pilot 55
previously 55
release 55
risks 55
training 55
trồng 55
trữ 55
u@@ 55
x@@ 55
đ@@ 55
động, 55
.@@ 54
Bảy 54
Chiến 54
German 54
Mar@@ 54
Nhat 54
Police 54
Tiến 54
Twitter 54
USD) 54
additional 54
ations 54
board 54
cao. 54
chín 54
couple 54
damage 54
district 54
fourth 54
gen 54
hotel 54
issue 54
l 54
language 54
liệt 54
looking 54
lạnh 54
male 54
nhau, 54
nhân. 54
protective 54
remains 54
short 54
singer 54
surveillance 54
temporarily 54
thờ 54
trying 54
war 54
Ý, 54
​​@@ 54
”, 54
600 53
700 53
Bên 53
Bản, 53
House 53
Hung 53
Mercy 53
Most 53
Nhĩ 53
Thổ 53
Tài 53
abroad 53
afternoon 53
ates 53
critical 53
gatherings 53
ground 53
huy 53
key 53
kilometers 53
ngắn 53
policy 53
prime 53
series 53
shared 53
signed 53
thought 53
tiên, 53
transferred 53
wave 53
wear 53
Đa 53
Đan 53
đồng, 53
ương 53
2,@@ 52
2013 52
2018, 52
66 52
Amazon 52
BBC 52
announcement 52
bí 52
complete 52
côn 52
daughter 52
en 52
final 52
fire 52
forecast 52
gone 52
idea 52
im@@ 52
laws 52
lost 52
ly. 52
multiple 52
màn 52
mềm 52
n. 52
needed 52
newspaper 52
nhẹ 52
organizations 52
owned 52
phức 52
reason 52
representative 52
resources 52
ràng 52
sắt 52
tea 52
temperatures 52
ti@@ 52
tính, 52
vong. 52
vải 52
0,@@ 51
20@@ 51
Coffee 51
Dubai 51
Earlier 51
First 51
Hãng 51
Khánh 51
PM 51
Party 51
Press 51
Tourism 51
What 51
Year 51
a.m. 51
ability 51
ad@@ 51
b 51
cancelled 51
con@@ 51
cu@@ 51
degrees 51
effects 51
established 51
facility 51
fear 51
hàng, 51
imported 51
imposed 51
improve 51
losses 51
overseas 51
per@@ 51
plane 51
ready 51
robot 51
ships 51
signs 51
stores 51
tech 51
themselves 51
trials 51
tuần. 51
tặng 51
wanted 51
y@@ 51
Đầu 51
đầu, 51
định. 51
1. 50
44 50
An@@ 50
Another 50
COVID-19, 50
Giải 50
Phuong 50
Tu 50
above 50
activity 50
advised 50
bar 50
believe 50
cells 50
chó 50
chúng. 50
chút 50
chở 50
claims 50
clear 50
concern 50
front 50
giàu 50
hands 50
hiếm 50
hội, 50
lắng 50
lịch, 50
nhà, 50
nỗi 50
raised 50
rates 50
receiving 50
responsible 50
sa@@ 50
spend 50
stage 50
suffered 50
thỏa 50
waters 50
x 50
xa0@@ 50
Đ@@ 50
ấn 50
2.@@ 49
33 49
57 49
75 49
AFF 49
Anh. 49
Britain 49
Khoảng 49
Kiểm 49
Obama 49
Phương 49
Syria 49
Those 49
amount 49
arriving 49
beginning 49
chain 49
chief 49
corona. 49
created 49
d 49
despite 49
drop 49
e. 49
exports 49
factors 49
film 49
fish 49
il@@ 49
khóa 49
laboratory 49
learn 49
love 49
lung 49
lược 49
ma 49
met 49
mã 49
network 49
ngạc 49
ongoing 49
opened 49
points 49
product 49
quen 49
restaurants 49
rối 49
sau, 49
ten 49
thuyết 49
trạm 49
types 49
tá 49
đua 49
15@@ 48
Dân 48
Hang 48
Hye 48
Mỹ. 48
Princess 48
Re@@ 48
School 48
Sun 48
Trái 48
Viet 48
act 48
an, 48
apps 48
ar 48
baby 48
believed 48
bia 48
brand 48
cam 48
carbon 48
causes 48
ch 48
chắc 48
chợ 48
cough 48
cầu, 48
cựu 48
designed 48
dây 48
firms 48
includes 48
khuôn 48
nề 48
offer 48
ones 48
pneumonia 48
procedures 48
proposed 48
rau 48
reach 48
reasons 48
rising 48
sell 48
south 48
suggested 48
sữa 48
thiệu 48
treat 48
viện, 48
whose 48
đo 48
đậu 48
ơn 48
"['@@ 47
2.5 47
3.@@ 47
41 47
46 47
49 47
52 47
Coronavirus 47
HCM, 47
Li@@ 47
Thuan 47
Trade 47
Ví 47
account 47
airports 47
be@@ 47
chàng 47
cuốn 47
dead 47
ghé 47
husband 47
immunity 47
located 47
nghề 47
nói. 47
nói: 47
nắng 47
ol@@ 47
ong 47
operating 47
owner 47
phương, 47
pop 47
produced 47
projects 47
provided 47
resident 47
rút 47
scale 47
species 47
spent 47
studies 47
te 47
temperature 47
toll 47
tour 47
traffic 47
trường. 47
trầm 47
trốn 47
Đó 47
3,000 46
47 46
5,000 46
64 46
Afghanistan 46
Australian 46
Bank 46
Duong 46
Her 46
John 46
Ngân 46
Rất 46
Social 46
costs 46
ded 46
detected 46
dụ, 46
kind 46
kịch 46
la) 46
limit 46
limited 46
middle 46
monitoring 46
mộ 46
reduced 46
round 46
rằng, 46
rửa 46
s. 46
selling 46
sign 46
story 46
su@@ 46
takes 46
tax 46
terms 46
tín 46
understand 46
""Bệnh 45
1.000 45
2009 45
48 45
5. 45
9, 45
Al@@ 45
Con@@ 45
Even 45
Học 45
Na 45
Olympic 45
Paracel 45
Starbucks 45
Three 45
Transport 45
actions 45
attack 45
bạch 45
bạo 45
caught 45
causing 45
cold 45
conference 45
court 45
digital 45
dàng 45
ec@@ 45
football 45
giant 45
heat 45
hội. 45
infectious 45
inside 45
kept 45
lưới 45
lỗ 45
mis@@ 45
mostly 45
nationwide 45
niềm 45
nữa, 45
phố. 45
planned 45
ra@@ 45
remaining 45
revenues 45
ru@@ 45
sites 45
stopped 45
trại 45
tồi 45
vessel 45
victim 45
victims 45
whole 45
đàm 45
đỏ 45
ủy 45
2030 44
6. 44
African 44
Ca 44
Chương 44
Education 44
Industry 44
Lào 44
Minh, 44
Ngoc 44
Pro@@ 44
Republic 44
Tri 44
adults 44
ag@@ 44
alcohol 44
bo@@ 44
cao, 44
centers 44
chục 44
conducted 44
dangerous 44
dropped 44
dị 44
ent 44
entered 44
everyone 44
facing 44
fast 44
forest 44
già 44
hi@@ 44
hold 44
hotels 44
hour 44
ill 44
khói 44
kim 44
leader 44
let 44
lẽ 44
mainly 44
p.m. 44
paid 44
pro@@ 44
protection 44
revenue 44
shop 44
sleep 44
status 44
supplies 44
sure 44
thing 44
thiệp 44
thầu 44
thể, 44
trà 44
trắng 44
vết 44
w@@ 44
worst 44
xanh 44
Á, 44
Đông, 44
0 43
10% 43
2019. 43
Although 43
Among 43
B 43
Cao 43
D 43
Dak 43
Giao 43
Goo 43
Hầu 43
Nhóm 43
Now 43
Phan 43
Secretary 43
Sáu, 43
agreed 43
bed 43
buồn 43
bò 43
carried 43
citizen 43
completed 43
crew 43
cùng 43
cúm 43
directly 43
fans 43
fruit 43
gũi 43
hot 43
huống 43
hàng. 43
isolated 43
lỏng 43
materials 43
methods 43
moved 43
ngoài, 43
ngư 43
press 43
record 43
thoát 43
threat 43
town 43
tuệ 43
village 43
white 43
wrote 43
Đảng 43
-- 42
2,000 42
2017, 42
4,@@ 42
54 42
73 42
Administration 42
Buddha 42
Christmas 42
Co@@ 42
Island 42
Kết 42
Luật 42
Miss 42
Nhiệt 42
Pháp, 42
Q@@ 42
Quoc 42
To@@ 42
Tòa 42
Women 42
album 42
als 42
ang 42
annual 42
ap@@ 42
arrival 42
boy 42
build 42
bây 42
bề 42
carry 42
classes 42
diagnosed 42
eat 42
entire 42
expressed 42
for@@ 42
governments 42
grow 42
identify 42
individual 42
intelligence 42
king 42
loạn 42
lớn. 42
m. 42
ng 42
passed 42
political 42
registered 42
requested 42
rose 42
specific 42
storm 42
sắm 42
throughout 42
turn 42
tỉ 42
virus, 42
xấu 42
50% 41
88 41
Ba, 41
Can 41
Chau 41
Dr. 41
Hubei 41
Lee 41
Lễ 41
Mexico 41
No 41
Over 41
P 41
Quy 41
Saudi 41
Sinh 41
TP.HCM 41
Tháng 41
Thống 41
Thực 41
Truyền 41
Vụ 41
acute 41
anyone 41
cultural 41
devices 41
direct 41
elderly 41
environmental 41
est 41
extended 41
fresh 41
girls 41
giving 41
host 41
hâm 41
ia 41
illegally 41
ine 41
kia 41
kính 41
la@@ 41
letter 41
light 41
lũ 41
manufacturing 41
meters 41
mát 41
nghèo 41
nhiễm, 41
occur 41
particularly 41
passenger 41
phones 41
phỏng 41
plants 41
po@@ 41
quê 41
speed 41
sạch 41
ton 41
trees 41
urged 41
user 41
uses 41
"Ông 40
26@@ 40
5% 40
58 40
Azerbaijan 40
Bill 40
Campuchia 40
Celsius 40
Day 40
Earth 40
Giá 40
Ho@@ 40
Lam 40
Michael 40
Mo@@ 40
Ng@@ 40
Pham 40
Saint 40
San 40
Song 40
Tam 40
ab@@ 40
administration 40
airline 40
appeared 40
bacteria 40
break 40
bu@@ 40
chảy 40
coast 40
diplomatic 40
distance 40
effort 40
evening 40
farmers 40
fishermen 40
games 40
gỡ 40
lửa 40
measure 40
mừng 40
ngưng 40
ngộ 40
nhật, 40
nhắn 40
ni@@ 40
nắm 40
operation 40
organization 40
particular 40
recovery 40
sau. 40
se 40
space 40
summer 40
thuyền 40
transportation 40
tree 40
type 40
universities 40
ventilators 40
volume 40
vậy. 40
weekend 40
’ve 40
0.@@ 39
16@@ 39
2003 39
Both 39
Delta 39
GDP 39
Gi@@ 39
Khanh 39
Nigeria 39
Nước 39
Online 39
Pompeo 39
Su@@ 39
Tàu 39
Ukraine 39
Venezuela 39
Vân 39
accused 39
agricultural 39
ant 39
bom 39
bật 39
bớt 39
check 39
chemical 39
chào 39
chạm 39
competition 39
cầm 39
cầu. 39
dioxide 39
districts 39
doing 39
ds 39
eating 39
el 39
ex@@ 39
failed 39
fake 39
fifth 39
g 39
highly 39
hứa 39
interest 39
locals 39
location 39
mask 39
mu@@ 39
muỗi 39
nghiệm. 39
phú 39
prior 39
profit 39
routes 39
se@@ 39
send 39
shut 39
single 39
states 39
supermarket 39
te@@ 39
teams 39
ters 39
tháng. 39
tions 39
toàn. 39
tàng 39
tây 39
tại, 39
units 39
whom 39
đèn 39
10,000 38
2016, 38
250 38
4.@@ 38
51 38
61 38
83 38
85 38
9. 38
99 38
Agriculture 38
Bác 38
C. 38
CAAV 38
Denmark 38
Oblast 38
Sức 38
\xa0@@ 38
although 38
ans 38
bi@@ 38
buses 38
cars 38
chìm 38
chậm 38
chắn 38
class 38
coal 38
committee 38
completely 38
contain 38
cover 38
driving 38
dịp 38
easily 38
experienced 38
fined 38
force 38
hiệp 38
huynh 38
hè 38
hợp. 38
illness 38
le@@ 38
leaving 38
lô 38
lẫn 38
match 38
net 38
ngập 38
no@@ 38
offering 38
orders 38
planning 38
players 38
postponed 38
prepare 38
recommended 38
rắn 38
sexual 38
shops 38
sick 38
successful 38
television 38
ter@@ 38
th 38
thảm 38
trường, 38
tễ 38
virtual 38
việc. 38
định, 38
$@@ 37
12@@ 37
5.000 37
56 37
8,@@ 37
Ar@@ 37
Bangkok 37
Cách 37
High 37
Hôm 37
Me@@ 37
NHS 37
Nh@@ 37
No. 37
River 37
Ro@@ 37
Several 37
Thời 37
Town 37
Under 37
accounts 37
affect 37
aviation 37
beer 37
bè 37
calls 37
closely 37
commercial 37
consumers 37
decades 37
destinations 37
exported 37
focus 37
forces 37
gắn 37
helped 37
hiến 37
hề 37
họa 37
ic 37
linh 37
liều 37
locations 37
làn 37
lành 37
láng 37
machine 37
maintain 37
mê 37
n: 37
nhiễm. 37
phố, 37
posted 37
regular 37
sh@@ 37
shown 37
sing 37
software 37
spreading 37
sub@@ 37
sót 37
tiên. 37
trip 37
tộc 37
xa0 37
Đường 37
đọc 37
ảo 37
10, 36
14@@ 36
2010 36
30% 36
6.@@ 36
74 36
Alibaba 36
Bảy, 36
Bến 36
Centre 36
Dù 36
Food 36
Gần 36
Its 36
Lâm 36
M 36
Masan 36
Milan 36
Mọi 36
Năm, 36
Nẵng. 36
Office 36
Pa 36
Phụ 36
Previously 36
Sân 36
Thủy 36
Tien 36
Tuan 36
Varadkar 36
West 36
actually 36
ao 36
ba, 36
breath 36
chains 36
closure 36
cản 36
cảng 36
cẩn 36
depression 36
ding 36
dường 36
existing 36
famous 36
findings 36
giản 36
giờ, 36
happened 36
hectares 36
hope 36
huge 36
ic@@ 36
income 36
island 36
kho 36
khơi 36
launch 36
liền 36
lúa 36
lừa 36
mười 36
ne@@ 36
nghiệp, 36
o. 36
offers 36
ons 36
p, 36
party 36
pilots 36
post 36
pre@@ 36
pregnant 36
protein 36
rains 36
răng 36
sinh, 36
sovereignty 36
săn 36
tháng, 36
traveled 36
travelled 36
trông 36
twice 36
ur@@ 36
viruses 36
xứ 36
ép 36
được. 36
đẳng 36
ẩm 36
ổ 36
+ 35
17@@ 35
7,@@ 35
7. 35
8. 35
Authorities 35
Chi@@ 35
Dương, 35
Festival 35
Giáng 35
Huong 35
Hy 35
Kế 35
Lazada 35
Local 35
Meanwhile 35
Researchers 35
Science 35
Shilla 35
Sáu. 35
Trẻ 35
Turkey 35
Tỉnh 35
VnExpress 35
Yen 35
approval 35
associated 35
bank 35
binh 35
c 35
carrying 35
chance 35
changed 35
chu@@ 35
chứ 35
device 35
dogs 35
electricity 35
employee 35
es, 35
felt 35
fighting 35
fruits 35
giam 35
gu@@ 35
initial 35
khoán 35
kits 35
kênh 35
labor 35
lắp 35
mass 35
method 35
mạng. 35
park 35
pate 35
permission 35
played 35
questions 35
relationship 35
relevant 35
require 35
review 35
rẻ 35
shopping 35
showing 35
sometimes 35
sports 35
square 35
staying 35
step 35
thêm. 35
thôn 35
tuy 35
understanding 35
ve 35
wants 35
win 35
ông. 35
Đào 35
đợi 35
24@@ 34
30@@ 34
62 34
8.@@ 34
Bai 34
Besides 34
Big 34
C, 34
Dao 34
England 34
Following 34
Hai. 34
Ireland 34
Kh@@ 34
Laos 34
Như 34
Nhất 34
Năm. 34
O 34
SARS-CoV-2 34
Se@@ 34
Toàn 34
Tre 34
VN@@ 34
VNĐ 34
Vi@@ 34
Ward 34
acid 34
ages 34
agreement 34
ance 34
animal 34
begin 34
borders 34
broke 34
cash 34
charges 34
chấm 34
cruise 34
dream 34
falling 34
festival 34
forced 34
goal 34
healthy 34
huấn 34
imports 34
involving 34
khỏe. 34
kidney 34
lớn, 34
matter 34
millions 34
nghiệp. 34
ngược 34
ngặt 34
nhắm 34
notice 34
outbreaks 34
outlets 34
peace 34
phase 34
producers 34
revealed 34
rules 34
senior 34
sinh. 34
size 34
station 34
streets 34
suspension 34
ter 34
thể. 34
tin, 34
tried 34
trị. 34
trứng 34
tu@@ 34
upon 34
videos 34
viral 34
việc, 34
warning 34
watch 34
Đình 34
Độ, 34
đài 34
đỉnh 34
địch 34
/@@ 33
2008 33
6,@@ 33
67 33
86 33
Ad@@ 33
Britney 33
Cai 33
Children 33
Court 33
Cổ 33
Diamond 33
Indian 33
Le@@ 33
League 33
Los 33
Mr 33
Qu@@ 33
Quan 33
Quân 33
Sri 33
St@@ 33
Technology 33
Tinh 33
War 33
X 33
Xã 33
abuse 33
aimed 33
airlines 33
allowing 33
bad 33
behavior 33
brands 33
century 33
chim 33
claim 33
college 33
continued 33
contracted 33
controls 33
cooperation 33
cướp 33
dọc 33
ended 33
entertainment 33
eventually 33
exam 33
expert 33
fields 33
flew 33
gas 33
ghép 33
gives 33
giường 33
houses 33
hứng 33
impacts 33
improved 33
islands 33
landed 33
marriage 33
me@@ 33
medicine 33
meter 33
miệng 33
mon@@ 33
movement 33
moving 33
nhãn 33
nàng 33
officers 33
organic 33
original 33
ous 33
out@@ 33
par@@ 33
payment 33
performed 33
phường 33
providing 33
quà 33
rain 33
range 33
retail 33
rạp 33
screening 33
search 33
stable 33
teacher 33
tell 33
thường, 33
trộm 33
turned 33
tùy 33
tật 33
university 33
vang 33
vời 33
wearing 33
ông, 33
đem 33
đảng 33
ống 33
199@@ 32
59 32
5G 32
98 32
AFP 32
Bang 32
Bar 32
Bitcoin 32
Com@@ 32
Cuba 32
En@@ 32
Experts 32
Giang, 32
Hành 32
Iran, 32
Lunar 32
Mạch 32
PCR 32
R 32
Tay 32
Tho 32
Thêm 32
UAE 32
ally 32
basis 32
changing 32
collected 32
cãi 32
d, 32
deep 32
determine 32
difficulties 32
documents 32
dụng, 32
ed@@ 32
everything 32
exercise 32
features 32
forward 32
gave 32
giềng 32
helping 32
hospitalised 32
hẹn 32
hối 32
hồng 32
hợp, 32
ice 32
ist 32
jail 32
khán 32
lu@@ 32
lân 32
meat 32
monitor 32
n.', 32
neighboring 32
ngũ 32
nhạy 32
notes 32
nó, 32
older 32
opening 32
ou@@ 32
personnel 32
platform 32
policies 32
r 32
race 32
raise 32
request 32
respectively 32
skills 32
syndrome 32
taste 32
teachers 32
thùng 32
tools 32
trưng 32
tuần, 32
tôi, 32
unit 32
va 32
vaccination 32
vulnerable 32
xăng 32
zone 32
Ý. 32
đòi 32
.']" 31
13@@ 31
197@@ 31
200@@ 31
23@@ 31
Bắc, 31
CNN 31
Centers 31
Chợ 31
Despite 31
Doanh 31
Floyd 31
H 31
Huawei 31
Index 31
Instagram 31
Johnson 31
Ma 31
Môi 31
Nghệ 31
Northern 31
Tenma 31
Today 31
Tuấn 31
add 31
ants 31
application 31
ard 31
ask 31
authority 31
bay. 31
below 31
bạn. 31
calling 31
camera 31
charge 31
comment 31
consider 31
continues 31
course 31
denied 31
dish 31
dry 31
em, 31
executive 31
flu 31
foods 31
friend 31
fuel 31
giảng 31
holding 31
hài 31
index 31
kiểu 31
le 31
link 31
lãi 31
lệch 31
lọt 31
miles 31
monitored 31
mortality 31
mouth 31
movie 31
mãn 31
mạnh. 31
nghiện 31
ngọt 31
nhảy 31
p. 31
partners 31
proposal 31
quỹ 31
reportedly 31
rooms 31
sad 31
science 31
seek 31
seeking 31
sharing 31
smart 31
so@@ 31
solutions 31
suffering 31
sushi 31
suspend 31
sổ 31
taxi 31
thus 31
tia 31
trọng, 31
tung 31
tuyến. 31
version 31
violence 31
Âu, 31
đầu. 31
"Vào 30
,@@ 30
50,000 30
68 30
77 30
AQI 30
Ben 30
Business 30
Bản. 30
Bắt 30
Cần 30
Four 30
Huế 30
Ian 30
Khí 30
Kingdom 30
Law 30
N 30
Nai 30
Navy 30
Ngay 30
Ngô 30
Nhi 30
Ninh, 30
Once 30
Putin 30
Quản 30
Sa@@ 30
Thang 30
Thien 30
Thuận 30
Thượng 30
USD, 30
WeChat 30
advice 30
applied 30
assistance 30
beauty 30
becomes 30
becoming 30
bl@@ 30
buying 30
bếp 30
bỏ. 30
clean 30
computer 30
cộng. 30
drink 30
em. 30
except 30
expanded 30
guidelines 30
hai, 30
inc@@ 30
industrial 30
inter@@ 30
ked 30
khung 30
khô 30
không, 30
ks 30
kịp 30
la, 30
larger 30
lạ 30
lối 30
matches 30
minute 30
mo@@ 30
municipal 30
nursing 30
occurred 30
operate 30
paper 30
provincial 30
ranked 30
rather 30
reducing 30
relations 30
removed 30
resort 30
shortage 30
si@@ 30
significantly 30
success 30
talk 30
thang 30
thanks 30
towards 30
treating 30
vinh 30
viên, 30
viễn 30
vực. 30
ăn. 30
điệp 30
""" 29
($@@ 29
1.5 29
7% 29
76 29
Cha@@ 29
Cuối 29
Di@@ 29
FIFA 29
Ford 29
Jong 29
Kyo 29
Lệnh 29
Manila 29
Market 29
Mặt 29
N. 29
Netflix 29
Noi 29
Nữ 29
Pakistani 29
Peace 29
Sulli 29
Swift 29
Tiền 29
UNCLOS 29
address 29
advertising 29
ahead 29
ak@@ 29
allows 29
anti-@@ 29
appear 29
ary 29
attacks 29
av@@ 29
book 29
budget 29
bình, 29
carriers 29
chay 29
chronic 29
com@@ 29
concerned 29
customs 29
cô, 29
cửa. 29
degree 29
diệt 29
dragon 29
dùng 29
dư 29
es. 29
explained 29
exposed 29
extremely 29
green 29
gã 29
helps 29
hóa, 29
hỏa 29
immigration 29
itself 29
ity 29
kids 29
landing 29
lots 29
machines 29
managed 29
map 29
mean 29
mer@@ 29
mind 29
ministries 29
mèo 29
mặn 29
mời 29
n” 29
om@@ 29
origin 29
oxygen 29
payments 29
peak 29
performance 29
phủ. 29
practice 29
processing 29
raising 29
rapid 29
religious 29
remained 29
sed 29
serve 29
smoke 29
stand 29
star 29
stayed 29
str@@ 29
studying 29
sốc 29
sụt 29
ta. 29
technical 29
temporary 29
thêm, 29
thường. 29
thả 29
tonnes 29
túc 29
urban 29
vegetables 29
ven 29
vi@@ 29
visiting 29
vườn 29
weapons 29
winter 29
word 29
ác 29
Động 29
đi, 29
đi. 29
đâu 29
đệ 29
ưa 29
Ả 29
198@@ 28
1996 28
2006 28
2017. 28
201@@ 28
3.000 28
5.@@ 28
79 28
9.@@ 28
Chairman 28
Defense 28
Dell 28
Dũng 28
Embassy 28
George 28
Georgia 28
Go@@ 28
Hoi 28
Justin 28
K 28
Long, 28
Mi@@ 28
Mr. 28
Not 28
Par@@ 28
Post 28
Seoul 28
Vĩnh 28
[@@ 28
apply 28
art 28
ator 28
attract 28
bit 28
bậc 28
consequences 28
cán 28
cấu 28
cứu, 28
decide 28
deployed 28
die 28
dày 28
dạ 28
en, 28
factory 28
figures 28
flow 28
freedom 28
ga 28
generally 28
genetic 28
gold 28
granted 28
happy 28
hành, 28
i.', 28
ies 28
implemented 28
ir@@ 28
ise 28
join 28
khúc 28
kiệm 28
leaves 28
lão 28
lý. 28
lịch. 28
majority 28
manager 28
meaning 28
mental 28
mắn 28
nearby 28
ngưỡng 28
nêu 28
nộp 28
ob@@ 28
pain 28
pe@@ 28
phủ, 28
quarantining 28
read 28
recognition 28
regional 28
simple 28
society 28
songs 28
standards 28
standing 28
stations 28
studied 28
suffer 28
ta@@ 28
throat 28
thông, 28
thù 28
tickets 28
tracking 28
traveling 28
trôi 28
trị, 28
typically 28
tách 28
tươi 28
tấm 28
tới, 28
urgent 28
visas 28
wildlife 28
Âu. 28
%, 27
10.000 27
2.000 27
200,000 27
2000 27
2005 27
4,000 27
5,@@ 27
69 27
9,@@ 27
90% 27
Before 27
Bien 27
Biên 27
Cam 27
Chị 27
Corporation 27
Ebola 27
Lực 27
MV 27
Mai, 27
Natural 27
Network 27
Nhung 27
Phase 27
Quỹ 27
Samadova 27
Santa 27
Scientists 27
Spratly 27
Teddy 27
Tung 27
Yên 27
alleged 27
alone 27
appropriate 27
arrivals 27
assets 27
ay@@ 27
bought 27
burning 27
c, 27
chloroquine 27
chữ 27
cluster 27
consumption 27
damaged 27
destination 27
driver 27
dân, 27
dụng. 27
e-@@ 27
et 27
false 27
generation 27
happen 27
hoá 27
hãi 27
hạnh 27
ical 27
immediate 27
instance 27
khí. 27
ling 27
lived 27
looks 27
lowest 27
lungs 27
ma@@ 27
mar@@ 27
mentioned 27
mm 27
modern 27
networks 27
ngon 27
ngợi 27
ng” 27
note 27
này@@ 27
offered 27
opportunity 27
pha 27
phúc 27
plasma 27
pork 27
pregnancy 27
prepared 27
producing 27
professor 27
purchase 27
ranking 27
requires 27
ring 27
seized 27
seriously 27
spokesman 27
street 27
strictly 27
suggests 27
surface 27
target 27
trading 27
tropical 27
trúc 27
trọng. 27
tăng. 27
tỉnh, 27
tử. 27
view 27
vững 27
waiting 27
walk 27
wild 27
yourself 27
Điển 27
đất, 27
ấy. 27
"Một 26
100,000 26
210 26
63 26
8% 26
94 26
Brunei 26
C) 26
Commission 26
Cầu 26
Cửu 26
Environment 26
Gu@@ 26
Guinea 26
Hùng 26
Lo@@ 26
Netherlands 26
Nga, 26
Nghe 26
No@@ 26
Peter 26
Po@@ 26
Project 26
Sh@@ 26
Switzerland 26
Tau 26
Thao 26
UN 26
Union 26
Victoria 26
ai@@ 26
apartment 26
au@@ 26
bay, 26
boats 26
bridge 26
chai 26
che 26
clothing 26
club 26
complex 26
containing 26
contract 26
cor@@ 26
culture 26
customer 26
decade 26
directed 26
dậy 26
dọn 26
election 26
embassy 26
encourage 26
enjoy 26
estimates 26
figure 26
finding 26
fires 26
fund 26
funds 26
gloves 26
grade 26
heard 26
hoan 26
hàm 26
hành. 26
image 26
isolate 26
ke 26
killing 26
les 26
lightning 26
liver 26
lấp 26
married 26
meals 26
message 26
milk 26
mì 26
mũi 26
ne 26
nghiệm, 26
nh. 26
nhánh 26
nào, 26
powerful 26
preparing 26
protests 26
provides 26
quyên 26
quả. 26
restaurant 26
road 26
route 26
rule 26
running 26
rào 26
rãi 26
sale 26
scored 26
served 26
ses 26
solution 26
spokesperson 26
stands 26
steps 26
strength 26
stress 26
stressed 26
su 26
subject 26
subsequently 26
thước 26
thượng 26
tiệc 26
toxic 26
trục 26
trừng 26
tần 26
unknown 26
vice 26
violations 26
widely 26
wind 26
words 26
xóa 26
xế 26
zero 26
Đất 26
đen 26
điểm, 26
đuổi 26
đất. 26
’m 26
""Tôi 25
%. 25
0, 25
10,@@ 25
12.@@ 25
20% 25
2004 25
2018. 25
7.@@ 25
71 25
72 25
84 25
93 25
96 25
Between 25
Bình, 25
Bùi 25
Bằng 25
Canada, 25
Châu, 25
Colombia 25
Communist 25
Data 25
Home 25
LGBT 25
Loi 25
Lombardy 25
Malaysia, 25
Mau 25
Me 25
Medicine 25
Phi, 25
Quần 25
RT 25
Rural 25
Rập 25
Service 25
Statistics 25
Trí 25
USD). 25
V 25
Village 25
accounting 25
ad 25
alert 25
ang, 25
anh. 25
artificial 25
attracted 25
ay 25
behaviors 25
biệt. 25
boat 25
cell 25
ceremony 25
ch, 25
challenge 25
coastal 25
considering 25
consumer 25
content 25
cooking 25
corona, 25
criminal 25
cô. 25
cộng, 25
cứng 25
decisions 25
detained 25
dinh 25
diphtheria 25
dishes 25
dollars 25
dính 25
dục, 25
dứt 25
else 25
email 25
estate 25
flying 25
forms 25
funding 25
gets 25
grown 25
hotspot 25
ia, 25
importance 25
initially 25
injuries 25
khí, 25
kèm 25
lần, 25
lặp 25
messages 25
mi@@ 25
muộn 25
mảnh 25
ness 25
ngón 25
nới 25
ocean 25
op@@ 25
overall 25
picture 25
pl@@ 25
property 25
putting 25
reaching 25
regarding 25
reopen 25
resulted 25
score 25
separate 25
simply 25
spending 25
subjects 25
sun 25
surgery 25
teaching 25
technologies 25
tend 25
territory 25
therapy 25
thiết. 25
thô 25
ties 25
tournament 25
toàn, 25
train 25
trains 25
transactions 25
triển. 25
trần 25
túi 25
tốt. 25
um 25
v 25
views 25
visits 25
viên. 25
voi 25
worker 25
xương 25
younger 25
ze 25
đựng 25
ấm 25
"Trong 24
'] 24
'll 24
've 24
10.@@ 24
12,@@ 24
3rd 24
450 24
91 24
About 24
An, 24
Arabia 24
Around 24
Assembly 24
Bar@@ 24
Based 24
Bo@@ 24
Boeing 24
ByteDance 24
Car@@ 24
Chiếc 24
Cu 24
Côn 24
Dalat 24
Dan 24
Dang 24
Dien 24
Diễn 24
Dr 24
Du@@ 24
Due 24
Em 24
HCV 24
Hopkins 24
Hoàn 24
Hóa 24
Hưng 24
Johns 24
Mal@@ 24
Mu@@ 24
Nam@@ 24
Nghị 24
Singapore, 24
Sweden 24
Their 24
Thừa 24
Virus 24
Western 24
White 24
acquire 24
affecting 24
agriculture 24
aid 24
air@@ 24
ana 24
asking 24
atmosphere 24
attended 24
bars 24
beautiful 24
ber@@ 24
breaking 24
broadcast 24
bê 24
bền 24
camp 24
candidates 24
challenges 24
ches 24
chi@@ 24
choose 24
coach 24
commonly 24
contracts 24
cấp, 24
cắp 24
cửa, 24
dance 24
delivery 24
design 24
diagnosis 24
difference 24
document 24
dong 24
double 24
dozens 24
dreams 24
earned 24
ent@@ 24
er, 24
faced 24
faces 24
fines 24
frequency 24
ft 24
gh@@ 24
ghế 24
he@@ 24
hiện. 24
hygiene 24
ian 24
implement 24
inf@@ 24
influence 24
infrastructure 24
insects 24
introduced 24
items 24
karaoke 24
loved 24
lính 24
marketing 24
material 24
ment 24
mid-@@ 24
moment 24
màng 24
mái 24
neighbors 24
officially 24
on, 24
photos 24
prison 24
question 24
quyển 24
quốc. 24
rare 24
recognized 24
requirements 24
sample 24
scene 24
scientific 24
scores 24
seat 24
seems 24
sentenced 24
serving 24
smartphone 24
stability 24
suspects 24
sẻ. 24
sốt, 24
ta, 24
table 24
thắt 24
thổ, 24
thời, 24
tic 24
tion 24
tive 24
tiệm 24
toward 24
transmitted 24
treatments 24
values 24
vessels 24
weight 24
widespread 24
yên 24
án, 24
án. 24
đạp 24
(5@@ 23
1/@@ 23
120 23
2% 23
2015. 23
3% 23
40@@ 23
9,000 23
95 23
:@@ 23
A. 23
AP 23
Academy 23
Ai 23
Awards 23
Be@@ 23
Bu@@ 23
Chay 23
Coca 23
Cola 23
College 23
Cũng 23
Drug 23
E 23
F 23
Hán. 23
Hãy 23
Hương 23
Hạ 23
Industrial 23
Kien 23
Lan. 23
Malaysian 23
Man@@ 23
Mike 23
Military 23
Mon@@ 23
Norway 23
Olympics 23
Phần 23
Play 23
Ray 23
Scotland 23
Silver 23
Sáng 23
Thuy 23
Tình 23
Tờ 23
USD. 23
Vung 23
Vùng 23
accident 23
actress 23
aim 23
aims 23
ale 23
an. 23
anh, 23
ba@@ 23
benefits 23
black 23
broken 23
c. 23
celebrate 23
centralized 23
collect 23
creating 23
cáo, 23
cáo. 23
cưới 23
cụm 23
deadly 23
der 23
drinking 23
du@@ 23
dài. 23
easy 23
educational 23
electric 23
ence 23
expand 23
extra 23
extreme 23
eyes 23
factories 23
finally 23
forests 23
gay 23
gene 23
go@@ 23
goals 23
găng 23
gợi 23
households 23
hu@@ 23
humanitarian 23
hạn, 23
ial 23
injured 23
joined 23
khoẻ 23
khỉ 23
khỏe, 23
knowledge 23
miếng 23
mạ@@ 23
mạo 23
n) 23
ng"" 23
ng.', 23
nh, 23
nhật. 23
nhện 23
nurses 23
nó@@ 23
occurs 23
operated 23
organized 23
os 23
package 23
parks 23
parties 23
partner 23
phẩm, 23
phế 23
phục. 23
pigs 23
platforms 23
playing 23
polluted 23
promote 23
ps 23
railway 23
rem@@ 23
remove 23
reporters 23
reporting 23
save 23
section 23
seeing 23
sensitive 23
slow 23
smaller 23
speech 23
successfully 23
sòng 23
số. 23
sợi 23
thổ. 23
tra. 23
trafficking 23
transfer 23
travellers 23
triển, 23
true 23
trust 23
tràn 23
tốn 23
vay 23
vehicle 23
vương 23
washing 23
Á. 23
Úc, 23
Đặc 23
điển 23
ếch 23
(WHO) 22
130 22
15,000 22
1982 22
2015, 22
3.5 22
4% 22
80,000 22
92 22
97 22
A) 22
AstraZeneca 22
Border 22
Bur@@ 22
Bảy. 22
Col@@ 22
Community 22
Cái 22
Cụ 22
Director 22
Dược 22
Emergency 22
FC 22
Force 22
How 22
Hằng 22
IOC 22
Investment 22
JSC 22
Kiên 22
Lang 22
Lu@@ 22
Lý 22
Mùa 22
Mỗi 22
Ocean 22
Phuoc 22
Pháp. 22
SE@@ 22
Sho@@ 22
Silicon 22
Sơn, 22
Te@@ 22
Texas 22
Thompson 22
Thua 22
Thảo 22
Thể 22
Turkish 22
Un@@ 22
VOA 22
Vaccine 22
Vận 22
William 22
advantage 22
attend 22
az@@ 22
ba. 22
beef 22
block 22
bông 22
bố. 22
ca@@ 22
canceled 22
canh 22
career 22
charged 22
chuột 22
chết. 22
co 22
co-@@ 22
col@@ 22
combat 22
cur@@ 22
currency 22
cuts 22
cutting 22
cờ 22
decline 22
delivered 22
depending 22
details 22
door 22
doses 22
duty 22
dù 22
dỡ 22
ease 22
ethnic 22
ets 22
ev@@ 22
experiencing 22
f 22
fail 22
fears 22
federal 22
fi@@ 22
fine 22
frequently 22
function 22
garment 22
gathering 22
globally 22
gradually 22
har@@ 22
hopes 22
hòn 22
ki@@ 22
kill 22
kẹt 22
la. 22
lai. 22
listed 22
lose 22
manufacturers 22
marijuana 22
missing 22
models 22
mosquitoes 22
mệt 22
names 22
nhiều. 22
normally 22
perform 22
persons 22
phát, 22
phòng, 22
preventive 22
producer 22
quan, 22
reaction 22
requiring 22
residing 22
respond 22
rumors 22
rằng: 22
sectors 22
seem 22
sense 22
sk@@ 22
smartphones 22
spoke 22
spot 22
stake 22
startup 22
strict 22
suggest 22
surrounding 22
sống, 22
tally 22
ten@@ 22
thời. 22
to@@ 22
track 22
ty. 22
tàn 22
tự. 22
u. 22
unable 22
unusual 22
ure 22
vi-rút 22
violating 22
vỡ 22
vực, 22
w 22
wide 22
winds 22
worse 22
xơ 22
z 22
z@@ 22
£ 22
ô@@ 22
ăn, 22
Đăk 22
Được 22
được, 22
11, 21
11,@@ 21
12, 21
2007 21
22@@ 21
30,000 21
4.000 21
50@@ 21
900 21
ABC 21
AFC 21
Angeles 21
Barley 21
Because 21
Boston 21
Bốn 21
Canadian 21
Chu 21
Civil 21
Co. 21
Dat 21
Do@@ 21
Economic 21
Grand 21
Hoan 21
Hệ 21
Indonesia, 21
Information 21
Iran. 21
Islamic 21
L 21
Lanka 21
Lister 21
Liu 21
MERS 21
Manchester 21
Melbourne 21
Musk 21
Mục 21
Nguyên, 21
Ngành 21
Nha, 21
Resources 21
Six 21
Smith 21
Southern 21
Station 21
Sản 21
TNHH 21
Trưởng 21
V. 21
Vắc-xin 21
Về 21
Yahoo 21
ang@@ 21
apart 21
article 21
award 21
batch 21
battle 21
biển, 21
biệt, 21
bodies 21
box 21
bến 21
cap@@ 21
car@@ 21
casino 21
certificate 21
cho@@ 21
chôn 21
ci@@ 21
comp@@ 21
concluded 21
covered 21
covering 21
công, 21
cũ 21
cả. 21
cấp. 21
cốt 21
departments 21
ders 21
described 21
exams 21
ful 21
gather 21
giấu 21
gánh 21
handed 21
harmful 21
hepatitis 21
himself 21
hiểm. 21
id@@ 21
impacted 21
increases 21
increasingly 21
informed 21
ing@@ 21
institutions 21
investigate 21
k, 21
keeping 21
lab 21
lúc 21
ly@@ 21
lít 21
lồng 21
lộn 21
maritime 21
mầm 21
ng." 21
ngh@@ 21
ngọn 21
nitrate 21
non-essential 21
nose 21
nuclear 21
operates 21
originated 21
ov@@ 21
pass 21
pi@@ 21
pig 21
presence 21
primary 21
progress 21
protected 21
purposes 21
quan. 21
quite 21
quét 21
ran 21
relatives 21
remember 21
replace 21
res 21
risen 21
roads 21
ruled 21
rural 21
ròng 21
shift 21
shortness 21
strategy 21
strongly 21
struck 21
suit 21
supermarkets 21
survive 21
suspect 21
sw@@ 21
sét 21
súng 21
t.', 21
teen 21
theo. 21
thuốc, 21
thẻ 21
trained 21
trang, 21
trí, 21
trượt 21
underlying 21
unique 21
usual 21
van 21
vua 21
waves 21
west 21
xuất, 21
yesterday 21
đừng 21
"Theo 20
', 20
1.2 20
1.3 20
11.@@ 20
2,5 20
2014, 20
2025 20
27@@ 20
50.000 20
70% 20
8,000 20
Auckland 20
Authority 20
Black 20
Bất 20
Cong 20
Cây 20
Daily 20
Duy 20
Dữ 20
ECMO 20
Every 20
Federation 20
Foundation 20
G 20
Gates 20
HCM. 20
Haiyang 20
Honda 20
III 20
Ko@@ 20
Lady 20
Later 20
Li 20
Madrid 20
Noul 20
OPEC 20
Officials 20
Pa@@ 20
Sha@@ 20
Starting 20
Tencent 20
Then 20
Thiên 20
Together 20
Trọng 20
Tùng 20
Tú 20
Vice 20
Vinasun 20
Vuong 20
Võ 20
Vị 20
Wales 20
accordance 20
adds 20
ade 20
administrative 20
anything 20
armed 20
ars 20
ative 20
attending 20
banning 20
beyond 20
billions 20
books 20
bù 20
bố, 20
camps 20
char@@ 20
checks 20
choice 20
chú@@ 20
chăn 20
clothes 20
combined 20
communities 20
constantly 20
cr@@ 20
crime 20
công. 20
cú 20
cả@@ 20
cắn 20
declaration 20
decrease 20
den 20
determined 20
dies 20
discuss 20
divorce 20
draw 20
dụng 20
ea@@ 20
eastern 20
ell@@ 20
enhance 20
equivalent 20
ery 20
escape 20
establishment 20
fallen 20
feeling 20
feet 20
floor 20
functions 20
giả. 20
giọng 20
hi 20
historical 20
hiện, 20
hormone 20
hosted 20
hưu 20
i." 20
ics 20
import 20
in, 20
instructions 20
intensive 20
interventions 20
kit 20
lau 20
leads 20
leo 20
lessons 20
lines 20
là@@ 20
lũng 20
lần. 20
massive 20
memory 20
mild 20
mission 20
mountainous 20
mây 20
mưu 20
n; 20
nature 20
negotiations 20
ng) 20
ng.” 20
ngs 20
numerous 20
nào@@ 20
nói." 20
nạ 20
nữ, 20
officer 20
offices 20
ore 20
oxy 20
partnership 20
pháp, 20
phát. 20
potentially 20
preventing 20
proper 20
protesters 20
que 20
quoted 20
radio 20
recover 20
refused 20
relatively 20
repeatedly 20
rich 20
runs 20
ry 20
severely 20
sion 20
sound 20
sti@@ 20
sánh 20
sát, 20
sĩ, 20
tay, 20
thiều 20
thoải 20
thơm 20
thức. 20
tracing 20
travelling 20
trend 20
treo 20
tê 20
vụ 20
vọt 20
western 20
willing 20
xách 20
xóm 20
Đã 20
Đảo 20
đai 20
đâm 20
đãi 20
đình, 20
đắt 20
đỏ, 20
Ứng 20
"Các 19
(N@@ 19
(như 19
1,0@@ 19
1,500 19
1.8 19
140 19
180 19
2012, 19
2022 19
6% 19
89 19
Aviation 19
BMS 19
Ber@@ 19
Championship 19
Chẳng 19
Commerce 19
Cu@@ 19
Cuong 19
Daegu 19
Doctors 19
Elon 19
Emirates 19
Ex@@ 19
Har@@ 19
Hi@@ 19
Hol@@ 19
Hotel 19
Hu@@ 19
Huyện 19
Hòa, 19
Jin 19
Kiem 19
Luong 19
Mac@@ 19
Mc@@ 19
Minh. 19
Museum 19
Nga. 19
Oise 19
Old 19
Pasteur 19
Prince 19
Ria 19
SEA 19
Sar@@ 19
Spanish 19
Steve 19
Stock 19
Tet 19
Tim@@ 19
Tour 19
Travel 19
Trà 19
Trương 19
Tỷ 19
UNESCO 19
Vi 19
Wang 19
Z 19
Zhang 19
a-@@ 19
ancient 19
association 19
ati@@ 19
bags 19
bar@@ 19
base 19
basic 19
beat 19
beds 19
beverage 19
bia, 19
biển. 19
bright 19
béo 19
bạn, 19
bộ, 19
bột 19
bụi 19
chemicals 19
ching 19
cháu 19
chì 19
chết, 19
claiming 19
committed 19
commune 19
confirmation 19
contacted 19
contribute 19
declined 19
detect 19
discovery 19
dài, 19
e-commerce 19
eggs 19
el, 19
end@@ 19
enterprises 19
equ@@ 19
ess@@ 19
establish 19
examined 19
exchange 19
farming 19
fashion 19
feed 19
fired 19
fl@@ 19
gain 19
gates 19
gender 19
goes 19
guidance 19
happens 19
heavily 19
ho, 19
honor 19
hán 19
hụt 19
id 19
images 19
indicated 19
influenza 19
ins 19
invested 19
investing 19
investments 19
iz@@ 19
ized 19
khiển 19
knew 19
largely 19
ley 19
losing 19
ly, 19
lãng 19
lên, 19
manage 19
medium 19
micro@@ 19
minh, 19
monthly 19
motorbike 19
mùi 19
mắt, 19
mực 19
n"" 19
native 19
newly 19
ng""." 19
người@@ 19
nhượng 19
nothing 19
nở 19
options 19
packages 19
page 19
participants 19
passing 19
performing 19
pm 19
por@@ 19
port 19
presidential 19
probably 19
professional 19
prohibited 19
publicly 19
rec@@ 19
recognize 19
records 19
replaced 19
respect 19
resulting 19
resume 19
sanctions 19
scientist 19
session 19
shock 19
sit 19
skilled 19
sky 19
solar 19
sore 19
sought 19
speaking 19
supporting 19
surgical 19
symptom 19
sáng, 19
talks 19
techniques 19
therefore 19
thấp. 19
trash 19
travelers 19
truck 19
trên, 19
tuberculosis 19
tuyến, 19
tĩnh 19
tư, 19
tại. 19
tỉnh. 19
tử, 19
unprecedented 19
upcoming 19
useful 19
vuông 19
wait 19
worried 19
xạ 19
Đức. 19
đình. 19
–@@ 19
!@@ 18
"""Chúng 18
""Chúng 18
'Một 18
(P@@ 18
)@@ 18
/8, 18
1.0@@ 18
100.000 18
15.@@ 18
1990 18
2.3 18
2002 18
2016. 18
25% 18
28@@ 18
300,000 18
4-@@ 18
6,000 18
:30 18
Ahn 18
Bao 18
Bkav 18
Chief 18
Chien 18
Climate 18
Coca-Cola 18
Convention 18
Customs 18
Daniel 18
De@@ 18
Dũng, 18
EF 18
El@@ 18
Flight 18
Florida 18
Gr@@ 18
Greece 18
Harvard 18
Hình 18
Iraq 18
Jae 18
Jetstar 18
Joe 18
Just 18
Khách 18
Kông, 18
Lake 18
Loc 18
Là 18
Lương 18
Macau 18
Mart 18
Moreover 18
Nhan 18
Nong 18
Ob@@ 18
Only 18
Others 18
Paul 18
Philippines, 18
Phước 18
Plan 18
Red 18
Ri@@ 18
Rice 18
Robert 18
SA@@ 18
Sports 18
St. 18
Steering 18
Sydney 18
TW 18
Taylor 18
Thay 18
Theodore 18
Thomas 18
Top 18
Trinidad 18
Trung, 18
Tsai 18
US@@ 18
VN 18
Vệ 18
ac 18
achieved 18
ammonium 18
answer 18
approach 18
artist 18
ators 18
ats 18
back@@ 18
banks 18
barrel 18
billionaires 18
biological 18
boost 18
báo, 18
bọ 18
bọn 18
bỏng 18
bồi 18
cai 18
ched 18
chủ 18
citing 18
civil 18
clubs 18
code 18
colleagues 18
comments 18
confidence 18
conglomerate 18
cùng, 18
cược 18
cậy 18
cỏ 18
dao 18
diet 18
drought 18
ear@@ 18
easier 18
eb@@ 18
efficacy 18
enforcement 18
engine 18
engineering 18
ess 18
expect 18
factor 18
faster 18
feature 18
feelings 18
fees 18
finished 18
fore@@ 18
founder 18
gambling 18
ge 18
ge@@ 18
giáo, 18
glass 18
guard 18
guests 18
hai. 18
halt 18
herd 18
household 18
hít 18
hậu. 18
họ@@ 18
hồn 18
hộ@@ 18
ig@@ 18
independent 18
injury 18
insurance 18
involve 18
khác@@ 18
khách, 18
khát 18
kilograms 18
kinds 18
locally 18
locked 18
lucky 18
lãm 18
lý, 18
lở 18
mandatory 18
mas@@ 18
meant 18
measles 18
moderate 18
moon 18
musical 18
mình@@ 18
mạnh, 18
mặt. 18
nCoV 18
ner 18
ng,” 18
nhiêu 18
non@@ 18
ném 18
nướng 18
nữ. 18
organ 18
owners 18
pharmaceutical 18
pháp. 18
phơi 18
planes 18
pose 18
positions 18
processes 18
professionals 18
protest 18
purpose 18
quốc, 18
rapidly 18
recording 18
responsibility 18
schedule 18
screen 18
sees 18
sending 18
sets 18
setting 18
sha@@ 18
sister 18
situations 18
snake 18
speak 18
spring 18
stood 18
strategic 18
swine 18
sản, 18
sống. 18
tal@@ 18
teeth 18
tens 18
tensions 18
thinking 18
threatened 18
ticket 18
transplant 18
tri@@ 18
trùng, 18
tóc 18
updated 18
ventilator 18
ves 18
voice 18
wake 18
wo 18
xi 18
zones 18
é 18
ôn 18
Đỗ 18
ấp 18
ốm 18
ứng. 18
’d 18
'Cô 17
'd 17
(tương 17
,"" 17
.”'] 17
1% 17
122 17
1995 17
1999 17
2-@@ 17
20,000 17
2030, 17
243 17
270 17
360 17
36@@ 17
5-@@ 17
80% 17
A, 17
Ba. 17
Baby 17
Bay 17
Belgium 17
Berlin 17
Bui 17
Cor@@ 17
Corps 17
Council 17
Currently 17
Cà 17
Cường 17
Fan 17
Finance 17
Gallup 17
Go 17
Herat 17
Here 17
Inc. 17
Jo@@ 17
Ju@@ 17
Kar@@ 17
Kuala 17
Kỹ 17
Loan, 17
Man 17
Middle 17
Mrs. 17
Mê 17
Mười 17
Mạnh 17
New@@ 17
Ninh. 17
Niña 17
OSV 17
Pe@@ 17
Pennsylvania 17
Pri@@ 17
Protection 17
Qatar 17
Roosevelt 17
Royal 17
S, 17
Semmelweis 17
Sen@@ 17
Shanghai 17
Show 17
Si@@ 17
Sophia 17
Sp@@ 17
Speaking 17
Spears 17
Summer 17
Swedish 17
Tin 17
Tra 17
Tuoi 17
Tuyên 17
Tuần 17
Valley 17
VietnamPlus 17
VinMart 17
Vingroup, 17
Vinmart 17
Vịnh 17
Yet 17
Yêu 17
Zimbabwe 17
['Các 17
ably 17
actor 17
antibodies 17
applications 17
arrive 17
aware 17
awareness 17
babies 17
believes 17
bio@@ 17
birds 17
breakfast 17
breathe 17
breathing 17
buildings 17
bạ@@ 17
bắn 17
candidate 17
chiều. 17
chosen 17
chung, 17
chính, 17
chính. 17
chức, 17
closing 17
confirm 17
connected 17
consecutive 17
contacts 17
contained 17
crimes 17
crop 17
cá@@ 17
cáp 17
cười 17
cạn 17
cổng 17
dealing 17
decreased 17
defense 17
delayed 17
deliver 17
developments 17
diabetes 17
difficulty 17
dinner 17
downtown 17
dy 17
dy@@ 17
dâu 17
dắt 17
east 17
effectively 17
en. 17
encouraged 17
ending 17
ends 17
exist 17
expanding 17
expensive 17
facial 17
fatality 17
favorite 17
filed 17
filled 17
films 17
flag 17
formed 17
friendly 17
gate 17
generated 17
gian, 17
giúp 17
giày 17
grew 17
guilty 17
harvest 17
hearing 17
heritage 17
hub 17
hư 17
hạn. 17
học@@ 17
họng 17
hỏng 17
i.'] 17
identification 17
il 17
illnesses 17
in. 17
ina 17
insect 17
interests 17
inv@@ 17
ize 17
khiếm 17
khách. 17
khía 17
kín 17
licenses 17
lifted 17
likes 17
loa 17
là, 17
lên. 17
lò 17
lầm 17
malaria 17
matters 17
mice 17
mục 17
muối 17
mảng 17
mấy 17
mệnh 17
n." 17
na 17
nghiệt 17
ngài 17
ngã 17
ngẫu 17
nhiên. 17
nói, 17
nợ 17
onto 17
output 17
phenomenon 17
phẩm. 17
phổi, 17
piece 17
possibly 17
pp@@ 17
pri@@ 17
privacy 17
profits 17
properly 17
protecting 17
prove 17
pu@@ 17
quick 17
quả, 17
reduction 17
regulatory 17
rejected 17
rent 17
robots 17
row 17
rung 17
san 17
secret 17
sen 17
shot 17
slightly 17
stomach 17
suggesting 17
super@@ 17
sấu 17
sự. 17
tan 17
thiêu 17
thua 17
thói 17
thở, 17
tim, 17
tra, 17
trào 17
trên. 17
trùng. 17
ty, 17
túy 17
tấn, 17
tắm 17
tố@@ 17
ul@@ 17
undergoing 17
variety 17
vegan 17
vật, 17
warm 17
weekly 17
written 17
xe. 17
xá 17
zing 17
à 17
ôm 17
Điện 17
Đông. 17
Đạt 17
Đội 17
điện, 17
đắc 17
đến, 17
ức 17
""không 16
'Ông 16
(một 16
0. 16
00@@ 16
1,5 16
1000 16
105 16
12. 16
12th 16
133 16
14.@@ 16
15,@@ 16
1998 16
1st 16
20.@@ 16
230 16
32@@ 16
45@@ 16
70,000 16
8th 16
9% 16
ADIDAS 16
Austria 16
Bangladesh 16
Bas@@ 16
Bio@@ 16
Bridge 16
Cau 16
Chuyến 16
Chất 16
Dam 16
David 16
Delhi 16
Don 16
Epidemiology 16
FLC 16
Fiji 16
Film 16
Fund 16
Huế, 16
Hyun 16
Hải, 16
Iranian 16
James 16
Jordan 16
KIDO 16
King 16
Ku@@ 16
Labor 16
Liem 16
Lung 16
Luân 16
Lyons 16
M. 16
Ma@@ 16
Maria 16
Mexican 16
Mức 16
Nói 16
Ohio 16
Or@@ 16
Partnership 16
Per@@ 16
Phượng 16
Phản 16
Pre@@ 16
Qom 16
Quyết 16
Red@@ 16
Region 16
Roy 16
Sab@@ 16
Sal@@ 16
Sch@@ 16
Schulenberg 16
Scott 16
Stephen 16
Sun@@ 16
Television 16
Tesla 16
Therefore 16
Though 16
Thành, 16
Thật 16
Tim 16
Tokyo, 16
Tri@@ 16
Trị 16
Tuổi 16
Tử 16
USD), 16
Uy 16
VAS 16
VNĐ@@ 16
Vin@@ 16
Vladimir 16
Vo 16
W 16
academic 16
ach@@ 16
acts 16
advanced 16
affects 16
ain@@ 16
alongside 16
ambassador 16
amounts 16
analysis 16
and@@ 16
annually 16
app@@ 16
are@@ 16
arms 16
arrest 16
assist 16
attempt 16
bas@@ 16
beaches 16
bid 16
bigger 16
burden 16
bận 16
bọc 16
bốc 16
cable 16
cas@@ 16
cat@@ 16
catch 16
cent 16
che@@ 16
chúc 16
chế@@ 16
chứ@@ 16
cleaning 16
colleges 16
color 16
communication 16
comprehensive 16
conduct 16
confirms 16
connection 16
continuing 16
cook 16
cope 16
core 16
courses 16
crops 16
crucial 16
cất 16
cầu@@ 16
cồn 16
cỡ 16
cứu. 16
decree 16
dem@@ 16
demanded 16
dic@@ 16
differences 16
doanh. 16
drive 16
dân. 16
dâng 16
economies 16
emerged 16
ens 16
ensuring 16
ep@@ 16
euros 16
evaluation 16
exp@@ 16
expansion 16
expects 16
extend 16
eye 16
falls 16
farm 16
fatalities 16
fe@@ 16
fee 16
festivals 16
fewer 16
flowers 16
fly 16
focused 16
founded 16
ga@@ 16
gained 16
gaming 16
gen@@ 16
gom 16
gorillas 16
gối 16
hand@@ 16
handle 16
handling 16
hiển 16
hiệ@@ 16
hào 16
hóa. 16
hộp 16
ill@@ 16
impossible 16
ind@@ 16
ines 16
installed 16
investor 16
izing 16
khiếp 16
kho@@ 16
khái 16
khăn. 16
kia. 16
kitchen 16
ko 16
lin@@ 16
liter 16
loo@@ 16
looked 16
lận 16
lậu 16
maker 16
meetings 16
millennials 16
minority 16
mạc 16
none 16
nàn 16
occupational 16
oo@@ 16
organs 16
originally 16
ors 16
ory 16
parking 16
performances 16
plays 16
populations 16
posting 16
posts 16
practices 16
prize 16
profile 16
promised 16
promising 16
promotion 16
publication 16
rainfall 16
ranks 16
reading 16
reality 16
regulation 16
res@@ 16
ride 16
ris@@ 16
rét 16
salt 16
seventh 16
smoking 16
soft 16
st 16
stages 16
stating 16
stocks 16
storage 16
strain 16
structure 16
sufficient 16
supported 16
t"" 16
tariffs 16
task 16
tasks 16
teens 16
text 16
thoái 16
ths 16
thâm 16
thạo 16
thấp, 16
thống, 16
thống. 16
thổi 16
thức, 16
tissue 16
transported 16
trăng 16
trật 16
trẻ, 16
trời. 16
typical 16
tăng, 16
tốt, 16
tự, 16
um@@ 16
ved 16
vote 16
vắng 16
watched 16
wedding 16
yellow 16
á@@ 16
ái 16
Đinh 16
Đặng 16
đáo 16
đế 16
đỗ 16
ấy, 16
ập 16
ối 16
‘@@ 16
“Các 16
“Một 16
""một 15
(M@@ 15
000@@ 15
1.4 15
1.6 15
190 15
195 15
1994 15
200.000 15
2021. 15
212 15
219 15
300.000 15
350 15
4.0 15
5th 15
AT@@ 15
Abe 15
Ac@@ 15
Ad5 15
AirPods 15
Alzheimer 15
App 15
Ardern 15
Argentina 15
Beardson 15
Bắc. 15
CEOs 15
Cam@@ 15
Campuchia. 15
Cas@@ 15
Co.op 15
Common 15
Covid-19@@ 15
Cậu 15
Củ 15
Danh 15
Division 15
Energy 15
Fac@@ 15
Facebook, 15
Federal 15
Financial 15
Golden 15
Grill 15
Hanh 15
Her@@ 15
Huu 15
Hà, 15
II 15
Im@@ 15
Internet. 15
Joint 15
Khasi 15
Kỳ@@ 15
Limited 15
Lotte 15
Ly 15
MS 15
Macron 15
Massachusetts 15
Máy 15
Mạng 15
Nam." 15
Nghi 15
Ngo 15
Nhu 15
Our 15
Pikachu 15
Pr@@ 15
Professor 15
Program 15
Quynh 15
Ru@@ 15
Rwanda 15
Sabeco 15
Services 15
Siri 15
So@@ 15
St 15
Store 15
Such 15
Tiểu 15
Toyota 15
Training 15
Tuấn, 15
Tâm 15
Tạp 15
UV 15
VABIOTECH 15
VN54 15
VNPT 15
Wh@@ 15
Windows 15
Xu 15
acquired 15
actual 15
advance 15
aging 15
all@@ 15
allegations 15
allergy 15
ancestors 15
ann@@ 15
anti@@ 15
arg@@ 15
artists 15
as, 15
assistant 15
ational 15
atory 15
audience 15
author 15
axit 15
benefit 15
bidding 15
billionaire 15
bitcoin 15
borne 15
bread 15
brother 15
busy 15
cameras 15
campus 15
can@@ 15
category 15
cats 15
certificates 15
chances 15
character 15
chicken 15
chúng, 15
chế, 15
collaboration 15
communes 15
compete 15
competitive 15
computers 15
con. 15
contracting 15
coronaviruses 15
criticized 15
crude 15
crypto 15
cul@@ 15
cure 15
cấy 15
dash 15
dec@@ 15
delay 15
den@@ 15
der@@ 15
din@@ 15
donated 15
dr@@ 15
dropping 15
dust 15
duties 15
dáng 15
dò 15
dùng. 15
dấy 15
dệt 15
dịch@@ 15
dội 15
e.g. 15
earthquake 15
edge 15
effectiveness 15
egg 15
ei@@ 15
electronic 15
emb@@ 15
ently 15
ents 15
estimate 15
examples 15
exercises 15
fin@@ 15
floods 15
fluids 15
forcing 15
fuels 15
ges 15
giáp 15
giảm. 15
giếng 15
giờ. 15
guards 15
gà 15
hang 15
heads 15
holds 15
hosting 15
hung 15
hình. 15
hưởng. 15
hạ@@ 15
hảo 15
hẳn 15
hồi. 15
i""." 15
i: 15
ideas 15
identifying 15
impose 15
instructed 15
introduce 15
invest 15
investigated 15
issuing 15
ite 15
i” 15
joint 15
khôi 15
kilometer 15
kiện, 15
knows 15
la). 15
land, 15
legs 15
lic@@ 15
liters 15
luck 15
lục, 15
lụt 15
m) 15
magazine 15
mai 15
maintaining 15
marked 15
marks 15
meal 15
med 15
medicines 15
mothers 15
ms 15
mãi 15
móc 15
mỏ 15
ngang 15
ngu@@ 15
ngầm 15
nhở 15
non-governmental 15
noodles 15
objects 15
oi 15
ol 15
ology 15
opposition 15
our@@ 15
pa@@ 15
parent 15
parlors 15
percentage 15
phòng. 15
pick 15
pictures 15
ping 15
planet 15
praised 15
premature 15
presented 15
punishment 15
quyền. 15
quên 15
ram@@ 15
raw 15
recommendations 15
representatives 15
rescue 15
responses 15
river 15
rắc 15
sal@@ 15
seconds 15
sharply 15
sides 15
sinking 15
sitting 15
soldiers 15
soát, 15
spell 15
standard 15
stem 15
strange 15
streaming 15
struggling 15
sách, 15
số, 15
số@@ 15
t: 15
talking 15
targets 15
taxes 15
telling 15
thai. 15
thinks 15
thuật, 15
thuật. 15
thêm: 15
thông. 15
thấy, 15
thần. 15
thở. 15
thực, 15
tool 15
tough 15
tours 15
trips 15
trouble 15
trộn 15
tạ@@ 15
tẩy 15
tụt 15
unclear 15
under@@ 15
undergo 15
unlawful 15
up@@ 15
us@@ 15
ving 15
vital 15
volunteers 15
vật. 15
vẽ 15
wine 15
xuất. 15
Úc. 15
ào 15
ê@@ 15
ùng 15
ý. 15
Điểm 15
Đôi 15
điểm. 15
đấu. 15
đến. 15
đổi. 15
độ@@ 15
̣ 15
ả@@ 15
‑ 15
"Bộ 14
"Những 14
'Điều 14
)." 14
10. 14
106 14
110 14
11@@ 14
125 14
17th 14
196@@ 14
1974 14
1988 14
20, 14
2013, 14
268 14
3.8 14
320 14
40% 14
4th 14
500,000 14
6.000 14
7th 14
8-@@ 14
9.000 14
AEON 14
AP@@ 14
AR@@ 14
Accordingly 14
Additionally 14
Airlines, 14
Am@@ 14
Angela 14
Asiad 14
At@@ 14
Ba@@ 14
Barack 14
Bi@@ 14
Bri@@ 14
Buenos 14
Bãi 14
Bờ 14
CE@@ 14
Ca@@ 14
Castro 14
Catholic 14
Cha 14
Chan 14
Change 14
Church 14
Clinton 14
Congo 14
County 14
Cửa 14
DNA 14
Democratic 14
Dizhi 14
Early 14
Echo 14
Egypt 14
El 14
Elizabeth 14
Exchange 14
Fidel 14
Flappy 14
Football 14
Forecasting 14
Frank 14
GM 14
GMA 14
Galaxy 14
Gar@@ 14
Giai 14
Han@@ 14
Hara 14
Holdings 14
Huynh 14
Hydro 14
IV 14
Infectious 14
Initiative 14
Joseph 14
Journal 14
Kông. 14
La@@ 14
Ltd 14
Luxembourg 14
Lần 14
Mad@@ 14
Management 14
Mark 14
Metro 14
Music 14
Mỹ@@ 14
Ne@@ 14
Nearly 14
Năng 14
Oxford 14
Patients 14
Phú, 14
Production 14
QR 14
Queen 14
Quá 14
Republican 14
Request 14
Ryan 14
Rịa-Vũng 14
SARS-CoV-2. 14
Sao 14
Sars 14
Shi@@ 14
Society 14
T, 14
Tech@@ 14
Thung 14
Thắng 14
Ti@@ 14
Timothy 14
Tiếng 14
Tiếp 14
Trading 14
Traffic 14
Trinh 14
Tìm 14
Tự 14
U 14
Upon 14
V, 14
VFS 14
VND1 14
Ven@@ 14
Vinamilk 14
Vũng 14
Warner 14
Wiesel 14
Xuất 14
Youtube 14
['Một 14
accept 14
ads 14
afraid 14
agents 14
ai, 14
alive 14
am, 14
anc@@ 14
anger 14
antibiotics 14
appearing 14
applying 14
approximately 14
arm 14
ass@@ 14
bilateral 14
blockchain 14
bonds 14
boys 14
brings 14
broadcasting 14
bubble 14
báo. 14
bắc, 14
bọt 14
c." 14
cat 14
ce 14
centres 14
ch. 14
charity 14
chose 14
chu 14
chóng. 14
chùa 14
chật 14
chế. 14
circumstances 14
cited 14
clients 14
closures 14
clusters 14
cockroach 14
collection 14
comm@@ 14
competent 14
complicated 14
connect 14
connecting 14
contaminated 14
contractor 14
covers 14
crowds 14
cup 14
cuồng 14
cúng 14
cảm. 14
dark 14
deals 14
def@@ 14
des 14
directive 14
discussed 14
disputes 14
distributed 14
drinks 14
dà@@ 14
dặm 14
dục. 14
earn 14
eaten 14
ect 14
emissions 14
employment 14
entrepreneurs 14
est@@ 14
etc 14
evacuated 14
explain 14
ey@@ 14
featured 14
fer@@ 14
flies 14
flooding 14
flower 14
fluid 14
frequent 14
gathered 14
generate 14
generations 14
gifts 14
gin 14
giảm, 14
gr@@ 14
graduation 14
greatly 14
guide 14
gỗ 14
h, 14
hardest 14
hear 14
herself 14
hiếp 14
hosts 14
hy@@ 14
hydroxychloroquine 14
hà@@ 14
hại, 14
ica 14
ide 14
ie 14
immigrants 14
industries 14
injection 14
install 14
intense 14
interested 14
internationally 14
interview 14
invasive 14
involvement 14
involves 14
ising 14
ists 14
journey 14
jumped 14
kem 14
kiêm 14
kiên 14
kì 14
kể. 14
landslides 14
lang 14
lay 14
lea@@ 14
license 14
làm. 14
lí 14
lưng 14
lưỡi 14
lập, 14
lớ@@ 14
lỡ 14
lực, 14
man@@ 14
manufacturer 14
measured 14
mi 14
midnight 14
minimum 14
modified 14
mountain 14
moves 14
movies 14
muscle 14
máu, 14
mù 14
mươi 14
mại, 14
mỹ 14
n.” 14
na@@ 14
ng.'] 14
ngo@@ 14
nhi 14
nhịp 14
ning 14
ns 14
nu@@ 14
nuts 14
năng, 14
nữa@@ 14
oldest 14
on. 14
opinion 14
opportunities 14
outdoor 14
passport 14
permit 14
permits 14
phiếu, 14
photo 14
phụ 14
phút. 14
popularity 14
poverty 14
pre-@@ 14
preventable 14
priority 14
prolonged 14
pun@@ 14
recommends 14
recycling 14
referred 14
relationships 14
relative 14
remote 14
ren@@ 14
repatriation 14
resistance 14
responding 14
restrict 14
ret@@ 14
roles 14
runway 14
shareholders 14
sharp 14
sport 14
spreads 14
storms 14
strengthen 14
stroke 14
studio 14
substance 14
supports 14
sur@@ 14
surge 14
surprise 14
sá@@ 14
sạn, 14
sụp 14
sỹ 14
targeted 14
targeting 14
thank 14
theaters 14
thôi 14
thực. 14
tiền, 14
tor 14
tors 14
traders 14
trang. 14
trans@@ 14
transgender 14
tri 14
truly 14
tweet 14
tùng 14
tường 14
tắt 14
tối, 14
tối. 14
unless 14
valued 14
violate 14
vitamin 14
vỏ 14
walking 14
wards 14
wash 14
watching 14
wealth 14
websites 14
winner 14
ws 14
xuân 14
Độ. 14
đêm, 14
đạn 14
đắp 14
đổi, 14
đụng 14
ơ@@ 14
ắ@@ 14
ề@@ 14
“Nếu 14
“không 14
#@@ 13
(6@@ 13
(I@@ 13
(V@@ 13
(tiếng 13
0.000 13
10th 13
113 13
12,000 13
135 13
142 13
157 13
16.@@ 13
195@@ 13
1980 13
1989 13
2.6 13
2014. 13
2030. 13
262 13
3/@@ 13
30.000 13
370 13
6.5 13
6th 13
8.000 13
87 13
Andrew 13
Ansley 13
Anthony 13
Ap@@ 13
Apart 13
Army 13
Aside 13
Be 13
Bieber 13
Billboard 13
Board 13
Bão 13
Bởi 13
CD@@ 13
CN@@ 13
Campuchia, 13
Co 13
Columbia 13
Conte 13
Câu 13
Còn 13
Cường, 13
Dai 13
Danish 13
Diego 13
Dương. 13
Dưới 13
FDA 13
Falkland 13
Filipino 13
Fine 13
Five 13
Gao 13
Ger@@ 13
Giờ 13
Grab 13
Green 13
Guard 13
Hiến 13
Human 13
Huỳnh 13
Hyundai 13
Hùng, 13
Hữu 13
I, 13
ICU 13
Inc 13
Indonesian 13
Insider 13
Invalids 13
Is@@ 13
Ke@@ 13
Kenya 13
Kuwait 13
Like 13
Linh, 13
Lumpur 13
Ly@@ 13
Lãnh 13
Lôi 13
Lúc 13
Lạp 13
Lạt 13
Mariem 13
Massons 13
Mor@@ 13
Motor 13
Món 13
Nature 13
Nielsen 13
Nien 13
Nuenen 13
O) 13
Pl@@ 13
Poland 13
Quốc@@ 13
RON92 13
Railway 13
Resort 13
Rio 13
Rob@@ 13
SARS-CoV-2, 13
SU290 13
Sa, 13
Sai 13
Senegal 13
Ser@@ 13
Sou@@ 13
Symptoms 13
Sử 13
TB 13
Tea 13
Thiên-Huế 13
Thường 13
Tiki 13
Time 13
Tom 13
Tower 13
Turkmenistan 13
Tám 13
Tô 13
Tưởng 13
Ultra 13
Un 13
VND10 13
Video 13
Vientiane 13
Without 13
Young 13
Zealand, 13
accommodation 13
accounted 13
accurate 13
achieve 13
adopted 13
ae 13
aj@@ 13
alized 13
alternative 13
ani 13
anxiety 13
appearance 13
appears 13
appointed 13
assessment 13
attractive 13
autonomous 13
aw@@ 13
ay, 13
badly 13
banana 13
barriers 13
ber 13
bill 13
biết." 13
bones 13
burns 13
bắp 13
bụng 13
cake 13
cast 13
categories 13
celebrated 13
cha@@ 13
chatbots 13
checked 13
checking 13
chép 13
chúa 13
chốt 13
chứng, 13
cinemas 13
cm 13
cockroaches 13
coma 13
comply 13
concept 13
container 13
contains 13
contributed 13
contribution 13
cool 13
correct 13
crash 13
creation 13
critically 13
crowded 13
cryptocurrencies 13
có@@ 13
cảnh. 13
cột 13
củng 13
cực. 13
dai 13
dates 13
daughters 13
day, 13
debt 13
deceased 13
defendants 13
destroyed 13
developers 13
diarrhea 13
direction 13
disaster 13
dollar 13
doors 13
dre@@ 13
dri@@ 13
dụ@@ 13
dựng. 13
ear 13
earnings 13
edition 13
efficiency 13
ell 13
employers 13
eng@@ 13
enjoyed 13
entirely 13
eo 13
evacuate 13
examination 13
exporters 13
familiar 13
fastest 13
fatigue 13
fr@@ 13
gener@@ 13
genetically 13
ging 13
giận 13
giờ@@ 13
giục 13
graduates 13
greatest 13
gì. 13
gồm: 13
hair 13
harm 13
holidays 13
hoping 13
hormones 13
hoạ 13
hoại 13
hà 13
hùng 13
hơn@@ 13
hỗn 13
im 13
implementation 13
internal 13
intervention 13
investigations 13
ion 13
ised 13
ish 13
ism 13
iti@@ 13
journal 13
khoáng 13
không? 13
khẩu, 13
khẩu. 13
khứ 13
kỷ. 13
la), 13
laser 13
leg 13
letters 13
locality 13
logy 13
lychees 13
là: 13
marathon 13
massage 13
mat@@ 13
maximum 13
maybe 13
measuring 13
medication 13
ments 13
met@@ 13
min@@ 13
mountains 13
muscles 13
mặt, 13
mỏng 13
nay@@ 13
ned 13
ng: 13
nghiệ@@ 13
ng”. 13
nhóc 13
non 13
nước@@ 13
nặng, 13
nọc 13
object 13
ong@@ 13
ow@@ 13
painting 13
paying 13
permanent 13
permitted 13
pho@@ 13
phà 13
phàn 13
phục, 13
pin 13
poisoning 13
possibility 13
pping 13
predicted 13
procedure 13
provider 13
psychologists 13
pushed 13
rainy 13
ran@@ 13
ranging 13
rapper 13
re-@@ 13
researcher 13
resorts 13
returnees 13
revolution 13
rolls 13
sashimi 13
seafood 13
sec@@ 13
seismic 13
selected 13
selfie 13
sen@@ 13
sentence 13
seo 13
ser@@ 13
severity 13
sions 13
solve 13
steel 13
stronger 13
stuck 13
submitted 13
subsidiary 13
substances 13
sugar 13
summit 13
supposed 13
surprised 13
surprising 13
sàn 13
sát. 13
sẻ, 13
sử, 13
t.'] 13
tells 13
tered 13
theory 13
thuần 13
tháp 13
thép 13
thôi. 13
tiny 13
triggered 13
trương 13
trẻ. 13
trời, 13
tạng 13
tạo, 13
u: 13
un 13
unhealthy 13
virut 13
vạch 13
welcome 13
welcomed 13
wing 13
workplace 13
worsening 13
xe, 13
xô 13
xả 13
ying 13
àn 13
àng 13
ách 13
â@@ 13
âu 13
ó@@ 13
Đoàn 13
Định 13
Đồn 13
đán 13
đáy 13
đẻ 13
đề, 13
Ước 13
ạt 13
ẩn. 13
ốc 13
ồn 13
ở. 13
“Khi 13
"Cô 12
"Người 12
'Các 12
'Nhưng 12
'Tuy 12
(4@@ 12
(H@@ 12
(ví 12
,000 12
/8 12
0.5 12
00 12
000 12
000. 12
1,2 12
1,3@@ 12
1-@@ 12
1.1 12
10-@@ 12
11. 12
12.000 12
160 12
179 12
18.@@ 12
2"" 12
2.2 12
2001 12
209 12
23% 12
233 12
280 12
3-@@ 12
43@@ 12
60% 12
60,000 12
7,000 12
7.000 12
80.000 12
82 12
9th 12
?', 12
Ab@@ 12
Adidas 12
Aeroflot 12
Ambassador 12
Amid 12
Android 12
Anh@@ 12
Arthur 12
Bal@@ 12
Beer 12
Best 12
Bom 12
Bon@@ 12
Bor@@ 12
Brazilian 12
Bức 12
C), 12
CE 12
Cal@@ 12
Cambodian 12
Cameron 12
Can@@ 12
Cases 12
Chanh 12
Charles 12
Chaul 12
Chuyên 12
Communications 12
Congress 12
Czech 12
Cát 12
Dublin 12
E5 12
Eastern 12
Embraer 12
Ethiopia 12
F) 12
Fer@@ 12
Forest 12
Francis 12
Francisco 12
G4 12
GM@@ 12
Gaga 12
Gate 12
Gen@@ 12
Gh@@ 12
Giống 12
Giới 12
Gogh 12
Google, 12
Hamlet 12
Hanson 12
He@@ 12
Heart 12
Hien 12
Hotels 12
Hundreds 12
Hygiene 12
IBM 12
IP@@ 12
Intelligence 12
Inter@@ 12
Joong 12
Josh 12
Karachi 12
Kim, 12
Kritenbrink 12
Liêm 12
Lou@@ 12
Ltd. 12
M, 12
Maduro 12
Mag@@ 12
Manh 12
Martin 12
Matt 12
Mauritius 12
Merkel 12
Min@@ 12
MobiFone 12
My@@ 12
Mạch, 12
Mới 12
NASA 12
Ngai 12
Nhiễm 12
Panasonic 12
Papua 12
Phi. 12
Philadelphia 12
Policy 12
Port 12
Pres@@ 12
R) 12
RI@@ 12
Recently 12
Romania 12
S) 12
Salustiano 12
Seychelles 12
Sky 12
Storm 12
Studies 12
Sushi 12
Syrian 12
Ten@@ 12
Tham 12
The@@ 12
Thuận, 12
Thương, 12
Thần 12
Tiên, 12
Tiên. 12
Tobago 12
Truc 12
Trúc 12
Trịnh 12
Tĩnh 12
USS 12
Ung 12
Up 12
VNA 12
Vegas 12
Vienna 12
Vài 12
Win@@ 12
Within 12
Woody 12
Xanh 12
York, 12
accuracy 12
ach 12
acting 12
af@@ 12
ak 12
aki 12
al, 12
algorithm 12
ane 12
anniversary 12
ash 12
ash@@ 12
assigned 12
asymptomatic 12
ath 12
audiences 12
backed 12
banh 12
bans 12
bat@@ 12
bi 12
bing 12
bites 12
bleeding 12
blo@@ 12
blocked 12
blue 12
bon@@ 12
branch 12
brothers 12
burned 12
bón 12
ca. 12
cancellation 12
cao@@ 12
capable 12
cardiovascular 12
celebrities 12
chấ@@ 12
chứng. 12
climbed 12
cloth 12
cloud 12
collecting 12
combination 12
compensation 12
completion 12
compound 12
concentrated 12
confident 12
considers 12
contest 12
contributions 12
controlled 12
conversation 12
costly 12
coughing 12
crashed 12
cre@@ 12
cups 12
cài 12
có. 12
công@@ 12
cơm 12
cư, 12
d. 12
da. 12
dairy 12
danger 12
declarations 12
defined 12
del 12
developer 12
doanh, 12
donors 12
doubled 12
dozen 12
drama 12
dơi 12
dẹp 12
ears 12
earthquakes 12
easing 12
ecosystem 12
elling 12
ement 12
emergencies 12
emerging 12
emotional 12
empty 12
ening 12
enti@@ 12
entrance 12
er. 12
escaped 12
eter 12
eu 12
exact 12
express 12
expressway 12
farms 12
ferry 12
fertilizer 12
fit 12
flown 12
foot 12
fossil 12
framework 12
fraud 12
freshwater 12
fried 12
gam@@ 12
gar@@ 12
ged 12
gian. 12
gift 12
giáo. 12
giả@@ 12
gương 12
harder 12
headquarters 12
historic 12
hospitalized 12
hunting 12
hurt 12
hình, 12
họp, 12
i.” 12
ick 12
improving 12
ined 12
infant 12
inspection 12
intrusion 12
investigating 12
is, 12
j 12
joining 12
khen 12
khiêu 12
khoan 12
khuyết 12
khá@@ 12
khánh 12
khỏe@@ 12
kilogram 12
kindergarten 12
km. 12
lai, 12
lawmakers 12
legally 12
leisure 12
length 12
ler 12
letting 12
licensed 12
lie 12
lift 12
limiting 12
limits 12
lis@@ 12
locate 12
lock 12
làm, 12
lạ@@ 12
lập. 12
maintained 12
managing 12
mark 12
mate 12
medicinal 12
minimize 12
miss 12
mix 12
mosquito 12
mp@@ 12
multi-@@ 12
mình.” 12
mòn 12
mạn 12
mẹ, 12
mỏi 12
mốc 12
nha 12
nhau@@ 12
nhầm 12
nhỏ, 12
nor 12
này.'] 12
não. 12
năm@@ 12
nơi, 12
nơi. 12
nồng 12
oc@@ 12
oms 12
option 12
panic 12
path 12
pesticides 12
pets 12
phiền 12
physically 12
phì 12
phố@@ 12
picked 12
pink 12
posed 12
poses 12
posing 12
powers 12
pped 12
preliminary 12
preparation 12
prevented 12
proficiency 12
properties 12
proteins 12
psychology 12
pul@@ 12
push 12
quyền, 12
recession 12
recommend 12
register 12
registration 12
rely 12
reopened 12
repatriated 12
residential 12
resistant 12
restricted 12
ric@@ 12
royal 12
rừng. 12
satellite 12
sauce 12
scandal 12
scenarios 12
secondary 12
seeks 12
sel@@ 12
shelter 12
shipped 12
sho@@ 12
shortly 12
sight 12
sixth 12
sor@@ 12
sounds 12
soạn 12
spokeswoman 12
sporting 12
starts 12
statistics 12
stone 12
stories 12
submit 12
suicide 12
suitable 12
supervision 12
surveyed 12
suspending 12
sustainable 12
sáng. 12
sáp 12
sản. 12
sự, 12
tackle 12
tall 12
tasked 12
technique 12
tes@@ 12
thi@@ 12
thu@@ 12
thủ 12
thánh 12
thơ 12
thư. 12
thế. 12
tim. 12
tiếp. 12
tiền. 12
to, 12
ton, 12
topped 12
tor@@ 12
touch 12
touched 12
tradition 12
trending 12
trends 12
trưa 12
turning 12
turns 12
tuyết 12
tác, 12
tâm, 12
tư. 12
tước 12
tế@@ 12
u.', 12
underground 12
update 12
uy 12
vaping 12
vector 12
venue 12
ván 12
vĩ 12
vậy@@ 12
vắc-xin, 12
vắc-xin. 12
vụ, 12
warehouse 12
warn 12
weighing 12
wore 12
wrapped 12
write 12
xói 12
ya 12
Ít 12
ám 12
ón 12
ý, 12
Điển, 12
Đơn 12
đi@@ 12
đuôi 12
đêm. 12
đường. 12
đập 12
đống 12
đồi 12
đời. 12
đức 12
ơi, 12
ương, 12
ẩ@@ 12
ến, 12
ốc, 12
ớt 12
“Đây 12
”@@ 12
""có 11
"Bà 11
"Nhưng 11
"['""@@ 11
# 11
'Họ 11
'Những 11
'Và 11
(CDC) 11
1,8 11
116 11
124 11
127 11
128 11
13,@@ 11
14,@@ 11
165 11
16th 11
199 11
1990s 11
1991 11
1993 11
2/@@ 11
20. 11
201 11
2011, 11
20th 11
21,@@ 11
240 11
25,000 11
3.3 11
5.5 11
81 11
?” 11
AI@@ 11
Air@@ 11
Al 11
Albert 11
Amok 11
Arab 11
Audi 11
Award 11
Bakery 11
Belarus 11
Biden 11
Bird 11
Bristol 11
Buetikofer 11
Bồ 11
CA@@ 11
CBS 11
CD4 11
CH@@ 11
CO2 11
CO@@ 11
Cambridge 11
Capital 11
Cat 11
Chen 11
Chnam 11
Choi 11
Chánh 11
Clinic 11
Coast 11
Construction 11
Cuban 11
Cấm 11
De 11
Declaration 11
Disney 11
Doha 11
EC@@ 11
Electronics 11
Emmanuel 11
FI@@ 11
Fair 11
Firefox 11
Formula 11
Fox 11
Fu@@ 11
Giang. 11
Globally 11
Golf 11
Graham 11
Gro@@ 11
Hang-seo 11
Having 11
Hạnh 11
Hậu 11
IC@@ 11
ID@@ 11
IT 11
Iceland 11
Is 11
Israeli 11
JPY 11
Jackson 11
Jim 11
KCNA 11
Kas@@ 11
Kazakhstan 11
Khang 11
Kids 11
Kristeller 11
Kur@@ 11
Lac 11
Lan@@ 11
Las 11
Lat 11
Lạc 11
Lục 11
MH370 11
Malaysia. 11
Maldives 11
Maritime 11
Max 11
Media 11
Meteorological 11
Miền 11
Moldova 11
Morgan 11
Morrison 11
Muslim 11
Myanmar, 11
Mô 11
Mỹ) 11
Ngh@@ 11
Ngôi 11
Nhật, 11
Ni@@ 11
Nicholas 11
Niên 11
Norton 11
Nội." 11
Oracle 11
Pat@@ 11
Phi@@ 11
Phái 11
Phố 11
Po 11
Pokemon 11
Premier 11
Quý 11
Quả 11
R. 11
Res@@ 11
Response 11
SUV 11
Safety 11
Sciences 11
Shincheonji 11
Som@@ 11
Star 11
Sĩ 11
THPT 11
Tai 11
Taoiseach 11
Techcombank 11
Tegnell 11
Thuốc 11
Thác 11
Thạch 11
Thạnh 11
TikTok, 11
Timor 11
Trail 11
Trắng 11
Tướng 11
USA 11
Until 11
VN0054 11
VN00@@ 11
VND2 11
Vang 11
VinAI 11
Vincent 11
Wal@@ 11
Worldwide 11
Wozniak 11
York. 11
Your 11
Zone 11
['Những 11
]@@ 11
abandoned 11
abused 11
accepted 11
acquisition 11
acy 11
addiction 11
addressed 11
adequate 11
adi@@ 11
aire 11
aired 11
ake 11
allegedly 11
allies 11
alligator 11
ances 11
anh@@ 11
antiviral 11
any@@ 11
anywhere 11
appeal 11
archipelagos 11
assert 11
assess 11
ate@@ 11
att@@ 11
attacked 11
attacking 11
avoiding 11
awaiting 11
bang. 11
barrels 11
bats 11
begins 11
belief 11
biệ@@ 11
blamed 11
bomb 11
bottles 11
bri@@ 11
bribery 11
browser 11
bs 11
bul@@ 11
burial 11
burn 11
bà@@ 11
cal@@ 11
cancel 11
cannabis 11
careful 11
carefully 11
carries 11
cay 11
celebrations 11
cement 11
cen@@ 11
channel 11
charter 11
chua 11
chú 11
chừng 11
cl@@ 11
comfort 11
competitors 11
complications 11
concentration 11
condoms 11
consumed 11
context 11
controlling 11
cooked 11
cooperating 11
count 11
cru@@ 11
cured 11
cycle 11
cá, 11
cám 11
cấ@@ 11
cậ@@ 11
cận. 11
cứ@@ 11
da, 11
dare 11
debate 11
del@@ 11
demanding 11
dispute 11
distribution 11
doc@@ 11
don@@ 11
dreaming 11
drove 11
duyệt. 11
dựng, 11
earning 11
ed, 11
electrical 11
eligible 11
els 11
elsewhere 11
ements 11
emotions 11
employed 11
encouraging 11
ency 11
engineers 11
ented 11
entitled 11
ered 11
ering 11
establishments 11
evacuation 11
evol@@ 11
exactly 11
explains 11
explo@@ 11
exploitation 11
exporter 11
failing 11
favor 11
ff@@ 11
fil@@ 11
fill 11
finger 11
fled 11
flu@@ 11
foundation 11
gases 11
giây 11
giật 11
giặt 11
giỏi 11
giới@@ 11
guides 11
gãy 11
hailing 11
halted 11
happening 11
hired 11
honored 11
housing 11
hoạch. 11
hypertension 11
hãm 11
hôi 11
hấp. 11
họ.', 11
i; 11
iPhone 11
ick@@ 11
ili@@ 11
ine, 11
infect 11
ingredients 11
ings 11
introduction 11
ious 11
ities 11
justice 11
ker 11
khan 11
khóc 11
khớp 11
kiệt 11
km, 11
kph 11
ky 11
kí 11
lies 11
links 11
liquid 11
listening 11
liệu, 11
loan 11
logist 11
logists 11
long@@ 11
luxury 11
lên@@ 11
lăng 11
lượ@@ 11
lặng 11
lốc 11
m.', 11
managers 11
manufactured 11
marking 11
med@@ 11
memories 11
mention 11
misinformation 11
miêu 11
mood 11
movements 11
murder 11
mysterious 11
máy. 11
mượn 11
mạch. 11
mỳ 11
m” 11
n.'] 11
naturally 11
neck 11
ng-@@ 11
ng; 11
ngực 11
nh 11
nhuận. 11
nhà@@ 11
nhỏ. 11
ninth 11
nuốt 11
observed 11
obstacles 11
offerings 11
onset 11
operational 11
operators 11
organizers 11
organizing 11
ot 11
ours 11
owns 11
ozone 11
papers 11
ped 11
pen@@ 11
perfect 11
pesticide 11
phim, 11
phái 11
phú@@ 11
phải. 11
phổi. 11
placing 11
player 11
pointed 11
pol@@ 11
pot 11
powered 11
primarily 11
processed 11
produces 11
projected 11
prominent 11
promoting 11
protocol 11
quang 11
rank 11
rarely 11
ras@@ 11
re, 11
realized 11
reas@@ 11
recoveries 11
recovering 11
recruitment 11
reduces 11
refers 11
regardless 11
regularly 11
reopening 11
rep@@ 11
represents 11
requests 11
reserve 11
residence 11
rushed 11
ruồi 11
rèn 11
rồ@@ 11
rồi, 11
rộng. 11
salaries 11
saltwater 11
sau@@ 11
saving 11
screened 11
searches 11
secretary 11
seniors 11
serves 11
sexually 11
shareholder 11
sinh@@ 11
sis 11
sive 11
sized 11
sky@@ 11
sn@@ 11
snakes 11
sort 11
spaces 11
spider 11
startups 11
ste@@ 11
ster@@ 11
sterile 11
stored 11
strategies 11
struggle 11
style 11
sweet 11
sàng. 11
sáu, 11
t) 11
t." 11
tap@@ 11
temple 11
tes 11
thai, 11
thao, 11
ther 11
thick 11
thousand 11
threatening 11
thuốc. 11
thành, 11
thám 11
thích, 11
thính 11
thạch 11
thận, 11
thể@@ 11
thọ 11
ti 11
tics 11
tied 11
tim@@ 11
tiế@@ 11
tiếc 11
touching 11
toxins 11
transiting 11
trung, 11
tròn 11
trùm 11
trống 11
tures 11
tuổi@@ 11
twins 11
tàu, 11
tôi. 11
tơ 11
tạo. 11
tủ 11
unexpected 11
unveiled 11
vast 11
ve@@ 11
ventilation 11
venture 11
venues 11
ver@@ 11
victory 11
villagers 11
vision 11
viết, 11
vùng 11
vĩnh 11
warnings 11
worries 11
wrong 11
xong 11
xoáy 11
xuống. 11
xà 11
xứng 11
youngest 11
youth 11
zed 11
~ 11
Á@@ 11
à@@ 11
á 11
é@@ 11
ì 11
ò 11
Đen 11
Đôn 11
điện. 11
điệu 11
đoạt 11
đá@@ 11
đây@@ 11
đói 11
đông, 11
đĩa 11
ơ 11
̀ 11
́t 11
ồng 11
’ll 11
“Họ 11
“Điều 11
€ 11
""các 10
"Sau 10
'Trong 10
'“@@ 10
($ 10
(1,@@ 10
(2,@@ 10
(COVID-19) 10
(E@@ 10
(T@@ 10
.""']" 10
.. 10
.”', 10
0-@@ 10
00, 10
000-@@ 10
1) 10
1,3 10
1.500 10
1.7 10
101 10
120,000 10
134 10
143 10
144 10
151 10
16,000 10
162 10
18,@@ 10
18th 10
19,@@ 10
19.@@ 10
194 10
1968 10
1975 10
2.1 10
20.000 10
2003, 10
25th 10
260 10
4,300 10
420 10
46@@ 10
500.000 10
60@@ 10
70.000 10
737 10
850 10
9.5 10
AD@@ 10
ATM 10
AVG 10
Alexander 10
Alliance 10
Are 10
Artificial 10
Au@@ 10
Auto 10
Benjamin 10
Bluetooth 10
Book 10
Boris 10
Br@@ 10
Bul@@ 10
Bureau 10
Bả@@ 10
Bộ, 10
CC@@ 10
CD4+ 10
Cho@@ 10
Chris 10
Chu@@ 10
Chăm 10
Code 10
Corona 10
Countries 10
Crist 10
Cur@@ 10
Cy@@ 10
Cá 10
Căn 10
Cẩm 10
Dam@@ 10
Daniella 10
Disaster 10
Don@@ 10
Dutch 10
Dựa 10
Euro@@ 10
Everyone 10
F. 10
FPT 10
Facebook. 10
Fe@@ 10
Forces 10
Forum 10
Further 10
G, 10
Gael 10
Geneva 10
Give 10
Gián 10
Gomez 10
HC@@ 10
HIV. 10
Haiphong 10
Heilmayr 10
Hoa, 10
Hoai 10
Hou@@ 10
Howard 10
I) 10
IA@@ 10
ICO 10
Ignaz 10
Irish 10
Jiang 10
Jones 10
Justice 10
Kabul 10
Kha@@ 10
Khan 10
Kho@@ 10
Kinh, 10
Kiếm 10
L. 10
Lagos 10
Laurel 10
Lebanon 10
Lim 10
Lyrebird 10
Làm 10
Làng 10
Lối 10
MS@@ 10
MSN 10
Madai 10
Mali 10
Map 10
Marathon 10
MarchOn 10
Marie 10
Mayo 10
Mer@@ 10
Mexico, 10
Mi 10
Mis@@ 10
Mong 10
Monogram 10
Moon 10
Morning 10
Muangthong 10
Mus@@ 10
Mười, 10
Mối 10
NBC 10
NCE 10
NH@@ 10
Netanyahu 10
Nha. 10
Nhưng, 10
Nor@@ 10
Nà 10
Ortagus 10
Os@@ 10
PC@@ 10
Pal@@ 10
Panther 10
Paradise 10
Paris, 10
Pas@@ 10
Passengers 10
Pepsi 10
Petersburg 10
Philippine 10
Philippines. 10
Phiên 10
Phnom 10
Phoenix 10
Plague 10
Planning 10
Politburo 10
Population 10
Pu@@ 10
Pó 10
Quality 10
Quốc." 10
Rec@@ 10
Rights 10
Sam@@ 10
San@@ 10
Sansha 10
Search 10
Seattle 10
Sen 10
Sense 10
Shores 10
Sil@@ 10
Sindh 10
Sinh, 10
Smithsonian 10
Socrates 10
Sometimes 10
Soon 10
Spirit 10
Srpska 10
Stadium 10
Students 10
Sĩ, 10
Sống 10
TP@@ 10
Take 10
Tha@@ 10
Thiết 10
Thorotrast 10
Thú 10
Thư 10
Thắng, 10
Traditional 10
Trang, 10
Trends 10
Trump. 10
Trấn 10
Tu@@ 10
Tôn 10
Tĩnh, 10
Tối 10
USAID 10
USNS 10
Unlike 10
Urban 10
VA@@ 10
VTV 10
Viet@@ 10
Vinmec 10
Viên 10
Việt, 10
Vòng 10
Vật 10
Wall 10
Watch 10
Web 10
Wildlife 10
X-ray 10
YSEALI 10
Zika 10
['Vào 10
['Ông 10
absence 10
accidents 10
accompanied 10
activated 10
actively 10
adopt 10
affairs 10
afford 10
ain 10
alization 10
almajiri 10
amazing 10
ana, 10
and, 10
announce 10
ao@@ 10
ar, 10
ara 10
argued 10
ari@@ 10
aries 10
ashi@@ 10
aspect 10
ation@@ 10
attractions 10
au 10
auction 10
bà 10
beach 10
begun 10
behavioral 10
betting 10
bills 10
biết@@ 10
blame 10
ble 10
blog 10
boo@@ 10
bpd 10
break@@ 10
breaks 10
bro@@ 10
broth 10
buýt, 10
bám 10
bơi 10
bơm 10
bản. 10
bảy, 10
bố@@ 10
capture 10
captured 10
cargo 10
cashew 10
ces 10
chest 10
chuối 10
chủng. 10
cirrhosis 10
clip 10
clo@@ 10
closer 10
clouds 10
cocoa 10
colon@@ 10
commitment 10
communicate 10
components 10
condemned 10
confirming 10
contagious 10
contrast 10
contributing 10
convenience 10
corn 10
cow 10
creates 10
credit 10
crises 10
cryptocurrency 10
curb 10
cy@@ 10
cơ. 10
cước 10
cả, 10
cấm. 10
củ 10
damaging 10
database 10
debut 10
deforestation 10
demands 10
departure 10
depend 10
detailed 10
diesel 10
dings 10
discover 10
discrimination 10
discussions 10
disinfection 10
dismissed 10
diễn. 10
do. 10
dock 10
donate 10
dow@@ 10
draws 10
drivers 10
dõi, 10
dùng, 10
dĩ 10
dưa 10
dập 10
earth 10
eased 10
eighth 10
elected 10
elephant 10
endangered 10
engage 10
epidemiological 10
equipped 10
ere 10
examine 10
experiment 10
explosion 10
ey 10
fair 10
fan 10
fatal 10
fe 10
feels 10
ff 10
finish 10
fo@@ 10
follows 10
footage 10
formic 10
fu@@ 10
garden 10
gear 10
gging 10
giọt 10
governmental 10
governor 10
graders 10
grass 10
gì, 10
góc 10
gập 10
gọn 10
handled 10
hazard 10
hazards 10
height 10
her@@ 10
high@@ 10
hor@@ 10
humidity 10
hundred 10
hút 10
hò 10
hô@@ 10
hôn. 10
hồi, 10
hổ 10
hộ, 10
hợp@@ 10
iOS 10
identity 10
improvement 10
indoor 10
indoors 10
inflammation 10
ino 10
intensity 10
ited 10
ites 10
ke@@ 10
khi@@ 10
khu@@ 10
khó@@ 10
khốc 10
khứ, 10
kings 10
ku 10
kém. 10
kịch, 10
laboratories 10
lam@@ 10
lan. 10
landfall 10
lanterns 10
latter 10
learned 10
lifestyle 10
literally 10
luận. 10
lông 10
lường 10
lượng, 10
lấn 10
lệ@@ 10
lực. 10
malls 10
meaningful 10
men@@ 10
ment@@ 10
metric 10
mitigate 10
miệng, 10
mor@@ 10
mur@@ 10
my@@ 10
máu. 10
mạng, 10
mọc 10
mộng 10
mờ 10
ne, 10
neighbor 10
neighbouring 10
ner@@ 10
ners 10
netizens 10
nghiệp@@ 10
ngờ. 10
ngụ 10
ngữ, 10
nhanh, 10
niêm 10
noting 10
nurse 10
nòng 10
nă@@ 10
o) 10
occasion 10
od@@ 10
oma 10
oned 10
oral 10
ordering 10
ordinary 10
organize 10
ori@@ 10
overcome 10
partly 10
passports 10
patches 10
pathogen 10
peaceful 10
penalties 10
pending 10
pho 10
phép. 10
phí. 10
phấn 10
plus 10
polymerase 10
poorly 10
portfolio 10
ports 10
post-@@ 10
post@@ 10
precautionary 10
preclinical 10
preparations 10
pres@@ 10
probe 10
productivity 10
progres@@ 10
prom 10
promptly 10
publishing 10
purchased 10
rail 10
ranh 10
ratio 10
reg@@ 10
rejects 10
relief 10
removing 10
renewable 10
renowned 10
repeated 10
replacement 10
resumed 10
retirement 10
reveal 10
revised 10
richest 10
rivals 10
riêng. 10
roots 10
ruling 10
ruột 10
rộn 10
safer 10
saved 10
sc@@ 10
secure 10
see@@ 10
shipping 10
shocked 10
shu@@ 10
sisters 10
sk 10
sleeping 10
slowed 10
smell 10
sorry 10
soát. 10
speaker 10
stadium 10
stopping 10
stranded 10
strengthened 10
sts 10
stu@@ 10
suits 10
sum 10
sâu, 10
sĩ. 10
sưu 10
sẻ: 10
sớm, 10
sởi 10
taught 10
teach 10
terrorist 10
theo, 10
thiện. 10
thoại, 10
thương, 10
thề 10
thị. 10
thịnh 10
tically 10
tin@@ 10
tional 10
titled 10
tiếng, 10
tiếng. 10
tragedy 10
transit 10
transporting 10
triệt 10
tro@@ 10
trí. 10
tục 10
twin 10
tá@@ 10
táng 10
tí@@ 10
tóm 10
tăm 10
vers 10
violation 10
vo@@ 10
voted 10
voters 10
votes 10
vào. 10
vươn 10
về. 10
vị. 10
vội 10
winning 10
workplaces 10
writing 10
xinh 10
xuyên, 10
xướng 10
xỉ 10
yuan 10
yếu, 10
àng, 10
át, 10
ân 10
êm 10
ò@@ 10
ông@@ 10
ú@@ 10
út 10
ăn@@ 10
Đạt, 10
đủ 10
đó@@ 10
được@@ 10
đảo, 10
đẹp, 10
địa, 10
đồng) 10
đời, 10
đủ. 10
́ 10
̃ 10
ả 10
ải 10
ảnh, 10
ảnh. 10
ến 10
ết 10
ở, 10
“các 10
“có 10
…@@ 10
"""Tôi 9
"".']" 9
"Khi 9
'Bà 9
'Chúng 9
(9@@ 9
(L@@ 9
(S@@ 9
(bao 9
(khoảng 9
(sinh 9
...@@ 9
.000 9
.000-@@ 9
04 9
109 9
117 9
12% 9
13% 9
13.@@ 9
149 9
15, 9
15-@@ 9
15.000 9
15/@@ 9
15th 9
163 9
17,@@ 9
172 9
177 9
187 9
188@@ 9
194@@ 9
19th 9
2.8 9
2012. 9
2013. 9
2017@@ 9
2020@@ 9
23/@@ 9
24.@@ 9
245 9
250,000 9
251 9
3,5 9
3." 9
30th 9
410 9
5%. 9
550 9
6) 9
6-@@ 9
60.000 9
650 9
69@@ 9
70@@ 9
75% 9
9-@@ 9
90,000 9
90.000 9
= 9
?@@ 9
AR 9
AS@@ 9
Afghan 9
Airbus 9
Ali@@ 9
Azerbaijani 9
Bahrain 9
Baidu 9
Baku 9
Bangladesh, 9
Banja 9
Beverage 9
Bia 9
Bis@@ 9
Brazil, 9
Brown 9
Bus 9
Busan 9
Bá 9
Bình. 9
Bí 9
Băng 9
CG@@ 9
COC 9
COPD 9
CT 9
Cabinet 9
California, 9
Char@@ 9
Chín 9
Cir@@ 9
Clara 9
Clin@@ 9
Communicable 9
Corp 9
Cre@@ 9
Creil 9
Culture 9
Cựu 9
Dawn 9
Decree 9
Des@@ 9
Duke 9
E, 9
Each 9
Edge 9
Em@@ 9
Entertainment 9
Environmental 9
Euromonitor 9
Explorer 9
FBI 9
Face 9
Falls 9
Germanwatch 9
Ghana 9
Gio 9
God 9
Gwent 9
Gã 9
Gòn. 9
Haiyan 9
Ham@@ 9
Harry 9
Hel@@ 9
Heliogen 9
Hen@@ 9
Hill 9
Hoiana 9
Hoài 9
Huy 9
Hương, 9
Hạt 9
Hỏa 9
Internet, 9
Investigation 9
Investigators 9
Jack 9
Jackie 9
Java 9
Jennifer 9
Ka@@ 9
Kal@@ 9
Ki 9
Kinda 9
Kite 9
Labour 9
Land 9
Laskowski 9
Latin 9
Lion 9
Liệu 9
Loan. 9
Loewenberg 9
Lào, 9
Lạng 9
Lạp, 9
Lộc, 9
ME@@ 9
MW 9
Mail 9
Mars 9
Mat@@ 9
Michigan 9
Ministers 9
Mobile 9
Montenegro 9
Moskva, 9
Mẹ 9
NA 9
Nat@@ 9
Ngu 9
Nhung, 9
Nobel 9
Novel 9
Nơi 9
Nạn 9
OSHA 9
Oblast, 9
On@@ 9
Oper@@ 9
Oslo 9
PHE 9
Phiến 9
Phân 9
Phòng, 9
Phúc, 9
Pic@@ 9
Pokémon 9
Pouyuen 9
Q 9
Qantas 9
Quỳnh 9
R, 9
RON95 9
Ra@@ 9
Rathore 9
Respiratory 9
Richter 9
Risk 9
Rome 9
Rou@@ 9
Rẫy 9
Rồi 9
SSI 9
ST@@ 9
Sa. 9
Samoa 9
Sang 9
Schools 9
Shop 9
Sin@@ 9
Singapore. 9
Siêu 9
Sport 9
Suga 9
Sum@@ 9
Summit 9
Super 9
Sá@@ 9
Sĩ. 9
TA 9
TH 9
TH@@ 9
TO@@ 9
Tae 9
Temple 9
Thanh, 9
Theron 9
Through 9
Thánh 9
Thơ 9
Thỏa 9
Tina 9
Toan 9
Tra@@ 9
Tru@@ 9
Trăng 9
Trận 9
Tuyet 9
Tác 9
Tùng, 9
Tương 9
UNICEF 9
Uganda 9
Universal 9
Using 9
Uy, 9
Uzbekistan 9
V) 9
VI@@ 9
VN0062 9
VND50 9
VNG 9
Vac 9
Vaccines 9
Vancouver 9
Vinh, 9
Vis@@ 9
Vườn 9
Vợ 9
WRI 9
Walsh 9
Water 9
Weibo 9
Why 9
Wilcox 9
Wor@@ 9
Workers 9
Wy@@ 9
Xi 9
Xét 9
Zi@@ 9
['Trong 9
['“@@ 9
a"" 9
a) 9
aboard 9
acc@@ 9
accomplices 9
ack 9
acted 9
activation 9
ades 9
affirmed 9
aggressive 9
agree 9
ah@@ 9
al. 9
ali@@ 9
ality 9
amidst 9
analyze 9
ank@@ 9
announcing 9
antibody 9
archipelago 9
arm@@ 9
ath@@ 9
atic 9
atives 9
attached 9
attendant 9
attendants 9
attracting 9
autumn 9
bacterial 9
balance 9
ball 9
banking 9
basically 9
bat 9
beating 9
belonging 9
bird 9
biết.', 9
biết.'] 9
bling 9
boarding 9
booking 9
boyfriend 9
branches 9
bribes 9
bur@@ 9
buried 9
bà, 9
bá 9
bách 9
bình. 9
bóc 9
bướu 9
bản, 9
bắ@@ 9
bể 9
bệnh@@ 9
bị, 9
cacbon 9
cal 9
calm 9
campaigns 9
cards 9
ce@@ 9
centre 9
centuries 9
cer@@ 9
chihuahua 9
chiên 9
chocolate 9
cholesterol 9
choosing 9
chéo 9
chức. 9
clearly 9
colleague 9
commission 9
commit 9
communications 9
comparison 9
con, 9
concentrate 9
conducting 9
connections 9
conservation 9
constant 9
continuous 9
cookies 9
cooperate 9
cooperated 9
coronavirus@@ 9
corporations 9
coupled 9
crashes 9
creative 9
cư@@ 9
cốc 9
cối 9
cống 9
cởi 9
da@@ 9
damages 9
debts 9
deemed 9
dementia 9
deny 9
dered 9
designer 9
desired 9
det@@ 9
dig@@ 9
directors 9
disadvantage 9
disappeared 9
dispatched 9
disputed 9
divi@@ 9
dog 9
dormitories 9
down@@ 9
doạ 9
drawn 9
dress 9
dressed 9
drew 9
drills 9
drops 9
duration 9
dying 9
dám 9
dâm 9
dặm) 9
eclipse 9
ected 9
ee 9
elephants 9
eling 9
ella 9
elo@@ 9
emic 9
engaged 9
engagement 9
engineer 9
enjoying 9
epicenter 9
equal 9
era 9
erosion 9
ese 9
ever@@ 9
everywhere 9
expenses 9
experimental 9
explore 9
fabric 9
feared 9
fet@@ 9
finds 9
floating 9
focuses 9
focusing 9
formal 9
fying 9
g, 9
gan, 9
gasoline 9
genes 9
geographical 9
giants 9
giá, 9
giới." 9
giữ. 9
gn@@ 9
goers 9
golden 9
graduate 9
greenhouse 9
gross 9
guest 9
gy@@ 9
gì@@ 9
ham@@ 9
hazardous 9
headed 9
headlines 9
helpful 9
hiring 9
hits 9
hitting 9
hiểm, 9
homeless 9
hon@@ 9
hotspots 9
hoành 9
hoạn 9
hum@@ 9
humanity 9
huỷ 9
hydrogen 9
hái 9
hại. 9
hấp, 9
hậu, 9
hẹp 9
hẻm 9
họng, 9
hồ. 9
i,” 9
ia. 9
ically 9
ik@@ 9
illi@@ 9
ils 9
inated 9
incentives 9
incidence 9
incidents 9
indicate 9
indictment 9
inequality 9
infants 9
inform 9
innovation 9
inst@@ 9
instant 9
institute 9
integr@@ 9
intellectual 9
interesting 9
investigators 9
io@@ 9
isolating 9
jailed 9
judge 9
judges 9
karaoke, 9
keen 9
kers 9
kg. 9
khoảnh 9
khổ 9
killer 9
kiềm 9
knee 9
knowing 9
kor@@ 9
lab@@ 9
laid 9
landfill 9
lands 9
languages 9
laptop 9
lar 9
las@@ 9
lawsuit 9
lawyer 9
layer 9
lif@@ 9
listing 9
lists 9
liệu. 9
long, 9
lou@@ 9
loạ@@ 9
ls 9
lunar 9
lyrics 9
lá, 9
lê 9
lò@@ 9
lôi 9
lõi 9
lý@@ 9
lươn 9
lượng. 9
m." 9
makers 9
manner 9
manslaughter 9
master 9
mates 9
mechanism 9
medications 9
membrane 9
messaging 9
millennial 9
minh. 9
minor 9
mir@@ 9
mol@@ 9
mosque 9
museum 9
má@@ 9
máy, 9
múa 9
mũ 9
mạnh@@ 9
mắm 9
mộ@@ 9
mới@@ 9
naval 9
navigation 9
newborn 9
ng.""" 9
nghẹt 9
nghệ. 9
người." 9
ngựa 9
nhiên@@ 9
nhiều, 9
nhũng 9
nhất@@ 9
nhựa, 9
niên, 9
non-profit 9
northwest 9
nôn 9
nạ@@ 9
nứt 9
o.', 9
obesity 9
observation 9
observers 9
obtained 9
occupying 9
of@@ 9
ological 9
ool 9
opens 9
opinions 9
ories 9
otherwise 9
ously 9
overloaded 9
ownership 9
ox@@ 9
ozon 9
pa 9
panel 9
parliament 9
partially 9
participate 9
participating 9
particles 9
pathogens 9
perhaps 9
personality 9
petrol 9
phim. 9
phiếu. 9
phá@@ 9
phác 9
phải, 9
ple 9
pledged 9
politics 9
portal 9
portion 9
pper 9
precautions 9
prepares 9
probable 9
programme 9
prompting 9
proportion 9
proud 9
proven 9
providers 9
psychological 9
purchasing 9
qua@@ 9
questioned 9
quầy 9
racing 9
rad@@ 9
radiation 9
rea@@ 9
reactions 9
readers 9
red@@ 9
reference 9
refrain 9
regard 9
reliable 9
remarked 9
repair 9
resides 9
responded 9
returns 9
rolled 9
roughly 9
routine 9
runners 9
ruộng 9
rơm 9
rải 9
rỉ 9
safely 9
sanitizers 9
satisfy 9
scenario 9
scenes 9
searching 9
septic 9
servers 9
set@@ 9
settings 9
settle 9
shape 9
shipments 9
shortages 9
shutdown 9
signal 9
sil@@ 9
situated 9
slowly 9
sm@@ 9
soccer 9
soil 9
solidarity 9
son, 9
sons 9
sourced 9
spotted 9
stance 9
stick 9
stolen 9
straight 9
straw 9
stream 9
substantial 9
succeeded 9
sudden 9
suddenly 9
sunlight 9
surged 9
sustain 9
swallowing 9
symbol 9
sơn 9
sướng 9
sạt 9
sử@@ 9
t-@@ 9
t; 9
tant 9
tears 9
technological 9
teenage 9
teenager 9
ter, 9
textile 9
tha 9
theme 9
theo@@ 9
ther@@ 9
thermal 9
thi. 9
thiết, 9
thoại. 9
thrown 9
thân, 9
thích. 9
thôn, 9
thư, 9
thương. 9
thải, 9
thải. 9
thế, 9
thợ 9
tle 9
to. 9
ton@@ 9
tonight 9
topic 9
tops 9
toxicity 9
transmit 9
transparency 9
transparent 9
tru@@ 9
trăn 9
trọn 9
tual 9
tur@@ 9
tâm. 9
tân 9
tình, 9
tích. 9
tản 9
tị 9
tống 9
tục, 9
tức, 9
tức. 9
t” 9
um, 9
una 9
unchanged 9
underwent 9
unemployment 9
unlikely 9
unnecessary 9
urging 9
uống, 9
vaccinated 9
val@@ 9
vegetable 9
verify 9
versions 9
virus@@ 9
viên@@ 9
vocational 9
vong, 9
vá 9
về@@ 9
vời, 9
vụ. 9
waivers 9
walks 9
wallets 9
wealthy 9
wildfire 9
witch 9
wn 9
wor@@ 9
workforce 9
worsen 9
worsened 9
xu@@ 9
xy 9
xăm 9
za 9
àn, 9
át 9
ân, 9
ân. 9
ây 9
è@@ 9
ên, 9
êu 9
óc 9
ói 9
ý@@ 9
ăng 9
Đam 9
Đáng 9
Đáp 9
Đô 9
Đông@@ 9
Đăng 9
Đạo 9
Đắc 9
Đống 9
đam 9
đoán, 9
đu@@ 9
đà 9
đá, 9
đê 9
đường, 9
đại, 9
đấu, 9
đấy 9
đền 9
địa. 9
ơi 9
ư@@ 9
ương. 9
́c 9
ạ@@ 9
ạc 9
ản 9
ấu 9
ẩu 9
ắc 9
ẻ 9
ệt 9
ị 9
ốn 9
ủ 9
ủi 9
“Những 9
“sự 9
"".', 8
""rất 8
"Anh 8
"Chúng 8
"Giám 8
'Tôi 8
(201@@ 8
(4,@@ 8
(U@@ 8
-19 8
., 8
.vn 8
05 8
1,400 8
1,4@@ 8
108 8
11,000 8
111 8
129 8
12:@@ 8
136 8
145 8
15% 8
150,000 8
153 8
158 8
16,@@ 8
17.@@ 8
1990, 8
2,1 8
20,@@ 8
2008, 8
2011. 8
22,@@ 8
228 8
26/@@ 8
28/@@ 8
3"" 8
3.7 8
33,@@ 8
330 8
33@@ 8
34% 8
38@@ 8
4.3 8
40,@@ 8
400,000 8
42,@@ 8
470 8
4G 8
5.1 8
500@@ 8
53.@@ 8
600,000 8
740 8
79@@ 8
8"" 8
8.6 8
8/@@ 8
80@@ 8
85% 8
9,5 8
9/@@ 8
AF@@ 8
AM@@ 8
AN@@ 8
ASF 8
AT 8
Abu 8
Ag@@ 8
Aires 8
Along 8
Altern@@ 8
Americ@@ 8
Anti@@ 8
Archipelago 8
As@@ 8
Assam 8
B, 8
BC 8
BR395 8
Ballarat 8
Bean 8
Ben@@ 8
Bifaretti 8
Biological 8
Bloomberg 8
Bluezone 8
Brent 8
Bud@@ 8
Bulkeley 8
Bán 8
Bây 8
Bạc 8
Bỉ 8
CFCB 8
CI@@ 8
COVID-19@@ 8
CanSino 8
Cannes 8
Cape 8
Cen@@ 8
Charlize 8
Chauvin 8
Chi. 8
Chile 8
Chàng 8
Chăn 8
Chẩn 8
Chứng 8
Clostridium 8
Colombian 8
Colonel 8
Conduct 8
Cải 8
Cảm 8
Cấp 8
Cận 8
Del@@ 8
Den@@ 8
Detective 8
Did 8
Diep 8
Dis@@ 8
Doan 8
Doong 8
Dubai, 8
Dù 8
Dòng 8
EEZ 8
ES@@ 8
ESL 8
Equatorial 8
Erdogan 8
Euro 8
Eva 8
Executive 8
Family 8
Far@@ 8
Fi@@ 8
Field 8
Flip 8
Floyd, 8
For@@ 8
Fore@@ 8
Fri@@ 8
GI@@ 8
Gam@@ 8
Game 8
Gie 8
Giuseppe 8
Great 8
Greek 8
Gòn, 8
Hamachi 8
Han 8
Hangzhou 8
Hanoian 8
Hawking 8
Head 8
Henry 8
Hi 8
Hospitalier 8
Hoạt 8
Huanan 8
Hungary 8
Huấn 8
Hy@@ 8
Hạn 8
Hằng, 8
Hứa 8
Istanbul 8
Ivory 8
Je@@ 8
Jeremy 8
Jiankui 8
Jinping 8
Jinyintan 8
Jonathan 8
Jose 8
Julia 8
Kathmandu 8
Kazan 8
Kevin 8
Kho 8
Khắc 8
Ki@@ 8
Kiều 8
Klebsiella 8
Koca 8
Kon 8
Koreans 8
Krong 8
Kyrgyzstan 8
Kênh 8
Las@@ 8
Lati@@ 8
Learning 8
Little 8
Louis 8
Love 8
Lux 8
Lệ 8
Lộc 8
MC 8
Manticore 8
Melinda 8
Microsoft, 8
Minneapolis 8
Mir@@ 8
Mo 8
Monaco 8
Morano 8
Motor@@ 8
Munich 8
Mã 8
Nad@@ 8
Nam.', 8
Naomi 8
Nepal, 8
Nguyên. 8
Ngãi 8
Nhìn 8
Nhận 8
Nice 8
Nikkei 8
Nine 8
Nishino 8
Nov@@ 8
Nowadays 8
OK 8
OS@@ 8
Oc@@ 8
Operation 8
Oscar 8
Overseas 8
O’@@ 8
P. 8
PC 8
Palestine 8
Parties 8
Penh 8
PepsiCo 8
Phi-líp-pin 8
Phóng 8
Phương, 8
Pictures 8
Pittsburgh 8
Plant 8
Point 8
Pol@@ 8
Pop 8
Portugal 8
Prior 8
Procuracy 8
Quyền 8
Quốc), 8
RNA 8
Ram@@ 8
Reed 8
Rep@@ 8
Right 8
Road 8
Robotics 8
Rịa 8
Sa) 8
Save 8
Seafood 8
Sec@@ 8
Securities 8
Selena 8
Sim@@ 8
Simon 8
Somalia 8
Sony 8
Sor@@ 8
Specifically 8
Star@@ 8
Ste@@ 8
Studios 8
Sudan 8
Sung 8
Sur@@ 8
Swiss 8
System 8
Tayyip 8
Tech 8
Ter@@ 8
ThaiBev 8
Thọ 8
Tonight 8
Tor@@ 8
Trieng 8
Triển 8
Trump, 8
Tyumen 8
Tái 8
Tân, 8
Tây, 8
Tấn 8
U23 8
UEFA 8
UTC 8
Unit 8
Users 8
VEC 8
VND30 8
Vanguard 8
Vanuatu 8
Veneto 8
Viettel 8
Vilnius 8
VinBus 8
VinSmart 8
Vinschool 8
Virginia 8
Vit@@ 8
Vivo 8
Vui 8
Vũ, 8
W. 8
Wat@@ 8
WeChat, 8
Weather 8
Wilden 8
Winter 8
Xích 8
Yến 8
Zing 8
['Khi 8
['Tại 8
abandoning 8
abilities 8
ables 8
achieving 8
aci@@ 8
adapt 8
adult 8
advantages 8
aftermath 8
agent 8
aining 8
alised 8
aluminum 8
analysts 8
anda 8
ang. 8
ano 8
answers 8
anti-dumping 8
antibiotic 8
antly 8
apping 8
appreciate 8
approaching 8
ards 8
ari 8
aro 8
arrange 8
arti@@ 8
ase 8
aspects 8
assaulted 8
asserted 8
attempting 8
attributed 8
au, 8
aul@@ 8
auto 8
automatically 8
awards 8
ays 8
bacterium 8
bal@@ 8
beam 8
behaviour 8
bet 8
binding 8
biology 8
birthday 8
birthmark 8
biế@@ 8
biến, 8
bled 8
blocking 8
bom@@ 8
bor@@ 8
bottom 8
bowl 8
br@@ 8
buyers 8
by@@ 8
bá@@ 8
bát 8
bé. 8
bún 8
bạc, 8
bắc. 8
bộ. 8
bụ@@ 8
cabin 8
cabinet 8
captain 8
card 8
cautious 8
ced 8
ceremonies 8
certainly 8
challenging 8
championship 8
chatbot 8
cheaper 8
checkpoints 8
cher 8
chiếu 8
chui 8
church 8
chuyện, 8
chút 8
chuộng 8
chăng 8
chất, 8
chặng 8
citizenship 8
climbing 8
clinic 8
coins 8
compan@@ 8
completing 8
complicate 8
conflict 8
consensus 8
consistent 8
consulting 8
containers 8
counter@@ 8
cows 8
cra@@ 8
criticism 8
critics 8
cross-border 8
crossing 8
crowd 8
cụ 8
cây, 8
có, 8
cận, 8
cửa@@ 8
cực, 8
d'@@ 8
dangers 8
dar@@ 8
day@@ 8
deadline 8
deaf 8
definitely 8
depends 8
dering 8
describes 8
designated 8
detection 8
determining 8
develops 8
dialogue 8
dirty 8
discounts 8
discovering 8
disruption 8
diễn, 8
diễu 8
donation 8
dramas 8
drastic 8
driven 8
duo 8
dykes 8
dâ@@ 8
dã. 8
dưỡng, 8
dạ@@ 8
dạo 8
dần. 8
dối 8
dời 8
eKYC 8
echoes 8
ections 8
ees 8
elled 8
embar@@ 8
enn@@ 8
ental 8
enters 8
entities 8
episodes 8
ere@@ 8
escalating 8
establishing 8
eted 8
eu@@ 8
exceeding 8
excluding 8
exclusive 8
exclusively 8
existence 8
experiences 8
explanation 8
exploded 8
exploring 8
expres@@ 8
extensive 8
extent 8
extracorporeal 8
facilitate 8
farmer 8
favorable 8
favored 8
fellow 8
fetus 8
fied 8
filmed 8
finance 8
fixed 8
flat 8
flavanol 8
fleet 8
flesh 8
forget 8
form@@ 8
forum 8
gains 8
gal@@ 8
gan@@ 8
generating 8
genotype 8
geopark 8
giao, 8
giả, 8
gl@@ 8
grades 8
gram 8
grams 8
graph@@ 8
gro@@ 8
guarantee 8
gà, 8
h. 8
habit 8
hack 8
hackers 8
hal@@ 8
ham 8
hanging 8
hardware 8
hate 8
heading 8
heo 8
hill 8
hills 8
hire 8
hometown 8
hoped 8
hoạch, 8
hoả 8
huy@@ 8
huyền 8
hydro@@ 8
hơ@@ 8
hết. 8
i"" 8
i) 8
i.""" 8
iPad 8
iPads 8
ians 8
ic, 8
iled 8
iling 8
immuno@@ 8
impaired 8
implementing 8
implications 8
imposing 8
inadequate 8
ind 8
indic@@ 8
indicating 8
iness 8
influ@@ 8
initiated 8
ink@@ 8
inspected 8
interaction 8
interactions 8
invite 8
ip@@ 8
ished 8
i”, 8
i”. 8
jo@@ 8
journalists 8
jump 8
jurisdiction 8
k. 8
ka 8
ket 8
khe 8
khác.', 8
khéo 8
khét 8
khí@@ 8
không@@ 8
khăn, 8
kilos 8
km2 8
kĩ 8
kỉ 8
kỳ. 8
l, 8
laborers 8
land@@ 8
laptops 8
lasted 8
lasting 8
lat@@ 8
leadership 8
lear@@ 8
lease 8
len 8
lers 8
les@@ 8
let@@ 8
lethal 8
lets 8
lights 8
listen 8
liệt. 8
load 8
lockdowns 8
lon 8
low@@ 8
lá@@ 8
lão. 8
lùi 8
lạnh. 8
lầ@@ 8
lắm 8
lục. 8
m: 8
mag@@ 8
magnitude 8
merchant 8
mercury 8
metal 8
metro 8
migrants 8
ming 8
monitors 8
municipalities 8
mutual 8
myself 8
mâm 8
mù@@ 8
măng 8
mạch, 8
mắn. 8
mặ@@ 8
mẻ 8
mẽ, 8
mồ 8
nam, 8
ne. 8
needlestick 8
neighborhood 8
neuro@@ 8
ng). 8
nghĩ@@ 8
ngắm 8
nh." 8
nhai 8
nhanh. 8
nhi@@ 8
nhôm 8
nhạc, 8
nhện, 8
night@@ 8
nights 8
niên. 8
nor@@ 8
notable 8
nutrition 8
này.” 8
nô 8
nướ@@ 8
nạn, 8
nấm 8
nếm 8
n”, 8
n”. 8
offshore 8
om, 8
ome 8
optim@@ 8
or, 8
organisations 8
organisms 8
originating 8
oring 8
ounce 8
outlined 8
outstanding 8
ov 8
oxygenation 8
packaging 8
packed 8
pag@@ 8
pair 8
pas@@ 8
pat@@ 8
pedestrian 8
periods 8
pet@@ 8
pharmacies 8
phu 8
phép, 8
phộng 8
pieces 8
pills 8
pin@@ 8
plu@@ 8
poaching 8
pocong 8
politicians 8
polypill 8
pounds 8
pressing 8
pretty 8
prevents 8
priced 8
proc@@ 8
protects 8
protested 8
publisher 8
pushing 8
puts 8
quarantines 8
quarters 8
quit 8
quo@@ 8
quãng 8
quả@@ 8
quỵ 8
rac@@ 8
rammed 8
rap@@ 8
rape 8
ratings 8
reasonable 8
reck@@ 8
recommendation 8
referring 8
refrigerated 8
relating 8
religion 8
removal 8
replacing 8
represent 8
represented 8
reputation 8
rer 8
residency 8
residues 8
respondents 8
restricting 8
retailers 8
reverse 8
revoked 8
risky 8
ro, 8
robotics 8
rou@@ 8
rum@@ 8
run@@ 8
rũ 8
sat 8
scandals 8
scoring 8
scrap 8
searched 8
seasons 8
sections 8
seemed 8
semen 8
server 8
sh 8
shots 8
silent 8
silk 8
solid 8
som@@ 8
somewhere 8
sou@@ 8
southeast 8
specialized 8
specifically 8
spends 8
spirit 8
spots 8
st, 8
sta 8
stadiums 8
star@@ 8
statements 8
stepped 8
stimulus 8
stormquakes 8
stricken 8
strikes 8
structures 8
struggled 8
sunk 8
switch 8
sôi 8
sưng 8
sớm. 8
t.” 8
tablet 8
tang 8
technicians 8
thanked 8
therapies 8
thiế@@ 8
thoả 8
threw 8
thu, 8
thunderstorms 8
thuẫn 8
thuế, 8
thành. 8
thá@@ 8
tháo 8
thân. 8
thăng 8
thưởng, 8
thấy. 8
thầm 8
thị, 8
tic@@ 8
tical 8
title 8
tiếp, 8
tobacco 8
toes 8
tongue 8
tower 8
towns 8
toán, 8
tranh, 8
transited 8
transition 8
translation 8
tre@@ 8
triều 8
trúng 8
trân 8
trình, 8
trúng 8
trút 8
trước@@ 8
trạng, 8
tured 8
ty@@ 8
tàu. 8
tôm 8
tập. 8
ue 8
uncommon 8
uncovered 8
underway 8
updates 8
upper 8
ura 8
us, 8
usage 8
uyen 8
vacation 8
vegetarian 8
ven@@ 8
vi, 8
video, 8
villages 8
violated 8
violent 8
viếng 8
voluntarily 8
von 8
vu@@ 8
và@@ 8
vành 8
vặt 8
vị, 8
vịnh 8
vịt 8
vụ@@ 8
vựng 8
wall 8
wan 8
war@@ 8
ward 8
weak 8
wet 8
wi@@ 8
wildfires 8
window 8
wish 8
withdrawn 8
wonder 8
wood 8
worn 8
worry 8
wrap 8
writer 8
xưa 8
xưởng 8
xấp 8
y-@@ 8
y.', 8
yen 8
Áo 8
Áo, 8
ành 8
ày 8
ê, 8
ên 8
ù 8
Địa 8
Đợt 8
điên 8
đê@@ 8
đô). 8
đô. 8
đúng. 8
đạo. 8
đảo. 8
đậm 8
đố 8
đớn 8
đực 8
̀@@ 8
̀ng 8
́@@ 8
́ng 8
̣@@ 8
̣c 8
ất, 8
ậ@@ 8
ắp 8
ềm 8
ệ 8
ốc. 8
ối, 8
ổ. 8
ỗi 8
ớ 8
ụ@@ 8
ừ@@ 8
“Có 8
“một 8
“những 8
""làm 7
""Đây 7
"Bác 7
"Công 7
"Tôi 7
"Tại 7
'""@@ 7
'Khi 7
'Người 7
'Sau 7
'm 7
'Đây 7
(""@@ 7
(3@@ 7
(A@@ 7
(CAAV) 7
(Hoàng 7
(của 7
(với 7
): 7
* 7
00. 7
1,1 7
1,200 7
1,300 7
1,4 7
1,600 7
1,6@@ 7
1.3@@ 7
1.9 7
100% 7
112 7
14, 7
14,000 7
146 7
150.000 7
16, 7
16.000 7
170 7
173 7
18% 7
18/@@ 7
19% 7
19, 7
19. 7
19/@@ 7
1980s 7
1981 7
1984 7
1985 7
1986 7
1987 7
2,2 7
2,500 7
2,6 7
2,600 7
2,7@@ 7
2.0@@ 7
2.4 7
2000, 7
2005, 7
2009, 7
2019-@@ 7
2019@@ 7
202@@ 7
21@@ 7
24,@@ 7
25.000 7
252 7
255 7
3%, 7
3) 7
3,500 7
3.4 7
3: 7
3:@@ 7
4.6 7
4.7 7
40,000 7
47.@@ 7
49@@ 7
5,5 7
5.3 7
5.6 7
5.7 7
51% 7
52@@ 7
56@@ 7
6,5 7
6.1 7
6.3 7
6.8 7
6:30 7
6:@@ 7
78 7
8) 7
8,5@@ 7
8.5 7
82,@@ 7
8:00 7
91, 7
95% 7
:00 7
A), 7
Abigail 7
AccuWeather 7
Aceh 7
Acheson 7
Action 7
Again 7
Ali 7
Allen 7
Ang@@ 7
Anguilla 7
Anh) 7
Architecture 7
Armed 7
Athmuqam 7
BCG 7
Barbara 7
Bastille 7
Bat@@ 7
Beach 7
Bec@@ 7
Bir@@ 7
Bl@@ 7
Blood 7
Bo 7
Born 7
Box 7
Brit@@ 7
Brooklyn 7
Bru@@ 7
Bruce 7
Bun@@ 7
Burhani 7
Burundi 7
Bánh 7
Bỉ, 7
Bố 7
Canada. 7
Carrie 7
Caruana 7
Chemical 7
Child 7
Chromium 7
Coc 7
Cockroaches 7
Command 7
Conn@@ 7
Coopersmith 7
Croatia 7
Cua 7
Cư 7
Cập, 7
Cố 7
Cứu 7
Cực 7
D, 7
D. 7
DC@@ 7
Dac 7
Dem@@ 7
Dhabi 7
Di 7
Dou@@ 7
Dr@@ 7
E. 7
Econom@@ 7
Ethiopian 7
Eventually 7
Eye 7
Faroe 7
Fields 7
Finland 7
Fish 7
Flights 7
Fol@@ 7
Foo@@ 7
Franc@@ 7
Free 7
GMT 7
GO@@ 7
GPS 7
Gateway 7
Geor@@ 7
Girls 7
Given 7
Giữa 7
Governor 7
Gre@@ 7
Greaves 7
Group, 7
Guam 7
Guangzhou 7
Guatemala 7
Guyana 7
HIV, 7
Hainan 7
Has@@ 7
Hashimoto 7
Hau 7
Hills 7
Holding 7
Hollywood 7
Honduras 7
Hydroxychloroquine 7
Hô@@ 7
I. 7
IATA 7
IN@@ 7
Inc@@ 7
Indians 7
Indonesia. 7
Initially 7
Institu@@ 7
J 7
JPY@@ 7
Jaghab 7
Jake 7
Jason 7
Jer@@ 7
Jobs 7
Jud@@ 7
K, 7
Kanye 7
Kaunas 7
Kavugho 7
Kelly 7
Ken 7
Kent 7
Keys 7
Khủng 7
Kim@@ 7
Kinh. 7
Kiến 7
Knight 7
Kor@@ 7
Krai 7
Kurdistan 7
Ky 7
Kyodo 7
Kyoto 7
Kẻ 7
Kỳ.', 7
Kỷ 7
LG 7
Lalla 7
Lancelot 7
Lavenue 7
Laz@@ 7
Lea@@ 7
Leaders 7
Lieu 7
Life 7
Lin 7
Luka 7
Lưu 7
Lượng 7
Lạt, 7
Lịch 7
Lợi 7
Major 7
Mari@@ 7
Marine 7
Matthew 7
May@@ 7
Mel@@ 7
Men 7
Mid-Autumn 7
Mil@@ 7
Miller 7
Minsk 7
Moi 7
Moore 7
Moskva 7
Movie 7
Mumbai 7
Mur@@ 7
Móng 7
Mông 7
N95 7
NGO 7
NSW 7
Na@@ 7
Nan@@ 7
Nepal. 7
Net@@ 7
News@@ 7
Nguoi 7
Nguy 7
Nguy@@ 7
Nguồn 7
Ngài 7
Ngũ 7
Nigeria, 7
Night 7
Nina 7
Noel 7
Norwegian 7
Nu@@ 7
Núi 7
Nằm 7
Nền 7
Official 7
Olympi@@ 7
Oncology 7
Oppo 7
Ox@@ 7
PRECEDE 7
Pakistan, 7
Pakistan. 7
Pan@@ 7
Paralympic 7
Pay@@ 7
Photo 7
Phật 7
Phổi 7
Pixar 7
Plaza 7
Pope 7
Por@@ 7
Prize 7
Proceedings 7
Quangnam 7
RA@@ 7
RS 7
Regarding 7
Representative 7
Residents 7
Revolution 7
Riedl 7
Robinson 7
Rodríguez 7
Roebling 7
Roman 7
Roskilde 7
SAH 7
SEZ 7
SH@@ 7
SM 7
Sarah 7
Scarborough 7
Scientific 7
Sedere 7
Severe 7
Shenzhen 7
Shortly 7
Sinterklaas 7
Song@@ 7
Special 7
Stockholm 7
Super@@ 7
Suriname 7
Suy 7
Syndrome 7
Séc 7
Síp 7
Sẽ 7
T. 7
TP.HCM, 7
TT@@ 7
Taipei 7
Tak@@ 7
Task 7
Tatarstan 7
Technologies 7
Tenerife 7
Teresa 7
Tes@@ 7
Thi@@ 7
Thiếu 7
Tho@@ 7
Thâm 7
Thúy 7
Thăng 7
Thử 7
Tmall 7
Torres 7
Tou@@ 7
Tre@@ 7
Treo 7
Trinity 7
Trình 7
Trưng 7
Tw@@ 7
Twit@@ 7
Typhoon 7
Tyrol 7
U-@@ 7
UBND 7
Ukrainian 7
Ul@@ 7
Ut 7
VFF 7
VN84App 7
VND3 7
VO@@ 7
Venus 7
Visitors 7
Viết 7
Voice 7
Vsmart 7
Vành 7
Vắc 7
WHO, 7
WTI 7
Walter 7
Warsaw 7
Washington, 7
Washington. 7
Week 7
Whether 7
Wil@@ 7
Wol@@ 7
Woolf 7
Xin 7
Xo 7
Xác 7
Xây 7
Xê 7
Yo@@ 7
Yoda 7
You@@ 7
Zealand. 7
Zoom 7
['Không 7
\xa0 7
abortion 7
accidentally 7
achievements 7
actors 7
adverti@@ 7
advise 7
aff@@ 7
affordable 7
agu@@ 7
ah 7
ai. 7
ails 7
aiming 7
ains 7
airs 7
alarm 7
alize 7
ama 7
ame 7
amounted 7
ancing 7
ania 7
annoying 7
answered 7
anymore 7
appreciation 7
arguing 7
aring 7
army 7
arri@@ 7
arrives 7
ased 7
aside 7
asset 7
ately 7
ater 7
automatic 7
automation 7
autonomy 7
aver@@ 7
avi@@ 7
ay. 7
a” 7
background 7
bar, 7
bathroom 7
battery 7
behalf 7
benchmark 7
besides 7
bin 7
bit@@ 7
bite 7
biến. 7
bluechips 7
boosting 7
borrow 7
botulinum 7
boxes 7
bre@@ 7
brief 7
briefing 7
bud@@ 7
bureau 7
burg 7
buồn, 7
bà. 7
bì 7
bìa 7
bò, 7
bò. 7
bảng) 7
bảy. 7
bầy 7
bẩn 7
cafes 7
calcium 7
calo 7
cancers 7
carmaker 7
carnival 7
celebration 7
cellular 7
cemetery 7
chair 7
champions 7
channels 7
chased 7
chef 7
chuyển, 7
chuông 7
chét 7
chóng, 7
chước 7
chảy, 7
chủ. 7
chủ@@ 7
civilian 7
ck@@ 7
classified 7
client 7
clu@@ 7
co-founder 7
coconut 7
collaborating 7
commitments 7
competing 7
conferences 7
cong@@ 7
congestion 7
conspiracy 7
consul@@ 7
consume 7
consuming 7
cont@@ 7
controversial 7
convicted 7
corporate 7
coun@@ 7
council 7
counts 7
cracked 7
cream 7
criteria 7
criticizing 7
cross 7
crossed 7
cuisine 7
currencies 7
custom 7
cơ, 7
cảm, 7
cấp@@ 7
cầ@@ 7
cần. 7
c” 7
deciding 7
declining 7
deeply 7
defence 7
delegation 7
dengue 7
departed 7
depicting 7
deposits 7
desalination 7
deserted 7
destroy 7
disasters 7
disclosed 7
discount 7
discussion 7
disinfect 7
disinfecting 7
dismissal 7
disorder 7
dist@@ 7
distinct 7
division 7
diệ@@ 7
dol@@ 7
dormitory 7
dose 7
downloads 7
downpour 7
dra@@ 7
dro@@ 7
dubbed 7
dũng 7
dương. 7
dưới. 7
dại 7
dầu, 7
dồi 7
eBay 7
echolocation 7
economics 7
ecting 7
editorial 7
een 7
eg@@ 7
elec@@ 7
electronics 7
eliminated 7
ell, 7
ema 7
emer@@ 7
empire 7
employing 7
encountered 7
ened 7
enrolled 7
ential 7
epidemiology 7
essing 7
eter@@ 7
evident 7
exceeded 7
exchanges 7
excited 7
excre@@ 7
explaining 7
exploit 7
exploration 7
extraordinary 7
fam@@ 7
far@@ 7
fate 7
fathers 7
fault 7
feedback 7
filming 7
finals 7
fix 7
flood 7
fold 7
followers 7
ford 7
founders 7
fragrant 7
franchise 7
fre@@ 7
freight 7
frog 7
frontline 7
fun 7
funded 7
fur@@ 7
fy 7
g. 7
gg@@ 7
ghét 7
girlfriend 7
giáng 7
giản, 7
glo@@ 7
golf 7
governance 7
governing 7
grader 7
graves 7
grocery 7
gs 7
guess 7
guns 7
gy 7
gõ 7
gạo. 7
hair@@ 7
haven 7
hay, 7
hearts 7
herbs 7
hes@@ 7
hiếu 7
hol@@ 7
hurricanes 7
hè, 7
hôn, 7
hầm 7
hộ. 7
hợp), 7
hủy. 7
ices 7
imagine 7
impressive 7
improves 7
inappropriate 7
indefinitely 7
inevitable 7
influenced 7
informing 7
ingly 7
initiatives 7
innovative 7
ins@@ 7
insiders 7
intended 7
intensify 7
intravenous 7
introducing 7
inundated 7
irrit@@ 7
ish@@ 7
issuance 7
item 7
ium 7
iz 7
ization 7
ji@@ 7
ka, 7
kak@@ 7
keeps 7
khai, 7
khoái 7
khủng 7
khô, 7
không?@@ 7
khấu 7
khống 7
kia, 7
kilo 7
kiện. 7
knees 7
ké@@ 7
kìm 7
kể, 7
kỷ, 7
lacking 7
lad@@ 7
lantern 7
lawyers 7
lay@@ 7
le, 7
leg@@ 7
legitimate 7
lev@@ 7
li 7
lic 7
life@@ 7
lifetime 7
lion 7
literature 7
livelihoods 7
loading 7
log 7
logo 7
longest 7
lowered 7
luậ@@ 7
lychee 7
lát 7
lưỡng 7
lạnh, 7
lều 7
lịch@@ 7
lột 7
lụ@@ 7
lứa 7
lử@@ 7
m). 7
maintenance 7
mall 7
mangrove 7
margin 7
marine 7
marry 7
mel@@ 7
mem@@ 7
mes@@ 7
mid@@ 7
molecular 7
motorbikes 7
multi@@ 7
mãnh 7
mét. 7
mò 7
mất. 7
mẹ@@ 7
mến 7
mỏi, 7
mở, 7
n"", 7
n), 7
n,” 7
n.""" 7
necessities 7
nem 7
ng"", 7
nghênh 7
nghệ, 7
ngành, 7
ngày@@ 7
ngáp 7
ngô 7
ngơi 7
ngạch 7
ngắn. 7
ngỏ 7
ngủ, 7
ngủ. 7
ngừa, 7
ng”, 7
nho 7
nhuộm 7
nhâ@@ 7
nhé@@ 7
nhậ@@ 7
nhậm 7
nhựa. 7
noise 7
noticed 7
này.""" 7
nét 7
nóng, 7
nạp 7
nốt 7
o"" 7
o: 7
obj@@ 7
obtain 7
occurring 7
oceans 7
ok 7
ok@@ 7
oke 7
olds 7
om 7
onal 7
ond@@ 7
one@@ 7
ony 7
operator 7
ore@@ 7
organisation 7
ound@@ 7
outdoors 7
outlet 7
outsiders 7
oven 7
overnight 7
overuse 7
oxy@@ 7
pand@@ 7
participated 7
participation 7
partnerships 7
pastor 7
pel@@ 7
periodontal 7
persimmons 7
personalized 7
pes 7
petition 7
pha@@ 7
phe 7
phiến 7
phosphine 7
phút 7
physician 7
phí, 7
phí@@ 7
phạ@@ 7
phạm, 7
phạm. 7
phạt. 7
phần. 7
pon@@ 7
positively 7
poultry 7
pouring 7
pray 7
prayer 7
precaution 7
predict 7
premises 7
premium 7
presents 7
prestigious 7
print 7
prisons 7
programming 7
promoted 7
proof 7
prosecu@@ 7
proved 7
proves 7
proximity 7
pulled 7
purchases 7
py@@ 7
python 7
qualified 7
qualifiers 7
racist 7
rashes 7
rating 7
re 7
re. 7
real@@ 7
recalled 7
receives 7
recycled 7
reefs 7
reflect 7
regards 7
rel@@ 7
releases 7
releasing 7
remarkable 7
remin@@ 7
reporter 7
reproductive 7
reserves 7
reservoir 7
resolve 7
resource 7
rest@@ 7
restart 7
resuming 7
retailer 7
ris 7
ro. 7
rock 7
roll 7
runner 7
ràng. 7
răng, 7
rưỡi 7
rượu, 7
rượu. 7
rạn 7
rổ 7
rộng, 7
rừ@@ 7
rừng, 7
rực 7
s), 7
salary 7
saliva 7
salons 7
salty 7
sao. 7
scal@@ 7
scan 7
scattered 7
sch@@ 7
scheme 7
school@@ 7
sciences 7
scorching 7
scr@@ 7
sea@@ 7
secrets 7
sells 7
sem@@ 7
sen, 7
separated 7
sepsis 7
serv@@ 7
sey 7
shi@@ 7
shocking 7
shoes 7
shoot 7
shore 7
shrimp 7
sign@@ 7
signing 7
singers 7
skill 7
sli@@ 7
smuggling 7
soap 7
soba 7
socio 7
son@@ 7
speakers 7
specialist 7
spite 7
sses 7
stall 7
stand@@ 7
steadily 7
steal 7
steamed 7
steering 7
sticky 7
strains 7
stricter 7
stuff 7
subscribers 7
succeed 7
supplied 7
suppliers 7
surpassed 7
surveys 7
survival 7
survivors 7
suspends 7
sustained 7
swab 7
swear 7
swept 7
sy@@ 7
syn@@ 7
sà@@ 7
sàng, 7
sách. 7
sét. 7
sư, 7
sương 7
sưởi 7
sả@@ 7
sắ@@ 7
sẵ@@ 7
sốt. 7
sở, 7
tablets 7
tadpole 7
tai, 7
tail 7
talked 7
tation 7
tax@@ 7
tay. 7
tear 7
tends 7
tense 7
tension 7
ter. 7
tering 7
terrible 7
terrorism 7
th, 7
than, 7
theft 7
tho@@ 7
thuỷ 7
thô@@ 7
thúc, 7
thần, 7
thầy 7
thẳng, 7
thẳng. 7
thế@@ 7
tiger 7
tighten 7
till 7
timely 7
tinh. 7
tion@@ 7
titles 7
tives 7
tivi 7
toddler 7
toilet 7
tougher 7
toys 7
toà 7
tra@@ 7
tract 7
traditionally 7
trang@@ 7
tranh. 7
transmissions 7
tre 7
treats 7
triage 7
tribute 7
tries 7
triệu. 7
trusted 7
trú, 7
trườ@@ 7
trắc 7
trễ 7
trị@@ 7
trọ@@ 7
trọng” 7
trứng, 7
turing 7
tweeted 7
táo 7
tên, 7
tím 7
tò 7
tôi@@ 7
tượng, 7
tải, 7
tật. 7
tết 7
tỏa, 7
tội. 7
tục. 7
tứ 7
tựa 7
u) 7
ues 7
unsafe 7
urges 7
uri 7
us. 7
uy@@ 7
vào 7
vendors 7
verdict 7
vi. 7
ville 7
visitor 7
visual 7
vàng. 7
vùi 7
văn, 7
vấp 7
vẹn 7
vệ. 7
vị@@ 7
vọng, 7
wa 7
ware 7
warming 7
warns 7
washed 7
weakened 7
wed 7
welcomes 7
wer 7
whatever 7
wholesale 7
windows 7
winners 7
withdraw 7
witnessed 7
witnesses 7
wooden 7
work@@ 7
xem. 7
xiếc 7
xo@@ 7
xúc, 7
y"" 7
yan 7
yếu. 7
zer 7
zes 7
Út 7
áng 7
áp. 7
ã 7
ã@@ 7
ê 7
ên. 7
í@@ 7
óng 7
ôi, 7
ă@@ 7
ăng. 7
Đán, 7
Đảo, 7
Đừng 7
điền 7
điể@@ 7
đoan 7
đoàn. 7
đâu@@ 7
đè 7
đô-la 7
đông. 7
đạ@@ 7
đắn 7
đặn 7
đề. 7
đổ@@ 7
độ, 7
đội. 7
ơi. 7
ưng 7
ươ@@ 7
ướt 7
ường. 7
ượng, 7
ạm 7
ảo, 7
ẩn, 7
ẫ@@ 7
ắn, 7
ắt 7
ắt. 7
ẻ. 7
ế 7
ế@@ 7
ệ@@ 7
ọ@@ 7
ỏ 7
ỏ@@ 7
ố@@ 7
ốc@@ 7
ồi 7
ồng, 7
ở@@ 7
ừ 7
​​vào 7
’@@ 7
“L@@ 7
“Trong 7
“Việc 7
“Việt 7
“rất 7
“Đó 7
”'] 7
”." 7
…. 7
"""Điều 6
""Không 6
""The 6
""bệnh 6
"Năm 6
"Nếu 6
"The 6
"Trước 6
"Và 6
"Được 6
%@@ 6
&@@ 6
'. 6
'Ch@@ 6
'Hầu 6
'Ngoài 6
'Nếu 6
'Ví 6
(10@@ 6
(16@@ 6
(3 6
(3,@@ 6
(AI) 6
(B@@ 6
(F@@ 6
(G@@ 6
(K@@ 6
(Trung 6
(chủ 6
(các 6
(không 6
(đại 6
); 6
+603 6
+@@ 6
...', 6
.\xa0 6
06 6
0s 6
1,7 6
1.400 6
10/@@ 6
12-@@ 6
121 6
123 6
14-@@ 6
14th 6
152 6
154 6
156 6
159 6
16% 6
164 6
18. 6
1950s 6
1960 6
1960s 6
1965 6
1970 6
1970s 6
1972 6
1974, 6
1979 6
198 6
1997 6
2%. 6
2,700 6
2.0 6
2/3 6
20-@@ 6
20/@@ 6
2003. 6
2008. 6
2009. 6
2010. 6
2019–20 6
2022, 6
2025, 6
2050 6
21.@@ 6
21/@@ 6
2100 6
216 6
22nd 6
23,@@ 6
24/@@ 6
25.@@ 6
257 6
26, 6
26,@@ 6
265 6
27% 6
271 6
276 6
29/@@ 6
290 6
2nd 6
3%. 6
3,200 6
3,3 6
3.1 6
3.2 6
3.6 6
30. 6
325 6
328 6
332 6
334 6
343 6
355 6
365 6
369 6
37.5 6
37@@ 6
385 6
3G 6
4) 6
4), 6
4,8@@ 6
4.0@@ 6
4.2 6
4/@@ 6
400.000 6
4000 6
42.@@ 6
430 6
44% 6
45,@@ 6
45.@@ 6
48% 6
480 6
5) 6
5.8 6
5/@@ 6
50,@@ 6
510 6
54.@@ 6
56% 6
6/@@ 6
60-@@ 6
61% 6
612 6
673 6
7,5 6
77@@ 6
787 6
8%, 6
8,7 6
8.7 6
8.8 6
9"" 6
9%. 6
90@@ 6
91st 6
950 6
981 6
:20 6
AG@@ 6
AH@@ 6
AID@@ 6
API 6
Across 6
Adam 6
Aeon 6
Agnès 6
Agreement 6
Ahmad 6
Ailen 6
Alexandre 6
Almaty 6
Amazon, 6
Amiran 6
Andrews 6
Ang 6
Anh.', 6
Anh: 6
Animal 6
Anton@@ 6
Anyone 6
Apsara 6
Arctic 6
Ari@@ 6
BC@@ 6
Bab@@ 6
Back 6
Bacter@@ 6
Ball 6
Barcelona 6
Barthélemy 6
Bayer 6
Baz@@ 6
Bear 6
Being 6
Bel@@ 6
Bernard 6
Bil@@ 6
Bing 6
Biên, 6
Biến 6
Blue 6
Body 6
Bol@@ 6
Bra@@ 6
Brad 6
Brand@@ 6
Brian 6
Bro@@ 6
Brother 6
Bruin 6
Brunei, 6
Brussels 6
Brébisson 6
Buriram 6
Businesses 6
Buzz@@ 6
Bài, 6
Bích 6
CAS 6
CB@@ 6
CMO 6
CRISPR 6
California. 6
Campylobacter 6
Cancer 6
Cang 6
Cap@@ 6
Care 6
Carlos 6
Carol@@ 6
Carolina 6
Cay 6
Challenge 6
Chamber 6
Chancellor 6
Chandy 6
Channel 6
Check 6
Cher@@ 6
Chic@@ 6
Chicago 6
Chiron 6
Chloroquine 6
Chris@@ 6
Christchurch 6
Chuong 6
Chúng 6
Chuẩn 6
Chánh, 6
Chân 6
Chú 6
Cin@@ 6
Claire 6
Claudette 6
Claudia 6
Co.opmart 6
Colombia, 6
Communication 6
Computer 6
Consul@@ 6
Cooperation 6
Country 6
Cra@@ 6
Critics 6
Cro@@ 6
Cung 6
Current 6
Cyprus 6
Công, 6
Cảng 6
Cập 6
Cỏ 6
Cốc 6
Dane 6
Dean 6
Denny 6
Diphtheria 6
Dmitry 6
Doctor 6
Donna 6
Doodle 6
Dor@@ 6
Dorsey 6
Dubo@@ 6
Dường 6
EL@@ 6
EPI 6
EU, 6
Ebol@@ 6
Economics 6
Ecuador 6
Edinburgh 6
Elledge 6
Engineering 6
Es@@ 6
Essex 6
Evans 6
Everhart 6
Every@@ 6
F, 6
Fahrettin 6
Fal@@ 6
Fed@@ 6
Ferrari 6
Finnair 6
Fleet 6
Flem@@ 6
Forbidden 6
Foreigners 6
Foxconn 6
Freeman 6
Fukuoka 6
Future 6
G. 6
Gal@@ 6
Gamaleya 6
Gamkrelidze 6
Garden 6
Garment 6
Geisha 6
Gene@@ 6
Generally 6
Georgian 6
Ghen 6
Giap 6
Giay 6
Giêng 6
Gloria 6
Godsey 6
Gold 6
Gom@@ 6
Gon 6
Grace 6
Greater 6
Guardian 6
Gulf 6
H. 6
HIV/AIDS 6
Hai@@ 6
Haiti 6
Ham 6
Hancock 6
Haneda 6
Hepatitis 6
Hieu 6
Hill@@ 6
Hoa. 6
Hor@@ 6
Huanggang 6
Hum@@ 6
Hun 6
Huệ 6
Hàm 6
Hướng 6
Hạm 6
H’Mong 6
IDICO 6
II@@ 6
Immigration 6
Imperial 6
Individuals 6
Instead 6
IoT 6
Ir@@ 6
J. 6
JICA 6
Jair 6
Jamiul 6
Jan 6
Jeffrey 6
Jeju 6
Jen@@ 6
Jetro 6
Jimmy 6
Jive 6
Jodi 6
Jordanian 6
Julie 6
Jutland 6
Karim 6
Kazakh 6
Keith 6
Ken@@ 6
Kenny 6
Keny@@ 6
Khairunnisa 6
Khê 6
Khói 6
Kiet 6
Kil@@ 6
King@@ 6
Kiribati 6
Krasnoyarsk 6
Kremlin 6
Kyo@@ 6
LAC 6
Lancet 6
Landscape 6
Lang@@ 6
Lanka, 6
Leaf 6
Legal 6
Len@@ 6
Lev@@ 6
Lexington 6
Liang 6
Light 6
Lim@@ 6
Liverpool 6
Liê@@ 6
Locals 6
Long. 6
Lopez 6
Lover 6
Low 6
Loài 6
Lôi, 6
Lạ@@ 6
Lời 6
Machine 6
Maezawa 6
Mai. 6
Mainland 6
Mandal@@ 6
Marc 6
Martinez 6
Marvel 6
Mas@@ 6
Maybe 6
McKinney 6
Michel 6
Mien 6
Minnesota 6
Mission 6
Missoso@@ 6
Mitsubishi 6
Mol@@ 6
Money 6
Mount 6
Mountain 6
Murillo 6
Myaladdinz 6
Mắt 6
Một, 6
NO@@ 6
Nadella 6
Nai, 6
Naikon 6
Nam""." 6
Natalie 6
Navigos 6
Next 6
Ngan 6
Nghĩa 6
Ngà 6
Ngồi 6
Nhật. 6
Nic@@ 6
Nicaragua 6
Noda 6
Nooyi 6
North@@ 6
Nuestra 6
Nuoc 6
Oklahoma 6
Oliver 6
Ong 6
Onyango 6
Orange 6
Out 6
Overall 6
PH@@ 6
PPE 6
PRC 6
PROCEED 6
PT 6
Pakse 6
Paris. 6
Parliament 6
Patrick 6
Peru 6
Pes@@ 6
Petr@@ 6
Philadelphia, 6
Phili@@ 6
Philippe 6
Phim 6
Phúc. 6
Pi@@ 6
Poli@@ 6
Pombar 6
Produc@@ 6
Quốc) 6
Quỳnh, 6
RS@@ 6
Ramaphosa 6
Rang 6
Realtime 6
Recep 6
Rem@@ 6
Retail 6
Reuters, 6
River@@ 6
Romagna 6
Roman@@ 6
Rosa 6
Rosario 6
Rose 6
Ruhnn 6
Russians 6
Ruồi 6
Rạng 6
Rẫy, 6
SA 6
Saigon@@ 6
Sashimi 6
Satur@@ 6
Satya 6
Scotland, 6
Seven 6
Seymour 6
Señora 6
Sha 6
Sheppard 6
Shiyou 6
Shoal 6
Sinh. 6
Sir 6
Sokol 6
Son, 6
Soo 6
Sr. 6
Standard 6
Steyer 6
Stoltenberg 6
Stop 6
Surrey 6
Suzuki 6
Sy@@ 6
Syria, 6
T) 6
THC 6
TN@@ 6
TNG 6
TV, 6
Tab@@ 6
Tajikistan 6
Tanzania 6
Tbilisi 6
Te 6
Teen 6
Temasek 6
Test 6
Testing 6
Thap 6
Thiền 6
Thiện 6
Thre@@ 6
Thu@@ 6
Thus 6
Thám 6
Tháp 6
Thạnh, 6
Thảo, 6
Thậm 6
Thủy, 6
Tid@@ 6
TikTok. 6
Tiêm 6
Toba 6
Todorvo 6
Tony 6
Toronto 6
Toyota, 6
Trans@@ 6
Trao 6
Treatment 6
Tree 6
Trey 6
Tro@@ 6
Trò 6
Tuberculosis 6
Tum 6
Tuncalp 6
Twenty 6
Tây. 6
Tầm 6
UNAIDS 6
UNWTO 6
URL 6
Ukraine, 6
Uni@@ 6
Universities 6
Uppsala 6
Uyen 6
VFS-410 6
VNAT 6
VTC@@ 6
Val@@ 6
Valitutto 6
Vatican 6
Vel@@ 6
Venezuela, 6
Venice 6
Victory 6
Vie@@ 6
Vien 6
Vietjet, 6
Vina 6
Vinatex 6
Vincom 6
Vivi 6
Viêng 6
Vo@@ 6
Vogue 6
Vong 6
Vua 6
Và, 6
Vấn 6
W, 6
WB 6
WEF 6
WSJ 6
WTA 6
Wales, 6
Walt 6
Warning 6
Water@@ 6
Watson 6
Web@@ 6
WebMD 6
Westra 6
Whitty 6
Williams 6
Woo@@ 6
Woolworths 6
X-@@ 6
XPS 6
Xi@@ 6
Xiao@@ 6
Xô 6
Yang 6
Yemen 6
Yoshihide 6
Yusuf 6
Yên, 6
Zabaykalsky 6
Zhi@@ 6
Zuckerberg 6
['Theo 6
a.', 6
a: 6
abdominal 6
abnormal 6
absorb 6
accessible 6
accusing 6
achievement 6
ack@@ 6
activate 6
activists 6
adjust 6
adrenaline 6
advances 6
adventure 6
adver@@ 6
adverse 6
advi@@ 6
adviser 6
advising 6
advoc@@ 6
aerosol 6
ained 6
airplane 6
akes 6
aking 6
alists 6
allergies 6
alley 6
alliance 6
alling 6
allocated 6
alls 6
alo@@ 6
alpha 6
alternatives 6
altogether 6
am. 6
ama@@ 6
ame@@ 6
amed 6
ams 6
amusement 6
anna 6
anne 6
anx@@ 6
apartments 6
apers 6
apologize 6
appeals 6
aps 6
aquatic 6
arr@@ 6
arranged 6
articles 6
arts 6
ashore 6
assessed 6
associate 6
assured 6
ast 6
atively 6
ature 6
automaker 6
availability 6
avro@@ 6
backs 6
bag 6
bang, 6
bankrupt 6
barred 6
bear 6
bearing 6
beaten 6
beings 6
beliefs 6
belonged 6
bicycle 6
black@@ 6
blanket 6
blaze 6
blea@@ 6
boarded 6
bone 6
bottle 6
brains 6
bride 6
broader 6
brokerage 6
brow@@ 6
bun@@ 6
bụng 6
bè. 6
bé, 6
bén 6
búp 6
bảng. 6
bấy 6
bỏ, 6
bổng 6
cables 6
cakes 6
cam@@ 6
capabilities 6
caregivers 6
cathedral 6
cattle 6
caution 6
cave 6
ceiling 6
certification 6
characteristics 6
check@@ 6
childhood 6
chiế@@ 6
chiếc, 6
chiến, 6
choáng 6
chung. 6
churches 6
chuyển. 6
chy 6
chân. 6
chè 6
ché@@ 6
chênh 6
chí@@ 6
chích 6
chùm 6
chưa. 6
chặn, 6
chỉ, 6
chọc 6
chỗ, 6
chửi 6
cin@@ 6
cing 6
circus 6
clarified 6
clas@@ 6
clash 6
clearer 6
clearing 6
co, 6
cocaine 6
coff@@ 6
collision 6
colorful 6
commemor@@ 6
compiled 6
complained 6
compulsory 6
conscious 6
consciousness 6
consistently 6
consists 6
constitu@@ 6
containment 6
contestants 6
continuously 6
contrac@@ 6
conver@@ 6
conversion 6
cotton 6
cou@@ 6
counter 6
counterfeit 6
county 6
craft 6
crossings 6
crying 6
cs 6
cu 6
cua 6
cubic 6
cultivation 6
custody 6
cúng 6
cyber@@ 6
cybersecurity 6
câ@@ 6
cóc 6
cúm. 6
cơ@@ 6
cư. 6
cương 6
cảo 6
cỗ 6
dam@@ 6
dated 6
dating 6
de-France 6
declines 6
delicious 6
democracy 6
demolition 6
demonstrations 6
denies 6
density 6
depart 6
departing 6
deported 6
designs 6
desire 6
detail 6
determination 6
devastation 6
devised 6
dia@@ 6
diagnostic 6
dialysis 6
disability 6
discipl@@ 6
disinfectant 6
disinformation 6
disorders 6
disrup@@ 6
diverse 6
diversify 6
do, 6
dom@@ 6
dominant 6
dor@@ 6
doubt 6
download 6
downpours 6
dramatically 6
dried 6
droopy 6
drugstores 6
drunk 6
dumped 6
dán 6
dã, 6
dép 6
dọ@@ 6
dốc 6
dỗ 6
dụ: 6
dục@@ 6
e) 6
eCommerce 6
eable 6
ead 6
earmarked 6
ection 6
ed. 6
editing 6
eels 6
ef 6
eff@@ 6
eh@@ 6
ei 6
eing 6
el. 6
elections 6
eless 6
eline 6
ely 6
embrace 6
employer 6
enable 6
endure 6
ene@@ 6
eng 6
engineered 6
enhancing 6
enko 6
enterprise 6
enz@@ 6
episode 6
erous 6
ested 6
eth 6
evacuees 6
evaluated 6
evaluating 6
even@@ 6
everybody 6
excellent 6
exception 6
exempt 6
expectancy 6
experiments 6
expression 6
eyelids 6
fa@@ 6
fac@@ 6
faith 6
fame 6
ferti@@ 6
fertility 6
fiat 6
fighter 6
file 6
firefighters 6
fitness 6
flagged 6
flames 6
flash 6
fli@@ 6
foldable 6
foodborne 6
footwear 6
forbidden 6
formula 6
forth 6
fortune 6
foster 6
frame 6
freedoms 6
frogs 6
ful@@ 6
fumes 6
functional 6
furniture 6
gaining 6
gan. 6
gang 6
gen. 6
genetics 6
ger 6
gged 6
ghan 6
ghts 6
gia@@ 6
gian@@ 6
gie 6
gien 6
già. 6
giá@@ 6
giữ, 6
globe 6
gra@@ 6
graduated 6
grandchildren 6
grows 6
gyms 6
gái. 6
gắt 6
ha, 6
habits 6
handover 6
happiness 6
haul 6
hay. 6
haze 6
hearings 6
heatwave 6
heaviest 6
highlighted 6
homosexual 6
hopefully 6
horse 6
house@@ 6
hoà 6
human@@ 6
hun@@ 6
hygi@@ 6
hyper@@ 6
hè. 6
héc 6
hét 6
hương. 6
hước 6
hầu, 6
hắt 6
hằng 6
hệt 6
họ." 6
hỏ@@ 6
hổng 6
hở 6
i"", 6
i). 6
i.e. 6
iang 6
icebergs 6
ide@@ 6
identi@@ 6
ides 6
if@@ 6
ignored 6
ike 6
ile 6
ily 6
imag@@ 6
imm@@ 6
immigrant 6
immun@@ 6
immunology 6
importing 6
ina, 6
inch 6
incoming 6
independence 6
indicates 6
inflammatory 6
influential 6
innocent 6
inpatients 6
inspect 6
inspiration 6
instruments 6
integrate 6
intention 6
interpreter 6
inventory 6
ire 6
iri@@ 6
irrigation 6
ises 6
ishing 6
isla@@ 6
istan. 6
isting 6
it, 6
itable 6
ital 6
itate 6
itis 6
itor 6
ja@@ 6
jacket 6
jar 6
jet 6
jin 6
joke 6
journalist 6
ju@@ 6
ke, 6
kerosene 6
khi, 6
khoác 6
kick 6
kimchi 6
kin 6
kingdom 6
kinh, 6
kiế@@ 6
ky@@ 6
kém, 6
kê, 6
kế, 6
kịch. 6
lake 6
land. 6
landmark 6
lar@@ 6
lasts 6
lau@@ 6
launching 6
learners 6
legislation 6
legislative 6
lem@@ 6
len@@ 6
lesson 6
ley, 6
lia 6
lien 6
lightly 6
limitations 6
lings 6
liễu 6
liệt, 6
lo, 6
loaded 6
logical 6
lover 6
loại. 6
loạn. 6
luận, 6
luồng 6
lánh 6
lâu, 6
lít, 6
líu 6
lúc, 6
lơ 6
lắc 6
lộ. 6
lộ@@ 6
lợi. 6
lục) 6
lữ 6
m.'] 6
macadamia 6
maneuver 6
mat 6
maternal 6
math 6
mats 6
mazut 6
medically 6
meme 6
mer 6
merge 6
metropolises 6
midfielder 6
midst 6
migrant 6
mine 6
minerals 6
ministers 6
missed 6
mistake 6
mixed 6
mode 6
moun@@ 6
museums 6
musicians 6
mùi 6
myco@@ 6
mâu 6
mèo. 6
mìn 6
mí 6
mũi, 6
mơ, 6
mưa. 6
mạ 6
mắ@@ 6
mắt. 6
mỉm 6
mổ 6
mộ. 6
mụ 6
m”, 6
n""." 6
n). 6
nam. 6
nam@@ 6
necessarily 6
neg@@ 6
neglect 6
neutral 6
ngai 6
nger 6
nghiền 6
nghề, 6
nghệ@@ 6
nghị, 6
nging 6
ngạ@@ 6
ngột 6
ngữ. 6
nh.'] 6
nhiệm. 6
nhàng 6
nhân@@ 6
nhó@@ 6
như: 6
nhọn 6
nhức 6
ninh, 6
nitrogen 6
nominees 6
now@@ 6
nowadays 6
nut 6
nutritious 6
này.', 6
nát 6
nã@@ 6
nói@@ 6
nóng. 6
nảy 6
nấm, 6
nắng, 6
nề. 6
nở. 6
nợ. 6
nữ@@ 6
obligation 6
oc 6
occasions 6
occupations 6
oes 6
offensive 6
ograph@@ 6
ography 6
one, 6
oni@@ 6
onia 6
oning 6
opposed 6
opposite 6
ound 6
ounded 6
outbound 6
outer 6
outright 6
outs 6
ova 6
over-@@ 6
overweight 6
owning 6
painful 6
pandem@@ 6
pandemics 6
paralyzed 6
paraquat 6
paste 6
patrol 6
patterns 6
peanuts 6
penalty 6
perceive 6
perfume 6
permanently 6
pers@@ 6
pests 6
phases 6
phi@@ 6
phosph@@ 6
phu@@ 6
phun 6
pilgrims 6
pill 6
pioneer 6
pit@@ 6
plastics 6
pleaded 6
please 6
plenty 6
ples 6
plots 6
poli@@ 6
policeman 6
populated 6
post-Covid-19 6
pound 6
powder 6
pp 6
pr@@ 6
pre-tax 6
predic@@ 6
preferential 6
preferred 6
presidency 6
preteens 6
prey 6
princess 6
proactively 6
promise 6
promotional 6
prompt 6
prompted 6
pron@@ 6
protocols 6
psycho@@ 6
puff@@ 6
pull 6
pulmonary 6
pursue 6
q@@ 6
quantities 6
quyến 6
quá@@ 6
quát 6
racism 6
raging 6
raided 6
random 6
rash 6
react 6
realizing 6
recordings 6
recruit 6
refu@@ 6
regime 6
reinfor@@ 6
relaxed 6
reliance 6
reliant 6
remotely 6
renal 6
rents 6
requirement 6
responsibilities 6
resumption 6
resurgence 6
retired 6
revealing 6
reviewed 6
ri 6
riding 6
rises 6
road@@ 6
robust 6
robusta 6
roi 6
romantic 6
ron@@ 6
rubber 6
rumor 6
runways 6
rup@@ 6
rupiah 6
rush 6
rủi 6
rà 6
rét. 6
s) 6
s-@@ 6
sa. 6
sac@@ 6
sal 6
sam@@ 6
sand 6
sanitation 6
sau: 6
scans 6
scar@@ 6
scrat@@ 6
screaming 6
se, 6
segment 6
seizures 6
select 6
sensors 6
sers 6
sessions 6
sewage 6
shifted 6
shifts 6
shirts 6
shokuiku 6
shoppers 6
shutting 6
similarities 6
sits 6
siz 6
slapped 6
slowing 6
snacks 6
soaring 6
soci@@ 6
sol@@ 6
solo 6
soup 6
spar@@ 6
speculation 6
spicy 6
spiders 6
spl@@ 6
spoken 6
spon@@ 6
spor@@ 6
squ@@ 6
stakeholders 6
stan@@ 6
starring 6
stars 6
stealing 6
sted 6
ster 6
stimul@@ 6
stin@@ 6
stockings 6
store@@ 6
stream@@ 6
strike 6
sued 6
sul@@ 6
sunscreen 6
super 6
supervi@@ 6
supplements 6
supposedly 6
surance 6
surfaces 6
surgeon 6
susceptible 6
suspicious 6
swe@@ 6
swimming 6
sạn. 6
sữa, 6
t), 6
tag 6
tal 6
talent 6
tank 6
tariff 6
te, 6
tel@@ 6
telecom 6
tending 6
territorial 6
than. 6
thao. 6
thay, 6
thetic 6
thirds 6
thiệ@@ 6
thoảng 6
threaten 6
threatens 6
threats 6
threshold 6
throwing 6
thung 6
thùng 6
thuế. 6
thôn. 6
thăm. 6
thận. 6
thật, 6
thị@@ 6
thứ@@ 6
thức@@ 6
tile 6
tina 6
tine 6
tings 6
tis 6
tissues 6
tiết, 6
tom@@ 6
tombs 6
tomorrow 6
ton. 6
tonne 6
toxin 6
toy 6
toà@@ 6
toán. 6
traced 6
traded 6
traditions 6
trafficked 6
traits 6
transaction 6
transfusion 6
trap 6
tray 6
trick 6
trinh 6
triple 6
triệu, 6
trucks 6
truyền. 6
trình. 6
trọng"" 6
trộ@@ 6
trội 6
ture 6
twenty 6
tz 6
tát 6
tâ@@ 6
tình@@ 6
tù, 6
tù. 6
tă@@ 6
tải. 6
tấn. 6
tệ, 6
tệ. 6
tộ@@ 6
tộc. 6
t”. 6
u." 6
u.'] 6
u.” 6
ultimately 6
ums 6
understood 6
uni@@ 6
unidentified 6
union 6
universal 6
unlike 6
unnamed 6
unpaid 6
unrest 6
upgrading 6
ur 6
ures 6
urge 6
urred 6
ủng 6
vagina 6
valuable 6
vascular 6
vely 6
vending 6
ver 6
verification 6
versa 6
ville, 6
virtually 6
visible 6
viết: 6
việc@@ 6
voluntary 6
vomiting 6
voting 6
vào, 6
vóc 6
vả 6
vất 6
vọ@@ 6
vọng. 6
vở 6
vữa 6
w, 6
waking 6
walked 6
waterway 6
we@@ 6
weakening 6
week@@ 6
wells 6
wire 6
womb 6
wonderful 6
wounded 6
x, 6
xa, 6
xa. 6
xing 6
xuống, 6
xá, 6
xáo 6
xát 6
xích 6
xíu 6
y." 6
yearly 6
z, 6
zoo 6
zy 6
Áp 6
à, 6
ài 6
ái. 6
áng, 6
áp, 6
ã. 6
ãi 6
è 6
ích. 6
òi 6
òng 6
ó 6
ô, 6
ôn, 6
ù@@ 6
út, 6
ăng, 6
Điền 6
Điền, 6
Điển. 6
Đoòng 6
Đán 6
Đảo. 6
Định, 6
Đứng 6
đây.” 6
đính 6
đó.” 6
đói, 6
đô@@ 6
đằng 6
định@@ 6
đọc, 6
đốm 6
đờ@@ 6
đủ, 6
ũ 6
ơ, 6
ưa, 6
ượ@@ 6
ượng 6
̀i 6
̀n 6
́i 6
́p 6
̉ 6
ạ, 6
ại 6
ạn, 6
ạng 6
ạo 6
ấ@@ 6
ấc 6
ấu. 6
ấy@@ 6
ầu, 6
ầy 6
ắc, 6
ằm 6
ặ@@ 6
ẹ@@ 6
ẻo 6
ếp 6
ền, 6
ỉ 6
ỉ. 6
ỉnh 6
ọc 6
ỏi 6
ối. 6
ồ@@ 6
ồi. 6
ổ, 6
ộ 6
ộ@@ 6
ợ@@ 6
ứng, 6
ử@@ 6
​​nghị 6
​​trúc 6
“Cô 6
“Không 6
“Mẹ 6
“Vào 6
“Với 6
“chúng 6
”.'] 6
"""Các 5
""Hoa 5
""Những 5
""Nếu 5
""người 5
"Ngày 5
"Sự 5
"Trung 5
"Tuy 5
"Tổ 5
"Tờ 5
"Việt 5
"Vì 5
%), 5
'Bạn 5
'Chính 5
'Có 5
'Mời 5
'N 5
'Nó 5
'Vào 5
'Đó 5
($2@@ 5
(200@@ 5
(7@@ 5
(AQI) 5
(C@@ 5
(DO@@ 5
(USAID@@ 5
(UTC+@@ 5
(W@@ 5
(tức 5
(và 5
(đồng 5
0,000@@ 5
0.3 5
0.8 5
000,000 5
02 5
1"", 5
1,5@@ 5
1,7@@ 5
10-15 5
102 5
107 5
11% 5
115 5
118 5
120.000 5
148 5
175 5
180,000 5
180.000 5
188 5
1885 5
190@@ 5
193 5
1930s 5
1956 5
1957 5
1966 5
1983 5
1990. 5
1:@@ 5
2,3 5
2.200 5
2.7 5
2005. 5
2006, 5
2007. 5
2010, 5
2011-@@ 5
2015-@@ 5
202 5
2024 5
2025. 5
204 5
21% 5
211 5
214 5
222 5
23.@@ 5
238 5
23rd 5
24. 5
24/7 5
246 5
247 5
25/@@ 5
250.000 5
253 5
26.@@ 5
267 5
27,@@ 5
279 5
29.@@ 5
2m 5
3,5@@ 5
30,@@ 5
30-@@ 5
31@@ 5
32,@@ 5
324 5
345 5
346 5
35% 5
352 5
36, 5
36th 5
38,@@ 5
39@@ 5
3C 5
4.5 5
40.000 5
40.@@ 5
42% 5
44,000 5
440 5
44@@ 5
450,000 5
450.000 5
47@@ 5
49% 5
49,@@ 5
49.@@ 5
5%, 5
5,2 5
5,6 5
5.2 5
530 5
54,@@ 5
550,000 5
6). 5
60%. 5
63,@@ 5
65% 5
69,@@ 5
7"" 5
7,400 5
7.5 5
7.7 5
7.8 5
8.5@@ 5
831 5
86,@@ 5
8K 5
90-@@ 5
945 5
96@@ 5
98% 5
99% 5
:45 5
A3@@ 5
ABC, 5
AFP, 5
AIDS, 5
AIDS. 5
AJ@@ 5
AM 5
APT@@ 5
AUD 5
Aarhus 5
Access 5
Additional 5
Addressing 5
Advis@@ 5
Air, 5
Airline 5
Ak@@ 5
Alcohol 5
Algeria 5
Allergy 5
Alphabet 5
Alsace 5
An. 5
Angko 5
Anh). 5
Any@@ 5
Appota 5
Ara@@ 5
Area 5
Arellano 5
Argo 5
Art 5
Ass@@ 5
Atmospheric 5
Austral@@ 5
Australia, 5
Azerbaijan, 5
BV@@ 5
Baha@@ 5
Bailey 5
Bak@@ 5
Bale 5
Bali 5
Barbie 5
Basel 5
Bav@@ 5
Better 5
Bixby 5
Biện 5
Black@@ 5
Bolsonaro 5
Bong 5
Bordeaux 5
Bosnia 5
Bour@@ 5
Bradley 5
Brazil. 5
Brow@@ 5
Browne 5
Brun@@ 5
Buff@@ 5
Burkina 5
Bush 5
Buzyn 5
Buổi 5
Bé 5
Bước 5
C). 5
CB 5
CCR5 5
CFO 5
CL@@ 5
COVID@@ 5
CS@@ 5
Café 5
Cai, 5
Captain 5
Caribbean 5
Cathedral 5
Catherine 5
Cave 5
Cel@@ 5
Champions 5
Chang 5
Chess 5
Chia 5
Chil@@ 5
Chim 5
China's 5
Chronic 5
Chua 5
Chưa 5
Chế 5
Cities 5
Cl@@ 5
Clar@@ 5
Claude 5
Club 5
CoV@@ 5
Colt 5
Columbia, 5
Commenting 5
Commercial 5
Conservation 5
Costa 5
Craft 5
Craig 5
Cri@@ 5
Crime 5
Cruise 5
Cruises 5
Crystal 5
Cơn 5
DB@@ 5
DHSC 5
Da@@ 5
Dak@@ 5
Dakar 5
Day@@ 5
Dec@@ 5
Defence 5
Desert 5
Detection 5
Detroit 5
Diagnosis 5
Direct 5
Districts 5
Diễm 5
Does 5
Domestic 5
Domoff 5
Donetsk 5
Dornogovi 5
Dragon 5
Dre@@ 5
Drugs 5
Drum 5
Duchess 5
Dun@@ 5
Dunedin 5
Dynasty 5
Dươ@@ 5
Dầu 5
ER@@ 5
EUL 5
Ear@@ 5
Ed@@ 5
Edward 5
Eight 5
Emilia 5
Emiratis 5
Enda 5
Ernst 5
Essex, 5
Exclusive 5
Exp@@ 5
Exper@@ 5
Expressway 5
FIF@@ 5
FIRS 5
Feature 5
Fisheries 5
Forbes, 5
Form@@ 5
Fortunately 5
Fr@@ 5
Fre@@ 5
Freedom 5
Fresh 5
Fruit 5
GAP 5
Ga@@ 5
Gap 5
Garrett 5
GeneXpert 5
Genev@@ 5
Gerrard 5
Get 5
Ghosn 5
Gilbert 5
Gim@@ 5
Giá@@ 5
Giảm 5
Giấy 5
Gol@@ 5
Greg 5
Grenadines 5
Grey 5
Guangdong 5
Guinevere 5
Guinness 5
Guo 5
Gò 5
Găng 5
H1N1 5
HBM 5
HD@@ 5
HK@@ 5
HLV 5
Haemophilus 5
Hal@@ 5
Hasbro 5
Haswell 5
Hawaii 5
Heathrow 5
Herald 5
Highway 5
History 5
Hold 5
Hollingsworth 5
Hon 5
House@@ 5
Hoặc 5
Hun@@ 5
Hungary, 5
Hurricane 5
Hô 5
Hộ 5
ICOs 5
IDU 5
IM@@ 5
IO@@ 5
IPPF 5
Images 5
Impact 5
Inclu@@ 5
Indi@@ 5
Indo 5
Indochina 5
Industries 5
Initi@@ 5
Institutes 5
Interior 5
Intermediate 5
Internet@@ 5
Investig@@ 5
Iraq, 5
Irene 5
Islam 5
Islamabad 5
Israel, 5
Israelis 5
Italians 5
Italy, 5
JAMA 5
JL@@ 5
JLL 5
Jamaica 5
Jan@@ 5
Jenna 5
Jerome 5
Jewish 5
Ji@@ 5
Jocelyn 5
Johnny 5
Journal@@ 5
Jr. 5
Juan 5
Junior 5
KARA 5
Kabul. 5
Kaliningrad 5
Ke 5
Keqiang 5
Key@@ 5
Khue 5
Khẩu 5
Kings 5
Kiếm, 5
Kolar 5
Krai. 5
Krasnodar 5
Laboratory 5
Lai, 5
Lak 5
Lam@@ 5
Land@@ 5
Large 5
Lat@@ 5
Late 5
Lau@@ 5
Leah 5
Lebanon, 5
Leger 5
Leia 5
Let 5
Liber@@ 5
Line 5
LinkedIn 5
List 5
Lithuania 5
Litva 5
Living 5
Localities 5
Located 5
London, 5
London. 5
Luc 5
Luc@@ 5
Lyon 5
M-TP 5
MERS-@@ 5
MIT 5
MP 5
MRI 5
MTV 5
Mackey 5
Madrid, 5
Mai@@ 5
Mak@@ 5
Malaria 5
Mall 5
Manaus 5
Mansa 5
Marinakis 5
Mary 5
Master 5
Mat 5
Maur@@ 5
Mauriti@@ 5
McMaster 5
Mecca 5
Med@@ 5
Medic@@ 5
Memorial 5
Men@@ 5
Mexico. 5
Michelle 5
Milan, 5
Millennials 5
Miễn 5
Moc 5
Model 5
Monitoring 5
Moreno 5
Moscow, 5
Mother 5
Movie@@ 5
Ms. 5
Mundt 5
Muong 5
Musunuru 5
Mạch. 5
Mộc 5
Mỹ). 5
NHC 5
NS 5
Nairobi 5
Nam.'] 5
Nav@@ 5
Neelum 5
Nguyễn, 5
Ngãi, 5
Ngược 5
Ngạn 5
Ngọc, 5
Nha@@ 5
Nhi@@ 5
Nhiệm 5
Nho 5
Nhì 5
Nhờ 5
Nigerian 5
Nile 5
Nizamuddin 5
Norepinephrine 5
Norovirus 5
Number 5
Nậm 5
Nỗ 5
ON@@ 5
OS 5
Ohio. 5
Oise, 5
Or 5
Origin@@ 5
Os 5
Out@@ 5
PEP@@ 5
PFS 5
PM2.5 5
PM@@ 5
PMLE 5
Pacific, 5
Palau 5
Pand@@ 5
Paraguay 5
Parks 5
Part@@ 5
Pattaya 5
Pav@@ 5
Pellegrino 5
Permanent 5
Person@@ 5
Pet@@ 5
Petro@@ 5
Pharma 5
Pho 5
Pho@@ 5
Phone 5
Phu, 5
Phung 5
Phục 5
Pizza 5
Plus 5
Pollock 5
Poor 5
Prices 5
Primary 5
Princess, 5
Privacy 5
Pro 5
Prof 5
Proficiency 5
Promotion 5
Provinces 5
Pyongyang 5
Qualcomm 5
Quang, 5
Quat 5
Quy@@ 5
Quyet 5
Quế 5
Quốc.""" 5
RE@@ 5
REQ 5
RES@@ 5
Radio 5
Railways 5
Rap@@ 5
Ras@@ 5
Reagan 5
Relief 5
Repor@@ 5
Report 5
Republika 5
Rescue 5
Resolution 5
Resorts 5
Resp@@ 5
Results 5
Review 5
Rh@@ 5
Ric@@ 5
Robocup 5
Rom@@ 5
Romanian 5
Rum@@ 5
Rumani 5
Rừng 5
S), 5
S20 5
SW@@ 5
Saf@@ 5
Sali@@ 5
Sau@@ 5
Saxony 5
Schengen 5
Scre@@ 5
Second 5
Sector 5
Seex 5
Senate 5
Senator 5
Sep@@ 5
Seung 5
Shandong 5
She@@ 5
Similar 5
Sineenat 5
Singaporean 5
Six@@ 5
Sky@@ 5
Sleep 5
Smart 5
Sokolowski 5
Some@@ 5
South@@ 5
Spa 5
Space 5
Spring 5
Stanley 5
Starbucks, 5
Sto@@ 5
Stop@@ 5
Strategic 5
Student 5
Studio 5
Supreme 5
Surveillance 5
Sw@@ 5
Swaminathan 5
Syn@@ 5
Séné@@ 5
Sương 5
T3 5
TCB 5
TM@@ 5
TS 5
Ta 5
Table 5
Taiwanese 5
Taking 5
Team 5
Teams 5
TechInAsia 5
Ted@@ 5
Teku 5
Telegram 5
Tests 5
Thach 5
Thank 5
Thirteen 5
Thuận. 5
Thuật 5
Thành. 5
Thảm 5
Thức 5
Tonga 5
Torkham 5
Tourist 5
Tourists 5
Trav@@ 5
Tre. 5
Tren@@ 5
Trump's 5
Trung. 5
Tràm 5
Tràng 5
Trắng. 5
Tuy@@ 5
Tuyến 5
Tuyết 5
Twitter, 5
Type 5
Tâ@@ 5
Tâm, 5
Tú, 5
Tăng 5
Tĩnh. 5
Tần 5
Tết, 5
U.K. 5
UL@@ 5
UNDP 5
USC 5
USDA 5
UXO 5
Ukraine. 5
Ulaanbaatar 5
Unfortunately 5
Up@@ 5
VHM 5
VIC 5
VIệt 5
VN50 5
VND200 5
VND4 5
VND5 5
VND7 5
VND7@@ 5
VNPP@@ 5
VR 5
VT 5
VT@@ 5
Vap 5
Ver@@ 5
Vietnam, 5
VietnamPlus. 5
Vil@@ 5
VinFast, 5
Visual 5
Vitina 5
Việ@@ 5
Việt. 5
Vàng 5
Vượng 5
Vượng, 5
War@@ 5
Way@@ 5
Webster 5
Welfare 5
Where 5
Wi@@ 5
Wikipedia 5
Wild@@ 5
Wilkins 5
Wisconsin 5
Withington 5
Witnesses 5
Wo@@ 5
Wom@@ 5
Work@@ 5
World: 5
Wu 5
X. 5
Xô, 5
Yoshimizu 5
YouTube. 5
Yu@@ 5
Yunnan 5
Yến, 5
Zam@@ 5
Zhong 5
['Bệnh 5
['Người 5
['Nhưng 5
[fr] 5
_@@ 5
a). 5
aa 5
abo@@ 5
abs 5
absolutely 5
abusing 5
abusive 5
ac, 5
accel@@ 5
accelerate 5
acceptable 5
accurately 5
ace@@ 5
acking 5
aco@@ 5
acquaintances 5
acquiring 5
acres 5
activist 5
adapted 5
addic@@ 5
additions 5
adjusted 5
admission 5
adopting 5
advantageous 5
advisor 5
advisory 5
affirm 5
afterwards 5
agers 5
aggregator 5
aides 5
ail@@ 5
aim@@ 5
aka 5
alerts 5
ali 5
alities 5
alizing 5
allergic 5
alleys 5
alter@@ 5
ambi@@ 5
ambition 5
amine 5
aming 5
amiăng 5
amniotic 5
amongst 5
amp@@ 5
ancestral 5
ancy 5
ander 5
ands 5
angry 5
anh.', 5
animated 5
anned 5
antigens 5
anz@@ 5
apologized 5
apology 5
apparent 5
apparently 5
appealed 5
applicants 5
approaches 5
architectural 5
argument 5
aria. 5
array 5
as. 5
asp@@ 5
aspirin 5
associations 5
at. 5
ata 5
atas 5
ate, 5
ate. 5
ateur 5
atherosclerosis 5
atmospheric 5
atories 5
attempted 5
atten@@ 5
attendance 5
attendees 5
attitude 5
attorney 5
attracts 5
aunt 5
authentication 5
autom@@ 5
automated 5
automobile 5
aven@@ 5
avoided 5
awarded 5
ax@@ 5
aying 5
backing 5
baked 5
bal 5
balanced 5
balcony 5
ballad 5
balls 5
band 5
band@@ 5
bare 5
basketball 5
baskets 5
batt@@ 5
bb@@ 5
beep 5
behave 5
bel 5
belong 5
beneficial 5
berry 5
bers 5
bes 5
beta 5
bike 5
bikes 5
birthmarks 5
births 5
bitten 5
biể@@ 5
ble@@ 5
blind 5
block@@ 5
bo 5
boards 5
boasts 5
bong 5
boom 5
bordering 5
boss 5
botulism 5
boycott 5
branded 5
breast 5
breastfeeding 5
brewer 5
bridges 5
broadcaster 5
bron@@ 5
brushing 5
bug 5
bugs 5
buil@@ 5
bull 5
bus@@ 5
bustling 5
buys 5
buộc, 5
buộc. 5
byproducts 5
báo: 5
bình@@ 5
bó 5
bó@@ 5
bôi 5
bùn 5
bú 5
bút 5
băng. 5
bướm 5
bả@@ 5
bẩm 5
bắt, 5
bằng, 5
bế 5
bệnh." 5
bộ@@ 5
bội 5
bụng, 5
c"" 5
c) 5
c; 5
cac@@ 5
calculate 5
cancelling 5
candles 5
capit@@ 5
careers 5
caring 5
catering 5
celebrating 5
centered 5
characteristic 5
chat 5
cheap 5
checkers 5
cheese 5
chers 5
chili 5
chimney 5
choking 5
chol@@ 5
chuyền 5
chuột, 5
chạ@@ 5
chảo 5
chất. 5
chặ@@ 5
chỉ@@ 5
chọn. 5
chỗ. 5
chộp 5
chợt 5
circum@@ 5
cit@@ 5
cks 5
cla@@ 5
classification 5
clean@@ 5
cleaned 5
clinics 5
clock 5
clocks 5
coccal 5
collaborate 5
collap@@ 5
collar 5
colo@@ 5
combine 5
combining 5
comfortable 5
commander 5
commented 5
commerce 5
complaints 5
compliance 5
component 5
composed 5
comprising 5
computing 5
conc@@ 5
concerning 5
conclude 5
conclusion 5
condom 5
confused 5
consent 5
consisting 5
consultancy 5
consumes 5
contamination 5
continent 5
contraction 5
controversy 5
convenient 5
convention 5
convic@@ 5
convince 5
coordinate 5
copy 5
copyright 5
corner 5
corporation 5
corridor 5
corruption 5
costing 5
cottonseed 5
cour@@ 5
courage 5
coverage 5
cram@@ 5
cried 5
cro@@ 5
crowned 5
cruises 5
curbing 5
cuối, 5
cy 5
cytokine, 5
cách, 5
cách. 5
cách@@ 5
cô@@ 5
cùng. 5
cũ, 5
cưng 5
cưỡng 5
cảng. 5
cậu. 5
cọ 5
cộ@@ 5
củ@@ 5
cự 5
dam 5
das 5
dd@@ 5
de-@@ 5
dealt 5
deb@@ 5
deck 5
declaring 5
decorate 5
decorations 5
defeated 5
defend 5
deficit 5
dehydration 5
delaying 5
delays 5
deli@@ 5
demonstrate 5
densely 5
denti@@ 5
dependent 5
deployment 5
depressed 5
depth 5
des@@ 5
describe 5
devi@@ 5
dian 5
diff@@ 5
digestive 5
digging 5
digit 5
diplomats 5
dipping 5
directing 5
disappear 5
disappears 5
disclosing 5
disinfectants 5
disinfected 5
display 5
displayed 5
disposable 5
disposal 5
dium 5
div@@ 5
diversi@@ 5
diversity 5
divide 5
diện, 5
diện. 5
dly 5
documentary 5
documented 5
donations 5
dou@@ 5
doub@@ 5
dow 5
downloaded 5
draft 5
dramatic 5
drawing 5
droplets 5
dual 5
duc@@ 5
dump 5
dur@@ 5
duyên 5
dàn 5
dàng. 5
dãy 5
dé@@ 5
dưỡng. 5
dẫn. 5
dẳng 5
dịu 5
dồn 5
dự@@ 5
eal 5
eal@@ 5
earns 5
eas@@ 5
ech@@ 5
eco@@ 5
ecological 5
economically 5
ective 5
editors 5
educators 5
efficiently 5
elder 5
ele 5
electron 5
elements 5
eleventh 5
eliminate 5
emakers 5
emerge 5
emp@@ 5
employ 5
ems 5
enacted 5
ences 5
encompass 5
endor@@ 5
enemy 5
enormous 5
enroll 5
enthusiastic 5
environments 5
enzyme 5
ep 5
epidemics 5
eption 5
equality 5
eration 5
eries 5
ero@@ 5
error 5
ert 5
escaping 5
essed 5
ession 5
estation 5
ester 5
ester@@ 5
estrogen 5
ests 5
estyle 5
et, 5
etary 5
eties 5
evaluate 5
ew@@ 5
ex-@@ 5
exam@@ 5
examinations 5
exceeds 5
exceptional 5
exceptions 5
excessive 5
exciting 5
executives 5
exemp@@ 5
exercising 5
exhibition 5
exists 5
exit 5
expectation 5
expectations 5
expecting 5
expelled 5
experimenting 5
explosives 5
expressing 5
extensions 5
external 5
ez@@ 5
f. 5
fairly 5
falsely 5
fantasy 5
fas@@ 5
fat@@ 5
fearing 5
featuring 5
fed 5
fem@@ 5
females 5
ffs 5
fibers 5
fic@@ 5
fication 5
fies 5
finger@@ 5
flavor 5
flavors 5
fleas 5
flexible 5
floodwaters 5
flow@@ 5
forecasting 5
format 5
forming 5
fortnight 5
fraudulent 5
fresh@@ 5
fridge 5
frigh@@ 5
fro@@ 5
frozen 5
fru@@ 5
funeral 5
futures 5
gall@@ 5
garbage 5
gardens 5
gem 5
gems 5
gence 5
genic 5
genome 5
ghost 5
ght@@ 5
gia." 5
già, 5
già@@ 5
giàn 5
giá. 5
glu@@ 5
gol@@ 5
gon 5
gotten 5
govern@@ 5
governors 5
grabbed 5
graffiti 5
grand 5
grand@@ 5
grandmother 5
grandparents 5
granting 5
gratitude 5
grave 5
gre@@ 5
groceries 5
grounds 5
guy 5
gá@@ 5
gái, 5
gạo, 5
gấu 5
gần, 5
gặ@@ 5
gọ@@ 5
hacker 5
hacking 5
hailed 5
hails 5
halting 5
handful 5
harvested 5
hashtag 5
hat@@ 5
healing 5
heating 5
hed 5
hen 5
heroin 5
hiatus 5
hide 5
highlands 5
highlights 5
hing 5
hoi 5
holders 5
hood 5
hospitality 5
hoài 5
hoãn, 5
hoãn. 5
hoóc-môn 5
hoạ@@ 5
hut 5
hydr@@ 5
hypo@@ 5
hãi. 5
hóa@@ 5
hăng 5
hơi, 5
hướ@@ 5
hưởng, 5
hậ@@ 5
hẹ@@ 5
hết, 5
hệ. 5
họ.” 5
i-@@ 5
iPrice 5
iQiyi 5
ian@@ 5
ib@@ 5
ic. 5
icky 5
identical 5
idi@@ 5
ids 5
ign@@ 5
ility 5
illa 5
ills 5
imp@@ 5
importer 5
in) 5
inability 5
incense 5
inches 5
incredible 5
incredibly 5
incubation 5
indeed 5
indirect 5
induced 5
industri@@ 5
ine@@ 5
ingredient 5
inh@@ 5
ining 5
ink 5
inner 5
inspired 5
installation 5
instantly 5
instituted 5
insufficient 5
int@@ 5
intelligent 5
inten@@ 5
intoxication 5
invited 5
iors 5
iously 5
ir 5
is-@@ 5
is. 5
isation 5
isted 5
ita 5
iting 5
itted 5
itting 5
iện, 5
jack@@ 5
janitor 5
je@@ 5
jets 5
joins 5
joy 5
kar@@ 5
keting 5
kg, 5
khiếu 5
khoai 5
khoang 5
khoe 5
khuynh 5
khuẩn, 5
khâu 5
khỏa 5
khỏi. 5
khứ. 5
kicked 5
kid 5
kin@@ 5
ko@@ 5
kép 5
kính. 5
lan@@ 5
landscapes 5
lator 5
laundering 5
lawful 5
laying 5
league 5
lecturer 5
lend 5
lesbian 5
lighting 5
lime 5
lin 5
lions 5
liqu@@ 5
litchi 5
loans 5
lob@@ 5
locating 5
log@@ 5
logic 5
logistics 5
lor@@ 5
lottery 5
loud 5
lovers 5
lucrative 5
lunch 5
lure 5
luật, 5
luật. 5
lying 5
lá. 5
lâ@@ 5
lét 5
lú@@ 5
lúc. 5
lũy 5
lưu. 5
lấn. 5
lật 5
lẻ, 5
lề 5
lễ, 5
lệ, 5
lệch. 5
lọ 5
lờ 5
lợi, 5
lợn. 5
lửa, 5
m), 5
m.” 5
maggots 5
maintains 5
mak@@ 5
malicious 5
malware 5
man, 5
manages 5
mang@@ 5
manpower 5
manual 5
manufacture 5
marrying 5
massage, 5
matching 5
mature 5
me, 5
meanwhile 5
medals 5
memor@@ 5
mentally 5
merger 5
mes 5
meth@@ 5
mile 5
minds 5
mined 5
minimizing 5
mining 5
minorities 5
missile 5
missions 5
mitigating 5
mitting 5
moderni@@ 5
monetary 5
moon@@ 5
moonshot 5
mort@@ 5
mortuary 5
motiv@@ 5
motivation 5
mp 5
mua. 5
mucosal 5
mud 5
multinational 5
mushrooms 5
mà@@ 5
mãi. 5
mình: 5
móng 5
mẹ. 5
mỏ@@ 5
mộc 5
mỡ 5
nar@@ 5
nate 5
nausea 5
nd 5
nec@@ 5
needing 5
negoti@@ 5
neighb@@ 5
neighborhoods 5
neither 5
nes@@ 5
neutral@@ 5
newest 5
ney 5
ng- 5
ng\xa0@@ 5
nghi@@ 5
nghèo. 5
ngoặt 5
nguy@@ 5
nguyện. 5
nguyệt 5
người: 5
ngắn, 5
ngọt. 5
ngứa 5
nh"" 5
nh.', 5
nhiếp 5
nhiễm@@ 5
nhiệm, 5
nhiệt, 5
nhì 5
như, 5
như@@ 5
nhưng, 5
nhấc 5
nhỏ@@ 5
nhớ@@ 5
nie 5
nightmare 5
nitr@@ 5
nonessential 5
noodle 5
noon 5
notably 5
notify 5
notorious 5
nutritional 5
ny 5
này"", 5
não, 5
nạo 5
nấ@@ 5
nắng. 5
nặng. 5
nồi 5
nổ@@ 5
nộ 5
obese 5
obtaining 5
occupied 5
off@@ 5
offenders 5
offspring 5
ola 5
ome@@ 5
oming 5
on-@@ 5
ona 5
ona. 5
ona@@ 5
onboard 5
onic 5
onna@@ 5
onward 5
onwards 5
opt 5
opted 5
or. 5
ores 5
orientation 5
origins 5
orm 5
oro@@ 5
ort 5
oun@@ 5
outcome 5
outcomes 5
outlying 5
outpatients 5
owing 5
p.” 5
pace 5
pages 5
pain@@ 5
painted 5
paintings 5
pan@@ 5
paras@@ 5
passbook 5
passwords 5
patch 5
patent 5
paths 5
pe 5
pen 5
penetr@@ 5
perceived 5
perspective 5
phao 5
pharmac@@ 5
phil@@ 5
philosoph@@ 5
phiêu 5
photograph@@ 5
phủ 5
physi@@ 5
physics 5
pháo 5
phình 5
phươ@@ 5
phả@@ 5
phần, 5
phẩ@@ 5
phẫn 5
phụ, 5
phụ@@ 5
phủ@@ 5
pipe 5
pirated 5
planners 5
planted 5
plex 5
plot 5
poachers 5
policemen 5
poll 5
pollu@@ 5
pollutants 5
populous 5
portrait 5
posit@@ 5
postpone 5
pot@@ 5
pou@@ 5
pow@@ 5
prayers 5
presentation 5
presenting 5
preserve 5
pressed 5
prevailing 5
prevalence 5
priest 5
principal 5
principles 5
prisoners 5
procurement 5
productions 5
prone 5
proposals 5
prov@@ 5
proving 5
publici@@ 5
pump@@ 5
punish 5
pupils 5
purifiers 5
pursuing 5
p” 5
qualifying 5
queen 5
questi@@ 5
queue 5
quy@@ 5
quân, 5
quấy 5
quận, 5
quật 5
quỳ 5
quỷ 5
races 5
racial 5
radar 5
radi@@ 5
raises 5
rankings 5
reaches 5
reactor 5
recruited 5
recurring 5
recycle 5
refinery 5
reflected 5
reflects 5
reform 5
reforms 5
refugee 5
refusing 5
regarded 5
regret 5
rement 5
removes 5
renewed 5
rental 5
repatriate 5
repeat 5
replied 5
rescued 5
resilient 5
resolution 5
resolved 5
restore 5
reviews 5
richter 5
ried 5
ries 5
ritonavir 5
ritual 5
rituals 5
riêng, 5
roaches 5
ron 5
roof 5
rors 5
rough 5
rounds 5
rub@@ 5
rút 5
rác. 5
ráp 5
rãi. 5
rét, 5
rò 5
rõ. 5
rạ 5
rằ@@ 5
rể 5
rồi. 5
rồng 5
rỡ 5
s: 5
sailors 5
sao, 5
savings 5
scales 5
scam@@ 5
scams 5
scared 5
scen@@ 5
scoo@@ 5
screens 5
scri@@ 5
scrutiny 5
seas 5
seats 5
segments 5
selection 5
sely 5
sends 5
separating 5
sequence 5
ser 5
serotype 5
serotypes 5
sexy 5
shall 5
shaped 5
shelters 5
shi 5
shirt 5
shoo@@ 5
shooting 5
shor@@ 5
shouting 5
showers 5
shrink 5
sidelines 5
signals 5
silence 5
