, 48227
. 39197
the 23797
to 12906
of 12491
" 12268
and 12042
và 11123
in 10213
a 8641
của 8052
các 7520
đã 7443
được 6224
- 6077
một 5892
trong 5341
người 5146
cho 5042
là 4911
for 4209
có 4187
on 4128
' 4011
The 3880
với 3845
ở 3807
is 3726
này 3620
vào 3614
that 3607
đến 3411
những 3372
( 3334
) 3330
tháng 3294
ngày 3111
từ 3040
with 3040
tại 3026
from 2969
năm 2842
để 2821
khi 2731
Việt_Nam 2605
không 2587
was 2580
as 2525
at 2476
“ 2315
về 2314
” 2308
sẽ 2271
are 2245
have 2211
by 2210
has 2201
’s 2195
bị 2069
Vietnam 2050
biết 1936
be 1933
ra 1903
said 1895
rằng 1861
trên 1855
it 1825
an 1815
có_thể 1793
đó 1776
họ 1684
3 1671
đang 1631
hơn 1629
19 1563
or 1530
thứ 1518
sau 1478
sự 1470
were 1458
việc 1452
nhiều 1384
had 1372
khác 1336
year 1320
cũng 1318
not 1306
people 1290
been 1278
như 1256
will 1241
2 1236
trường_hợp 1211
their 1210
coronavirus 1188
Trung_Quốc 1187
: 1179
who 1167
its 1152
phải 1126
do 1123
hai 1119
Các 1117
also 1116
's 1091
2020 1085
mới 1073
March 1054
ông 1053
b@@ 1048
lại 1046
1 1039
more 1027
this 1020
virus 1020
trước 1009
nhất 1006
hoặc 999
nước 991
they 983
Covid 946
Vào 945
can 945
first 934
Covid-19 921
theo 919
cases 915
[ 914
which 910
On 909
s@@ 900
mình 898
số 890
] 889
quốc_gia 889
In 882
d@@ 875
t@@ 871
T@@ 869
10 866
S@@ 865
nhà 864
China 860
all 850
tuổi 850
two 849
one 839
mà 832
after 830
other 827
làm 823
sử_dụng 823
he 822
4 821
B@@ 816
but 812
nhiễm 802
lên 798
cuộc 793
thành_phố 787
đi 784
than 780
l@@ 779
his 778
nhưng 777
country 775
C@@ 756
M@@ 756
new 754
bạn 748
H@@ 747
so 747
xác_nhận 745
đưa 742
Bộ 741
m@@ 739
triệu 736
tỉnh 735
Vietnamese 731
her 724
L@@ 722
đầu_tiên 720
lớn 719
Anh 714
thấy 714
5 712
million 709
bởi 708
confirmed 706
bệnh 705
công_ty 704
chỉ 700
c@@ 699
vì 696
A 690
bao_gồm 683
7 682
_@@ 681
cô 681
up 675
cao 664
n@@ 663
would 662
over 656
re@@ 656
about 653
you 650
nói 643
hàng 636
tăng 634
ch@@ 628
con 628
nó 627
I 625
tới 625
6 624
Trong 622
bệnh_nhân 621
còn 621
– 619
Ông 616
ca 614
cả 608
t 608
Một 606
o 605
$ 604
time 599
in@@ 597
Hoa_Kỳ 595
qua 595
k@@ 594
8 593
th@@ 590
ba 586
giảm 582
percent 579
cách 578
3@@ 576
v@@ 575
N@@ 574
gần 573
Hà_Nội 568
It 567
e 567
anh 566
15 564
du_lịch 564
health 564
một_số 562
old 559
r@@ 559
she 559
Theo 558
h@@ 550
bằng 548
báo_cáo 546
nào 546
i 543
vẫn 541
K@@ 540
cách_ly 540
Hanoi 539
y 539
tất_cả 538
20 534
cùng 534
ing 531
đây 530
gây 529
; 528
He 526
nơi 525
some 520
case 518
loại 518
s 518
V@@ 517
rất 517
y_tế 517
14 515
g@@ 515
them 515
many 512
countries 511
thế_giới 510
khu_vực 509
-@@ 508
D@@ 508
into 508
Mỹ 506
when 505
12 504
9 504
P@@ 504
day 504
reported 503
hoạt_động 502
U. 500
un@@ 500
bay 499
years 499
khoảng 497
30 495
nghiên_cứu 494
including 490
4@@ 489
es 489
Chinese 488
lần 485
đầu 484
đồng 483
R@@ 481
Health 480
G@@ 478
phát_triển 478
out 475
chuyến 474
đối_với 474
A@@ 472
p@@ 469
could 465
three 465
last 464
nay 464
government 463
ng@@ 463
ation 460
being 460
tr@@ 456
2019 454
thêm 454
number 453
only 453
world 449
e@@ 444
COVID-19 438
days 438
yêu_cầu 438
m 437
there 435
địa_phương 435
Y_tế 434
er 434
hôm 434
bắt_đầu 433
tuần 433
y@@ 432
Th@@ 431
city 429
o@@ 428
phụ_nữ 426
mọi 425
E@@ 423
liên_quan 423
% 422
tôi 421
sức_khoẻ 420
thực_hiện 418
en@@ 417
COVID 416
no 415
F@@ 411
most 409
such 408
thì 407
11 406
tổ_chức 404
tỷ 404
u 404
home 402
February 400
Hospital 399
S. 399
pandemic 397
Những 396
ting 394
đại_dịch 394
while 393
xét_nghiệm 393
điều_trị 393
ate 392
mỗi 392
al@@ 391
Ministry 390
This 389
like 389
since 384
Hai 383
tin 383
tuyên_bố 383
làm_việc 382
District 380
ers 380
tiền 380
2@@ 379
5@@ 378
use 378
chính_phủ 377
company 375
thời_gian 374
đ@@ 374
nhân_viên 373
South 372
học 372
bệnh_viện 371
patients 371
Bệnh_viện 370
if 370
er@@ 369
ed 368
hay 365
16 364
before 364
man 364
ta 364
high 363
phía 363
25 361
trở 361
according 359
al 359
announced 358
cần 358
kể 357
nhận 357
ảnh_hưởng 354
well 353
ph@@ 352
Ch@@ 351
positive 350
điều 350
we 349
dis@@ 348
disease 348
chúng 346
giữa 346
may 346
around 345
i@@ 345
nước_ngoài 345
sống 344
Nam 343
chết 343
f@@ 343
nên 343
w@@ 341
tested 339
under 339
Nguyen 337
li@@ 337
nhau 337
those 337
đều 337
gì 336
n 336
between 335
public 335
used 335
tạo 334
đàn_ông 334
p 333
ăn 332
an@@ 331
sản_xuất 330
x@@ 330
/ 329
local 329
these 329
mức 328
quốc_tế 328
United 327
đô_la 327
17 326
Đ@@ 325
@@ 324
giờ 324
khỏi 324
They 322
u@@ 322
giúp 321
thường 320
a_@@ 319
She 318
now 318
nếu 318
work 318
tử_vong 316
where 316
6@@ 315
J@@ 315
13 313
patient 313
24 312
it@@ 312
on@@ 312
am@@ 311
trường 311
22 310
cung_cấp 310
because 309
en 309
City 308
biện_pháp 308
found 308
gia_đình 307
quarantine 307
trẻ 307
vấn_đề 307
ar@@ 306
children 306
18 302
23 301
April 301
kiểm_soát 301
ti@@ 301
xã_hội 301
HCMC 299
vụ 299
ated 297
nh@@ 297
mang 296
nhóm 296
phát_hiện 296
I@@ 295
bộ 295
chia_sẻ 294
a@@ 292
dương_tính 292
giá 292
tìm 292
vaccine 292
50 291
HCM 291
able 290
chưa 290
four 290
O@@ 289
medical 288
phần 288
hospital 287
same 287
W@@ 286
take 286
điểm 285
chống 284
dịch_vụ 284
khách 284
as@@ 283
lo@@ 283
tốt 283
authorities 282
el@@ 282
through 282
billion 281
của 280
made 280
thông_tin 280
27 279
Tuy_nhiên 279
n_@@ 279
sang 279
woman 279
cuối 278
thuốc 278
7@@ 277
make 277
vùng 277
kiểm_tra 276
during 275
January 274
province 274
kế_hoạch 273
chiếc 272
26 271
cấm 271
dùng 271
total 270
ts 270
đường 270
any 269
bán 269
19@@ 268
As 267
khiến 267
thuộc 267
Sau 266
due 266
mua 266
Hàn_Quốc 265
xảy 265
But 264
Facebook 264
ai 264
ha@@ 264
tiếng 264
told 264
đóng_cửa 264
ating 263
’ 263
1@@ 262
Nhưng 262
Nhật_Bản 262
help 262
infection 262
outbreak 262
trở_thành 262
2018 261
According 261
spread 261
National 260
just 260
against 259
ngoài 259
dịch 258
miền 258
social 258
your 258
air 257
based 257
es@@ 257
thử_nghiệm 257
Đà_Nẵng 257
28 256
still 256
ted 256
21 254
month 254
ng_@@ 254
quyết_định 254
Họ 253
areas 253
gọi 253
quan_trọng 253
ấy 253
Trump 252
j@@ 252
market 252
or@@ 252
USD 251
down 251
không_thể 251
school 251
độ 251
Province 250
hiện 250
y_@@ 250
9@@ 248
chúng_ta 248
corona 248
is@@ 248
k 248
tên 248
100 247
chính 246
ol@@ 246
st@@ 246
cộng_đồng 245
khả_năng 245
đặc_biệt 245
bên 244
8@@ 243
bà 243
family 243
says 243
trung_tâm 243
công_bố 242
each 242
kh@@ 242
thông_báo 242
C 241
di@@ 241
sáng 241
thị_trường 241
tàu 241
ad@@ 240
students 240
TP 239
dịch_bệnh 239
hỗ_trợ 239
infected 239
second 238
ro@@ 237
five 236
information 236
international 236
kết_quả 236
land 236
several 236
both 235
age 234
chuyên_gia 233
kinh_tế 233
cái 232
vi@@ 232
hệ_thống 231
qu@@ 231
travel 231
per 230
should 230
However 229
chuyển 229
gi@@ 229
national 229
sản_phẩm 229
Minister 228
Người 228
our 228
triệu_chứng 228
what 228
? 227
phòng 227
co@@ 226
get 226
tiếp_xúc 226
off 225
xuống 225
Bệnh_nhân 224
bé 224
contact 224
công_dân 224
de@@ 224
food 224
i_@@ 224
tiếp_tục 224
mất 223
States 222
Tr@@ 222
even 222
months 222
back 221
bác_sĩ 221
t_@@ 221
University 220
con@@ 220
em 220
z@@ 220
Năm 219
Thanh 219
hãng 219
Khi 218
X@@ 217
bùng_phát 217
nguồn 217
ri@@ 217
then 217
until 217
vắc-xin 217
Quang 216
ations 216
cơ_quan 215
muốn 215
police 215
cơ_sở 214
cấp 214
ine 214
tham_gia 214
New 213
dưới 213
study 213
Korea 212
thay_đổi 212
way 212
40 211
e_@@ 211
ent 211
quyền 211
An 210
U@@ 210
cho_phép 210
người_dân 210
xác_định 210
Đại_học 210
31 209
at@@ 209
bài 209
il@@ 209
to@@ 209
Trung_tâm 208
sinh 208
top 208
treatment 208
Iran 207
chính_quyền 207
group 207
measures 207
person 207
risk 207
women 207
2016 206
Ba 206
khu 206
trẻ_em 206
week 206
Việt 205
did 205
next 205
ngành 205
năm_ngoái 205
part 205
called 204
m_@@ 204
report 204
set 204
tình_trạng 204
2017 203
WHO 203
biển 203
chúng_tôi 203
d 203
hạn_chế 203
ab@@ 202
công_nghệ 202
flight 202
thành 202
Tư 201
nhiễm_bệnh 201
online 201
using 201
Minh 200
central 200
bảo_vệ 199
cửa_hàng 199
đạt 199
29 198
Malaysia 198
long 198
nữa 198
video 198
ac@@ 197
media 197
Department 196
June 196
Tại 196
ban 196
bốn 196
c 196
em@@ 196
kỳ 196
o_@@ 196
tổng_số 196
us 196
very 196
workers 196
xây_dựng 196
huyện 195
place 195
red 195
gửi 194
l 194
trở_lại 194
without 194
đất 194
am 193
ant 192
hành_khách 192
ly 192
me 192
tion 192
toàn_cầu 192
từng 192
đất_nước 192
AI 191
Cô 191
Công_ty 191
Nga 191
Tôi 191
an_toàn 191
giữ 191
gái 191
quản_lý 191
quận 191
water 191
Japan 190
ag@@ 190
death 190
him 190
nhỏ 190
trực_tuyến 190
đặt 190
Chính_phủ 189
International 189
\ 189
doanh_nghiệp 189
ex@@ 189
Italy 188
among 188
control 188
mắc 188
state 188
system 188
18@@ 187
Da 187
US 187
báo 187
foreign 187
đứng 187
chương_trình 186
life 186
nguy_cơ 186
sân_bay 186
Thủ_tướng 185
later 185
lệnh 184
pro@@ 184
— 184
Bà 183
ds 183
ngăn_chặn 183
om@@ 183
Điều 183
If 182
Thái_Lan 182
end 182
ho@@ 182
major 182
research 182
thấp 182
July 181
mối 181
nhằm 181
VND@@ 180
body 180
data 180
dẫn 180
học_sinh 180
infections 180
ir@@ 180
mạng 180
working 180
xe 180
May 179
Philippines 179
cá_nhân 179
gặp 179
lây_nhiễm 179
services 179
ter 179
test 179
Pháp 178
known 178
lượng 178
my 178
say 178
trận 178
1,@@ 177
cảnh_sát 177
dự_kiến 177
ru@@ 177
tự 177
Sáu 176
Trung 176
become 176
Đức 176
Wuhan 175
ang 175
came 175
deaths 175
quan_chức 175
Ph@@ 174
added 174
director 174
flights 174
h 174
returned 174
th 174
viên 174
xuất_hiện 174
Ý 174
ch 173
không_khí 173
lây_lan 173
theo_dõi 173
200 172
Google 172
HIV 172
Nếu 172
Singapore 172
be@@ 172
face 172
khẩu_trang 172
lúc 172
symptoms 172
vòng 172
World 171
thông_qua 171
ur@@ 171
ve 171
500 170
August 170
Vũ_Hán 170
We 170
máy_bay 170
toàn 170
Hồ_Chí_Minh 169
công_việc 169
máy 169
sp@@ 169
vị_trí 169
et@@ 168
how 168
hàng_không 168
số_lượng 168
caused 167
xuất_khẩu 167
2,@@ 166
another 166
come 166
công_cộng 166
diễn 166
early 166
lời 166
products 166
taken 166
thành_viên 166
xem 166
điều_tra 166
đầu_tư 166
Binh 165
TikTok 165
ng 165
For 164
companies 164
ded 164
go 164
sự_kiện 164
chăm_sóc 163
led 163
n’t 163
order 163
si@@ 163
Đây 163
Al@@ 162
Nang 162
cu@@ 162
passengers 162
pe@@ 162
Kh@@ 161
an_@@ 161
bắc 161
care 161
include 161
northern 161
support 161
dựa 160
ghi_nhận 160
nhà_@@ 160
nằm 160
rice 160
team 160
After 159
Friday 159
Hong 159
Mar@@ 159
Qu@@ 159
VND 159
ic 159
1.@@ 158
Son 158
Thailand 158
community 158
dành 158
ứng_dụng 158
60 157
close 157
least 157
much 157
quá 157
thiết_bị 157
đủ 157
expected 156
môi_trường 156
mùa 156
quarantined 156
asked 155
ding 155
mạnh 155
mẫu 155
po@@ 155
At 154
Z@@ 154
area 154
business 154
ic@@ 154
ministry 154
need 154
nhà_nghiên_cứu 154
six 154
tránh 154
điện 154
70 153
dự_án 153
nam 153
Asia 152
Monday 152
bỏ 152
human 152
masks 152
thăm 152
tấn 152
Indonesia 151
developed 151
region 151
ô_nhiễm 151
Ngày 150
de 150
following 150
ous 150
pl@@ 150
se 150
ty 150
Airlines 149
Ha 149
citizens 149
et 149
ia 149
quan_hệ 149
tính 149
across 148
every 148
hàng_đầu 148
n't 148
Hoa 147
bất_kỳ 147
con_người 147
global 147
low 147
lấy 147
officials 147
others 147
phim 147
sa@@ 147
schools 147
sh@@ 147
thở 147
tập_trung 147
đảm_bảo 147
10@@ 146
Ng@@ 146
There 146
money 146
must 146
per@@ 146
technology 146
tìm_kiếm 146
u_@@ 146
One 145
als 145
b 145
hiệu_quả 145
less 145
making 145
sent 145
sinh_viên 145
times 145
Gi@@ 144
Y@@ 144
closed 144
ong 144
so@@ 144
thực_phẩm 144
Một_số 143
good 143
members 143
nâng 143
ou@@ 143
Nguyễn_@@ 142
bu@@ 142
capital 142
cảnh_báo 142
head 142
men 142
món 142
nổi_tiếng 142
nữ 142
own 142
phổi 142
tỷ_lệ 142
Wednesday 141
est 141
largest 141
mở 141
nhà_khoa_học 141
prevent 141
put 141
truyền_thông 141
us@@ 141
án 141
Ho@@ 140
chất 140
cần_thiết 140
far 140
morning 140
see 140
trường_học 140
does 139
im@@ 139
late 139
pre@@ 139
recent 139
15@@ 138
Li@@ 138
Long 138
T 138
Van 138
giai_đoạn 138
họp 138
nặng 138
over@@ 138
related 138
sớm 138
vài 138
ít 138
Mo@@ 137
President 137
châu_Âu 137
development 137
ngay 137
night 137
no@@ 137
phép 137
show 137
tay 137
testing 137
tions 137
đông 137
đứa 137
Chi 136
In@@ 136
cơ_thể 136
hoá 136
results 136
trở_nên 136
ít_nhất 136
Internet 135
few 135
list 135
novel 135
ob@@ 135
third 135
These 134
ar 134
chuẩn_bị 134
công 134
dài 134
hit 134
hoàn_toàn 134
large 134
nghĩ 134
official 134
past 134
ul@@ 134
2015 133
Bắc 133
Ho 133
Many 133
mẹ 133
production 133
trả 133
Đông 133
điện_thoại 133
động 133
Sunday 132
When 132
experts 132
le@@ 132
quy_định 132
users 132
Australia 131
Some 131
Thành_phố 131
ary 131
chịu 131
danh_sách 131
died 131
hours 131
increase 131
khẩn_cấp 131
nhu_cầu 131
weeks 131
300 130
Tuesday 130
cities 130
cây 130
dữ_liệu 130
half 130
khó_khăn 130
nghỉ 130
phổ_biến 130
seven 130
ảnh 130
Center 129
Dong 129
having 129
ity 129
kinh_doanh 129
news 129
returning 129
son 129
áp_dụng 129
Ấn_Độ 129
important 128
nghiêm_trọng 128
plans 128
provinces 128
ter@@ 128
thời_điểm 128
trải 128
xa 128
S 127
ago 127
ally 127
da 127
khách_hàng 127
kêu_gọi 127
nhà_máy 127
quay 127
x 127
đánh_giá 127
France 126
Patient 126
Việc 126
ap@@ 126
el 126
hành_động 126
loài 126
nghìn 126
phản_ứng 126
tourists 126
um 126
uống 126
đáng 126
động_vật 126
Kong 125
Nh@@ 125
biên_giới 125
border 125
cơn 125
hỏi 125
la@@ 125
lao_động 125
lu@@ 125
nhanh 125
stay 125
tối 125
​​@@ 125
2.@@ 124
Ar@@ 124
People 124
Quốc_gia 124
ans 124
rừng 124
showed 124
young 124
36 123
American 123
Korean 123
Sea 123
Viện 123
ang@@ 123
change 123
kéo_dài 123
miễn_dịch 123
ni@@ 123
right 123
rời 123
! 122
0@@ 122
Ninh 122
SARS 122
Saturday 122
St@@ 122
affected 122
bo@@ 122
buổi 122
earlier 122
ed@@ 122
g 122
km 122
lãnh_thổ 122
meeting 122
period 122
researchers 122
ship 122
thành_lập 122
tấn_công 122
đình_chỉ 122
25@@ 121
All 121
chính_thức 121
hi@@ 121
likely 121
suspended 121
taking 121
tu@@ 121
ver@@ 121
within 121
0 120
3,@@ 120
39 120
India 120
further 120
máu 120
result 120
te 120
took 120
Chúng_tôi 119
ak@@ 119
blood 119
different 119
ec@@ 119
giải 119
khách_sạn 119
level 119
lot 119
nỗ_lực 119
phương_tiện 119
recently 119
security 119
staff 119
sáu 119
went 119
Úc 119
đại_học 119
400 118
Giang 118
Vingroup 118
bắt 118
eight 118
khoản 118
line 118
lý_do 118
lễ 118
might 118
nearly 118
quá_trình 118
res@@ 118
thiếu 118
tương_tự 118
vốn 118
B 117
Bảy 117
Con@@ 117
Nhiều 117
project 117
thi 117
đối_mặt 117
20@@ 116
Co@@ 116
activities 116
industry 116
nền 116
phát 116
recorded 116
worth 116
ASEAN 115
away 115
công_nghiệp 115
f 115
free 115
mưa 115
ne@@ 115
negative 115
phòng_ngừa 115
ra@@ 115
thành_công 115
Asian 114
Canada 114
September 114
au@@ 114
better 114
continue 114
gh@@ 114
increased 114
p_@@ 114
population 114
se@@ 114
su@@ 114
trung_bình 114
viết 114
xử_lý 114
đội 114
đợt 114
State 113
economic 113
king 113
lớp 113
như_vậy 113
riêng 113
trưởng 113
z 113
Bộ_trưởng 112
CEO 112
Control 112
Nó 112
ants 112
ates 112
chiều 112
ci@@ 112
cuối_cùng 112
cảm_thấy 112
demand 112
doctors 112
du_khách 112
gia_tăng 112
giới 112
hành_vi 112
khó 112
law 112
me@@ 112
released 112
treated 112
vị 112
đồ 112
Phó 111
Reuters 111
allowed 111
child 111
cổ_phiếu 111
drug 111
events 111
game 111
giám_đốc 111
heart 111
hospitals 111
hầu_hết 111
ment 111
mặt 111
nhanh_chóng 111
nhìn 111
xin 111
… 111
Central 110
General 110
Hồng_Kông 110
Prime 110
ents 110
giống 110
hợp_tác 110
ies 110
inter@@ 110
nhập_khẩu 110
power 110
received 110
residents 110
safety 110
tác_động 110
Ở 110
17@@ 109
45 109
CDC 109
Kim 109
Su@@ 109
Trước 109
ay 109
chất_lượng 109
chứa 109
given 109
kiểm_dịch 109
quality 109
sion 109
the@@ 109
trai 109
waste 109
2014 108
An@@ 108
London 108
Mai 108
Phu 108
ance 108
center 108
coi 108
giám_sát 108
going 108
lan 108
ngày_càng 108
often 108
trị_giá 108
viêm 108
35 107
English 107
Russia 107
Saigon 107
Thursday 107
Tokyo 107
Tất_cả 107
and@@ 107
bản 107
diseases 107
fi@@ 107
luật 107
mo@@ 107
nhân 107
reports 107
response 107
thu_hút 107
điện_tử 107
4.@@ 106
Paris 106
cost 106
công_@@ 106
especially 106
living 106
places 106
thậm_chí 106
via 106
And 105
Ro@@ 105
_S@@ 105
ages 105
căn_bệnh 105
employees 105
for@@ 105
giá_trị 105
giải_quyết 105
internet 105
ness 105
nhà_sản_xuất 105
prices 105
service 105
suspected 105
đảo 105
& 104
D 104
Institute 104
Japanese 104
Tổng_thống 104
Từ 104
Washington 104
chuỗi 104
dừng 104
held 104
ors 104
out@@ 104
rate 104
rộng 104
small 104
thích 104
thịt 104
trực_tiếp 104
đấu 104
Air 103
Re@@ 103
US$ 103
Với 103
cố_gắng 103
decided 103
find 103
mặc_dù 103
parents 103
pollution 103
price 103
um@@ 103
3.@@ 102
Germany 102
Government 102
Pacific 102
Pakistan 102
department 102
ence 102
ep@@ 102
gu@@ 102
know 102
ks 102
plan 102
statement 102
too 102
Apple 101
To 101
UK 101
lịch_sử 101
par@@ 101
pay 101
phạt 101
popular 101
sốt 101
thu 101
thương_mại 101
vàng 101
điều_kiện 101
đồng_thời 101
ước_tính 101
1,000 100
16@@ 100
Danang 100
To@@ 100
chi_phí 100
chủng 100
cư_dân 100
decision 100
gan 100
giết 100
hiểu 100
hướng_dẫn 100
id@@ 100
mother 100
mu@@ 100
process 100
situation 100
start 100
started 100
tests 100
tim 100
tiến_hành 100
địa_điểm 100
P 99
already 99
average 99
bang 99
bất_cứ 99
coming 99
cậu 99
enough 99
epidemic 99
feel 99
fever 99
highest 99
hu@@ 99
tình_dục 99
want 99
xe_buýt 99
xuất_viện 99
Không 98
Microsoft 98
Và 98
With 98
do@@ 98
emergency 98
facilities 98
firm 98
gr@@ 98
hoàn_thành 98
noted 98
thu@@ 98
today 98
trillion 98
truyền_thống 98
vi_phạm 98
vừa 98
Airport 97
Thế_giới 97
began 97
best 97
bi@@ 97
businesses 97
bão 97
bất_hợp_pháp 97
bổ_sung 97
cause 97
chọn 97
common 97
cre@@ 97
growth 97
leading 97
một_cách 97
mở_rộng 97
phương_pháp 97
provide 97
ren@@ 97
sing 97
term 97
transmission 97
tuyến 97
tăng_trưởng 97
đóng 97
14@@ 96
34 96
Cho 96
Ngoài_ra 96
along 96
bảng 96
gạo 96
khắp 96
ling 96
live 96
lĩnh_vực 96
management 96
nhập_cảnh 96
oil 96
outside 96
ten@@ 96
ổ 96
Europe 95
chủ 95
currently 95
cạnh 95
cải_thiện 95
deputy 95
levels 95
quán 95
scientists 95
site 95
st 95
territories 95
think 95
xã 95
đánh 95
Cơ_quan 94
G 94
October 94
almost 94
ard 94
ative 94
car 94
dân_số 94
lives 94
nghi_ngờ 94
ons 94
ses 94
strong 94
ters 94
vận_chuyển 94
37 93
90 93
Chủ_tịch 93
Tổ_chức 93
Vin@@ 93
addition 93
an_ninh 93
app 93
chiếm 93
chung 93
distancing 93
duy_trì 93
ess 93
evidence 93
gấp 93
ked 93
lo_ngại 93
move 93
nation 93
open 93
tiếp_theo 93
tons 93
w 93
.@@ 92
43 92
British 92
Sa 92
Sự 92
YouTube 92
_t@@ 92
bringing 92
chính_sách 92
conditions 92
dụng 92
growing 92
hành 92
hô_hấp 92
ist 92
ves 92
800 91
Chủ_nhật 91
Group 91
Park 91
Po@@ 91
bức 91
chúng 91
chạy 91
chủ_yếu 91
considered 91
cầu 91
former 91
kho@@ 91
ngừng 91
nhiễm_trùng 91
nhiệt_độ 91
required 91
respiratory 91
southern 91
starting 91
student 91
sông 91
thông_minh 91
ties 91
visa 91
viện 91
đề_xuất 91
5% 90
65 90
80 90
Có 90
The_@@ 90
available 90
avoid 90
câu 90
dầu 90
killed 90
le 90
liệu 90
nghĩa 90
pa@@ 90
pu@@ 90
trang 90
tương_lai 90
Đông_Nam_Á 90
đáng_kể 90
2011 89
Disease 89
November 89
Par@@ 89
Southeast 89
Sở 89
Two 89
car@@ 89
com@@ 89
customers 89
discharged 89
ever 89
give 89
nạn_nhân 89
return 89
rủi_ro 89
thường_xuyên 89
tic 89
visitors 89
xem_xét 89
Đài_Loan 89
đơn 89
38 88
Le 88
North 88
Thi 88
arrived 88
ca@@ 88
cuộc_sống 88
cơ_hội 88
giả 88
issued 88
mức_độ 88
phút 88
recovered 88
thực_sự 88
tài_chính 88
vaccines 88
website 88
ước 88
... 87
2012 87
Bu@@ 87
Company 87
East 87
Nghiên_cứu 87
O 87
Public 87
TV 87
Tan 87
Tran 87
admitted 87
con_số 87
develop 87
domestic 87
estimated 87
fe@@ 87
ff@@ 87
fight 87
giao_thông 87
khí_hậu 87
latest 87
phù_hợp 87
ra_mắt 87
shows 87
things 87
tra@@ 87
try 87
/@@ 86
Biển 86
European 86
Phuc 86
Samsung 86
Taiwan 86
Văn_@@ 86
became 86
bình_thường 86
cap@@ 86
comes 86
developing 86
fl@@ 86
giáo_dục 86
ill 86
military 86
mục_tiêu 86
nguy_hiểm 86
possible 86
r 86
sed 86
similar 86
tourism 86
tri@@ 86
vai_trò 86
đeo 86
đầy 86
26@@ 85
Do 85
Hà 85
Israel 85
R 85
Vi@@ 85
agencies 85
ban_đầu 85
buộc 85
cháy 85
chơi 85
cũng 85
hát 85
hướng 85
phone 85
problems 85
restrictions 85
rights 85
trans@@ 85
đôi 85
2021 84
4,@@ 84
Brazil 84
Diseases 84
Q@@ 84
Te@@ 84
approved 84
chu@@ 84
heavy 84
hoãn 84
left 84
làng 84
nghe 84
parts 84
personal 84
pi@@ 84
real 84
s_@@ 84
sao 84
self 84
vượt 84
ying 84
âm_tính 84
AIDS 83
Cha@@ 83
M 83
Mặc_dù 83
bằng_chứng 83
cá 83
ement 83
future 83
giao_dịch 83
groups 83
gồm 83
ha 83
khuyên 83
lower 83
operations 83
os 83
previous 83
quan_tâm 83
reduce 83
share 83
sho@@ 83
é@@ 83
ảo 83
0.@@ 82
8.@@ 82
Committee 82
Cục 82
Kể 82
Lo@@ 82
Nepal 82
active 82
ators 82
big 82
born 82
chủ_tịch 82
cor@@ 82
entering 82
ev@@ 82
example 82
fully 82
higher 82
man@@ 82
near 82
nhấn_mạnh 82
rõ 82
stop 82
thúc_đẩy 82
tive 82
tạm 82
vật 82
yet 82
đêm 82
5.@@ 81
Ngoại_giao 81
biến 81
chi 81
cà_phê 81
càng 81
der 81
humans 81
hồi_phục 81
impact 81
individuals 81
jobs 81
khẳng_định 81
leave 81
lợn 81
means 81
nguyên_nhân 81
really 81
regulations 81
run 81
saying 81
suốt 81
sở_hữu 81
ten 81
thiết_kế 81
tics 81
Để 81
đăng_ký 81
2013 80
Bach 80
Bắc_@@ 80
Since 80
Sài_Gòn 80
_l@@ 80
bảy 80
chân 80
effective 80
enti@@ 80
goods 80
history 80
hiện_tại 80
med 80
một_vài 80
quả 80
sách 80
thật 80
toàn_quốc 80
tờ 80
ung_thư 80
đáp_ứng 80
‘ 80
0,@@ 79
5,@@ 79
Bar@@ 79
Bo@@ 79
F 79
ability 79
ensure 79
environment 79
got 79
keep 79
launched 79
lead 79
learning 79
lực_lượng 79
reached 79
seen 79
supply 79
thực_tế 79
trang_web 79
tài_sản 79
vợ 79
war@@ 79
ys 79
CoV 78
December 78
Le@@ 78
Tính 78
again 78
buy 78
bữa 78
dấu_hiệu 78
followed 78
general 78
kẻ 78
little 78
localities 78
lợi_nhuận 78
năng_lượng 78
office 78
phi_công 78
phục_hồi 78
thủ_đô 78
whether 78
đe_doạ 78
đại_diện 78
0,000 77
32 77
600 77
Ad@@ 77
Du@@ 77
Hiệp_hội 77
Hu@@ 77
Pro@@ 77
Thai 77
animals 77
bus 77
dễ 77
equipment 77
gen@@ 77
hết 77
ig@@ 77
ina 77
included 77
isolation 77
khuyến_khích 77
ngàn 77
nhà_nước 77
nhựa 77
ry 77
saw 77
though 77
trách_nhiệm 77
tám 77
under@@ 77
visited 77
ên 77
ó@@ 77
ủng_hộ 77
Sa@@ 76
You 76
Zealand 76
action 76
ati@@ 76
biggest 76
ches 76
di_chuyển 76
friends 76
here 76
house 76
hạ_cánh 76
ian 76
kg 76
ký 76
lâm_sàng 76
nước_@@ 76
oo@@ 76
placed 76
potential 76
pressure 76
sw@@ 76
trung 76
truyền_hình 76
trụ_sở 76
tăng_cường 76
ways 76
ze 76
ô@@ 76
điều_hành 76
đúng 76
ổn_định 76
24@@ 75
6.@@ 75
Foreign 75
Gu@@ 75
L 75
News 75
doanh_thu 75
ea@@ 75
fall 75
father 75
gốc 75
khảo_sát 75
mar@@ 75
ngôi 75
once 75
op@@ 75
pres@@ 75
private 75
published 75
sive 75
te@@ 75
tiêm 75
tourist 75
usually 75
v 75
đăng 75
2030 74
California 74
Cùng 74
Di@@ 74
H 74
Hue 74
Last 74
N 74
So 74
Trần_@@ 74
Vu 74
Xuan 74
York 74
_th@@ 74
clinical 74
declared 74
hình 74
identified 74
iz@@ 74
ke 74
luôn 74
necessary 74
nhà_đầu_tư 74
phong_toả 74
plant 74
remain 74
rồi 74
thay_thế 74
trăm 74
á@@ 74
âm 74
-2 73
By 73
Cup 73
Truong 73
act 73
biểu_tình 73
campaign 73
compared 73
cut 73
deal 73
den 73
difficult 73
economy 73
ful 73
getting 73
giành 73
great 73
hand 73
inf@@ 73
job 73
ly@@ 73
nghi 73
nine 73
plastic 73
prevention 73
produce 73
ps 73
rest 73
rise 73
soon 73
special 73
sẵn_sàng 73
sức 73
tin@@ 73
tiếp_cận 73
ton 73
0.000 72
Bac 72
Công_@@ 72
E 72
Giám_đốc 72
Nam_@@ 72
Sh@@ 72
Tập_đoàn 72
building 72
bóng_đá 72
chiến_dịch 72
cur@@ 72
des@@ 72
he@@ 72
hãy 72
ial 72
instead 72
kỹ_thuật 72
min@@ 72
mở_cửa 72
nations 72
ngh@@ 72
phá 72
phê_duyệt 72
phòng_thí_nghiệm 72
sex 72
thai 72
thuế 72
trial 72
tế_bào 72
weather 72
wife 72
works 72
ăng 72
đẹp 72
định 72
ế 72
55 71
Campuchia 71
EU 71
Jo@@ 71
Myanmar 71
That 71
Thành 71
Vietnam_Airlines 71
While 71
aged 71
bối_cảnh 71
create 71
crisis 71
entry 71
full 71
girl 71
huỷ_bỏ 71
lâu 71
lợi 71
lựa_chọn 71
meet 71
mi@@ 71
nhà_hàng 71
non-@@ 71
não 71
quần_đảo 71
sold 71
tình_hình 71
tư 71
tự_do 71
30@@ 70
700 70
His 70
Islands 70
Other 70
Tha@@ 70
carrier 70
ho 70
illegal 70
kết_thúc 70
lockdown 70
mis@@ 70
màu 70
name 70
nóng 70
oc@@ 70
samples 70
sea 70
side 70
systems 70
trade 70
traditional 70
trả_lời 70
yêu 70
đám 70
​​sẽ 70
6,@@ 69
Deputy 69
Hoang 69
My 69
Quảng_Nam 69
Tropical 69
Tây_Ban_Nha 69
Vinh 69
access 69
ber@@ 69
c_@@ 69
chi@@ 69
chẩn_đoán 69
col@@ 69
cắt_giảm 69
date 69
field 69
giải_thích 69
hôm_nay 69
incident 69
khá 69
khủng_hoảng 69
kia 69
kiếm 69
longer 69
mer@@ 69
phục_vụ 69
president 69
quảng_cáo 69
rec@@ 69
ste@@ 69
sub@@ 69
thời_tiết 69
toà 69
truyền_nhiễm 69
tích_cực 69
tạm_thời 69
Đại_dịch 69
đồng_@@ 69
27@@ 68
Beijing 68
Bạch_Mai 68
Phong 68
Prevention 68
Sơn 68
Trung_@@ 68
VN@@ 68
ban_hành 68
chairman 68
chặt_chẽ 68
climate 68
construction 68
cr@@ 68
dec@@ 68
discovered 68
doctor 68
dạng 68
efforts 68
essential 68
form 68
gen 68
increasing 68
linked 68
liên_hệ 68
mobile 68
mơ 68
nationals 68
ner 68
nhà_chức_trách 68
nhờ 68
phát_hành 68
rơi 68
stock 68
thanh_toán 68
thuê 68
từ_chối 68
visit 68
ví_dụ 68
ô 68
đối_phó 68
53 67
From 67
Organization 67
Quốc 67
SARS-CoV 67
banned 67
bước 67
châu_Á 67
chức 67
current 67
duy_nhất 67
enter 67
involved 67
ma@@ 67
member 67
mạnh_mẽ 67
nhiệm_vụ 67
nhạc 67
point 67
serious 67
something 67
thiệt_hại 67
tồn_tại 67
value 67
văn_hoá 67
vụ_việc 67
Association 66
Cuộc 66
Dinh 66
New_Zealand 66
Uỷ_ban 66
Vương_quốc_Anh 66
anti@@ 66
bia 66
chú_ý 66
chế 66
du@@ 66
ent@@ 66
go@@ 66
ics 66
khí 66
khổng_lồ 66
kiến 66
minister 66
mon@@ 66
res 66
safe 66
shares 66
ther@@ 66
ven@@ 66
văn_phòng 66
wor@@ 66
worldwide 66
xa0@@ 66
$@@ 65
,@@ 65
57 65
Ac@@ 65
America 65
Bắc_Kinh 65
Com@@ 65
Hoàng_Sa 65
Ma@@ 65
More 65
Of 65
amid 65
bar 65
chất_thải 65
concerns 65
education 65
financial 65
har@@ 65
inc@@ 65
ism 65
khoa_học 65
leaders 65
light 65
lây_truyền 65
main 65
named 65
ordered 65
phí 65
stated 65
sti@@ 65
tổng_thống 65
vì_vậy 65
150 64
Cảnh_sát 64
Dung 64
French 64
Research 64
aircraft 64
attention 64
bed 64
br@@ 64
capacity 64
cáo_buộc 64
der@@ 64
event 64
families 64
follow 64
gia 64
however 64
hại 64
ill@@ 64
ite 64
không_chỉ 64
kém 64
las@@ 64
legal 64
liên_tục 64
lưu_ý 64
makes 64
mục_đích 64
ng_t@@ 64
numbers 64
nền_tảng 64
ore 64
present 64
problem 64
quickly 64
truyền 64
trước_đây 64
up@@ 64
yếu_tố 64
í 64
ăn_@@ 64
đoạn 64
đơn_vị 64
42 63
Dubai 63
K. 63
Mekong 63
Mon@@ 63
Quận 63
Se@@ 63
Twitter 63
av@@ 63
ay@@ 63
bl@@ 63
brain 63
bring 63
ched 63
cố 63
dự_báo 63
effect 63
energy 63
ens 63
giao 63
giải_trí 63
ile 63
ines 63
investment 63
issues 63
lá 63
mắt 63
ngủ 63
normal 63
phòng_chống 63
phản_đối 63
quý 63
rates 63
regions 63
shi@@ 63
sources 63
thị_thực 63
together 63
won 63
é 63
đốt 63
ập 63
75 62
Americans 62
Chung 62
Công_an 62
During 62
Ex@@ 62
Forbes 62
Medical 62
Trang 62
actions 62
agency 62
airport 62
always 62
arrested 62
ator 62
ble 62
cancer 62
changes 62
condition 62
công_nhân 62
done 62
eb@@ 62
either 62
ess@@ 62
failure 62
học_@@ 62
lan@@ 62
lis@@ 62
mainland 62
ments 62
môn 62
nh_@@ 62
ow@@ 62
phó 62
play 62
room 62
sales 62
severe 62
ships 62
source 62
thể_thao 62
various 62
vé 62
vậy 62
vắc_xin 62
áng 62
ô_tô 62
đô 62
đối_tác 62
ứng 62
’re 62
33 61
66 61
8% 61
Africa 61
Bạn 61
Bệnh 61
Development 61
Duc 61
Hoàng_@@ 61
Moscow 61
So@@ 61
Thái_Bình_Dương 61
Trường_hợp 61
board 61
call 61
cảm 61
dem@@ 61
ements 61
export 61
exposure 61
fell 61
fin@@ 61
fire 61
giáo_viên 61
ground 61
huỷ 61
hy_vọng 61
id 61
immune 61
ing@@ 61
key 61
let 61
markets 61
never 61
ngay_lập_tức 61
points 61
position 61
program 61
quan 61
receive 61
run@@ 61
season 61
sinh_học 61
tiêu_dùng 61
trung_học 61
tầm 61
tự_nhiên 61
át 61
đi_lại 61
đoàn 61
ốc 61
2009 60
3% 60
8,@@ 60
Cả 60
Lan 60
ain@@ 60
ba@@ 60
behind 60
birth 60
biến_đổi 60
bờ 60
ching 60
chị 60
chỗ 60
chức_năng 60
công_cụ 60
daily 60
form@@ 60
holiday 60
hàng_hoá 60
hình_ảnh 60
investigation 60
ists 60
khoa 60
loss 60
lỗi 60
model 60
máy_tính 60
pho@@ 60
transport 60
tro@@ 60
vehicles 60
wave 60
Đến 60
đề_cập 60
+ 59
3,000 59
Amazon 59
Cambodia 59
Car@@ 59
Quốc_tế 59
Russian 59
bãi 59
chín 59
chỉ_số 59
chụp 59
coffee 59
cạnh_tranh 59
ear@@ 59
hard 59
khai_thác 59
làm_@@ 59
music 59
ned 59
ngân_hàng 59
ones 59
phẫu_thuật 59
poor 59
protect 59
role 59
rác 59
significant 59
sions 59
siêu_thị 59
thu_thập 59
tương_đương 59
vi_khuẩn 59
việc_làm 59
Đó 59
đau 59
đổ 59
ần 59
ục 59
52 58
Be@@ 58
Games 58
La@@ 58
Mexico 58
Mu@@ 58
Nations 58
PM 58
Street 58
VinFast 58
_h@@ 58
all@@ 58
ao 58
brought 58
cal@@ 58
certain 58
ces 58
cuộc_chiến 58
cảnh 58
cặp 58
drugs 58
experience 58
fishing 58
ge 58
ical 58
ice 58
ills 58
immediately 58
ise 58
kiện 58
lòng 58
lạnh 58
ng_th@@ 58
nhà_lãnh_đạo 58
north 58
nông_nghiệp 58
ory 58
ov@@ 58
ring 58
scheduled 58
sis 58
thiết_lập 58
thousands 58
tru@@ 58
tài_liệu 58
tập_đoàn 58
đỏ 58
đồng_ý 58
ức 58
2003 57
41 57
64 57
85 57
BBC 57
Commune 57
Cu@@ 57
Linh 57
Lu@@ 57
Security 57
Syria 57
V 57
Vietjet 57
adding 57
allow 57
bao_giờ 57
built 57
chó 57
co 57
cơ 57
cụ_thể 57
dân 57
dụng_cụ 57
eng@@ 57
fact 57
fied 57
giúp_đỡ 57
greater 57
gói 57
healthcare 57
homes 57
investors 57
lack 57
les 57
lượt 57
minutes 57
mô_hình 57
needs 57
ol 57
plane 57
pop 57
quarter 57
quân_sự 57
robot 57
skin 57
stores 57
survey 57
tham_dự 57
thương_hiệu 57
tin_tức 57
tiết_lộ 57
ture 57
types 57
tặng 57
ure 57
xếp_hạng 57
àng 57
ê 57
1.000 56
44 56
:@@ 56
Affairs 56
Also 56
Châu 56
Con 56
Do@@ 56
Global 56
Go@@ 56
Hồ 56
Mercy 56
Phát_triển 56
Spain 56
TP. 56
_B@@ 56
acc@@ 56
chính_xác 56
ear 56
female 56
foreigners 56
gar@@ 56
giãn 56
gone 56
hundreds 56
ings 56
look 56
natural 56
ngồi 56
nhập_cư 56
nhập_viện 56
pilot 56
por@@ 56
programs 56
sector 56
sinh_@@ 56
someone 56
store 56
suy 56
tax 56
ve@@ 56
ved 56
warned 56
why 56
worked 56
ý 56
đạo 56
ống 56
're 55
46 55
54 55
56 55
AFF 55
Agency 55
Chính_quyền 55
De@@ 55
Im@@ 55
Italian 55
La 55
Lê_@@ 55
cho@@ 55
chính_trị 55
chứng 55
claimed 55
critical 55
daughter 55
ell@@ 55
final 55
ghi 55
già 55
hợp_đồng 55
ited 55
khoá 55
kết_hợp 55
kết_nối 55
liên_lạc 55
nhân_@@ 55
nạn 55
physical 55
previously 55
rain 55
release 55
risks 55
rượu 55
song 55
tech 55
thư 55
thảo_luận 55
tiến 55
tly 55
tors 55
training 55
trao 55
trồng 55
ven 55
waters 55
ân 55
1% 54
2.5 54
Bank 54
Cộng_hoà 54
German 54
House 54
Nhat 54
Police 54
SE@@ 54
additional 54
anti-@@ 54
ass@@ 54
chờ 54
clear 54
comp@@ 54
couple 54
damage 54
ders 54
district 54
dòng 54
dù 54
fourth 54
giải_pháp 54
giấc 54
hotel 54
hơi 54
issue 54
language 54
looking 54
male 54
mat@@ 54
nhiệt_đới 54
nhớ 54
ning 54
núi 54
nặng_nề 54
protective 54
remains 54
rõ_ràng 54
short 54
singer 54
sk@@ 54
surveillance 54
sợ 54
temporarily 54
thời 54
toàn_bộ 54
trying 54
tù 54
ud@@ 54
uses 54
ver 54
ái 54
ăng_@@ 54
197@@ 53
2,000 53
5,000 53
Afghanistan 53
Bên 53
Hung 53
K 53
Most 53
Thị_@@ 53
Trên 53
abroad 53
aff@@ 53
afternoon 53
chồng 53
comm@@ 53
coun@@ 53
cáo 53
công_khai 53
els 53
gatherings 53
ish@@ 53
ized 53
kilometers 53
located 53
loạt 53
lãnh_đạo 53
lợi_ích 53
ms 53
mặc 53
một_nửa 53
ns 53
nội_@@ 53
nửa 53
our@@ 53
pas@@ 53
pen@@ 53
policy 53
prime 53
quân 53
rising 53
series 53
shared 53
signed 53
thiết_yếu 53
thought 53
thực 53
transferred 53
trials 53
tổn_thương 53
vận_tải 53
vệ_sinh 53
war 53
wear 53
ý_tưởng 53
Đan_Mạch 53
đá 53
ồng 53
49 52
6% 52
7,@@ 52
88 52
Ki@@ 52
Obama 52
Ri@@ 52
Times 52
Ví_dụ 52
announcement 52
bất_@@ 52
bộ_phận 52
complete 52
cá@@ 52
dễ_dàng 52
ering 52
forecast 52
giảm_thiểu 52
hiện_nay 52
hàng_loạt 52
hợp 52
idea 52
il 52
inv@@ 52
ire 52
laws 52
logy 52
lost 52
lập 52
mua_sắm 52
multiple 52
needed 52
newspaper 52
ngoại_giao 52
organizations 52
owned 52
phát_biểu 52
phân_tích 52
profit 52
reason 52
representative 52
resources 52
ris@@ 52
sữa 52
tea 52
temperatures 52
themselves 52
thu_nhập 52
thập_kỷ 52
tor@@ 52
âm_nhạc 52
ích 52
ả 52
2% 51
47 51
61 51
62 51
Du_lịch 51
Earlier 51
Hãng 51
Hơn 51
Thổ_Nhĩ_Kỳ 51
Tourism 51
Un@@ 51
Year 51
a.m. 51
acy 51
ad 51
air@@ 51
bản_@@ 51
bắt_giữ 51
cancelled 51
chợ 51
cửa 51
degrees 51
den@@ 51
dr@@ 51
effects 51
established 51
explo@@ 51
facility 51
fear 51
force 51
gió 51
hoa 51
hoang_dã 51
imported 51
imposed 51
improve 51
ind@@ 51
ion 51
losses 51
ngắn 51
overseas 51
quốc 51
ready 51
rit@@ 51
sem@@ 51
signs 51
stage 51
thông 51
triển_khai 51
tuyển_dụng 51
uy@@ 51
wanted 51
wn 51
xanh 51
xu_hướng 51
ánh 51
đại_lục 51
́t 51
ệ 51
ối 51
9% 50
Another 50
Britain 50
Bình 50
Dũng 50
Inter@@ 50
Nigeria 50
Party 50
Phuong 50
Starbucks 50
Tu 50
Tu@@ 50
above 50
activity 50
advised 50
ale 50
ali@@ 50
believe 50
bò 50
cells 50
chở 50
chủ_quyền 50
claims 50
concern 50
created 50
film 50
front 50
fu@@ 50
ges 50
hands 50
kind 50
mp@@ 50
mét 50
nhập 50
nỗi 50
ore@@ 50
pháp_lý 50
raised 50
receiving 50
responsible 50
răng 50
spend 50
suffered 50
sun@@ 50
sure 50
thay 50
thoát 50
tiêu_thụ 50
tor 50
trình 50
trạm 50
tài_khoản 50
va 50
wi@@ 50
wing 50
ws 50
ân_@@ 50
ã 50
ét 50
đua 50
đầy_đủ 50
độc 50
2008 49
7.@@ 49
73 49
9.@@ 49
Birx 49
CAAV 49
For@@ 49
Hải 49
Pa@@ 49
Pe@@ 49
Rất 49
Those 49
What 49
appeared 49
apps 49
arriving 49
beginning 49
bàn 49
bởi_vì 49
cas@@ 49
chain 49
chief 49
chuyên_@@ 49
chỉ_đạo 49
chứng_kiến 49
câu_chuyện 49
despite 49
diễn_viên 49
drop 49
eg@@ 49
exports 49
factors 49
fish 49
giới_hạn 49
hút 49
hạt 49
hồi 49
ins 49
ke@@ 49
laboratory 49
land@@ 49
lea@@ 49
learn 49
love 49
lễ_hội 49
met 49
meters 49
network 49
ngôn_ngữ 49
ongoing 49
opened 49
paid 49
passed 49
product 49
qua_đời 49
quy_trình 49
rau 49
restaurants 49
rou@@ 49
sell 49
str@@ 49
sở 49
ta@@ 49
ther 49
thế 49
thể 49
thể_hiện 49
thị_trấn 49
ê@@ 49
í@@ 49
đường_@@ 49
ơ@@ 49
ơn 49
ả@@ 49
ến 49
ồi 49
2010 48
Azerbaijan 48
Hang 48
Highlands 48
Huế 48
Khoảng 48
Ngh@@ 48
No@@ 48
Phạm_@@ 48
Pri@@ 48
Ukraine 48
X 48
ace 48
ai_@@ 48
al_@@ 48
am_@@ 48
amount 48
baby 48
believed 48
ber 48
bio@@ 48
brand 48
bố 48
carbon 48
causes 48
ch_@@ 48
changed 48
chú 48
chứng_minh 48
cough 48
cúm 48
dead 48
designed 48
eat 48
firms 48
ged 48
hậu_quả 48
immunity 48
includes 48
kết 48
limited 48
ming 48
miễn_phí 48
ngs 48
nguồn_gốc 48
nhẹ 48
off@@ 48
offer 48
phạm 48
pneumonia 48
pp@@ 48
procedures 48
proposed 48
re 48
reach 48
reasons 48
sa 48
sal@@ 48
sha@@ 48
south 48
studies 48
suggested 48
thức 48
tour 48
treat 48
vô_@@ 48
whose 48
ôi 48
ông_@@ 48
ương 48
ế@@ 48
ền 48
9,@@ 47
Ba@@ 47
Bi@@ 47
Coronavirus 47
Mor@@ 47
Res@@ 47
School 47
Sho@@ 47
Thuan 47
Thuỵ_Điển 47
Trade 47
account 47
airports 47
ake 47
ame 47
ang_@@ 47
ann@@ 47
ats 47
bình_luận 47
bạc 47
chiến_lược 47
chuyện 47
châu_Phi 47
căng_thẳng 47
ero@@ 47
ghé 47
hiệu_lực 47
husband 47
indic@@ 47
khác_biệt 47
khói 47
lung 47
met@@ 47
miệng 47
người_@@ 47
operating 47
owner 47
pháp 47
planned 47
produced 47
projects 47
provided 47
quần_áo 47
range 47
resident 47
scale 47
sexual 47
shop 47
species 47
spent 47
temperature 47
thing 47
thùng 47
thế_hệ 47
toll 47
tra 47
traffic 47
trọng 47
tuyệt_vời 47
vo@@ 47
vùng_biển 47
à 47
ú@@ 47
Đại_@@ 47
ấp 47
0s 46
10% 46
4% 46
Duong 46
El@@ 46
Her 46
Hol@@ 46
PCR 46
Per@@ 46
Si@@ 46
Thu 46
Trường 46
Venezuela 46
Viet 46
_tr@@ 46
aging 46
ash@@ 46
bri@@ 46
ca_sĩ 46
ce 46
cha_mẹ 46
chiến 46
cold 46
conference 46
costs 46
detected 46
direct 46
directly 46
dự_đoán 46
ft 46
hiếm 46
hiệu 46
host 46
ker 46
kháng 46
limit 46
lo_lắng 46
location 46
logical 46
lạm_dụng 46
middle 46
monitoring 46
ne 46
nông_dân 46
nổi 46
operation 46
orders 46
phá@@ 46
phố 46
pr@@ 46
reduced 46
round 46
selling 46
sign 46
spec@@ 46
sports 46
story 46
sur@@ 46
sát 46
tai_nạn 46
takes 46
terms 46
trò_chơi 46
trắng 46
trứng 46
turn 46
tài_trợ 46
tốc_độ 46
tụ_tập 46
understand 46
vọng 46
wards 46
xếp 46
ì 46
Đa_khoa 46
Đối_với 46
ơ 46
ư 46
ượng 46
ất 46
ầm 46
ận 46
198@@ 45
48 45
83 45
95 45
Australian 45
Even 45
Hàng 45
Hầu_hết 45
Industry 45
Khu 45
Ko@@ 45
Me@@ 45
Paracel 45
Three 45
Transport 45
Tây_@@ 45
ac 45
ai@@ 45
ality 45
attack 45
bas@@ 45
caught 45
causing 45
cha 45
chuyển_@@ 45
chục 45
court 45
cùng 45
cứ 45
cứu 45
cựu 45
digital 45
dân_@@ 45
ently 45
ets 45
football 45
giant 45
heat 45
hộ 45
infectious 45
inside 45
ious 45
ka 45
kept 45
lệ 45
mostly 45
nationwide 45
nguyên 45
nhiên_liệu 45
niềm 45
nội_địa 45
phần_mềm 45
pping 45
reli@@ 45
remaining 45
rent 45
revenues 45
ron@@ 45
sites 45
stopped 45
teen 45
thận 45
thực_@@ 45
tle 45
trùng 45
trừ 45
tự_@@ 45
vers 45
vessel 45
victim 45
victims 45
whole 45
ài 45
đề_nghị 45
ưởng 45
ội 45
ủ 45
00@@ 44
1/@@ 44
50% 44
58 44
African 44
Airways 44
Associated 44
Bình_@@ 44
GDP 44
Han@@ 44
Ji@@ 44
Ngoc 44
Now 44
Pompeo 44
Quốc_hội 44
Republic 44
Social 44
Thanh_@@ 44
Tri@@ 44
Vì 44
Vũ 44
_R@@ 44
adults 44
ail@@ 44
alcohol 44
are@@ 44
bur@@ 44
bạn_bè 44
centers 44
che@@ 44
conducted 44
công_chúng 44
cư_trú 44
cắt 44
dangerous 44
def@@ 44
dropped 44
dạy 44
entered 44
everyone 44
facing 44
fast 44
forest 44
giải_thưởng 44
giấy_phép 44
giới_thiệu 44
hiến 44
hold 44
hotels 44
khám_phá 44
leader 44
lý 44
mainly 44
mã 44
n_đ@@ 44
ng_c@@ 44
p.m. 44
park 44
pe 44
phi 44
phân_@@ 44
plants 44
port 44
pri@@ 44
protection 44
rel@@ 44
revenue 44
sleep 44
status 44
supplies 44
sạch 44
sắp 44
số_liệu 44
thử 44
town 44
tures 44
tốt_nghiệp 44
watch 44
worst 44
wrote 44
xấu 44
zone 44
ác 44
â@@ 44
ép 44
Đông_@@ 44
Đại_sứ_quán 44
đâu 44
đóng_góp 44
đơn_giản 44
đọc 44
̣ 44
ại 44
ạn 44
ấn_@@ 44
ẻ 44
ống_@@ 44
ứng_@@ 44
12@@ 43
201@@ 43
:30 43
Although 43
Among 43
Bur@@ 43
Can@@ 43
Chúng 43
Hồi_giáo 43
Island 43
Milan 43
New_York 43
Nhóm 43
No 43
Online 43
Secretary 43
Wor@@ 43
agreed 43
break 43
buồn 43
buộc_tội 43
bản_thân 43
carried 43
cars 43
chìm 43
chỉ_trích 43
citizen 43
cl@@ 43
completed 43
crew 43
cập_nhật 43
doing 43
don@@ 43
dần 43
en_@@ 43
end@@ 43
fans 43
ght 43
gra@@ 43
hot 43
hour 43
hình_@@ 43
ight 43
isolated 43
lin@@ 43
loại_bỏ 43
lái_xe 43
materials 43
methods 43
moved 43
moving 43
my@@ 43
ngoại_@@ 43
ngăn_ngừa 43
nhận_thức 43
phần_lớn 43
quy_mô 43
record 43
rửa 43
sẵn 43
tered 43
thoả_thuận 43
threat 43
thông_@@ 43
thời_kỳ 43
thừa_nhận 43
trà 43
tuân_thủ 43
tình_huống 43
tư_nhân 43
tại_sao 43
tập 43
tồi_tệ 43
village 43
ward 43
white 43
ò@@ 43
đô_thị 43
đầu_@@ 43
ư@@ 43
51 42
69 42
74 42
Administration 42
Cho@@ 42
Christmas 42
Day 42
Donald 42
Giá@@ 42
Ireland 42
Lee 42
Lào 42
Nguyễn_Xuân_Phúc 42
Phú_@@ 42
Tây 42
Wh@@ 42
allowing 42
alls 42
annual 42
arrival 42
az@@ 42
boy 42
build 42
bá@@ 42
bình_@@ 42
bắt_buộc 42
bớt 42
cam_kết 42
can@@ 42
carry 42
chiến_thắng 42
classes 42
committee 42
cuốn 42
có_vẻ 42
công_viên 42
cơ_bản 42
cảng 42
danh 42
diagnosed 42
dẫn_đầu 42
dự 42
ect 42
entire 42
ep 42
ere 42
expressed 42
fined 42
fruit 42
giấy 42
gn@@ 42
governments 42
grad@@ 42
gre@@ 42
grow 42
hội_nghị 42
i_th@@ 42
identify 42
individual 42
intelligence 42
kers 42
manufacturing 42
muỗi 42
ngư_dân 42
nổ 42
phiên_bản 42
phần_trăm 42
phức_tạp 42
political 42
press 42
rains 42
registered 42
requested 42
rose 42
rắn 42
sen@@ 42
specific 42
storm 42
table 42
thay_vì 42
thro@@ 42
throughout 42
thách_thức 42
tiêu 42
tiềm_năng 42
trip 42
trái 42
tâm 42
val@@ 42
áp_đặt 42
Đảng 42
đo 42
đào_tạo 42
ơi 42
ạ@@ 42
ạt 42
ời 42
ực 42
1st 41
2005 41
250 41
59 41
67 41
77 41
Bài 41
Chau 41
Dr. 41
First 41
Hubei 41
Ku@@ 41
Mal@@ 41
Or@@ 41
Over 41
Pl@@ 41
Quoc 41
Tri 41
Triều_Tiên 41
Tổng_cục 41
W 41
Women 41
acute 41
album 41
ana 41
anyone 41
ari@@ 41
ars 41
ational 41
bacteria 41
bày_tỏ 41
ck 41
coast 41
cultural 41
cảm_giác 41
cầu_thủ 41
devices 41
duc@@ 41
elderly 41
environmental 41
extended 41
fresh 41
girls 41
giving 41
gần_gũi 41
hy@@ 41
hội 41
illegally 41
k_@@ 41
khuyến_cáo 41
kỹ_năng 41
kỹ_thuật_số 41
letter 41
luận 41
ma 41
mental 41
ners 41
occur 41
particularly 41
passenger 41
phones 41
phát_@@ 41
phụ_huynh 41
quan_điểm 41
quanh 41
reg@@ 41
speed 41
tes 41
thường_@@ 41
thủ_tục 41
trees 41
trốn 41
tư_cách 41
tổng 41
urged 41
user 41
weekend 41
àn 41
áp 41
âm_@@ 41
ên_@@ 41
ôn_@@ 41
ùng 41
địa 41
đội_tuyển 41
̀ 41
ỉ 41
/8 40
30% 40
5.000 40
50,000 40
Celsius 40
Chúng_ta 40
Col@@ 40
Công_nghệ 40
Earth 40
Education 40
Floyd 40
Food 40
Hoà_@@ 40
Ke@@ 40
Khanh 40
Kim_@@ 40
Liên_Hợp_Quốc 40
Mat@@ 40
Miss 40
NHS 40
Olympic 40
Quốc_@@ 40
Song 40
Thu@@ 40
Thành_@@ 40
Thứ_trưởng 40
Tra@@ 40
Tân_@@ 40
Việt_@@ 40
VnExpress 40
Vì_vậy 40
administration 40
ain 40
airline 40
boo@@ 40
bây_giờ 40
bị_thương 40
can_thiệp 40
chẳng 40
chứ 40
ck@@ 40
compl@@ 40
diplomatic 40
distance 40
diện_tích 40
dri@@ 40
ef 40
effort 40
evening 40
existing 40
farmers 40
fishermen 40
games 40
giải_@@ 40
hand@@ 40
hâm_mộ 40
illi@@ 40
ino 40
kes 40
khởi_@@ 40
ley 40
lic@@ 40
lâu_dài 40
lương 40
measure 40
mà_còn 40
n_t@@ 40
na 40
ngu@@ 40
organization 40
particular 40
pat@@ 40
phiên 40
played 40
pped 40
quân_đội 40
recovery 40
rooms 40
shops 40
sil@@ 40
space 40
summer 40
tal@@ 40
tation 40
transportation 40
tree 40
trú 40
type 40
tư_vấn 40
tạp_chí 40
universities 40
ventilators 40
volume 40
xuất 40
ôm 40
ôn 40
điều_@@ 40
ột 40
7% 39
99 39
Alibaba 39
Bangkok 39
Chi@@ 39
Hoa_hậu 39
Ju@@ 39
Man@@ 39
Mọi 39
Ngoài 39
Nhà_nước 39
Pham 39
Quảng_Ninh 39
Sur@@ 39
Thông_tin 39
Town 39
UAE 39
UNCLOS 39
Varadkar 39
_thể 39
accused 39
agricultural 39
anh_@@ 39
ask 39
bao_@@ 39
bro@@ 39
bán_lẻ 39
check 39
chemical 39
chặn 39
chế_độ 39
competition 39
câu_lạc_bộ 39
côn_trùng 39
dioxide 39
districts 39
dy 39
eating 39
ected 39
ects 39
el_@@ 39
ery 39
failed 39
fake 39
fifth 39
fore@@ 39
gia_@@ 39
gián 39
gỡ 39
highly 39
hiện_tượng 39
interest 39
io@@ 39
ization 39
izing 39
locals 39
lẫn 39
mask 39
monitor 39
năng 39
phụ_thuộc 39
prior 39
quan_sát 39
rac@@ 39
routes 39
send 39
shut 39
single 39
spir@@ 39
states 39
successful 39
supermarket 39
teams 39
ths 39
thôi 39
thức_ăn 39
tiêu_chuẩn 39
tiếp 39
trung_@@ 39
tây 39
tội 39
units 39
wh@@ 39
whom 39
xung_quanh 39
zing 39
à_@@ 39
ào 39
đại_@@ 39
đổi 39
ương_@@ 39
ảng 39
’ve 39
10,000 38
2006 38
4,000 38
AFP 38
Agriculture 38
Both 38
Chương_trình 38
Cor@@ 38
Delta 38
Denmark 38
Donald_Trump 38
Je@@ 38
Lai 38
Lam 38
Luật 38
Masan 38
Nhà_@@ 38
Nor@@ 38
Press 38
Số 38
The@@ 38
Tháng 38
although 38
ani 38
any@@ 38
bing 38
buses 38
chi_tiết 38
class 38
coal 38
completely 38
contain 38
cover 38
cung 38
cánh 38
danh_@@ 38
det@@ 38
dic@@ 38
driving 38
dịp 38
easily 38
experienced 38
fa@@ 38
forced 38
friend 38
fuel 38
gian 38
her@@ 38
hệ 38
if@@ 38
ik@@ 38
illness 38
ish 38
không_@@ 38
khơi 38
khử_trùng 38
kỷ_niệm 38
leaving 38
lines 38
luật_pháp 38
lô 38
match 38
mid-@@ 38
net 38
ngưng 38
nhiệm 38
nhiệt 38
nuôi 38
nàng 38
offering 38
on_@@ 38
phát_sóng 38
planning 38
players 38
postponed 38
prepare 38
protein 38
race 38
recommended 38
sec@@ 38
serve 38
sick 38
smart 38
sâu 38
taxi 38
television 38
từ_@@ 38
virtual 38
win@@ 38
yer 38
ác_@@ 38
đại 38
́c 38
ật_@@ 38
ết 38
ị@@ 38
ố@@ 38
2000 37
40@@ 37
91 37
98 37
Air@@ 37
An_@@ 37
At@@ 37
Ber@@ 37
Bor@@ 37
Báo_cáo 37
Châu_Âu 37
Chỉ 37
Do_đó 37
En@@ 37
Giáo_dục 37
Ka@@ 37
Kết_quả 37
Nông_nghiệp 37
Oblast 37
Pol@@ 37
Previously 37
River 37
Saudi 37
Sen@@ 37
Several 37
Sơn_@@ 37
Trung_ương 37
Tết 37
Under 37
VNĐ 37
accounts 37
ach@@ 37
af@@ 37
affect 37
ate@@ 37
aviation 37
bal@@ 37
bao 37
beer 37
bit 37
bor@@ 37
bóng 37
bảo_@@ 37
bảo_hộ 37
bị_cáo 37
calls 37
ced 37
chay 37
closely 37
commercial 37
consumers 37
cổ_@@ 37
cực_kỳ 37
decades 37
destinations 37
di_động 37
e-@@ 37
emb@@ 37
exported 37
findings 37
forces 37
fy 37
happened 37
helped 37
hing 37
ize 37
iế@@ 37
khoảng_cách 37
kết_hôn 37
lao 37
law@@ 37
locations 37
lỗ 37
machine 37
maintain 37
mark 37
mil@@ 37
mèo 37
ngạc_nhiên 37
nu@@ 37
nông_thôn 37
nối 37
nội_dung 37
ony 37
phương 37
ple 37
pol@@ 37
post 37
posted 37
prov@@ 37
rea@@ 37
regular 37
ric@@ 37
ser@@ 37
shown 37
software 37
spreading 37
stable 37
sơ_tán 37
sản 37
thiệt_mạng 37
thế_kỷ 37
tinh_thần 37
tranh 37
tuân 37
tệ 37
tổng_cộng 37
tử 37
version 37
view 37
ving 37
viral 37
vấn 37
vợ_chồng 37
xa0 37
ách 37
ê_@@ 37
êu 37
ình 37
ôi_@@ 37
đón 37
đường_sắt 37
địa_@@ 37
ạt_@@ 37
ỉ@@ 37
,000 36
.000 36
13@@ 36
23@@ 36
63 36
AQI 36
Ab@@ 36
Bio@@ 36
Gần 36
High 36
Hồng_@@ 36
Its 36
Lazada 36
League 36
Mc@@ 36
Ngân_hàng 36
Nhung 36
No. 36
Năm_ngoái 36
Office 36
Stu@@ 36
Thông_@@ 36
Tien 36
Tuan 36
WeChat 36
Y 36
ack 36
actually 36
ail 36
aj@@ 36
autom@@ 36
ban_@@ 36
bank 36
breath 36
buôn_bán 36
bước_@@ 36
chains 36
closure 36
cons@@ 36
cử 36
d_@@ 36
depression 36
dra@@ 36
ely 36
famous 36
focus 36
ging 36
giá@@ 36
gy@@ 36
hectares 36
hope 36
huge 36
hạn 36
ily 36
ination 36
income 36
island 36
ku@@ 36
launch 36
matter 36
micro@@ 36
nghiệm 36
ngo@@ 36
nguyên_@@ 36
nhắn 36
offers 36
ology 36
party 36
pate 36
phong 36
pilots 36
pregnant 36
q@@ 36
raise 36
rạp 36
sou@@ 36
sovereignty 36
standing 36
star@@ 36
station 36
thông_thường 36
thứ_bảy 36
tion@@ 36
tional 36
traveled 36
travelled 36
trị 36
tur@@ 36
tw@@ 36
twice 36
tầng 36
viruses 36
we@@ 36
xứ 36
áp_lực 36
đẩy 36
ầy 36
ế_@@ 36
ị_@@ 36
-- 35
1996 35
86 35
Authorities 35
Can 35
Cla@@ 35
Cuba 35
England 35
Festival 35
Giao_thông 35
Giá 35
Gr@@ 35
Gre@@ 35
Har@@ 35
Huong 35
Hà_Lan 35
Index 35
Kiểm_soát 35
Local 35
Meanwhile 35
Nhân_dân 35
Researchers 35
Sec@@ 35
Sun 35
Tiến_sĩ 35
Toà_án 35
Trường_Sa 35
Turkey 35
Yen 35
anc@@ 35
appropriate 35
approval 35
arg@@ 35
art 35
ase 35
associated 35
back@@ 35
bs 35
bánh 35
bầu_cử 35
carrying 35
ce@@ 35
cent 35
chance 35
charge 35
chậm 35
chẳng_hạn 35
chứng_nhận 35
chữa 35
consider 35
controls 35
công_an 35
cần_sa 35
cổ 35
device 35
diện 35
dogs 35
dọc 35
electricity 35
ella 35
employee 35
eo 35
er_@@ 35
felt 35
fighting 35
fr@@ 35
fruits 35
hom@@ 35
hoà_bình 35
hề 35
học_tập 35
ide 35
initial 35
ir 35
jo@@ 35
không_gian 35
khối_lượng 35
kits 35
labor 35
lat@@ 35
liệt 35
lots 35
láng_giềng 35
mass 35
meter 35
method 35
mong_muốn 35
một_chút 35
mục 35
nghiêm_ngặt 35
nghiện 35
nghèo 35
nghề 35
ngăn 35
nhất_định 35
permission 35
phụ 35
phủ 35
questions 35
quà 35
quốc_tịch 35
relationship 35
relevant 35
require 35
review 35
rác_thải 35
rẻ 35
shopping 35
showing 35
sometimes 35
square 35
staying 35
step 35
sushi 35
thanh_niên 35
thải 35
tic@@ 35
tiếp_nhận 35
tàu_@@ 35
understanding 35
vật_@@ 35
vết 35
wants 35
west 35
xuất_@@ 35
y_tá 35
âu 35
ù 35
ú 35
điểm_nóng 35
điện_thoại_di_động 35
đàm_phán 35
đảng 35
đời 35
ấm 35
ệ@@ 35
ờ 35
ụ 35
2.000 34
20% 34
5G 34
79 34
AP 34
Bai 34
Besides 34
Centre 34
Chu@@ 34
Dak 34
Dao 34
Dịch_vụ 34
Following 34
Ford 34
Gar@@ 34
Gia 34
Hiện_tại 34
Instagram 34
Johnson 34
Laos 34
New@@ 34
RT 34
Science 34
Sp@@ 34
Technology 34
Ti@@ 34
Tây_Nguyên 34
Tỉnh 34
U 34
Vụ 34
Ward 34
acid 34
advantage 34
agreement 34
analy@@ 34
animal 34
appear 34
atic 34
begin 34
biên_@@ 34
book 34
borders 34
brands 34
broke 34
bán_@@ 34
bình 34
băng 34
bề_mặt 34
cash 34
charges 34
course 34
cruise 34
cảm_xúc 34
cổ_phần 34
di 34
dream 34
dậy 34
ended 34
equ@@ 34
est@@ 34
ey 34
falling 34
festival 34
fires 34
gate 34
goal 34
healthy 34
hạ 34
ically 34
imports 34
inh 34
inst@@ 34
inten@@ 34
involving 34
kidney 34
kết_án 34
liên_tiếp 34
lỏng 34
may_mắn 34
millions 34
mặt_trời 34
nec@@ 34
nh 34
như_thế_nào 34
nhắm 34
notice 34
nắng 34
ories 34
outbreaks 34
outlets 34
peace 34
phase 34
ping 34
producers 34
revealed 34
rules 34
sai_lệch 34
senior 34
set@@ 34
size 34
sk 34
sm@@ 34
streets 34
suspension 34
sát_@@ 34
tain 34
tin_đồn 34
tiết 34
tranh_chấp 34
tried 34
trộm 34
tác 34
tình 34
tải 34
urban 34
videos 34
views 34
vào_khoảng 34
warning 34
win 34
words 34
xuất_bản 34
è 34
ù@@ 34
ùng_@@ 34
điều_chỉnh 34
định_@@ 34
đồ_ăn 34
đồng_nghiệp 34
ạc 34
ạch 34
ại_@@ 34
ẩm 34
ẩn 34
ận_@@ 34
ắc 34
ọ 34
ồng_@@ 34
ở_@@ 34
2004 33
68 33
71 33
72 33
76 33
93 33
:00 33
Au@@ 33
Bitcoin 33
Br@@ 33
Bro@@ 33
Bác_sĩ 33
CNN 33
Ca@@ 33
Children 33
Co. 33
Court 33
Công_Thương 33
Hùng 33
Indian 33
Khoa_học 33
Kế_hoạch 33
Min@@ 33
Mr 33
Nguyên 33
Nhiệt_đới 33
Post 33
Seoul 33
Teddy 33
Tân_Sơn_Nhất 33
War 33
West 33
abuse 33
aimed 33
airlines 33
akes 33
anu@@ 33
bad 33
bar@@ 33
behavior 33
camera 33
century 33
chim 33
chuyên 33
chắc_chắn 33
claim 33
college 33
continued 33
contracted 33
cooperation 33
cra@@ 33
cây_@@ 33
công_tác 33
cửa_khẩu 33
dance 33
din@@ 33
down@@ 33
ented 33
entertainment 33
eu 33
eventually 33
exam 33
expert 33
expl@@ 33
ey@@ 33
features 33
fields 33
flew 33
fo@@ 33
fun@@ 33
gas 33
ghi_@@ 33
gives 33
giác 33
giáo_sư 33
holding 33
hospitalised 33
houses 33
hoàng 33
impacts 33
improved 33
ine@@ 33
ised 33
islands 33
ities 33
jud@@ 33
karaoke 33
kính 33
lan_truyền 33
landed 33
lo 33
lock 33
lúa 33
lưu 33
marriage 33
medicine 33
movement 33
máy_@@ 33
mô 33
mũi 33
na@@ 33
nam_giới 33
officers 33
organic 33
original 33
payment 33
performed 33
phân_biệt 33
phường 33
phẩm 33
phục 33
providing 33
retail 33
screening 33
search 33
served 33
sharing 33
tal 33
teacher 33
tell 33
thiên_nhiên 33
thực_vật 33
turned 33
tái_chế 33
tội_phạm 33
university 33
upon 33
wearing 33
word 33
xo@@ 33
á_@@ 33
ý_nghĩa 33
ăm 33
đem 33
đen 33
đánh_dấu 33
đặc_@@ 33
độc_hại 33
ường 33
ạ 33
ắc_@@ 33
ọ@@ 33
ỷ 33
Bal@@ 32
Bamboo 32
Ban 32
C. 32
Ca 32
Cam@@ 32
EF 32
Experts 32
FIFA 32
Fin@@ 32
Georgia 32
Ger@@ 32
Huawei 32
Hãy 32
Hải_@@ 32
Liên_@@ 32
Lunar 32
Manila 32
Mas@@ 32
Netflix 32
Ngay 32
Người_dân 32
Pr@@ 32
Putin 32
Rom@@ 32
Scotland 32
Sk@@ 32
Tay 32
Tho 32
Tinh 32
ah@@ 32
ances 32
ank 32
att@@ 32
au 32
basis 32
bom 32
bạo_lực 32
bất_ngờ 32
changing 32
chiếm_@@ 32
chiến_tranh 32
chloroquine 32
cir@@ 32
collected 32
currency 32
có_mặt 32
công_nhận 32
cướp 32
cảm_@@ 32
cẩn_thận 32
deep 32
determine 32
difficulties 32
dish 32
documents 32
dong 32
door 32
dường_như 32
dược_phẩm 32
ease 32
ee 32
ends 32
ered 32
everything 32
exc@@ 32
exercise 32
faced 32
factory 32
fe 32
forward 32
fre@@ 32
gave 32
ghts 32
giường 32
gro@@ 32
gs 32
helping 32
hành_@@ 32
hội_@@ 32
i_l@@ 32
ist@@ 32
jail 32
khu@@ 32
kinh_@@ 32
lear@@ 32
liver 32
logi@@ 32
lửa 32
meat 32
mind 32
mission 32
mm 32
mô_tả 32
nCoV 32
neighboring 32
nghệ_thuật 32
ngoại_trừ 32
nhà_thờ 32
nhện 32
notes 32
older 32
ome@@ 32
opening 32
personnel 32
platform 32
poli@@ 32
policies 32
pul@@ 32
raising 32
read 32
request 32
respectively 32
rộng_rãi 32
science 32
sen 32
skills 32
special@@ 32
syndrome 32
sợ_hãi 32
sức_mạnh 32
taste 32
teachers 32
thi@@ 32
tools 32
trải_nghiệm 32
tập_@@ 32
u_tr@@ 32
ual 32
ung 32
unit 32
vaccination 32
visas 32
vulnerable 32
vải 32
yp@@ 32
àn_@@ 32
í_@@ 32
ăn_uống 32
Đức_@@ 32
đối_tượng 32
ưa 32
ạc_@@ 32
ấn 32
ễ@@ 32
ờ_@@ 32
ữ_@@ 32
000 31
1990 31
2025 31
84 31
CO@@ 31
Centers 31
Colombia 31
Cường 31
Dell 31
Despite 31
Dự_án 31
Ebola 31
FC 31
Ga@@ 31
Ian 31
Lao 31
Nguyễn_Văn_@@ 31
Nhật 31
Ni@@ 31
Northern 31
On@@ 31
Phương_@@ 31
Princess 31
Quốc_phòng 31
Sức_khoẻ 31
Thêm 31
Today 31
Tuy@@ 31
Uni@@ 31
Vũ_@@ 31
_s@@ 31
add 31
ade 31
adi@@ 31
agu@@ 31
ala 31
ama 31
ams 31
application 31
authority 31
below 31
calling 31
cat@@ 31
char@@ 31
chia 31
chiến_đấu 31
chấp_nhận 31
chấp_thuận 31
comment 31
consul@@ 31
continues 31
cri@@ 31
cũ 31
denied 31
depen@@ 31
des 31
desig@@ 31
dings 31
dry 31
ective 31
ei@@ 31
executive 31
exp@@ 31
ff 31
flu 31
foods 31
gin 31
giàu 31
govern@@ 31
grade 31
gã 31
haz@@ 31
hành_chính 31
hồi_hương 31
ians 31
im 31
index 31
ises 31
ju@@ 31
khuyến_nghị 31
khán_giả 31
khô 31
ki@@ 31
kênh 31
la 31
liền 31
lít 31
lọt 31
miles 31
monitored 31
mortality 31
mouth 31
movie 31
màn_hình 31
mười 31
một_@@ 31
ney 31
người_thân 31
nhà_cung_cấp 31
om 31
operate 31
ounds 31
parti@@ 31
partners 31
phá_huỷ 31
pháp_luật 31
phóng_viên 31
plan@@ 31
promp@@ 31
proposal 31
quỹ 31
reas@@ 31
reportedly 31
row 31
sad 31
sc@@ 31
seek 31
seeking 31
sol@@ 31
solutions 31
stand 31
success 31
suffering 31
suspend 31
swe@@ 31
sơ_sinh 31
sửa 31
temporary 31
thus 31
thất_bại 31
thắng 31
tiết_kiệm 31
tiềm_ẩn 31
tric@@ 31
truy_cập 31
trì_hoãn 31
tuy_nhiên 31
uni@@ 31
vai 31
violence 31
xe_tải 31
Ý. 31
à@@ 31
è@@ 31
êm_@@ 31
ích_@@ 31
ói 31
óng 31
đậu 31
đột_@@ 31
ươ@@ 31
ầu 31
ắt 31
ộ@@ 31
10.@@ 30
12.@@ 30
2007 30
80,000 30
94 30
Bas@@ 30
Brunei 30
Bộ_@@ 30
Commerce 30
Corporation 30
Dis@@ 30
Giáng_sinh 30
Hoà 30
John 30
Kingdom 30
La_@@ 30
Law 30
Môi_trường 30
Navy 30
Once 30
Pan@@ 30
Phú 30
Quy@@ 30
Rec@@ 30
Samadova 30
Sulli 30
Thien 30
Thương_mại 30
Tre 30
Tre@@ 30
Truyền_thông 30
UN@@ 30
US@@ 30
ack@@ 30
advice 30
alle@@ 30
applied 30
ards 30
assistance 30
ater 30
ay_@@ 30
bat@@ 30
beauty 30
becomes 30
becoming 30
buying 30
bánh_@@ 30
cen@@ 30
cho_hay 30
chặt 30
clean 30
computer 30
cru@@ 30
cải_@@ 30
cụ 30
di_@@ 30
do_đó 30
doors 30
drink 30
dro@@ 30
dùng 30
dưỡng_lão 30
dự_định 30
ell 30
ences 30
ency 30
eries 30
except 30
expanded 30
faces 30
forms 30
guidelines 30
hiế@@ 30
hor@@ 30
hồ 30
hữu_cơ 30
ick@@ 30
ili@@ 30
industrial 30
ired 30
iệt 30
kho 30
kháng_thể 30
kiểu 30
kể_cả 30
larger 30
link 30
liều 30
low@@ 30
lân_cận 30
lạ 30
lừa_đảo 30
marked 30
married 30
matches 30
mean 30
mentioned 30
minute 30
miễn 30
municipal 30
nghi@@ 30
nging 30
nhân_dân 30
nursing 30
nắm 30
occurred 30
oi 30
onal 30
paper 30
practice 30
provincial 30
ranked 30
rather 30
ray 30
reducing 30
relations 30
removed 30
sh 30
shortage 30
significantly 30
siêu_vi 30
songs 30
suit 30
sáng_tạo 30
sét 30
sự_cố 30
talk 30
tes@@ 30
thanks 30
thuốc_lá 30
tia 30
towards 30
trac@@ 30
treating 30
trình_@@ 30
trông 30
tung 30
tài_nguyên 30
tôn_giáo 30
tự_động 30
ue 30
van@@ 30
vận_hành 30
vệ 30
weapons 30
weight 30
winter 30
wit@@ 30
with@@ 30
wood 30
xử 30
Á@@ 30
á 30
ãi 30
êu_@@ 30
ü@@ 30
đại_dương 30
động_đất 30
ưu_tiên 30
ứ@@ 30
ức_@@ 30
ự 30
ựa 30
/7 29
1-@@ 29
1.5 29
210 29
3.000 29
50.000 29
92 29
Business 29
ByteDance 29
Coffee 29
Giám_đốc_điều_hành 29
Haiy@@ 29
Home 29
LGBT 29
Lao_động 29
Mac@@ 29
Mad@@ 29
Market 29
May@@ 29
Network 29
Nic@@ 29
Noi 29
Nước 29
Pakistani 29
Pho@@ 29
SA@@ 29
Sha@@ 29
Tenma 29
Thang 29
Thuỵ_Sĩ 29
Victoria 29
_ch@@ 29
activ@@ 29
address 29
advertising 29
ahead 29
alities 29
allows 29
attacks 29
budget 29
bác_bỏ 29
carriers 29
chiếu 29
chronic 29
chủ_đề 29
co-@@ 29
concerned 29
covered 29
customs 29
căn 29
degree 29
die 29
dặm 29
ees 29
enz@@ 29
ese 29
exclu@@ 29
explained 29
exposed 29
extremely 29
fil@@ 29
giới_tính 29
green 29
helps 29
high@@ 29
hiện_đại 29
hoá_học 29
huyết_tương 29
hè 29
hình_thành 29
hơn_nữa 29
họp_báo 29
immigration 29
iền 29
kids 29
kil@@ 29
kiểm_@@ 29
landing 29
ler 29
lif@@ 29
loo@@ 29
lor@@ 29
lọc 29
machines 29
maker 29
managed 29
map 29
ministries 29
mạch 29
mời 29
nhân_sự 29
nêu 29
ome 29
origin 29
oxygen 29
payments 29
peak 29
performance 29
phân_phối 29
processing 29
quốc_@@ 29
ra_lệnh 29
rapid 29
religious 29
remained 29
resort 29
rút 29
servation 29
sle@@ 29
smoke 29
solution 29
stands 29
star 29
stayed 29
stri@@ 29
studying 29
sun 29
sốc 29
sử 29
technical 29
thế_nào 29
tinh_@@ 29
tonnes 29
trao_đổi 29
trích_dẫn 29
trưởng_thành 29
tái 29
tâm_lý 29
van 29
vegetables 29
vi 29
visiting 29
vườn 29
wa@@ 29
wide 29
xương 29
zed 29
ánh_@@ 29
áo_@@ 29
áp_@@ 29
òng 29
út 29
đồng_bằng 29
ược 29
́ng 29
ầ@@ 29
ết_@@ 29
ề 29
ọc 29
ộng 29
ỹ 29
'@@ 28
0-@@ 28
130 28
20,000 28
2022 28
89 28
Ap@@ 28
Bru@@ 28
Chairman 28
Embassy 28
Hoi 28
Hà_Tĩnh 28
Lea@@ 28
Lombardy 28
Lệnh 28
MV 28
Mr. 28
Nghe 28
Pi@@ 28
Quản_lý 28
Ru@@ 28
Sinh 28
Sân_bay 28
Tim@@ 28
Tuấn 28
Tờ 28
Wal@@ 28
Wales 28
Z 28
a-@@ 28
aid 28
apply 28
attract 28
bes 28
biểu_diễn 28
bí_mật 28
bất_động_sản 28
bậc 28
chai 28
cham@@ 28
chạm 28
chỉ_định 28
consequences 28
dam@@ 28
decide 28
deli@@ 28
demonstr@@ 28
deployed 28
dragon 28
driver 28
eld 28
email 28
enh@@ 28
eu@@ 28
evi@@ 28
figures 28
flow 28
freedom 28
gener@@ 28
generally 28
genetic 28
gold 28
granted 28
gue 28
gắn 28
happen 28
happy 28
hết_sức 28
illa 28
imp@@ 28
implemented 28
itself 28
join 28
kinh_nghiệm 28
kích_hoạt 28
leaves 28
loved 28
lây 28
majority 28
manager 28
meaning 28
mes 28
mảnh 28
nearby 28
ngon 28
nguyên_liệu 28
ngộ_độc 28
nhiên 28
nói_chuyện 28
nộp 28
ous@@ 28
ously 28
pain 28
ped 28
phỏng_vấn 28
ples 28
pos@@ 28
pur@@ 28
quarantining 28
recognition 28
regional 28
riêng_tư 28
ro 28
road 28
sel@@ 28
simple 28
society 28
standards 28
stations 28
ster 28
stra@@ 28
stress 28
studied 28
suffer 28
suy_giảm 28
sàng_lọc 28
sụt_giảm 28
tho@@ 28
throat 28
tickets 28
tiền_@@ 28
ton@@ 28
tracking 28
trang_@@ 28
traveling 28
trạng 28
trầm_cảm 28
typically 28
tách 28
tấm 28
tụ_họp 28
tỷ_phú 28
ul 28
urgent 28
vice 28
vỡ 28
walk 28
wildlife 28
yếu 28
ái_@@ 28
ùa 28
úc 28
Được 28
độc_lập 28
ư_@@ 28
̀@@ 28
̣@@ 28
̣c 28
ạng 28
ật 28
ẽ 28
ề@@ 28
ỏ 28
ỏ@@ 28
ỗ 28
ỗ@@ 28
ụ@@ 28
ứa 28
ứng_cử_viên 28
10.000 27
15,000 27
15.@@ 27
200,000 27
5-@@ 27
70% 27
90% 27
AP@@ 27
Ah@@ 27
Arabia 27
Bab@@ 27
Before 27
Ben 27
Bien 27
Bình_Thuận 27
Cap@@ 27
Data 27
Defense 27
Em 27
Four 27
Gam@@ 27
HCV 27
Her@@ 27
Hà_@@ 27
IT 27
Lâm 27
Madrid 27
Me 27
Mis@@ 27
Nam_Phi 27
Natural 27
Ngọc_@@ 27
Not 27
Nu@@ 27
Pal@@ 27
Phase 27
Phúc 27
Phương 27
Scientists 27
Sou@@ 27
Spratly 27
Texas 27
Thái 27
Tung 27
Village 27
Win@@ 27
_thuật 27
ably 27
ae 27
aim 27
alleged 27
alone 27
ara 27
arrivals 27
assets 27
attrac@@ 27
ban@@ 27
bet@@ 27
bought 27
breaking 27
burning 27
báo_chí 27
bệnh_tật 27
bộ_@@ 27
chuyển_đổi 27
clo@@ 27
cluster 27
consumption 27
cs 27
có_lẽ 27
căn_hộ 27
cổ_đông 27
damaged 27
dering 27
destination 27
dies 27
doanh 27
draw 27
duyệt 27
dân_cư 27
dị_ứng 27
dựng 27
ental 27
false 27
generation 27
hoà_@@ 27
họng 27
immediate 27
instance 27
khối 27
ko 27
lar 27
lay@@ 27
lied 27
lived 27
liên_kết 27
logist 27
looks 27
lowest 27
loạn 27
lungs 27
làn_sóng 27
lưu_trữ 27
lắp_đặt 27
lối 27
lớp_học 27
ma_tuý 27
mas@@ 27
ment@@ 27
modern 27
mor@@ 27
mus@@ 27
mát 27
networks 27
nguy_kịch 27
ngân_sách 27
nhận_dạng 27
non@@ 27
note 27
nấu 27
offered 27
opportunity 27
phiếu 27
phát_ngôn_viên 27
phân 27
phạm_vi 27
plasma 27
pork 27
pre-@@ 27
pregnancy 27
prepared 27
producing 27
professor 27
purchase 27
py@@ 27
quyền_lực 27
ranking 27
real@@ 27
requires 27
resid@@ 27
respon@@ 27
sai 27
seized 27
seriously 27
some@@ 27
sor@@ 27
spokesman 27
street 27
strictly 27
suggests 27
surface 27
tain@@ 27
target 27
tham_quan 27
thủ_@@ 27
til@@ 27
toà_án 27
trading 27
tranh_cãi 27
tre@@ 27
tropical 27
trái_cây 27
trái_phép 27
trời 27
tác_dụng 27
und@@ 27
vay 27
voi 27
waiting 27
wild 27
work@@ 27
xe_máy 27
yourself 27
Á 27
àm 27
ô_@@ 27
ý_@@ 27
Đình_@@ 27
Đồng_@@ 27
đánh_@@ 27
đến_nơi 27
đối_thủ 27
đối_xử 27
ưng 27
̉ 27
ạm 27
ạo 27
ảo_@@ 27
ấ@@ 27
ắn 27
ọn 27
ửa 27
ữ@@ 27
’@@ 27
1,0@@ 26
100,000 26
12,@@ 26
1982 26
22@@ 26
6,000 26
60@@ 26
81 26
ABC 26
As@@ 26
Biển_Đông 26
Buddha 26
Bảo_@@ 26
Bắc_Ninh 26
Bắt_đầu 26
Cai 26
Chiếc 26
Châu_Á 26
Chị 26
Commission 26
Có_thể 26
Cửu_Long 26
Dân_@@ 26
Environment 26
Fore@@ 26
Foundation 26
Giáo_@@ 26
Gra@@ 26
Hy_Lạp 26
Hội_đồng 26
ID@@ 26
Liên_minh 26
MERS 26
Medicine 26
Mi@@ 26
Mười 26
Mỗi 26
N. 26
Na_Uy 26
Netherlands 26
Nguyễn 26
Nguyễn_Thị_@@ 26
Nhật_@@ 26
Nội_@@ 26
Phụ_nữ 26
Quy 26
Quảng_@@ 26
RE@@ 26
San@@ 26
Switzerland 26
Ten@@ 26
Thao 26
UN 26
Ul@@ 26
Union 26
VA@@ 26
announ@@ 26
apartment 26
atives 26
ature 26
boats 26
bridge 26
bảo_tồn 26
bếp 26
c_s@@ 26
chuột 26
cles 26
clothing 26
club 26
complex 26
containing 26
content 26
contract 26
culture 26
customer 26
cy@@ 26
cử_@@ 26
decade 26
dia 26
directed 26
doanh_số 26
dollars 26
dy@@ 26
ection 26
election 26
embassy 26
encourage 26
enjoy 26
es_@@ 26
estimates 26
fic@@ 26
figure 26
finding 26
flying 26
fund 26
funds 26
gation 26
giảm_giá 26
gloves 26
heard 26
hoạ 26
hôn_nhân 26
hấp_dẫn 26
image 26
isolate 26
iti@@ 26
iề@@ 26
khai_@@ 26
khẩu 26
killing 26
kings 26
kèm 26
kết_luận 26
kỷ_lục 26
lightning 26
linh_@@ 26
liệu_pháp 26
ll@@ 26
lose 26
lính 26
meals 26
message 26
milk 26
mit@@ 26
muộn 26
nal 26
ngày_@@ 26
ngày_nay 26
ngón 26
ngưỡng 26
nhân_vật 26
niên 26
ny 26
nổi_bật 26
orial 26
ot 26
particip@@ 26
phiên_toà 26
phu@@ 26
pose 26
powerful 26
precau@@ 26
preparing 26
produc@@ 26
protests 26
provides 26
purch@@ 26
quyết 26
ran 26
restaurant 26
ret@@ 26
route 26
rule 26
running 26
sale 26
scored 26
sensitive 26
serving 26
sign@@ 26
ski 26
spokesperson 26
steps 26
sto@@ 26
strength 26
stressed 26
sts 26
subject 26
subsequently 26
sống_sót 26
sự_nghiệp 26
tally 26
teen@@ 26
tel@@ 26
territory 26
thi_đấu 26
thy 26
thú 26
thống_kê 26
tiêu_cực 26
tiếp_@@ 26
tiền_mặt 26
tiệc 26
toxic 26
trains 26
tries 26
trại 26
tài_xế 26
tâm_@@ 26
tình_@@ 26
ums 26
un 26
unknown 26
viol@@ 26
violations 26
vũ_khí 26
vật_lý 26
web 26
wer 26
widely 26
wind 26
xe_đạp 26
yêu_sách 26
zero 26
zhou 26
ài_@@ 26
Đông_Anh 26
đa 26
đoán 26
đuổi 26
đạo_diễn 26
đốc 26
đồng_tính 26
động_thái 26
ản 26
ằ@@ 26
ặt 26
ễ 26
ội_@@ 26
ỡ 26
ừa 26
ữa 26
’m 26
10,@@ 25
30,000 25
4.000 25
96 25
Bangladesh 25
Between 25
Boeing 25
Bri@@ 25
Britney 25
Bằng 25
CE@@ 25
Cola 25
FI@@ 25
Fran@@ 25
Harvard 25
Hi@@ 25
Hoa_@@ 25
Hải_quân 25
IOC 25
Iraq 25
Is@@ 25
Khu_vực 25
Kyo 25
Loi 25
Nội 25
Ohio 25
Oise 25
Phú_Quốc 25
Pre@@ 25
Q 25
RT@@ 25
Rural 25
Sam@@ 25
Santa 25
Sar@@ 25
Statistics 25
Swift 25
Tam 25
Thompson 25
Tor@@ 25
Ty@@ 25
Tú 25
VOA 25
Val@@ 25
Virus 25
Vo@@ 25
Xuân_@@ 25
_m@@ 25
accounting 25
ained 25
alert 25
alo@@ 25
ands 25
artificial 25
as_@@ 25
attracted 25
aw@@ 25
behaviors 25
biểu_hiện 25
boat 25
bản_đồ 25
bảo 25
bỏ_phiếu 25
cam@@ 25
cell 25
ceremony 25
challenge 25
chàng 25
chấn_thương 25
chế_biến 25
chủ_@@ 25
chủ_sở_hữu 25
cing 25
cli@@ 25
coastal 25
con_@@ 25
considering 25
consumer 25
cooking 25
criminal 25
cul@@ 25
cuộc_đời 25
cô_lập 25
decisions 25
detained 25
dinh_dưỡng 25
diphtheria 25
dishes 25
divi@@ 25
doanh_nhân 25
domin@@ 25
dreams 25
else 25
ened 25
enting 25
essed 25
estate 25
flu@@ 25
founder 25
funding 25
ga 25
gain 25
gets 25
giáo 25
graph@@ 25
grown 25
gà 25
hea@@ 25
hotspot 25
hygiene 25
hàng_hải 25
hưởng 25
hải_quan 25
hối_lộ 25
importance 25
iness 25
infrastructure 25
inh@@ 25
initi@@ 25
initially 25
injuries 25
ison 25
khai 25
kháng_sinh 25
khủng_bố 25
kim 25
listed 25
lũ 25
messages 25
mp 25
mạng_lưới 25
mặt_hàng 25
mặt_nạ 25
neighb@@ 25
nghỉ_dưỡng 25
ngoài_trời 25
người_lớn 25
nhạy_cảm 25
nới 25
ocean 25
overall 25
phi_hành_đoàn 25
physi@@ 25
picture 25
property 25
putting 25
quyên_góp 25
quản 25
ran@@ 25
reaching 25
ree 25
regarding 25
reopen 25
rep@@ 25
resulted 25
rich 25
score 25
seat 25
separate 25
simply 25
slow@@ 25
spending 25
sted 25
subjects 25
successfully 25
super@@ 25
surgery 25
sâu_sắc 25
teaching 25
technologies 25
tend 25
therapy 25
thiên_@@ 25
thre@@ 25
thân 25
thư_@@ 25
thương 25
thả 25
thủ_tướng 25
tin_cậy 25
tiêu_@@ 25
tournament 25
track 25
train 25
transactions 25
trình_diễn 25
trừng_phạt 25
tual 25
tái_@@ 25
tìm_hiểu 25
tập_trận 25
tố 25
tổng_@@ 25
visits 25
ware 25
weak@@ 25
western 25
worker 25
xăng 25
younger 25
ã@@ 25
đánh_bại 25
đòi_hỏi 25
đặc_điểm 25
̀ng 25
́ 25
ải 25
ẩn_@@ 25
ền_@@ 25
ổ_@@ 25
ủ@@ 25
ứng_phó 25
've 24
243 24
3rd 24
450 24
900 24
97 24
About 24
Anh_@@ 24
Around 24
Assembly 24
AstraZeneca 24
Auckland 24
Awards 24
Bay 24
Bill 24
Bắc_Triều_Tiên 24
Communist 24
Dang 24
Dien 24
Due 24
Fu@@ 24
Gates 24
Guinea 24
HC@@ 24
Hye 24
Hải_Phòng 24
Hội_An 24
IP@@ 24
Kỳ 24
Lab@@ 24
Lister 24
Liên_hợp_quốc 24
MC 24
Melbourne 24
Minh_@@ 24
Musk 24
Như 24
OPEC 24
Project 24
Sal@@ 24
Ser@@ 24
Service 24
Ste@@ 24
Sto@@ 24
Sweden 24
Tau 24
Tencent 24
Their 24
Tru@@ 24
Trái_đất 24
Ven@@ 24
WT@@ 24
White 24
Yên 24
acquire 24
adap@@ 24
ads 24
affecting 24
agriculture 24
ania 24
app@@ 24
ased 24
ases 24
ash 24
asking 24
atmosphere 24
attended 24
bars 24
beautiful 24
bi 24
biểu 24
bom@@ 24
bre@@ 24
broadcast 24
camp 24
candidates 24
cao_@@ 24
cer@@ 24
challenges 24
che 24
choose 24
coach 24
commonly 24
contracts 24
core 24
cou@@ 24
counter@@ 24
cân 24
cân_nhắc 24
công_suất 24
cấp_tính 24
dates 24
delivery 24
design 24
diagnosis 24
difference 24
direc@@ 24
dismis@@ 24
document 24
double 24
dozens 24
dã_chiến 24
dỡ 24
earned 24
easy 24
ek 24
eyes 24
fines 24
frequency 24
gene 24
ghế 24
gián_đoạn 24
gram 24
grand@@ 24
ham 24
households 24
hoá_chất 24
hum@@ 24
hình_thức 24
hạnh_phúc 24
hội_chứng 24
ica 24
ie 24
implement 24
influence 24
insects 24
introduced 24
istan 24
items 24
khuôn_mặt 24
kích_thích 24
kế 24
lab@@ 24
liên_bang 24
load 24
lái 24
lập_@@ 24
lộ 24
lực 24
marketing 24
material 24
may_mặc 24
medi@@ 24
migr@@ 24
moment 24
mật_@@ 24
mặt_@@ 24
n_th@@ 24
neighbors 24
nitrate 24
nướng 24
nấu_ăn 24
nắng_nóng 24
od@@ 24
officially 24
oned 24
oning 24
onto 24
ori@@ 24
page 24
photos 24
phán_quyết 24
phân_loại 24
phòng_@@ 24
phản_@@ 24
phối_hợp 24
prin@@ 24
prison 24
question 24
quá_cảnh 24
ram@@ 24
rare 24
recognized 24
rement 24
reporters 24
requirements 24
sample 24
scene 24
sch@@ 24
scientific 24
scores 24
screen 24
seems 24
sentenced 24
sey 24
smartphone 24
stability 24
stan 24
stem 24
stood 24
suspects 24
suy_nghĩ 24
suất 24
sy@@ 24
sản_lượng 24
sắc_@@ 24
sốt_rét 24
sự_@@ 24
thanh_long 24
thiết 24
thuốc_trừ_sâu 24
tiếp_viên 24
tiệm 24
toward 24
transmitted 24
treatments 24
trò_chuyện 24
trôi 24
tương_ứng 24
tập_thể_dục 24
uy_@@ 24
values 24
vessels 24
vi-rút 24
vi_@@ 24
vô_cùng 24
vật_liệu 24
widespread 24
winds 24
xâm_nhập 24
ý_kiến 24
Đầu 24
đôi_khi 24
đường_phố 24
đấy 24
đồng_hồ 24
động_@@ 24
đợi 24
ướng 24
ường_@@ 24
ạnh 24
ần_@@ 24
ậm_@@ 24
ắm 24
ắng_@@ 24
ằng 24
ố_@@ 24
ồn 24
ộ 24
11,@@ 23
120 23
1995 23
1998 23
3.5 23
9,000 23
Academy 23
Ang@@ 23
Bamboo_Airways 23
Barley 23
Based 23
Báo 23
Cas@@ 23
College 23
Comm@@ 23
Cri@@ 23
Cu 23
Cái 23
Cũng 23
Daegu 23
Dak@@ 23
Don@@ 23
Dịch_bệnh 23
ECMO 23
Hàng_không 23
Hôm 23
III 23
Industrial 23
Investig@@ 23
Khánh 23
Khánh_Hoà 23
Kien 23
Michael 23
Military 23
Mặt_@@ 23
New_@@ 23
Ngành 23
Nha 23
Nhi 23
Norway 23
Noul 23
Olympics 23
Oper@@ 23
Pas@@ 23
Quảng_Trị 23
Saint 23
Sch@@ 23
Shi@@ 23
Silicon 23
Station 23
Số_lượng 23
TW 23
Thuy 23
Thái_@@ 23
Vung 23
Xã_hội 23
Y_@@ 23
_trị 23
ables 23
accident 23
acting 23
actress 23
advis@@ 23
aims 23
aly@@ 23
aries 23
aring 23
arm 23
atory 23
attend 23
beat 23
benefits 23
bers 23
birth@@ 23
biểu_tượng 23
black 23
bright 23
broken 23
bàn_giao 23
bạch_hầu 23
bất_thường 23
bầu 23
bụi 23
celebrate 23
centralized 23
citing 23
collect 23
comb@@ 23
cooper@@ 23
corpor@@ 23
creating 23
có@@ 23
công_trình 23
cắn 23
cồn 23
cục 23
deadly 23
dents 23
depar@@ 23
details 23
dium 23
drinking 23
ead 23
edge 23
educational 23
eigh@@ 23
electric 23
employment 23
epidemio@@ 23
expand 23
exten@@ 23
extra 23
extreme 23
factories 23
fears 23
fer@@ 23
fill 23
finally 23
fle@@ 23
floor 23
forests 23
fro@@ 23
gg@@ 23
ghép 23
goals 23
găng_tay 23
hear@@ 23
hiệp_@@ 23
hood 23
hormone 23
hoàn 23
humanitarian 23
huy_động 23
hưu 23
hộ_chiếu 23
hợp_pháp 23
ices 23
imm@@ 23
in_@@ 23
injured 23
int@@ 23
iện 23
joined 23
keeping 23
khuẩn 23
khắc_nghiệt 23
khởi_hành 23
knowledge 23
ko@@ 23
kéo 23
ký_@@ 23
lia 23
loaded 23
lành_mạnh 23
lấp 23
lịch 23
lớn_tuổi 23
men@@ 23
mir@@ 23
miếng 23
mong 23
nghệ_sĩ 23
người_phát_ngôn 23
nhất_là 23
nurses 23
nợ 23
occurs 23
omin@@ 23
operated 23
organized 23
ound 23
ox@@ 23
oxy 23
package 23
parks 23
parties 23
partner 23
pigs 23
pion@@ 23
platforms 23
playing 23
polluted 23
posed 23
post-@@ 23
prev@@ 23
promote 23
proper 23
protected 23
quê 23
railway 23
red@@ 23
reporting 23
reti@@ 23
rượu_vang 23
save 23
scen@@ 23
section 23
seeing 23
serv@@ 23
sity 23
sky 23
slow 23
smaller 23
sn@@ 23
speech 23
spring 23
ss 23
startup 23
sáng_lập 23
sân_vận_động 23
sòng 23
sợi 23
thuyền 23
thành_phần 23
thương_@@ 23
thương_mại_điện_tử 23
thẩm_quyền 23
thật_sự 23
thời_@@ 23
thực_thi 23
tings 23
tiên 23
toàn_diện 23
trafficking 23
transfer 23
travellers 23
tro 23
true 23
trust 23
trăng 23
tài 23
tán 23
tối_@@ 23
tối_đa 23
tổn_thất 23
tổng_hợp 23
vari@@ 23
vehicle 23
vô_địch 23
vũ_@@ 23
vải_thiều 23
vọt 23
washing 23
water@@ 23
xuyên 23
xác_minh 23
yu@@ 23
Á. 23
àng_@@ 23
áng_@@ 23
áo 23
óng_@@ 23
ă@@ 23
Độ 23
đề 23
độ_@@ 23
ấu 23
ẩm_@@ 23
ể 23
ối_@@ 23
ực_@@ 23
'll 22
1.0@@ 22
124 22
199@@ 22
2,5 22
28@@ 22
AD@@ 22
AT@@ 22
Border 22
Boston 22
Bảo_tàng 22
CA@@ 22
Char@@ 22
Chris@@ 22
Civil 22
Coca 22
Davi@@ 22
Director 22
Drug 22
Dương 22
EC 22
EP@@ 22
Ev@@ 22
Ever@@ 22
FDA 22
Fer@@ 22
Fi@@ 22
Gol@@ 22
Goo 22
Honda 22
Hou@@ 22
Investment 22
Lực_lượng 22
Malaysian 22
Mur@@ 22
Nội_Bài 22
Peace 22
Pennsylvania 22
Phan_@@ 22
Phuoc 22
Play 22
Por@@ 22
Quang_@@ 22
Resources 22
Ry@@ 22
Sim@@ 22
TNHH 22
TP@@ 22
Thanh_Hoá 22
Tho@@ 22
Thom@@ 22
Thua 22
Thắng 22
Turkish 22
UNESCO 22
VN 22
VietnamPlus 22
Về 22
War@@ 22
Western 22
Wi@@ 22
X-@@ 22
Yahoo 22
ach 22
achiev@@ 22
actor 22
ah 22
airs 22
aria 22
asp@@ 22
ately 22
avo@@ 22
beef 22
block 22
books 22
bệnh_dịch 22
cal 22
canceled 22
career 22
cc@@ 22
charged 22
checks 22
chiếu_phim 22
chữ 22
chữa_trị 22
closing 22
clu@@ 22
combat 22
communic@@ 22
cong@@ 22
cros@@ 22
cus 22
cuts 22
cutting 22
cá_@@ 22
cán_bộ 22
cơ_@@ 22
cấp_độ 22
cầm 22
cụm 22
decline 22
delivered 22
depending 22
disc@@ 22
doses 22
dung 22
duty 22
dù 22
dụng 22
dính 22
ecting 22
elling 22
eo@@ 22
eted 22
ethnic 22
experiencing 22
experim@@ 22
fail 22
federal 22
feet 22
fication 22
fine 22
foc@@ 22
frequently 22
function 22
fur@@ 22
garment 22
gathering 22
giấu 22
globally 22
gradually 22
guard 22
góp_phần 22
hopes 22
hot@@ 22
hình_sự 22
hòn 22
hạn_hán 22
identi@@ 22
iled 22
imag@@ 22
insp@@ 22
ions 22
ising 22
khung 22
khả_thi 22
khởi_nghiệp 22
kill 22
kích 22
kích_thước 22
kịch 22
liter@@ 22
lúc 22
lần_lượt 22
manufacturers 22
marijuana 22
mid@@ 22
missing 22
mit 22
models 22
mosquitoes 22
muối 22
màu_sắc 22
mây 22
mã@@ 22
mới_đây 22
n_l@@ 22
names 22
ng-@@ 22
ngôi_sao 22
nhiệt_@@ 22
nhân_đạo 22
nhảy 22
normally 22
now@@ 22
năng_lực 22
nước_ngọt 22
patho@@ 22
perform 22
persons 22
predic@@ 22
preventive 22
producer 22
progress 22
psycho@@ 22
purposes 22
quan_@@ 22
quan_ngại 22
que 22
rati@@ 22
reaction 22
reau 22
ref@@ 22
remove 22
requiring 22
residing 22
respond 22
rich@@ 22
roads 22
rumors 22
scre@@ 22
sectors 22
seem 22
sense 22
shot 22
sinh_mạng 22
sli@@ 22
smartphones 22
spo@@ 22
spoke 22
spot 22
stadi@@ 22
stake 22
ster@@ 22
storms 22
strict 22
suggest 22
surrounding 22
survi@@ 22
teens 22
tens 22
thu_hoạch 22
thông_điệp 22
thứ_sáu 22
tical 22
tiêm_chủng 22
tiếp_thị 22
tiểu_bang 22
tom@@ 22
trái_tim 22
trước_@@ 22
trợ_lý 22
tài_@@ 22
túi 22
tức_là 22
từ_thiện 22
tự_tin 22
u_th@@ 22
unable 22
unusual 22
ut 22
uỷ_ban 22
violating 22
vua 22
vui 22
văn 22
vận_động 22
vừa_qua 22
wait 22
was@@ 22
worse 22
za 22
£ 22
ây_@@ 22
óc_@@ 22
ói_@@ 22
đài 22
đánh_bắt 22
đối_@@ 22
đồn 22
ũ_@@ 22
ơn_@@ 22
ước_@@ 22
ườ@@ 22
ưởng_@@ 22
ượng_@@ 22
Ả_Rập_@@ 22
ấp_@@ 22
ắt_@@ 22
ố 22
ốm 22
ỹ_@@ 22
1.3 21
25% 21
4.0 21
40% 21
AFC 21
Argentina 21
BMS 21
Ban@@ 21
Because 21
Berlin 21
Bul@@ 21
Bình_Dương 21
Bùi_@@ 21
Bốn 21
Canadian 21
Chính_@@ 21
Chỉ_số 21
Chủ_Nhật 21
Community 21
Congo 21
Cru@@ 21
Cách 21
Cổ_phần 21
Dani@@ 21
Dat 21
Dr 21
Dù_vậy 21
Dự_báo 21
Emergency 21
Force 21
Gen@@ 21
Herat 21
Hoan 21
How 21
Hydro@@ 21
Information 21
Islamic 21
JSC 21
Kaz@@ 21
Liu 21
Mari@@ 21
My@@ 21
Ne@@ 21
Nghệ_An 21
Ngô_@@ 21
Ngọc 21
Pa 21
Phan 21
Phát_@@ 21
Phòng_ngừa 21
Qatar 21
Ray 21
Rob@@ 21
San_@@ 21
Six 21
Sydney 21
Sản_@@ 21
TC@@ 21
Thế_@@ 21
Thứ 21
Tiế@@ 21
Toyota 21
Travel 21
Tài_nguyên 21
Vaccine 21
Vinasun 21
Vis@@ 21
Văn_phòng 21
Vắc-xin 21
after@@ 21
ama@@ 21
anh_chàng 21
ao@@ 21
apart 21
apped 21
arm@@ 21
article 21
award 21
ays 21
batch 21
battle 21
bil@@ 21
bodies 21
borne 21
box 21
buôn_người 21
bảo_mật 21
bỏ_qua 21
bụng 21
casino 21
cau@@ 21
certificate 21
check@@ 21
chi_trả 21
cháu 21
chì 21
chấm_dứt 21
clin@@ 21
concluded 21
coo@@ 21
covering 21
cơ_sở_hạ_tầng 21
cấ@@ 21
cầu_@@ 21
cập 21
dea@@ 21
dent 21
departments 21
described 21
di_sản 21
di_truyền 21
discus@@ 21
diễn_biến 21
dom 21
elimin@@ 21
ending 21
eption 21
even@@ 21
exams 21
excee@@ 21
falls 21
ference 21
fla@@ 21
friendly 21
gather 21
ger 21
gic 21
giàu_có 21
giả@@ 21
gol@@ 21
ham@@ 21
handed 21
harmful 21
head@@ 21
hepatitis 21
himself 21
hiện_@@ 21
hiệp 21
huyết_áp 21
hà@@ 21
hàng_xóm 21
hương_vị 21
hải_@@ 21
hầu_như 21
hồng 21
hữu_ích 21
ied 21
iller 21
impacted 21
increases 21
increasingly 21
ine_@@ 21
influ@@ 21
informed 21
institutions 21
investigate 21
is_@@ 21
iti 21
itting 21
iệu 21
khai_báo 21
khoẻ_mạnh 21
lab 21
lau 21
less@@ 21
liệt_kê 21
long@@ 21
lou@@ 21
luy@@ 21
mag@@ 21
mal@@ 21
maritime 21
mem@@ 21
mùi 21
mặn 21
mực 21
nd 21
ner@@ 21
nes@@ 21
ngọn 21
nhắc 21
nit@@ 21
niệm 21
non-essential 21
nose 21
noti@@ 21
nuclear 21
năm_@@ 21
occas@@ 21
occup@@ 21
ols 21
ona 21
ond 21
operates 21
organ 21
originated 21
oring 21
pag@@ 21
pass 21
pes 21
pig 21
planes 21
posi@@ 21
presence 21
primary 21
pris@@ 21
quali@@ 21
quite 21
quy_@@ 21
quyết_@@ 21
quét 21
radi@@ 21
relatives 21
remember 21
replac@@ 21
replace 21
risen 21
ruled 21
rup@@ 21
rural 21
rối_loạn 21
satis@@ 21
sep@@ 21
separ@@ 21
shift 21
shortness 21
sinh_vật 21
sit 21
sit@@ 21
sky@@ 21
son@@ 21
spea@@ 21
strategy 21
strongly 21
struck 21
sufficient 21
supermarkets 21
survive 21
sus 21
suspect 21
suy_yếu 21
số_@@ 21
tab@@ 21
tai 21
tex@@ 21
tham_@@ 21
thuận_lợi 21
thích_hợp 21
thương_nhân 21
thế_@@ 21
thể_chất 21
tin_tưởng 21
tiểu_đường 21
top@@ 21
trang_trí 21
treo 21
trình_độ 21
trí 21
trí_nhớ 21
tt@@ 21
tăng_giá 21
tương_tác 21
tốt_đẹp 21
ula 21
underlying 21
unique 21
usual 21
venue 21
verse 21
ves@@ 21
vol@@ 21
vui_vẻ 21
vùng_@@ 21
waves 21
won@@ 21
xe_@@ 21
xed 21
xây 21
y_học 21
yesterday 21
yên 21
ành_@@ 21
ào_@@ 21
ày_@@ 21
êm 21
ón 21
ô-@@ 21
Đồng_thời 21
đáp 21
đông_@@ 21
đường_băng 21
đồ_@@ 21
đừng 21
ĩ 21
ũ 21
ượ@@ 21
ượt_@@ 21
ạn_@@ 21
ạo_@@ 21
ẩ@@ 21
ẻ@@ 21
ốt 21
ợ@@ 21
ụ_@@ 21
ử@@ 21
# 20
/3 20
000-@@ 20
1.2 20
11.@@ 20
140 20
1974 20
1988 20
1994 20
1999 20
2002 20
262 20
4th 20
8,000 20
87 20
Authority 20
Ay@@ 20
CI@@ 20
Chu 20
Cong 20
Công_cộng 20
Da@@ 20
Delhi 20
Dữ_liệu 20
Economic 20
Every 20
Fiji 20
Florida 20
Form@@ 20
Giải_thưởng 20
Giờ 20
Hiện 20
Hiệp_@@ 20
Hương 20
IV 20
Inc. 20
Jin@@ 20
Kar@@ 20
Lang 20
Later 20
Lou@@ 20
Mai_@@ 20
Mart 20
Museum 20
Nai 20
Nguyên_@@ 20
Niña 20
Nong 20
Nov@@ 20
Nữ 20
Ocean 20
Officials 20
Peter 20
Phòng 20
Qom 20
RI@@ 20
RS 20
Smith 20
Sports 20
Starting 20
Then 20
Thảo 20
Thế_vận_hội 20
Thống_kê 20
Together 20
Trước_đây 20
Tàu 20
Tám 20
Tân 20
USAID 20
VABIOTECH 20
Valley 20
Vice 20
Vuong 20
Vân 20
Xuân 20
Yo@@ 20
Zimbabwe 20
accordance 20
acted 20
adds 20
administrative 20
ains 20
ano 20
anything 20
appreci@@ 20
appro@@ 20
armed 20
arms 20
ashi@@ 20
asing 20
ath 20
attending 20
banning 20
behavi@@ 20
berg 20
beyond 20
billions 20
bài_học 20
bày 20
bình_đẳng 20
bông 20
bền_vững 20
camps 20
cel@@ 20
choice 20
châu 20
chí 20
chảy 20
clothes 20
coll@@ 20
coma 20
combined 20
commit@@ 20
communities 20
constantly 20
conver@@ 20
crime 20
cup 20
cáp 20
cú 20
cảm_ơn 20
cầm_@@ 20
cầu_nguyện 20
cứu_@@ 20
cực 20
de-@@ 20
declaration 20
decrease 20
determined 20
diabetes 20
discuss 20
divorce 20
dly 20
doc@@ 20
dầu_@@ 20
eastern 20
emo@@ 20
enhance 20
equivalent 20
erated 20
ere@@ 20
escape 20
establishment 20
ests 20
ev 20
evalu@@ 20
exam@@ 20
fallen 20
feeling 20
fet@@ 20
finished 20
functions 20
gia_hạn 20
giam_giữ 20
giám_đốc_điều_hành 20
giảng_dạy 20
giấy_tờ 20
giọng 20
gối 20
gỗ 20
hat@@ 20
historical 20
hiểu_biết 20
hosted 20
hoạ@@ 20
hoạt 20
hôm_qua 20
hạt_nhân 20
hậu 20
hệ_@@ 20
hứa_hẹn 20
hữu 20
i_m@@ 20
import 20
improv@@ 20
incid@@ 20
inj@@ 20
instructions 20
intensive 20
interventions 20
ird 20
ished 20
ita 20
iệ@@ 20
ken 20
khắc 20
ky 20
kích_@@ 20
kết_@@ 20
kỹ_sư 20
lands 20
leads 20
lessons 20
lights 20
liên 20
lucky 20
lãnh_@@ 20
lưới 20
lập_pháp 20
marks 20
massive 20
med@@ 20
memory 20
mild 20
mol@@ 20
mountainous 20
màn 20
mấy 20
mệt_mỏi 20
n_s@@ 20
nature 20
negotiations 20
new@@ 20
ng_l@@ 20
nghiệp 20
ngoại 20
nguồn_lực 20
ngập 20
ngữ 20
numerous 20
officer 20
offices 20
ological 20
oral 20
ord@@ 20
oun@@ 20
ours 20
parent 20
partnership 20
pha 20
phần_@@ 20
plays 20
poly@@ 20
posing 20
potentially 20
preventing 20
prof@@ 20
promised 20
protesters 20
quen 20
quoted 20
quy_tắc 20
quá_khứ 20
quản_trị 20
radio 20
recover 20
refl@@ 20
refused 20
relatively 20
repeatedly 20
runs 20
ruption 20
ròng 20
san 20
sequ@@ 20
severely 20
sinh_sống 20
soli@@ 20
sound 20
sta 20
supp@@ 20
sust@@ 20
sâu_@@ 20
sóng 20
săn 20
sắp_xếp 20
sửa_chữa 20
tay_@@ 20
terror@@ 20
th_@@ 20
than@@ 20
thi_@@ 20
thơm 20
thưởng_thức 20
thể_@@ 20
ti 20
tim_mạch 20
tiz@@ 20
tiến_bộ 20
tracing 20
trained 20
travelling 20
trend 20
tun@@ 20
tuyên_@@ 20
tàn_@@ 20
tác_phẩm 20
tóc 20
tưởng 20
tượng 20
tần_suất 20
tận 20
tổ_tiên 20
u_t@@ 20
veget@@ 20
vụ 20
văn_bản 20
vắc 20
wild@@ 20
willing 20
xuân 20
xét 20
xơ_@@ 20
yêu_@@ 20
zz@@ 20
ính_@@ 20
ö@@ 20
ùi 20
Đã 20
Đại_diện 20
Đạt 20
Đất_nước 20
Đầu_tư 20
đàn 20
đánh_bạc 20
́i 20
ấn_tượng 20
ất_@@ 20
ầm_@@ 20
ắn_@@ 20
ếch 20
ổng 20
ỗi 20
ục_@@ 20
&@@ 19
00 19
1.8 19
100.000 19
122 19
133 19
195 19
1989 19
2001 19
3-@@ 19
6.000 19
80% 19
9-@@ 19
AC 19
AT 19
Ali@@ 19
Aviation 19
Bất_@@ 19
Bến_@@ 19
CD 19
Cam 19
Championship 19
Chief 19
Chiến 19
Coca-Cola 19
Cuong 19
Cơ@@ 19
Dam@@ 19
Des@@ 19
Det@@ 19
Doctors 19
Dân_chủ 19
Euro 19
Far@@ 19
Federation 19
Fr@@ 19
Gia_đình 19
Huyện 19
Hồng 19
ICO 19
John_@@ 19
Ken@@ 19
Kho@@ 19
Kiem 19
King 19
Ky@@ 19
Lit@@ 19
Liên_đoàn 19
Luong 19
Luxembourg 19
Là 19
Lễ_hội 19
Macau 19
Massachusetts 19
Mus@@ 19
Na@@ 19
Nai@@ 19
Ninh_Bình 19
OSV 19
PS 19
Pen@@ 19
Pikachu 19
Ria 19
Rice 19
Ris@@ 19
ST@@ 19
Sabeco 19
San 19
Shilla 19
Som@@ 19
Some@@ 19
Sophia 19
Southern 19
Spanish 19
Stock 19
Sw@@ 19
Tech@@ 19
Tel@@ 19
Tem@@ 19
Ter@@ 19
Tet 19
Thái_Bình 19
Trương_@@ 19
Trưởng 19
Tw@@ 19
Tết_Nguyên_đán 19
Tổng 19
VI@@ 19
VN00@@ 19
Vinmart 19
Willi@@ 19
World_Cup 19
_H@@ 19
aches 19
aching 19
acked 19
adequate 19
aining 19
ancient 19
ancing 19
ane 19
anning 19
ashes 19
association 19
ast 19
bags 19
base 19
basic 19
beds 19
beverage 19
bit@@ 19
biến_đổi_gen 19
biết_@@ 19
by@@ 19
bác 19
béo 19
bùng_nổ 19
bắn 19
bỏng 19
bột 19
cao_tuổi 19
chemicals 19
chuẩn 19
claiming 19
clas@@ 19
classi@@ 19
committed 19
commune 19
confirmation 19
contacted 19
contr@@ 19
contribute 19
cour@@ 19
ction 19
cuộc_gọi 19
cá_sấu 19
công_nghệ_cao 19
cảm_nhận 19
cấp_cứu 19
cố_vấn 19
declined 19
del@@ 19
detect 19
discovery 19
dram@@ 19
dul@@ 19
dây_@@ 19
e-commerce 19
earning 19
eggs 19
eleph@@ 19
ening 19
enterprises 19
enty 19
essing 19
establish 19
et_@@ 19
ever@@ 19
every@@ 19
examined 19
exchange 19
expec@@ 19
farming 19
fashion 19
ffe@@ 19
fired 19
follow@@ 19
formed 19
fron@@ 19
ga@@ 19
gates 19
gender 19
gious 19
goes 19
guidance 19
happens 19
heavily 19
hed 19
hi 19
honor 19
hydr@@ 19
hậu_@@ 19
hồ_sơ 19
hợp_@@ 19
ick 19
ides 19
ids 19
ify 19
images 19
indicated 19
influenza 19
innov@@ 19
invested 19
investing 19
investments 19
isted 19
iệp 19
iệt_@@ 19
j 19
khuy@@ 19
kit 19
knew 19
kịp_thời 19
lap@@ 19
largely 19
lie 19
ll 19
loc@@ 19
looked 19
losing 19
ly_hôn 19
lãi_suất 19
lậu 19
manage 19
massage 19
medium 19
minh 19
monthly 19
motorbike 19
moves 19
mul@@ 19
mãn_tính 19
mạc 19
mắc_kẹt 19
mặt_đất 19
nas@@ 19
native 19
newly 19
ngers 19
nghĩa_@@ 19
nghề_nghiệp 19
nguy@@ 19
nhận_diện 19
nor@@ 19
nothing 19
options 19
packages 19
pain@@ 19
participants 19
passing 19
performing 19
person@@ 19
phim_@@ 19
phản_hồi 19
pm 19
pper 19
pra@@ 19
presidential 19
probably 19
professional 19
prohibited 19
publicly 19
pun@@ 19
quyền_@@ 19
quá_tải 19
re-@@ 19
read@@ 19
recognize 19
records 19
regi@@ 19
repe@@ 19
replaced 19
repres@@ 19
resol@@ 19
respect 19
resu@@ 19
resulting 19
resume 19
rey 19
ross 19
sa_thải 19
sanctions 19
scientist 19
sees 19
session 19
shock 19
shu@@ 19
shut@@ 19
sible 19
sig@@ 19
skilled 19
so_sánh 19
solar 19
sore 19
sought 19
speaking 19
struc@@ 19
sul@@ 19
sum@@ 19
sup@@ 19
supporting 19
surgical 19
symptom 19
sửa_đổi 19
tag@@ 19
talks 19
tant 19
tants 19
techniques 19
thanh 19
therefore 19
thoải_mái 19
thuyết_phục 19
thuỷ 19
thành_@@ 19
thú_vị 19
thảm_hoạ 19
thắt 19
thẳng 19
thời_trang 19
toán 19
transpa@@ 19
trash 19
travelers 19
truck 19
tuberculosis 19
ty@@ 19
tâm_lý_học 19
tích 19
tương_@@ 19
tưởng_tượng 19
tắm 19
tức 19
ude 19
ult 19
unprecedented 19
upcoming 19
ur 19
useful 19
uyết 19
vie@@ 19
vised 19
vệ_tinh 19
where@@ 19
worried 19
xa_@@ 19
xi 19
Ô@@ 19
ây 19
éc 19
Đại_sứ 19
Đồng 19
Đồng_Nai 19
đó@@ 19
đô@@ 19
đặc_trưng 19
định_vị 19
ưa_@@ 19
ạch_@@ 19
Ấn 19
ẫn 19
ậy 19
ặc 19
ặn 19
ến_@@ 19
ọng 19
ột_@@ 19
/11 18
1,5 18
1,500 18
15,@@ 18
180 18
1980 18
1991 18
2.3 18
200@@ 18
230 18
300,000 18
5th 18
6th 18
AR@@ 18
Alzheimer 18
Am@@ 18
App 18
Bah@@ 18
Ben@@ 18
Biên_@@ 18
Bridge 18
CC@@ 18
Cao_@@ 18
Chien 18
Ci@@ 18
Climate 18
Columbia 18
Convention 18
Corps 18
Coun@@ 18
Customs 18
Cy@@ 18
DNA 18
Del@@ 18
Den@@ 18
Duy 18
ES@@ 18
Emirates 18
Fan 18
Flapp@@ 18
Flight 18
Fund 18
GM 18
Gallup 18
George 18
Go 18
Greece 18
Ha@@ 18
Has@@ 18
Hotel 18
Hoàn_Kiếm 18
Hyun 18
Hà_Nam 18
Hệ_thống 18
J 18
Jin 18
Jordan 18
Just 18
Khasi 18
Khí_tượng_Thuỷ_văn 18
Kur@@ 18
Lake 18
Land@@ 18
Las@@ 18
Lau@@ 18
Loc 18
Loc@@ 18
Los 18
Lot@@ 18
Lễ 18
MS@@ 18
Mel@@ 18
Mer@@ 18
Mich@@ 18
Minis@@ 18
Moreover 18
Mục_@@ 18
Nat@@ 18
Nguyễn_Thanh_@@ 18
Ngày_nay 18
Nhan 18
Nhà_Trắng 18
Ob@@ 18
Only 18
Os@@ 18
Others 18
Pasteur 18
Pharm@@ 18
Philadelphia 18
Phát_biểu 18
Phần_@@ 18
Plan 18
Quan 18
Ra@@ 18
Red 18
Rwanda 18
Scot@@ 18
Spears 18
Star@@ 18
Steering 18
Summer 18
Sự_@@ 18
Thiên_@@ 18
Thực_phẩm 18
Time 18
Tran@@ 18
Tsai 18
Tuấn_@@ 18
Tài_chính 18
Tâm 18
Tổng_@@ 18
UV 18
Ur@@ 18
VAS 18
Viet@@ 18
VinMart 18
Vùng 18
Vận_tải 18
Vịnh 18
Wang 18
William 18
_M@@ 18
accid@@ 18
achieved 18
ad_@@ 18
ague 18
aki 18
alia 18
ammonium 18
anner 18
answer 18
appears 18
approach 18
ari 18
arti@@ 18
artist 18
ath@@ 18
attend@@ 18
banks 18
bao_nhiêu 18
barrel 18
bidding 18
billionaires 18
biological 18
boost 18
bot@@ 18
buildings 18
buy@@ 18
bánh_mì 18
bắt_@@ 18
bọn 18
c-@@ 18
chi_tiêu 18
chung_kết 18
chủ 18
chút 18
chấn 18
civil 18
cked 18
clubs 18
code 18
colleagues 18
comments 18
con_em 18
confidence 18
conglomerate 18
contacts 18
cot@@ 18
count 18
cross-@@ 18
cy 18
cười 18
cảnh_@@ 18
cộng 18
cỡ 18
cứ@@ 18
decor@@ 18
descri@@ 18
dge 18
diet 18
disinfec@@ 18
diễn_đàn 18
drawn 18
drought 18
dữ 18
dữ_dội 18
dự_trữ 18
ead@@ 18
eal@@ 18
eas@@ 18
easier 18
ecu@@ 18
edy 18
efficacy 18
eh@@ 18
eli@@ 18
enforcement 18
engine 18
engineering 18
enjo@@ 18
ex 18
expect 18
expres@@ 18
factor 18
faster 18
feature 18
feed 18
feelings 18
fees 18
flooding 18
ful@@ 18
gambling 18
ge@@ 18
giao_tiếp 18
giúp 18
giá_cả 18
giấc_ngủ 18
glass 18
guards 18
guests 18
halt 18
herd 18
hiện_hành 18
hoa_@@ 18
household 18
hoảng_@@ 18
hành_trình 18
hôn_mê 18
hải_sản 18
hồi_@@ 18
hứa 18
i-@@ 18
ide@@ 18
iling 18
illnesses 18
ils 18
immun@@ 18
implic@@ 18
independent 18
infect 18
injury 18
institu@@ 18
insurance 18
integr@@ 18
involve 18
isting 18
iến 18
kilograms 18
kim_@@ 18
kinds 18
kla@@ 18
kín 18
leg@@ 18
len 18
liên_@@ 18
loa 18
locally 18
locked 18
là@@ 18
lưu_@@ 18
mandatory 18
mate 18
meant 18
measles 18
mechan@@ 18
moderate 18
moon 18
musical 18
mê 18
mầm 18
mẫu_giáo 18
mộ 18
mừng 18
nged 18
nghỉ_@@ 18
nguyên_tắc 18
ngã 18
ngực 18
nhà_phát_triển 18
ném 18
o_d@@ 18
oms 18
organis@@ 18
owners 18
perio@@ 18
pharmaceutical 18
phụ_trách 18
portion 18
ports 18
positions 18
processes 18
professionals 18
program@@ 18
protest 18
provi@@ 18
publis@@ 18
purpose 18
quê_hương 18
ra_đời 18
rap@@ 18
rapidly 18
recording 18
recy@@ 18
renew@@ 18
resp@@ 18
responsibility 18
riêng_biệt 18
scap@@ 18
sear@@ 18
sending 18
servers 18
serves 18
sets 18
setting 18
sister 18
situations 18
snake 18
soft 18
speak 18
squ@@ 18
stat@@ 18
stic 18
strategic 18
stu@@ 18
sud@@ 18
swine 18
sĩ_quan 18
sản_@@ 18
teeth 18
tensions 18
tern 18
tha@@ 18
thinking 18
threatened 18
thái_@@ 18
thí_nghiệm 18
thí_sinh 18
thẩm_@@ 18
thị 18
thực_hành 18
ticket 18
tigh@@ 18
tine 18
tiny 18
tious 18
tiền_sử 18
tment 18
tou@@ 18
trad@@ 18
trang_bị 18
trang_trại 18
transplant 18
truc@@ 18
trạng_thái 18
trục_xuất 18
tually 18
tured 18
tình_yêu 18
tính_@@ 18
tại_chỗ 18
tỉ_lệ 18
tối_thiểu 18
updated 18
ust 18
ventilator 18
vo 18
voice 18
vòng_loại 18
vô_trùng 18
vật_tư 18
vẻ 18
vẽ 18
wake 18
wo 18
xe_hơi 18
xâm_phạm 18
xét_xử 18
y_B@@ 18
ya 18
zones 18
Áo 18
àm_@@ 18
ành 18
ám 18
ám_@@ 18
án_@@ 18
ìm_@@ 18
Điều_@@ 18
Đà_Lạt 18
đau_@@ 18
điều_khiển 18
đánh_cá 18
đích 18
đóng_@@ 18
đặt_@@ 18
độc_@@ 18
ĩ_@@ 18
ưu_@@ 18
́@@ 18
̉ng 18
ị 18
ốc_@@ 18
ồ@@ 18
ổn 18
ởi_@@ 18
ứ_@@ 18
’d 18
'd 17
10-@@ 17
113 17
125 17
16.@@ 17
270 17
320 17
360 17
60% 17
70,000 17
7th 17
Ad5 17
Andre@@ 17
Anth@@ 17
Ba_Lan 17
Bang 17
Bar 17
Belgium 17
Black 17
Bui 17
Bus 17
Bản_@@ 17
Bỉ 17
CF@@ 17
Châu_Phi 17
Chợ_Rẫy 17
Council 17
Cra@@ 17
Cris@@ 17
Cur@@ 17
Công 17
Cộng_@@ 17
Diamond_Princess 17
Doanh_thu 17
Don 17
Dor@@ 17
Dr@@ 17
Econom@@ 17
Energy 17
FLC 17
Finance 17
Giải 17
Grill 17
Guard 17
Here 17
Holdings 17
Hoàng 17
Hàng_@@ 17
Hằng 17
Hội 17
II 17
Jong 17
Justin 17
Kenya 17
Lad@@ 17
Lai_Châu 17
Lanc@@ 17
Ly@@ 17
Lý_@@ 17
MS 17
Michael_@@ 17
Middle 17
Moskva 17
Moun@@ 17
Mrs. 17
Một_@@ 17
NA 17
Nông_@@ 17
Over@@ 17
PT@@ 17
Pap@@ 17
Partnership 17
Phi 17
Philipp@@ 17
Prince 17
Protection 17
Quan_@@ 17
RC 17
Resort 17
Robo@@ 17
Sa_Pa 17
Saint_@@ 17
Speaking 17
St. 17
Sum@@ 17
Swedish 17
Tay@@ 17
Tesla 17
The_S@@ 17
Thu_@@ 17
Ton@@ 17
Top 17
Tra 17
Tuoi 17
Tây_Ninh 17
Un 17
V. 17
VNPT 17
Yet 17
Yu@@ 17
abinet 17
acking 17
adver@@ 17
agents 17
aking 17
angu@@ 17
ant@@ 17
antibodies 17
applications 17
arrive 17
assa@@ 17
ation_@@ 17
attemp@@ 17
aware 17
awareness 17
babies 17
bac@@ 17
bao_cao_su 17
believes 17
bert 17
birds 17
bitcoin 17
breakfast 17
breathe 17
breathing 17
bú@@ 17
bảo_tàng 17
bất_chấp 17
bầu_không_khí 17
bắt_nguồn 17
bọc 17
caf@@ 17
candidate 17
cao_điểm 17
character@@ 17
chat 17
chi_nhánh 17
chosen 17
chào_đón 17
chôn 17
chắc 17
chỉ_thị 17
chứng_khoán 17
cip@@ 17
conclu@@ 17
confirm 17
connected 17
consecutive 17
contained 17
contribu@@ 17
cope 17
crimes 17
crop 17
cung_ứng 17
cơ_quan_chức_năng 17
cấp_@@ 17
cỏ 17
cổng 17
da@@ 17
dealing 17
deb@@ 17
decreased 17
defense 17
del 17
delayed 17
deliver 17
dence 17
developments 17
difficulty 17
dinner 17
downtown 17
du_học_sinh 17
dâu 17
dư@@ 17
dịch_tễ_học 17
earn 17
east 17
echo@@ 17
econom@@ 17
ecture 17
effectively 17
ela 17
ells 17
emed 17
enberg 17
encouraged 17
ential 17
eria 17
esti@@ 17
exist 17
expanding 17
expensive 17
eye 17
fac@@ 17
facial 17
farm 17
fatality 17
favorite 17
fically 17
filed 17
filled 17
films 17
flag 17
gan@@ 17
generated 17
gian_lận 17
giao_@@ 17
giây 17
gradu@@ 17
grew 17
guilty 17
gun 17
gợi_ý 17
harvest 17
hearing 17
hel@@ 17
heritage 17
hiện_trường 17
hoà 17
hoạch 17
hub 17
hít 17
hẳn 17
hệ_sinh_thái 17
hồn 17
hứng 17
identification 17
ility 17
inary 17
insect 17
interests 17
investig@@ 17
itable 17
iết 17
kem 17
khá@@ 17
khám 17
khí_@@ 17
khí_thải 17
khía_cạnh 17
khóc 17
khởi_động 17
kor@@ 17
ký_túc_xá 17
kỳ@@ 17
licenses 17
lies 17
lifted 17
ligh@@ 17
likes 17
lâu_đời 17
lãng_@@ 17
lò 17
lư@@ 17
lở 17
malaria 17
mark@@ 17
matters 17
mice 17
minh_bạch 17
mục 17
màng 17
mét_vuông 17
mảng 17
ngài 17
ngược_lại 17
ngại 17
nhân_tạo 17
nhượng 17
nhật 17
onia 17
ordinary 17
otype 17
oul@@ 17
ouring 17
output 17
penal@@ 17
pers@@ 17
phenomenon 17
phương_thức 17
phản_ánh 17
phủ_nhận 17
piece 17
pin@@ 17
pled 17
possibly 17
premi@@ 17
privacy 17
profits 17
promo@@ 17
properly 17
protecting 17
prove 17
quick 17
reality 17
reduction 17
regulatory 17
rejected 17
rel 17
repa@@ 17
responding 17
restric@@ 17
robots 17
ror 17
rs 17
rối 17
schedule 17
scor@@ 17
secret 17
sinh_sản 17
siêu 17
sl@@ 17
slightly 17
soci@@ 17
speci@@ 17
spots 17
stomach 17
stream 17
suggesting 17
surge 17
suy_thoái 17
symbo@@ 17
sân 17
sót 17
súng 17
sĩ 17
sởi 17
telec@@ 17
terns 17
thanh_thiếu_niên 17
thiếu_hụt 17
thiếu_niên 17
thân_thiện 17
thẻ 17
thị_phần 17
thống_@@ 17
tile 17
tivity 17
tops 17
toxic@@ 17
trung_ương 17
trí_tuệ_nhân_tạo 17
trầm_trọng 17
trọng_@@ 17
trộn 17
tác_giả 17
tù_@@ 17
tương_đối 17
tận_dụng 17
tỉnh_@@ 17
u_đ@@ 17
una 17
undergoing 17
uố@@ 17
variety 17
vegan 17
vely 17
venture 17
vir@@ 17
ví 17
vũ 17
vương_quốc 17
warm 17
weekly 17
witch 17
written 17
xu 17
xạ 17
zo@@ 17
ánh_sáng 17
âm_thanh 17
âu_@@ 17
ênh 17
ñ@@ 17
ý@@ 17
Đo@@ 17
Đảo 17
đu@@ 17
đèn 17
đường_bay 17
đất_đai 17
đặc 17
đệ 17
đỗ 17
độc_quyền 17
độc_đáo 17
ĩnh 17
ũ@@ 17
ơ_@@ 17
ơm 17
ạnh_@@ 17
ải_@@ 17
ảm_@@ 17
ấy_@@ 17
ẻ_@@ 17
ệnh 17
ệt_@@ 17
ộc_@@ 17
ự@@ 17
+@@ 16
-r@@ 16
.vn 16
/9 16
1000 16
105 16
110 16
12th 16
157 16
19.@@ 16
2-@@ 16
20.@@ 16
200.000 16
212 16
219 16
300.000 16
350 16
4-@@ 16
50@@ 16
8th 16
9.000 16
ADIDAS 16
Anti@@ 16
Ardern 16
Austria 16
Bang_@@ 16
Big 16
Bkav 16
Blu@@ 16
Blue@@ 16
Buddha_Bar 16
Bus@@ 16
CP@@ 16
Cal@@ 16
Castro 16
Cau 16
Cen@@ 16
Chiến_dịch 16
Chiến_tranh 16
Chro@@ 16
Chuyến 16
Clinton 16
Cro@@ 16
Currently 16
Cuối_cùng 16
Công_giáo 16
Công_ước 16
Cộng_sản 16
Dal@@ 16
Dalat 16
Dam 16
Dan 16
Diamond 16
Dun@@ 16
Dược_phẩm 16
Ed@@ 16
Epidemiology 16
Fac@@ 16
Francisco 16
Fur@@ 16
GM@@ 16
Giáo_sư 16
Grand 16
Green 16
Hen@@ 16
Hy@@ 16
Học_sinh 16
IC@@ 16
Insider 16
Iranian 16
KIDO 16
Kabul 16
Karachi 16
Kha@@ 16
Khoa 16
Kinh_@@ 16
Labor 16
Lan@@ 16
Les@@ 16
Liem 16
Liên 16
Liên_bang 16
Lumpur 16
Lung 16
Lyons 16
Lào_Cai 16
MA 16
Ma_Cao 16
Macron 16
Mau 16
Mexican 16
Một_khi 16
Na 16
Nation@@ 16
Ngo 16
Ngoại_trưởng 16
Ngu@@ 16
Nuenen 16
Olympi@@ 16
Ox@@ 16
Oxford 16
Paul 16
Phượng 16
Phản_ứng 16
Pic@@ 16
Pu@@ 16
Region 16
Roy 16
Sars 16
Schulenberg 16
Sel@@ 16
Shanghai 16
Show 16
Sinh_@@ 16
Siri 16
Sri 16
Sri_Lanka 16
Steph@@ 16
Store 16
Số_liệu 16
Therefore 16
Though 16
Thuận 16
Thể_thao 16
Tour 16
Trang_web 16
Trẻ_em 16
Tập_@@ 16
UTC 16
Vinc@@ 16
Vladi@@ 16
Vo 16
Vu@@ 16
Võ_@@ 16
Woody 16
Yoshi@@ 16
Yêu_cầu 16
Zhang 16
_hạn 16
_thai 16
_thu@@ 16
abad 16
academic 16
acti@@ 16
actively 16
acts 16
adop@@ 16
advanced 16
affects 16
affir@@ 16
ager 16
akh 16
alongside 16
ambassador 16
amed 16
amounts 16
analysis 16
annually 16
ap 16
appe@@ 16
appearance 16
aqu@@ 16
arian 16
arily 16
arrest 16
ass 16
assist 16
attempt 16
atten@@ 16
avi@@ 16
bal 16
ball 16
beaches 16
bigger 16
blockchain 16
boar@@ 16
bon@@ 16
burden 16
burg 16
bàn_@@ 16
bóng_@@ 16
bỏ_rơi 16
bồi_thường 16
ca_ngợi 16
cable 16
cao_cấp 16
catch 16
cay 16
celebr@@ 16
cha_@@ 16
chiến_@@ 16
church 16
chính_@@ 16
chú@@ 16
chấp 16
chịu_đựng 16
chờ_đợi 16
chủng_tộc 16
cks 16
clean@@ 16
cleaning 16
clim@@ 16
cm 16
colleges 16
color 16
communication 16
comprehensive 16
condem@@ 16
conduct 16
conf@@ 16
confirms 16
conflic@@ 16
connection 16
consci@@ 16
continuing 16
cook 16
courses 16
covers 16
crops 16
crucial 16
cub@@ 16
cách_thức 16
cân_bằng 16
cưới 16
cứu_trợ 16
dao_động 16
daughters 16
decree 16
deep@@ 16
demanded 16
destro@@ 16
dev@@ 16
differences 16
docu@@ 16
dormit@@ 16
drive 16
dâng 16
dây 16
dơi 16
eased 16
economies 16
edit@@ 16
emerged 16
emp@@ 16
employed 16
ense 16
ensuring 16
eration 16
escal@@ 16
esses 16
essi@@ 16
ette 16
eum 16
euros 16
evaluation 16
expansion 16
expects 16
expen@@ 16
extend 16
familiar 16
fatalities 16
fee 16
festivals 16
fewer 16
fit 16
flo@@ 16
flower 16
flowers 16
fly 16
focused 16
foo@@ 16
foot@@ 16
ford 16
foun@@ 16
founded 16
fted 16
gained 16
gaming 16
gas@@ 16
giúp_@@ 16
gorillas 16
hack@@ 16
hal@@ 16
handle 16
handling 16
happ@@ 16
hiểm_@@ 16
hoàn_hảo 16
hun@@ 16
huấn_luyện_viên 16
hành_tinh 16
hình_phạt 16
hôn 16
hạng 16
hộ@@ 16
hợp_lý 16
ia_@@ 16
ideas 16
impossible 16
impres@@ 16
inflam@@ 16
infor@@ 16
installed 16
investor 16
ith 16
jum@@ 16
keep@@ 16
kinh 16
kinh_ngạc 16
kitchen 16
kno@@ 16
kỳ_vọng 16
len@@ 16
les@@ 16
liter 16
liên_minh 16
lo_sợ 16
los@@ 16
luck 16
luật_sư 16
lâm 16
lắm 16
meetings 16
mer 16
millennials 16
minim@@ 16
minority 16
mạng_@@ 16
mất_tích 16
nam@@ 16
neg@@ 16
nghi_@@ 16
nghỉ_mát 16
ngôn_@@ 16
ngược 16
nhà_báo 16
nhà_th@@ 16
nhãn_hiệu 16
như_thế 16
nhất_@@ 16
nhịp 16
none 16
nutri@@ 16
nói_chung 16
nửa_đêm 16
o_l@@ 16
o_th@@ 16
occupational 16
op 16
oper@@ 16
organs 16
originally 16
orm@@ 16
oth@@ 16
ouse 16
ova 16
oxy@@ 16
parking 16
performances 16
permanent 16
pharmac@@ 16
phi_@@ 16
phi_chính_phủ 16
phong_@@ 16
phì 16
phòng_khám 16
phận 16
phụ_@@ 16
populations 16
posting 16
posts 16
practices 16
prize 16
profile 16
promising 16
promotion 16
publication 16
quy 16
quên 16
quốc_phòng 16
rainfall 16
ranks 16
reading 16
regulation 16
rely 16
rer 16
ride 16
rolled 16
safe@@ 16
sal 16
salt 16
sar@@ 16
sashimi 16
scr@@ 16
ser 16
seventh 16
short@@ 16
show@@ 16
smoking 16
sour@@ 16
stages 16
stating 16
stocks 16
storage 16
strain 16
supported 16
suy_@@ 16
sy 16
sư_tử 16
sắc 16
tariffs 16
task 16
tasks 16
tations 16
te_@@ 16
tened 16
tery 16
text 16
theast 16
thor@@ 16
thuật 16
thuốc_@@ 16
thuỷ_@@ 16
thành_tích 16
thép 16
thông_tấn_xã 16
thảm_@@ 16
thất_nghiệp 16
thống 16
thời_hạn 16
tinh 16
tionary 16
tioned 16
tissue 16
tiếng_vang 16
tiền_tệ 16
tiểu_học 16
tranh_@@ 16
tranh_luận 16
transported 16
trics 16
trol 16
trúc 16
trật_tự 16
trợ 16
tumn 16
tuần_@@ 16
tuệ 16
typical 16
tái_tạo 16
tính_toán 16
tôn_trọng 16
tư@@ 16
tươi 16
tất 16
tẩ@@ 16
tỏ 16
tự@@ 16
tự_nguyện 16
ures 16
ut@@ 16
uốt 16
va@@ 16
ville 16
virut 16
vital 16
viễn_thông 16
vote 16
vò@@ 16
vô@@ 16
văn_@@ 16
watched 16
wedding 16
wel@@ 16
xing 16
xong 16
yellow 16
yone 16
ày 16
éo 16
ét_@@ 16
ìa 16
ình_@@ 16
òng_@@ 16
óc 16
õ 16
ăm_@@ 16
Đài_@@ 16
điểm_@@ 16
điển_hình 16
đoàn_kết 16
đào 16
đâm 16
đèn_lồng 16
đăng_tải 16
đường_cao_tốc 16
đường_dây 16
đại_sứ 16
đẻ 16
đề@@ 16
đề_@@ 16
đổ_@@ 16
đội_ngũ 16
ưu_đãi 16
ướ@@ 16
̉@@ 16
ệt 16
ịnh_@@ 16
ốn_@@ 16
ồn_@@ 16
ớ@@ 16
ứ_h@@ 16
.. 15
1,2 15
1,3@@ 15
1.4 15
1.6 15
127 15
14.@@ 15
151 15
190 15
20.000 15
268 15
410 15
82 15
9th 15
Abe 15
Arthur 15
Ass@@ 15
Associated_Press 15
Big_@@ 15
Busin@@ 15
Bản 15
CEOs 15
Cann@@ 15
Change 15
Chẳng_hạn 15
Clar@@ 15
Communic@@ 15
Cầu_@@ 15
Cậu 15
Diego 15
Division 15
Dublin 15
Em@@ 15
Euro@@ 15
Exchange 15
Federal 15
Film 15
Fre@@ 15
Hanh 15
Hiện_nay 15
Hoàng_tử 15
Huu 15
Hà_Giang 15
Hồi 15
Hội_@@ 15
Joint 15
Jon@@ 15
Journal 15
Kal@@ 15
Không_@@ 15
Kin@@ 15
Kinh_tế 15
Kỹ_thuật 15
Limited 15
Liêm 15
Luân_Đôn 15
Ly 15
Lâm_@@ 15
M. 15
ME@@ 15
Man 15
Metro 15
MobiFone 15
Mong 15
Má@@ 15
NASA 15
Nan@@ 15
Nhà 15
PH@@ 15
Phòng_chống 15
Phúc_Long 15
Pla@@ 15
Professor 15
Program 15
Quynh 15
Quần_đảo_@@ 15
Red@@ 15
Royal 15
Sil@@ 15
Silver@@ 15
Smart 15
Such 15
Sy@@ 15
Tab@@ 15
Tai@@ 15
Tam_@@ 15
Thượng_Hải 15
Thừa_Thiên-Huế 15
Timor 15
Traffic 15
Training 15
Trung_Đông 15
Trần 15
Turkmenistan 15
Tình_trạng 15
Tạp_chí 15
Uỷ_ban_nhân_dân 15
VFS 15
VN54 15
Video 15
Vinamilk 15
Vân_Đồn 15
Văn 15
Vệ_sinh 15
Vị 15
Web@@ 15
Wiesel 15
Wild@@ 15
Xi@@ 15
_Ch@@ 15
_sản 15
abo@@ 15
abor@@ 15
acquired 15
actual 15
advance 15
advant@@ 15
advi@@ 15
ales 15
allegations 15
allergy 15
ancestors 15
anian 15
anim@@ 15
anz@@ 15
apping 15
ard@@ 15
argu@@ 15
ario 15
artists 15
asser@@ 15
assistant 15
atories 15
atta@@ 15
audience 15
author 15
ax@@ 15
bel 15
benefit 15
bid 15
billionaire 15
binh 15
bread 15
break@@ 15
brother 15
bubble 15
busy 15
bộ@@ 15
cameras 15
campaig@@ 15
campus 15
canc@@ 15
canh_tác 15
cao_đẳng 15
category 15
cats 15
certificates 15
chances 15
character 15
cher 15
chicken 15
chân_@@ 15
chất_@@ 15
chất_khử 15
chỉnh 15
chị_em 15
chốt 15
cin@@ 15
cking 15
class@@ 15
collaboration 15
commis@@ 15
communes 15
compete 15
competitive 15
compon@@ 15
computers 15
continu@@ 15
contracting 15
controlled 15
conveni@@ 15
coronaviruses 15
counts 15
criticized 15
crowded 15
crude 15
crypto 15
cure 15
cơ_chế 15
cường_@@ 15
cứng 15
da_@@ 15
danh_tính 15
dash 15
definitely 15
delay 15
dit 15
dle 15
donated 15
dropping 15
dru@@ 15
dust 15
duties 15
dạ_hội 15
dấu 15
dấu_@@ 15
dấy 15
dịch_t@@ 15
dự_@@ 15
e.g. 15
ears 15
earthquake 15
effectiveness 15
egg 15
eh 15
electr@@ 15
electronic 15
emic 15
emics 15
emplo@@ 15
engine@@ 15
esh 15
ested 15
estimate 15
etc 15
examples 15
exercises 15
floods 15
fluids 15
forcing 15
fuels 15
gence 15
geograph@@ 15
gging 15
giả_mạo 15
giải_phóng 15
grap@@ 15
han 15
heads 15
holds 15
homel@@ 15
hosting 15
hydroxychloroquine 15
hàm 15
hư@@ 15
hải 15
hỏng 15
hộp 15
iang 15
ib@@ 15
ided 15
identifying 15
iding 15
immuno@@ 15
impose 15
inev@@ 15
instructed 15
int 15
introduce 15
invest 15
investigated 15
iri@@ 15
isha 15
issuing 15
ites 15
iếu 15
iểu_@@ 15
joint 15
khái_niệm 15
khí@@ 15
khí_quyển 15
khó_chịu 15
khẩ@@ 15
kie 15
kilometer 15
knows 15
ku 15
legs 15
lic 15
life@@ 15
liters 15
logists 15
lowing 15
loại_@@ 15
lên_án 15
lưng 15
lặng 15
lặp 15
lịch_trình 15
lợi_thế 15
magazine 15
maintaining 15
mal 15
mand@@ 15
may@@ 15
meal 15
mec 15
medic@@ 15
medicines 15
mel@@ 15
midnight 15
minis@@ 15
missions 15
miti@@ 15
mothers 15
multi-@@ 15
nation@@ 15
nghiệp_@@ 15
nghèo_@@ 15
nghị 15
ngoại_ô 15
ngue 15
ngân 15
nhân_chứng 15
non-governmental 15
noodles 15
north@@ 15
nâng_cấp 15
nước_biển 15
objects 15
ograph@@ 15
ok 15
ok@@ 15
om_@@ 15
ong@@ 15
onic 15
ook 15
opposition 15
origin@@ 15
ort 15
parliam@@ 15
parlors 15
percentage 15
phong_trào 15
phân_bón 15
phơi 15
phạm_tội 15
pick 15
pictures 15
planet 15
popul@@ 15
poses 15
praised 15
premature 15
presented 15
punishment 15
rapper 15
raw 15
recommendations 15
regul@@ 15
representatives 15
rescue 15
residential 15
responses 15
retail@@ 15
river 15
saf@@ 15
sao_@@ 15
scal@@ 15
seas@@ 15
seconds 15
sely 15
sers 15
sex@@ 15
sha 15
sharply 15
shore 15
siders 15
sides 15
sinking 15
sitting 15
soldiers 15
spe@@ 15
spell 15
sport 15
standard 15
stimul@@ 15
stone 15
stor@@ 15
strange 15
streaming 15
stric@@ 15
structure 15
struggling 15
studio 15
su 15
sustainable 15
syn@@ 15
săn_@@ 15
talking 15
targets 15
taxes 15
tel 15
telling 15
therap@@ 15
thinks 15
thu_gom 15
thành_thạo 15
thói_quen 15
thị_trường_chứng_khoán 15
thủ 15
tiên_tiến 15
tiêu_chảy 15
tiêu_hoá 15
tiến_@@ 15
tiện_@@ 15
to_@@ 15
tool 15
tough 15
tours 15
toàn_@@ 15
tra_@@ 15
tran@@ 15
transi@@ 15
trips 15
trouble 15
trung_niên 15
trung_thu 15
truy_tìm 15
truyền_@@ 15
trình_bày 15
trò 15
trưa 15
tuần_tra 15
tweet 15
tá 15
tá@@ 15
tâm_thần 15
tí@@ 15
tín_hiệu 15
tậ@@ 15
tắc 15
tắt 15
tế 15
tổ 15
tổng_giám_đốc 15
tổng_thể 15
tụt 15
tử_@@ 15
u_lượng 15
unclear 15
undergo 15
unlawful 15
vector 15
viewed 15
vill@@ 15
vitamin 15
voc@@ 15
volunteers 15
vũ_trang 15
vận_động_viên 15
vỏ 15
walking 15
wan 15
wealth 15
wine 15
xe@@ 15
xin_lỗi 15
xu@@ 15
xác_@@ 15
yi@@ 15
zy 15
áy 15
ãn 15
êng 15
ìn 15
ò 15
òn 15
úi_@@ 15
Điệ@@ 15
Đối_@@ 15
đa_số 15
đài_@@ 15
đậu_@@ 15
đắc_@@ 15
đề_cử 15
địa_lý 15
đối 15
đổ_bộ 15
động_mạch 15
ĩ@@ 15
ạng_@@ 15
ả_@@ 15
ấn_phẩm 15
ẩm_thực 15
ắp 15
ẳng 15
ổi 15
ới 15
ớt 15
ỡ@@ 15
ợi 15
ứt 15
ữ 15
‑ 15
-19 14
06 14
106 14
142 14
16th 14
17th 14
1987 14
1993 14
201 14
209 14
233 14
3.8 14
370 14
500,000 14
7,000 14
7.000 14
8-@@ 14
80@@ 14
90@@ 14
AEON 14
AR 14
AS@@ 14
Accordingly 14
Additionally 14
Adidas 14
Ai_Cập 14
Android 14
Anim@@ 14
Asiad 14
BC@@ 14
Bill_@@ 14
Black@@ 14
Bloomberg 14
Brit@@ 14
Buen@@ 14
Bắc_Giang 14
CB 14
CH@@ 14
Cambridge 14
Cameron 14
Catholic 14
Chan 14
Charles 14
Chay 14
Chi_@@ 14
Chín 14
Chính 14
Con_số 14
County 14
Cách_@@ 14
Công_dân 14
Cộng_đồng 14
Củ_Chi 14
Daily 14
Democratic 14
Dizhi 14
Dù 14
Dịch 14
Early 14
Egypt 14
FPT 14
Falkland 14
Fam@@ 14
Fire@@ 14
Football 14
Forecasting 14
GMA 14
Galax@@ 14
Giang_@@ 14
Gogh 14
Grand@@ 14
Guang@@ 14
Hara 14
Hopkins 14
Huynh 14
Hydro 14
Hôm_nay 14
Hưng_@@ 14
Hải_Dương 14
Học_viện 14
IBM 14
ICU 14
Initiative 14
Is 14
Jer@@ 14
Jose@@ 14
Kas@@ 14
Krai 14
Kuwait 14
Kể_cả 14
Lebanon 14
Li 14
Like 14
Ltd 14
Lộc 14
MA@@ 14
Mag@@ 14
Management 14
March@@ 14
Maur@@ 14
Mauritius 14
Media 14
Merkel 14
Michigan 14
Mid@@ 14
Minh_Chay 14
Moldova 14
Morrison 14
Music 14
Mẹ 14
NG 14
NH@@ 14
Nad@@ 14
Nag@@ 14
Nearly 14
Net@@ 14
Nghị_định 14
Nguyễn_Ngọc_@@ 14
Nha_Trang 14
Nhà_sản_xuất 14
Nhân 14
Nhân_viên 14
Nielsen 14
OS 14
Our 14
PE 14
Patients 14
Production 14
QR 14
Queen 14
Quân_@@ 14
RI 14
RON92 14
Republican 14
Request 14
Resid@@ 14
Resp@@ 14
Romania 14
Sahar@@ 14
Sear@@ 14
Senegal 14
Services 14
Seychelles 14
Sindh 14
Smithsonian 14
Society 14
Str@@ 14
Sub@@ 14
Sud@@ 14
Sushi 14
Sơn_Tùng 14
TH@@ 14
Tes@@ 14
Thi@@ 14
Thuỷ 14
Thượng_@@ 14
Thật 14
Thống_@@ 14
Thủ_@@ 14
Tiki 14
Tobago 14
Toàn_@@ 14
Toàn_cầu 14
Trinh 14
Trà 14
Trường_Sinh 14
Tuổi_Trẻ 14
Tùng 14
Tư_@@ 14
Tổng_Giám_đốc 14
Tổng_số 14
Tự_@@ 14
Upon 14
VNA 14
VND1 14
Vacc@@ 14
Vang 14
Vegas 14
Ver@@ 14
Vĩnh_Phúc 14
Watch 14
Weather 14
Wool@@ 14
Xuất_@@ 14
You@@ 14
Youtube 14
Yên_@@ 14
_hình 14
_hại 14
_sĩ 14
_thực 14
abilities 14
accel@@ 14
accept 14
acks 14
adays 14
ador 14
adv@@ 14
afraid 14
ak 14
alive 14
alter@@ 14
alysis 14
ami@@ 14
anda 14
anh_tr@@ 14
anit@@ 14
antibiotics 14
appearing 14
applying 14
approximately 14
arly 14
arri@@ 14
astic 14
athan 14
atically 14
avir 14
bilateral 14
biệt 14
blo@@ 14
bo 14
bonds 14
botu@@ 14
boys 14
brings 14
broadcasting 14
burn 14
busin@@ 14
bào 14
bướ@@ 14
bảo_hiểm 14
bất_ổn 14
bọt 14
bố_mẹ 14
bộ_trưởng 14
ca_@@ 14
calcul@@ 14
cann@@ 14
card 14
cat 14
centres 14
ch_th@@ 14
charity 14
chatbots 14
chea@@ 14
chers 14
chia_@@ 14
chol@@ 14
chose 14
chuyên_nghiệp 14
chéo 14
chùa 14
chăn_nuôi 14
chỉ_huy 14
chủ_động 14
chức_vụ 14
cian 14
circul@@ 14
circumstances 14
cited 14
cle 14
clients 14
closures 14
clusters 14
cockroach 14
collabor@@ 14
collection 14
com 14
comfort 14
competent 14
complic@@ 14
complicated 14
con_cái 14
connec@@ 14
connect 14
connecting 14
consu@@ 14
contain@@ 14
container 14
contaminated 14
contractor 14
cris@@ 14
crow@@ 14
crowds 14
custo@@ 14
cytok@@ 14
cô_@@ 14
cơ@@ 14
cản_trở 14
cảnh_giác 14
cấu_trúc 14
cắp 14
cốt_lõi 14
cực_@@ 14
dark 14
deals 14
deser@@ 14
determin@@ 14
directive 14
discussed 14
disputes 14
dist@@ 14
distributed 14
ditional 14
dom@@ 14
dow 14
dow@@ 14
drinks 14
dur@@ 14
dài_hạn 14
dáng 14
dân_tộc 14
dưỡng 14
dẫn_dắt 14
dọn 14
ea 14
eaten 14
eding 14
eff@@ 14
efs 14
eful 14
elev@@ 14
eling 14
emissions 14
emor@@ 14
ena 14
ensive 14
entation 14
entrepreneurs 14
eping 14
episo@@ 14
equality 14
equi@@ 14
eral 14
eri@@ 14
ession 14
estyle 14
eter@@ 14
eting 14
evacuated 14
exemp@@ 14
explain 14
fab@@ 14
fair 14
fare 14
featured 14
finals 14
flies 14
fluid 14
fol@@ 14
frequent 14
fusion 14
gam@@ 14
gathered 14
gay 14
generate 14
generations 14
gens 14
gia@@ 14
gian_@@ 14
gifts 14
giáp 14
giếng 14
giờ@@ 14
gor@@ 14
graduation 14
greatly 14
guaran@@ 14
guide 14
gãy 14
gặp_@@ 14
hair 14
hardest 14
hear 14
herself 14
hiện_diện 14
hosts 14
hoàng_@@ 14
hoàng_gia 14
huyết 14
huyết_thanh 14
huấn_luyện 14
hài_@@ 14
hài_lòng 14
hàng_@@ 14
hương 14
hấp_thụ 14
họ_hàng 14
iP@@ 14
i_ph@@ 14
idity 14
immigrants 14
impor@@ 14
industries 14
ingly 14
injection 14
install 14
intense 14
interested 14
internationally 14
interview 14
invasive 14
involvement 14
involves 14
isters 14
istic 14
itate 14
ium 14
iều 14
iển 14
journal@@ 14
journey 14
jumped 14
ket 14
khoẻ 14
khát 14
khỉ_đột 14
khớp 14
khủng_khiếp 14
kiêm 14
kiên_@@ 14
kế_@@ 14
labor@@ 14
lad@@ 14
lan_@@ 14
landslides 14
laser 14
legisl@@ 14
let@@ 14
license 14
lit@@ 14
liz@@ 14
ls 14
lên_tiếng 14
lưu_thông 14
lưu_trú 14
lốc 14
m2 14
makers 14
mall 14
manufacturer 14
math 14
measured 14
mented 14
minimum 14
modified 14
mong_@@ 14
mountain 14
movies 14
muscle 14
mòn 14
mượn 14
mất_@@ 14
mềm 14
mỏ 14
một_triệu 14
mỳ 14
nee 14
nesses 14
nga 14
nge 14
ngọt 14
nhu@@ 14
nhà_bán_lẻ 14
nhà_ga 14
nhà_thuốc 14
nhân_lực 14
nhãn 14
nhé 14
nhìn_@@ 14
như@@ 14
nhận_định 14
nhắc_nhở 14
nhỏ_@@ 14
nur@@ 14
nuts 14
nông_sản 14
năm_tháng 14
nấm 14
nội_bộ 14
nữ_@@ 14
oldest 14
oma 14
opinion 14
opportunities 14
ord 14
orts 14
oted 14
ots 14
outdoor 14
pack@@ 14
pass@@ 14
passport 14
peac@@ 14
permit 14
permits 14
phi@@ 14
phil@@ 14
phim_truyền_hình 14
photo 14
phụ 14
phà 14
phát_động 14
phối 14
popularity 14
pot 14
poverty 14
prepa@@ 14
preventable 14
priority 14
proc@@ 14
prolonged 14
promis@@ 14
pt 14
quang 14
questi@@ 14
rail 14
recommends 14
recycling 14
referred 14
relationships 14
relative 14
rele@@ 14
rem@@ 14
remin@@ 14
remote 14
repatriation 14
resistance 14
restrict 14
ric 14
roles 14
rough 14
rum@@ 14
runway 14
rú@@ 14
sau_@@ 14
seas 14
selfie 14
shareholders 14
sharp 14
simul@@ 14
sol 14
spreads 14
strength@@ 14
strengthen 14
stroke 14
sub-@@ 14
substance 14
suitable 14
supports 14
surg@@ 14
surprise 14
sàn 14
sáng_@@ 14
sẻ 14
số_ít 14
tained 14
targeted 14
targeting 14
techn@@ 14
thank 14
theaters 14
thiếu_@@ 14
thu_hồi 14
thuật_toán 14
thuỷ_thủ 14
thẩm_phán 14
thị@@ 14
thủ@@ 14
time@@ 14
ting@@ 14
tiêu_diệt 14
tiến_sĩ 14
ton_@@ 14
traders 14
transgender 14
trogen 14
truly 14
trung_học_phổ_thông 14
trương 14
trượt 14
trợ_cấp 14
tted 14
tuỳ 14
tuỳ_thuộc 14
tên_@@ 14
tính_năng 14
ulti@@ 14
unless 14
uyên 14
vac@@ 14
val 14
valued 14
versal 14
vinh_danh 14
violate 14
viện_trợ 14
volunt@@ 14
vật_lộn 14
vật_thể 14
vị_thành_niên 14
wash 14
watching 14
wea@@ 14
websites 14
winner 14
xung_đột 14
xác 14
xâm_lấn 14
xúc_@@ 14
xưa 14
xả 14
y_th@@ 14
yers 14
yi 14
én 14
ênh_@@ 14
ò_@@ 14
ó 14
ø@@ 14
ú_@@ 14
Đen 14
Đài 14
Đăk_Nông 14
Đặng_@@ 14
Định 14
đám_cưới 14
đói 14
đại_lý 14
đại_sứ_quán 14
đạo_luật 14
đặt_hàng 14
địa_chấn 14
đồ_chơi 14
đồng_nghĩa 14
đổi_mới 14
đội_@@ 14
đột_quỵ 14
đụ@@ 14
ũng_@@ 14
̀i 14
̣ng 14
ẹp 14
ện 14
ỏi 14
Ứng_dụng 14
ừ 14
ỳnh 14
ỷ_@@ 14
1,8 13
10th 13
12,000 13
128 13
135 13
15.000 13
160 13
18th 13
1968 13
1975 13
2.6 13
25th 13
3/@@ 13
30.000 13
32@@ 13
6-@@ 13
6.5 13
60,000 13
8.000 13
AI@@ 13
AVG 13
Ail@@ 13
AirPods 13
Amo@@ 13
Angeles 13
Ansley 13
Apart 13
Army 13
Asian_@@ 13
Aside 13
Ath@@ 13
Bao 13
Belarus 13
Bieber 13
Billboard 13
Bà_Rịa-Vũng_Tàu 13
Cao 13
Chanh 13
China_@@ 13
Church 13
Chợ 13
Clinic 13
Cuối 13
Còn 13
Côn_Đảo 13
DC 13
DH@@ 13
Dai 13
Danh_@@ 13
Danish 13
Dec@@ 13
Doanh_@@ 13
Dru@@ 13
Dưới 13
Enter@@ 13
Ethiopia 13
Five 13
Fox@@ 13
Gaga 13
Gal@@ 13
Gia@@ 13
Golden 13
Goo_Hye_Sun 13
Grab 13
Gro@@ 13
Hau@@ 13
He@@ 13
Hea@@ 13
Heart 13
Hiến 13
Hon@@ 13
Hospit@@ 13
Human 13
Hungary 13
Hyundai 13
Hành_khách 13
Hơn_nữa 13
Hưng 13
Hạ_Long 13
Hải_quan 13
Hồ@@ 13
Hội_nghị 13
Hữu_@@ 13
Iceland 13
Ign@@ 13
Inc 13
Indonesian 13
Invalids 13
Istanbul 13
Jac@@ 13
James 13
Jong_@@ 13
Khang 13
Khoa_@@ 13
Kiên_Giang 13
Kritenbrink 13
Lanka 13
Liên_hoan_phim 13
Long_Biên 13
Ltd. 13
Lãnh_@@ 13
Lê_Thị_Thu_Hằng 13
Lúc 13
Lần 13
Mali 13
Manchester 13
Mariem 13
Massons 13
Munich 13
Mạng_@@ 13
Mặc 13
NBC 13
NC@@ 13
ND 13
NO@@ 13
Nam@@ 13
Nature 13
New_York_Times 13
Nhà@@ 13
Nhà_máy 13
Nhà_thờ 13
Nien 13
Năng_lượng 13
Old@@ 13
Pac@@ 13
Pat@@ 13
Phi@@ 13
Phi_@@ 13
Phá@@ 13
Phước 13
Poland 13
Poli@@ 13
Premi@@ 13
Quảng_Ngãi 13
Rich@@ 13
Rio 13
Robert 13
Roosevelt 13
Rus@@ 13
SU290 13
Sao 13
Semmelweis 13
South_@@ 13
Symptoms 13
Tat@@ 13
Television 13
Thung_lũng 13
Thọ 13
Thời_@@ 13
Thời_gian 13
Thực_@@ 13
Tim 13
Tiền_@@ 13
Tower 13
Trí_tuệ_nhân_tạo 13
Trọng 13
Tuyên_bố 13
Tết_Nguyên_Đán 13
Tử_@@ 13
USNS 13
VFS-@@ 13
VND10 13
VNĐ@@ 13
Vienna 13
Vientiane 13
Vĩnh_@@ 13
Vương 13
Warner 13
Water@@ 13
Wil@@ 13
World_@@ 13
Young 13
_J@@ 13
_kh@@ 13
_thân 13
_trang 13
a_G@@ 13
absor@@ 13
accommodation 13
accounted 13
accurate 13
achieve 13
ades 13
adopted 13
ae_@@ 13
almajiri 13
alternative 13
amaz@@ 13
amin@@ 13
ander 13
antly 13
anxiety 13
apologi@@ 13
appointed 13
archit@@ 13
arra@@ 13
assessment 13
aster 13
ation@@ 13
attractive 13
aur@@ 13
autonomous 13
awa 13
axit 13
bacterial 13
badly 13
banana 13
barriers 13
bene@@ 13
bian 13
bill 13
biến_chứng 13
bones 13
bound 13
browser 13
bul@@ 13
burns 13
bài_tập 13
bí_ẩn 13
bất_lợi 13
bệnh_lý 13
cake 13
cast 13
categories 13
celebrated 13
checked 13
checking 13
chuối 13
chép 13
chính_trị_gia 13
chúa 13
chúc_mừng 13
chấm 13
chất_lỏng 13
chật_@@ 13
chủ_nhật 13
cinemas 13
cky 13
cle@@ 13
cockroaches 13
colon@@ 13
compar@@ 13
comply 13
compu@@ 13
concept 13
contains 13
contin@@ 13
contributed 13
contribution 13
controver@@ 13
cool 13
cop@@ 13
correct 13
correspon@@ 13
crash 13
creation 13
critically 13
cryptocurrencies 13
công_lập 13
cúng 13
cạn 13
cờ 13
củ 13
củng_cố 13
darity 13
datab@@ 13
dd@@ 13
debt 13
deceased 13
defendants 13
defin@@ 13
depic@@ 13
destroyed 13
developers 13
di_cư 13
diarrhea 13
direction 13
disaster 13
discrimin@@ 13
dispat@@ 13
diệt 13
dog 13
dollar 13
dor 13
dors 13
doub@@ 13
downp@@ 13
downs 13
dân_sự 13
dân_tộc_thiểu_số 13
dạ_dày 13
dần_dần 13
dầu_thô 13
dịch_@@ 13
dọn_dẹp 13
earnings 13
edition 13
efficiency 13
elled 13
ello 13
emphas@@ 13
employers 13
endang@@ 13
enjoyed 13
entirely 13
ester 13
ester@@ 13
evacuate 13
ew@@ 13
examination 13
exporters 13
express 13
facil@@ 13
fas@@ 13
fastest 13
fat@@ 13
fatigue 13
fer 13
ferring 13
finis@@ 13
fire@@ 13
floo@@ 13
foot 13
gal 13
genetically 13
ghi_nhớ 13
gia_nhập 13
giáo_@@ 13
giật 13
giục 13
gov@@ 13
graduates 13
greatest 13
haps 13
harm 13
hen 13
hi_@@ 13
hin@@ 13
hiệu_@@ 13
hiệu_suất 13
holidays 13
hoping 13
hormones 13
hoàn_thiện 13
hoá_thạch 13
hoả 13
human@@ 13
hã@@ 13
hô 13
hạ@@ 13
hẻ@@ 13
hỗn_@@ 13
iPad 13
ifi@@ 13
iku 13
illa_@@ 13
implementation 13
inated 13
inda 13
ington 13
ining 13
ink 13
insul@@ 13
intensi@@ 13
internal 13
interpre@@ 13
intervention 13
intra@@ 13
investigations 13
irs 13
iz 13
ja 13
journal 13
khol@@ 13
khu_@@ 13
khánh 13
khôi_phục 13
khúc 13
khảo 13
king@@ 13
kiến_@@ 13
ké@@ 13
kính_@@ 13
kịch_bản 13
kỹ 13
leg 13
lets 13
letters 13
lev@@ 13
liance 13
lists 13
locality 13
lood 13
lychees 13
lũ_lụt 13
lưu_hành 13
lương_thực 13
lưỡi 13
marathon 13
mation 13
maximum 13
maybe 13
meaning@@ 13
measuring 13
medication 13
moon@@ 13
mountains 13
multi@@ 13
muscles 13
máy_tính_xách_tay 13
móc 13
mạo_hiểm 13
n_tiếp 13
nan 13
neighbor@@ 13
ngăn_cản 13
người_yêu 13
ngập_mặn 13
ngừa 13
nh_ph@@ 13
nhiễm_khuẩn 13
nhiệm_kỳ 13
nhà_sáng_lập 13
nhà_thầu 13
nhân_quyền 13
nhóc 13
nhận_xét 13
nhật_@@ 13
ni 13
night@@ 13
nor 13
năng_suất 13
object 13
obli@@ 13
ogen 13
ola 13
oods 13
ound@@ 13
painting 13
pand@@ 13
panel 13
part@@ 13
paying 13
permitted 13
pha_@@ 13
phy@@ 13
phàn_nàn 13
pháp_@@ 13
phê_bình 13
phóng_@@ 13
phương_@@ 13
pir@@ 13
plus 13
poisoning 13
possibility 13
postp@@ 13
predicted 13
procedure 13
properties 13
provider 13
psychologists 13
pushed 13
pylobacter 13
quar@@ 13
que@@ 13
quyển 13
rainy 13
ranging 13
reopened 13
researcher 13
ressed 13
returnees 13
reve@@ 13
revolution 13
rolls 13
rộng_lớn 13
sage 13
sanitiz@@ 13
scandal 13
seafood 13
secre@@ 13
seismic 13
selected 13
sens@@ 13
sentence 13
seo 13
severity 13
shel@@ 13
shoo@@ 13
sic 13
sid@@ 13
sight 13
solve 13
song_phương 13
sphine 13
steel 13
sting 13
stronger 13
stuck 13
submitted 13
subsidiary 13
substances 13
suc@@ 13
sugar 13
summit 13
supposed 13
surprised 13
surprising 13
sân_@@ 13
t-@@ 13
tainment 13
tan@@ 13
tancy 13
tar@@ 13
technique 13
tells 13
tent 13
tham_nhũng 13
theory 13
thiên_tai 13
thr@@ 13
thu_giữ 13
thuyết 13
thuật_ngữ 13
thuế_quan 13
thuỷ_sản 13
thân_nhiệt 13
thôn 13
thượng_đỉnh 13
thần_kinh 13
thận_trọng 13
thể@@ 13
tis 13
tizens 13
tled 13
tration 13
triggered 13
triển_lãm 13
trol@@ 13
tropol@@ 13
tràn 13
trái_@@ 13
trái_phiếu 13
trưng_@@ 13
trống 13
trở_ngại 13
ture@@ 13
tê@@ 13
tình_báo 13
tích_@@ 13
tích_hợp 13
tươi_@@ 13
tương 13
tổ@@ 13
tội_ác 13
tụ 13
từ_bỏ 13
u_h@@ 13
u_thuyền 13
unhealthy 13
ura 13
urities 13
uỷ_@@ 13
vals 13
venues 13
vi_rút 13
vors 13
vui_@@ 13
và_@@ 13
vô_t@@ 13
vừa_@@ 13
wallets 13
wat@@ 13
wed 13
welcome 13
welcomed 13
workplace 13
worsening 13
xoá 13
xâm_hại 13
xử_phạt 13
y_khoa 13
yen 13
zen 13
ách_@@ 13
âm_mưu 13
ệ@@ 13
úc_@@ 13
Đinh_@@ 13
Điền 13
Đà 13
Đào_tạo 13
Đôi_khi 13
Đường 13
Đặc_biệt 13
Độ@@ 13
điều_tra_viên 13
đuôi 13
đơn_@@ 13
đảm 13
đất_liền 13
đấu_giá 13
đập 13
đồ@@ 13
đồi 13
độc_tố 13
ư_ký 13
ưởi 13
ưỡng 13
ược_@@ 13
ạp 13
ảng_@@ 13
ấm_@@ 13
ấu_@@ 13
ậm 13
ẹo 13
ều 13
ễn_@@ 13
ịnh 13
ồ 13
ổi_@@ 13
ộc 13
ớ 13
ợt 13
ụt 13
ừ@@ 13
ừng_@@ 13
ửa_@@ 13
ỳ@@ 13
0.5 12
1.1 12
11@@ 12
12% 12
12.000 12
13.@@ 12
143 12
179 12
18.@@ 12
199 12
2.2 12
2050 12
23% 12
240 12
251 12
280 12
510 12
650 12
80.000 12
AS 12
Aeroflot 12
Ag@@ 12
Air_@@ 12
Ambassador 12
Amid 12
Azerbaij@@ 12
Beardson 12
Beer 12
Biden 12
Board 12
Bon@@ 12
Brazilian 12
Bud@@ 12
Buetikofer 12
Bão_@@ 12
Bình_Thạnh 12
Bạch 12
Bến_Tre 12
Bức 12
CBS 12
CD@@ 12
CE 12
CO2 12
COC 12
Cambodian 12
Carol@@ 12
Cases 12
Cham@@ 12
Chec@@ 12
Chic@@ 12
Chúng 12
Co 12
Communications 12
Comp@@ 12
Congress 12
Conte 12
Creil 12
Croati@@ 12
Czech 12
Cây_@@ 12
Công_nghiệp 12
Cần_@@ 12
Cần_Thơ 12
Cụ_thể 12
Cửa_@@ 12
Dha@@ 12
Diễn_đàn 12
Doha 12
Dịch_tễ_học 12
E5 12
Eastern 12
Electron@@ 12
Embraer 12
Emmanu@@ 12
Erdo@@ 12
Explorer 12
FR@@ 12
Fe@@ 12
Filipino 12
Financial 12
Fo@@ 12
Francis 12
G4 12
Gao 12
Gate 12
Gene@@ 12
Geneva 12
Georg@@ 12
Gh@@ 12
Ghana 12
Gia_Lai 12
Giêng 12
Giải_@@ 12
Global_@@ 12
Govern@@ 12
Guatem@@ 12
Hal@@ 12
Hamlet 12
Hang-seo 12
Hang@@ 12
Hano@@ 12
Health@@ 12
Hien 12
High@@ 12
Him@@ 12
Hiệ@@ 12
Hotels 12
Hundreds 12
Hygiene 12
Hà_Lôi 12
Hương_@@ 12
Hạnh 12
Hợp_@@ 12
Initi@@ 12
Ital@@ 12
Jas@@ 12
Jetstar 12
Joe 12
Johns 12
KCNA 12
KY@@ 12
Kazakhstan 12
Kim@@ 12
Kiểm_@@ 12
Kle@@ 12
Krasno@@ 12
Kristeller 12
Lady 12
Lagos 12
Lex@@ 12
Link@@ 12
Long_An 12
MD 12
Ma 12
Maduro 12
Maldives 12
Manh 12
Maritime 12
Med@@ 12
Mike 12
Mob@@ 12
Monaco 12
Movie 12
Mê_Linh 12
NCE 12
NG@@ 12
Ngai 12
Nguyễn_Trường_Sơn 12
Nhiễ@@ 12
Nichol@@ 12
Nik@@ 12
Norton 12
Now@@ 12
OSHA 12
Oce@@ 12
Offic@@ 12
One_@@ 12
Opp@@ 12
Oracle 12
Oslo 12
Panasonic 12
Pav@@ 12
PepsiCo 12
Petersburg 12
Phoenix 12
Play@@ 12
Pokem@@ 12
Quy_@@ 12
Quyết_định 12
Quá_trình 12
Quảng_Bình 12
Quỹ 12
Quỹ_@@ 12
RON95 12
Railway 12
Raj@@ 12
Recently 12
Rome 12
Rou@@ 12
Rum@@ 12
SEA@@ 12
SI 12
Sab@@ 12
Salustiano 12
Scarborough 12
Seattle 12
Silver 12
Sin@@ 12
Speci@@ 12
Sr@@ 12
Storm 12
Studies 12
Syn@@ 12
Syrian 12
TH 12
Tea@@ 12
Techcombank 12
Tegnell 12
The_Coffee_@@ 12
Thorotrast 12
Thế_vận_hội_Mùa_hè 12
Thị 12
Thời 12
Thực_tế 12
Trading 12
Trinidad 12
Truc 12
Trung_Hoa 12
Trái_Đất 12
Trần_Thị_@@ 12
Tun@@ 12
Tài_@@ 12
Tô_@@ 12
Tỷ_lệ 12
USA 12
USS 12
Uganda 12
Up 12
Uzbe@@ 12
VF@@ 12
VN0054 12
VTV 12
Vilnius 12
Virgin@@ 12
Viện_@@ 12
Việt_nam 12
Vài 12
Walsh 12
Web 12
Wei@@ 12
Wel@@ 12
Wes@@ 12
Windows 12
Wit@@ 12
Within 12
Without 12
Wozniak 12
Wy@@ 12
YSEALI 12
Yến 12
Zi@@ 12
Zika 12
Zone 12
Zu@@ 12
_lệ 12
_sinh 12
_thế 12
_thị 12
a_h@@ 12
aband@@ 12
abs@@ 12
accept@@ 12
accepted 12
accuracy 12
acle 12
acqu@@ 12
aggres@@ 12
agr@@ 12
agre@@ 12
agree 12
ailed 12
aked 12
aled 12
algorithm 12
alized 12
alla 12
aller@@ 12
alum@@ 12
ancy 12
anniversary 12
archipel@@ 12
aro 12
assigned 12
asymptomatic 12
at_@@ 12
atures 12
audiences 12
aut@@ 12
backed 12
bacterium 12
ban_đêm 12
banh 12
bans 12
bes@@ 12
bet 12
bidden 12
bites 12
bition 12
biến_@@ 12
bled 12
bleeding 12
bloc@@ 12
blocked 12
blue 12
boyfriend 12
branch 12
brief@@ 12
brothers 12
burned 12
bàn_tay 12
báo_động 12
bê 12
bê_bối 12
bình_phục 12
bù_đắp 12
bản_quyền 12
bất_kể 12
bắt_tay 12
bến_xe 12
cab@@ 12
cacbon 12
cai_@@ 12
cancellation 12
capable 12
cardiovascular 12
celebrities 12
channel 12
child@@ 12
chips 12
chào_đời 12
chảy_máu 12
chỉ@@ 12
chứng_tỏ 12
chừng 12
climbed 12
cloth 12
cloud 12
coc@@ 12
cock 12
collecting 12
combination 12
compensation 12
completion 12
compli@@ 12
compound 12
conc@@ 12
concentrated 12
confident 12
consider@@ 12
considers 12
conta@@ 12
contam@@ 12
contest 12
contributions 12
conversation 12
convic@@ 12
coordin@@ 12
costly 12
coughing 12
crashed 12
cultiv@@ 12
cups 12
cyber@@ 12
cá_cược 12
cách_mạng 12
có_@@ 12
công_thức 12
căn_cứ 12
cư 12
cưng 12
cứu_hoả 12
dairy 12
danger 12
day@@ 12
dead@@ 12
deal@@ 12
declarations 12
defined 12
denly 12
dep@@ 12
dered 12
developer 12
dia@@ 12
dian 12
dig@@ 12
dispute 12
ditionally 12
ditions 12
diễn_@@ 12
donors 12
dor@@ 12
doubled 12
dozen 12
drama 12
drew 12
dues 12
dâm 12
dương 12
dẫn_viên 12
dệt_may 12
dị 12
dự_phòng 12
ealing 12
earthquakes 12
easing 12
eco@@ 12
ecosystem 12
edged 12
elec@@ 12
embar@@ 12
emer@@ 12
emergencies 12
emerging 12
emotional 12
empty 12
emy 12
eng 12
entrance 12
escaped 12
ess_@@ 12
exact 12
excep@@ 12
execu@@ 12
expressway 12
extrac@@ 12
ez 12
failing 12
fantas@@ 12
farms 12
ferry 12
fertilizer 12
flown 12
forestation 12
fossil 12
framework 12
franch@@ 12
fraud 12
freshwater 12
fri@@ 12
fried 12
func@@ 12
fying 12
geo@@ 12
ghi_bàn 12
ght@@ 12
ghter 12
giam 12
gift 12
giải_cứu 12
giọt 12
gl@@ 12
grocer@@ 12
gánh 12
gói_thầu 12
hard@@ 12
harder 12
headquarters 12
historic 12
hiện_thời 12
hol@@ 12
hoods 12
hospitalized 12
hoá_đơn 12
hoại 12
hunting 12
hur@@ 12
hurt 12
hydro@@ 12
hàm_lượng 12
hùng_@@ 12
học_đường 12
hợp_chất 12
iOS 12
iPhone 12
iana 12
improving 12
ind 12
ined 12
infant 12
ini 12
inspection 12
intrusion 12
investigating 12
ior 12
iring 12
iết_bị 12
iết_kế 12
joining 12
khuyến_@@ 12
khuôn_viên 12
kháng_nguyên 12
kilogram 12
kindergarten 12
kins 12
kiến_thức 12
kế_toán 12
lao_@@ 12
lation 12
laun@@ 12
lawmakers 12
lay 12
legally 12
leisure 12
length 12
letting 12
licensed 12
lift 12
limiting 12
limits 12
locate 12
lock@@ 12
longing 12
lus 12
lành 12
lã@@ 12
lãi 12
lúc_@@ 12
lời_nói 12
lợi_dụng 12
maintained 12
master 12
mates 12
medicinal 12
membran@@ 12
minimize 12
miss 12
mist@@ 12
mith 12
mix 12
mosquito 12
municip@@ 12
mô_phỏng 12
mươi 12
mạch_máu 12
mại 12
mạn 12
mỏng 12
mốc 12
nav@@ 12
navi@@ 12
negoti@@ 12
neu@@ 12
ney_@@ 12
ng_cấp 12
nger 12
nghi_lễ 12
nghĩa_là 12
nghĩa_vụ 12
nguyện 12
ngũ 12
nhi 12
nhu_yếu_phẩm 12
nhận_biết 12
nhập_@@ 12
những_ai 12
nutrition 12
nế@@ 12
nội 12
nở 12
oc 12
of@@ 12
oke 12
olu@@ 12
omi 12
onal@@ 12
oom 12
open@@ 12
opti@@ 12
option 12
organisms 12
organiz@@ 12
ounce 12
ounded 12
ovirus 12
pa 12
pair 12
panic 12
path 12
pending 12
percei@@ 12
personal@@ 12
pesticides 12
pets 12
photo@@ 12
physically 12
phát_ban 12
phát_thanh 12
phân_bổ 12
phê 12
phú 12
phương_án 12
phổ_thông 12
picked 12
pil@@ 12
pin 12
pink 12
player 12
pleas@@ 12
pocong 12
port@@ 12
portfoli@@ 12
post@@ 12
powered 12
powers 12
preliminary 12
prepar@@ 12
preparation 12
prevented 12
pric@@ 12
prioritiz@@ 12
proficiency 12
prosecu@@ 12
prot@@ 12
proteins 12
protocol 12
psychology 12
pulation 12
pus@@ 12
push 12
qual@@ 12
quanti@@ 12
quen_thuộc 12
quần_thể 12
rad@@ 12
recession 12
recommend 12
refrig@@ 12
register 12
registration 12
repatriated 12
resistant 12
resorts 12
ress 12
restricted 12
resur@@ 12
retur@@ 12
ris 12
roll 12
ros 12
royal 12
rupt 12
ruz 12
ruồi 12
rào_@@ 12
rắc_rối 12
satellite 12
sauce 12
scenarios 12
secondary 12
seeks 12
sels 12
septic 12
shelter 12
shipped 12
shortly 12
sim@@ 12
simil@@ 12
sively 12
sixth 12
ska 12
smugg@@ 12
son_@@ 12
sounds 12
spokeswoman 12
sporting 12
st_@@ 12
stab@@ 12
starts 12
statistics 12
stitu@@ 12
stol@@ 12
stories 12
strategies 12
stre@@ 12
stro@@ 12
strugg@@ 12
submit 12
succee@@ 12
suicide 12
sum 12
supervision 12
surveyed 12
suspending 12
sáng_chế 12
sáp_nhập 12
sơ_bộ 12
sắp_@@ 12
sổ_@@ 12
sự_thật 12
tackle 12
tall 12
tane@@ 12
tasked 12
tees 12
thers 12
thes@@ 12
thi_thể 12
thoả@@ 12
threat@@ 12
thri@@ 12
thủ 12
thuần 12
thuỷ_tinh 12
thác 12
thù_địch 12
thú_@@ 12
thương_t@@ 12
thất_@@ 12
thất_vọng 12
thị_xã 12
thổi 12
thừa 12
tiv@@ 12
tives 12
tiên_@@ 12
tiêu_đề 12
tiế@@ 12
tiến_triển 12
tles 12
to_lớn 12
topped 12
touch 12
touched 12
toả 12
tradition 12
tral 12
trending 12
trends 12
tres 12
tri 12
trường_@@ 12
tum@@ 12
tunately 12
tune 12
turning 12
turns 12
tuyết 12
tâm_trí 12
tình_nguyện_viên 12
tín_@@ 12
tô 12
tạp_@@ 12
tỉ 12
tối_ngày 12
tốn 12
tốn_kém 12
ua 12
ued 12
umes 12
underground 12
update 12
uro@@ 12
ux 12
uốc 12
va_chạm 12
vaccinated 12
vaping 12
var@@ 12
veter@@ 12
victory 12
vor 12
vory 12
vu@@ 12
ván 12
vô 12
vạch 12
vắc-xin. 12
vừa_phải 12
wai@@ 12
warehouse 12
warn 12
weighing 12
wise 12
wish 12
wore 12
wrapped 12
write 12
writer 12
xoáy 12
xuất_huyết 12
xuất_sắc 12
yn 12
yo@@ 12
yuan 12
zo 12
Í@@ 12
Út 12
áp_thấp_nhiệt_đới 12
ãi_@@ 12
ìm 12
ông_bà 12
úng 12
ý_định 12
Đam 12
Đường_@@ 12
Đường_sắt 12
Đỗ_@@ 12
điệu 12
đánh_cắp 12
đáy 12
đĩa 12
đương_@@ 12
đường_bộ 12
đảm_@@ 12
đầu_bếp 12
đẩy_mạnh 12
để_@@ 12
đệ_trình 12
đống 12
ưu 12
ι@@ 12
ảm 12
ậ@@ 12
ắng 12
ằm 12
ặ@@ 12
ẽ@@ 12
ễ_@@ 12
ị_liệu 12
ồi_@@ 12
ổ@@ 12
ởi 12
ỡi 12
ợ 12
ựu 12
-la 11
09 11
116 11
13,@@ 11
134 11
14,@@ 11
144 11
162 11
163 11
165 11
1960 11
1985 11
1990s 11
20th 11
21,@@ 11
228 11
25,000 11
3.3 11
33,@@ 11
4,300 11
420 11
5.5 11
500.000 11
7.5 11
70.000 11
75% 11
78 11
A. 11
AJ@@ 11
ATM 11
Aar@@ 11
Aires 11
Alexand@@ 11
Alliance 11
Alter@@ 11
Amir@@ 11
An_ninh 11
Andrew 11
Anton@@ 11
Arab 11
Audi 11
Aus@@ 11
Award 11
BI 11
Bac@@ 11
Bakery 11
Baku 11
Ban_@@ 11
Be 11
Bir@@ 11
Bour@@ 11
Bra@@ 11
Bristol 11
Brown 11
Bình_Chánh 11
Bảo_vệ 11
CB@@ 11
CD4 11
CN@@ 11
CT 11
Capital 11
Carri@@ 11
Cat 11
Cat@@ 11
Chuyên_@@ 11
Chất_@@ 11
Co.@@ 11
Coast 11
Construction 11
Cooper@@ 11
Corona 11
Cuban 11
Cà_Mau 11
Cơ_sở 11
D. 11
DO@@ 11
Daniel 11
Deb@@ 11
Declaration 11
Der@@ 11
Disney 11
Diễn_@@ 11
Dom@@ 11
Dự_kiến 11
EC@@ 11
EEZ 11
EFA 11
Echo 11
Elizabeth 11
Essex 11
Face 11
Geo@@ 11
Geor@@ 11
Giai_@@ 11
Gil@@ 11
Giấy 11
Giống 11
Globally 11
Gy@@ 11
Hai@@ 11
Having 11
Haw@@ 11
Heil@@ 11
Heli@@ 11
Highlands_Coffee 11
Huỳnh_@@ 11
Hye_@@ 11
Hành_động 11
Hò@@ 11
Học 11
IA@@ 11
Infectious 11
Institu@@ 11
Intelligence 11
Ir@@ 11
Iris@@ 11
Israeli 11
JPY 11
Jackson 11
Jama@@ 11
Java 11
Jen@@ 11
Jenni@@ 11
Johns_Hopkins 11
Juli@@ 11
Jus@@ 11
Justin_@@ 11
Khu@@ 11
Khánh_@@ 11
Không_quân 11
Ki 11
Kore@@ 11
Kyoto 11
LE 11
Lac 11
Lat 11
Latin 11
Los_Angeles 11
Lyrebird 11
Lương 11
MH370 11
Mand@@ 11
Map 11
Marathon 11
Martin 11
Meteorological 11
Mike_@@ 11
Minneapolis 11
Miền 11
More@@ 11
Motor 11
Muslim 11
Món 11
Mới 11
N1 11
NS@@ 11
Nam_Mỹ 11
Nguyễn_T@@ 11
Nguyễn_Đức_Chung 11
Người_phát_ngôn 11
Nice 11
Nis@@ 11
Noel 11
Oc@@ 11
Old 11
PA 11
PR 11
Palestine 11
Paradise 11
Pepsi 11
Peru 11
Phi-lí@@ 11
Phúc_@@ 11
Phước_@@ 11
Phố 11
Pittsburgh 11
Po 11
Policy 11
Pó 11
Quân_đội 11
Quý 11
Reed 11
Represent@@ 11
Response 11
Ret@@ 11
Rober@@ 11
Ros@@ 11
SUV 11
Safety 11
Sciences 11
Sen 11
Shincheonji 11
Soc@@ 11
Sun@@ 11
Sáng 11
Sáng_@@ 11
TA 11
THPT 11
TS 11
Taois@@ 11
Taylor 11
Thanh_Niên 11
Thông_báo 11
Thương_binh 11
Thần_@@ 11
Thủ_Tướng 11
Thủ_Đức 11
Tiến 11
Tiến_@@ 11
Tiếng 11
Tom 11
Trail 11
Trends 11
Truy@@ 11
Trúc_@@ 11
Tuần 11
Tình_@@ 11
Tổ@@ 11
Tổng_cộng 11
Tổng_giám_đốc 11
UNICEF 11
Ukra@@ 11
Until 11
VND2 11
VT 11
Vancouver 11
Veneto 11
Vi 11
Vietnam_@@ 11
Vinac@@ 11
Viên 11
Vol@@ 11
Vũng_Tàu 11
WRI 11
Wat@@ 11
Wilcox 11
Wilden 11
Wom@@ 11
Xô 11
Yem@@ 11
_Oblast 11
_lực 11
_não 11
_quan 11
_thù 11
_tưởng 11
a_sĩ 11
abandoned 11
abused 11
accompan@@ 11
ace_@@ 11
acquisition 11
activi@@ 11
ada 11
addiction 11
addressed 11
adic@@ 11
adul@@ 11
adverti@@ 11
aero@@ 11
aim@@ 11
aker 11
akers 11
ali 11
allegedly 11
allies 11
alligator 11
alo 11
aming 11
anced 11
ane@@ 11
anger 11
anno@@ 11
antiviral 11
anywhere 11
appeal 11
archipelagos 11
argo 11
aspect 11
assert 11
assess 11
associ@@ 11
atal 11
athore 11
attacked 11
attacking 11
attribu@@ 11
atur@@ 11
auth@@ 11
author@@ 11
avoiding 11
awaiting 11
aya 11
barrels 11
bats 11
bà 11
begins 11
belief 11
beria 11
binh_@@ 11
biệ@@ 11
blamed 11
blog 11
bomb 11
bottles 11
bpd 11
bribery 11
broadcas@@ 11
burial 11
but@@ 11
buôn 11
bán_phá_giá 11
bãi_@@ 11
bệ@@ 11
bọ@@ 11
bổ_nhiệm 11
c_sĩ 11
ca_khúc 11
cam 11
cancel 11
cannabis 11
careful 11
carefully 11
carries 11
casting 11
ceed 11
celebrations 11
cement 11
centr@@ 11
charter 11
chatbot 11
chem@@ 11
chron@@ 11
chú 11
chuộng 11
chăm_chỉ 11
chế_@@ 11
chứng_chỉ 11
civili@@ 11
coco@@ 11
coins 11
competitors 11
complications 11
concentr@@ 11
concentration 11
condoms 11
conduc@@ 11
consistent 11
consumed 11
context 11
contrac@@ 11
controlling 11
cooked 11
cooperating 11
craft 11
critic@@ 11
crypto@@ 11
cured 11
cycle 11
cô@@ 11
cơ_bắp 11
cơm 11
cường 11
cất_cánh 11
cấy_ghép 11
cận 11
cốc 11
cối 11
cứng_@@ 11
dar@@ 11
dare 11
debate 11
deleg@@ 11
demanding 11
depres@@ 11
detail@@ 11
diagno@@ 11
diction 11
diesel 11
dispu@@ 11
distribution 11
diversi@@ 11
dreaming 11
drove 11
dumping 11
dung_@@ 11
dày 11
dập 11
e. 11
eared 11
ech@@ 11
eda 11
educ@@ 11
elds 11
electrical 11
eligible 11
elle@@ 11
ellow 11
elsewhere 11
em_@@ 11
emotions 11
encouraging 11
engineers 11
entitled 11
eon 11
epic@@ 11
establishments 11
esterol 11
eter 11
etery 11
evacu@@ 11
evacuation 11
eve@@ 11
everage 11
evolution 11
exactly 11
experiment 11
explains 11
exploitation 11
exporter 11
farm@@ 11
favor 11
fiel@@ 11
finger 11
fir@@ 11
fled 11
foundation 11
gang 11
gases 11
gies 11
git 11
giặt 11
giỏi 11
giờ_đây 11
glo@@ 11
grams 11
guides 11
gun@@ 11
gây_@@ 11
gắt 11
hack 11
hailing 11
halted 11
happening 11
hew 11
hired 11
hiển_thị 11
holders 11
honored 11
housing 11
hoàn_cảnh 11
hoàn_tất 11
hoạt_hình 11
hurric@@ 11
huy_chương 11
hydrogen 11
hypertension 11
hàng_rào 11
hành_hương 11
hô@@ 11
hồng_@@ 11
idi@@ 11
ier 11
ification 11
ifying 11
ign 11
impa@@ 11
ina_@@ 11
incenti@@ 11
inda_@@ 11
infec@@ 11
inform@@ 11
ingredients 11
ins@@ 11
intellec@@ 11
introduction 11
istence 11
iting 11
ja@@ 11
jack@@ 11
justice 11
keley 11
kets 11
khiêu_@@ 11
khiếm_thính 11
khả@@ 11
khắc_@@ 11
kies 11
kinh_phí 11
kph 11
kì 11
kẻ@@ 11
kịp 11
lease 11
leo_thang 11
lers 11
lin 11
lined 11
links 11
liquid 11
listening 11
loads 11
lon 11
lular 11
luxury 11
lying 11
lát 11
lên_@@ 11
lĩnh 11
lươn 11
lục_địa 11
mai 11
managers 11
managing 11
manufactured 11
marking 11
memories 11
mention 11
merch@@ 11
metric 11
mir 11
misinformation 11
mob@@ 11
monit@@ 11
mood 11
movements 11
mua_bán 11
murder 11
mysterious 11
má@@ 11
máy_chủ 11
môi_giới 11
mạ@@ 11
mộng 11
một_khi 11
n_pháp 11
n_đạo 11
nam_@@ 11
naturally 11
neck 11
nee@@ 11
need@@ 11
nges 11
nghiêm_@@ 11
nghiêm_túc 11
nghệ 11
nghệ@@ 11
nghị_sĩ 11
ngáp 11
ngẫu_nhiên 11
ngắn_hạn 11
ngợi 11
nh_tay 11
nha 11
nhà_tài_trợ 11
nhà_tù 11
nhà_văn 11
nhân_hoá 11
nhạc_sĩ 11
nhảy_@@ 11
ninth 11
nival 11
nó@@ 11
nói_@@ 11
o_thức 11
oa 11
observed 11
obstacles 11
offerings 11
oka 11
oming 11
oner 11
onset 11
onym@@ 11
ooth 11
ope 11
operational 11
operators 11
organizers 11
organizing 11
outs 11
overing 11
owns 11
ozon 11
ozone 11
p-pin 11
p_th@@ 11
papers 11
pating 11
pel@@ 11
perfect 11
pesticide 11
peti@@ 11
pha@@ 11
phr@@ 11
phán 11
phân_tử 11
phải_@@ 11
pilgri@@ 11
placing 11
plas@@ 11
plu@@ 11
pointed 11
policem@@ 11
practi@@ 11
premis@@ 11
primarily 11
processed 11
produces 11
progres@@ 11
projected 11
prominent 11
promoting 11
pse 11
pub@@ 11
quay_@@ 11
quá_@@ 11
quân_@@ 11
quốc_hội 11
rank 11
rarely 11
realized 11
reasonable 11
recoveries 11
recovering 11
recru@@ 11
recruitment 11
reduces 11
refers 11
refu@@ 11
regardless 11
regularly 11
rela@@ 11
reliable 11
rential 11
rently 11
reopening 11
represents 11
repu@@ 11
requests 11
reserve 11
reservo@@ 11
residence 11
rev@@ 11
rhosis 11
rible 11
rics 11
robo@@ 11
rub@@ 11
rush@@ 11
rushed 11
rèn_luyện 11
sai_lầm 11
salaries 11
saltwater 11
saving 11
screened 11
searches 11
secretary 11
seg@@ 11
sengers 11
seniors 11
sexually 11
sh_@@ 11
shareholder 11
shir@@ 11
sinh_hoạt 11
sinh_nở 11
sized 11
sla@@ 11
slaughter 11
smo@@ 11
snakes 11
sons 11
sort 11
spaces 11
specul@@ 11
spider 11
stand@@ 11
startups 11
sterile 11
stitute 11
stoc@@ 11
stored 11
stormqu@@ 11
struggle 11
style 11
subscri@@ 11
substanti@@ 11
suppl@@ 11
sured 11
suspic@@ 11
sweet 11
sym@@ 11
sympa@@ 11
sơ_thẩm 11
sư 11
sư@@ 11
sướng 11
sở_thích 11
t-x@@ 11
tably 11
tag 11
tains 11
tan 11
tap@@ 11
tas@@ 11
tch 11
techno@@ 11
tely 11
temple 11
termin@@ 11
thedral 11
thick 11
thir@@ 11
thousand 11
threatening 11
thua 11
thunder@@ 11
thá@@ 11
thái 11
tháp 11
thâm_@@ 11
thân_@@ 11
thích_nghi 11
thúc_@@ 11
thăm_dò 11
thường_trực 11
thế_này 11
thống_trị 11
thời_đại 11
thử_thách 11
tian 11
ticians 11
tied 11
till 11
timate 11
titude 11
tiếc 11
tiếng_@@ 11
tiếp_diễn 11
tiề@@ 11
tiểu 11
touching 11
toxin 11
toxins 11
trag@@ 11
transiting 11
tre 11
trem@@ 11
triển 11
trích 11
tròn 11
trùm 11
ts@@ 11
turing 11
tuyển 11
tuyệt_chủng 11
twins 11
tán_@@ 11
tĩnh_@@ 11
tơ 11
tư_@@ 11
tường 11
tạng 11
tầng_lớp 11
tận_hưởng 11
tập_hợp 11
tỉ_@@ 11
u_khách 11
u_trưởng 11
unexpected 11
unveiled 11
uy_tín 11
vap@@ 11
ventilation 11
villagers 11
vis@@ 11
vision 11
visu@@ 11
vuông 11
vùng 11
vá 11
vũ_lực 11
vật_chất 11
vừa_rồi 11
vực 11
wa 11
wal@@ 11
warnings 11
weigh@@ 11
wns 11
worries 11
wrong 11
xô 11
xướng 11
ycle 11
youngest 11
youth 11
ypill 11
~ 11
Â@@ 11
Ý@@ 11
ãng 11
ç@@ 11
é_@@ 11
ì@@ 11
í_thư 11
íp 11
òng_nọc 11
úa 11
ý_thức 11
Điểm 11
Động_@@ 11
đi_@@ 11
điều_trần 11
điện_@@ 11
đoạt 11
đủ 11
đàn_@@ 11
đạo_đức 11
đỉnh_@@ 11
địa_bàn 11
địa_chất 11
đồng_minh 11
động_lực 11
ưa_thích 11
̀m 11
̉i 11
ạm_@@ 11
ập_@@ 11
ắ@@ 11
ẵng 11
ẹ@@ 11
ển_@@ 11
ễn 11
ọng_@@ 11
ộng_@@ 11
ới_@@ 11
ủng_@@ 11
ứ 11
ứt_@@ 11
ừng 11
ử 11
ỹ@@ 11
’ll 11
€ 11
0% 10
= 10
Afgh@@ 10
Alex@@ 10
Angel@@ 10
BC 10
Bel@@ 10
Bạch_@@ 10
Champ@@ 10
Châu_@@ 10
Có@@ 10
DA 10
Environ@@ 10
Fir@@ 10
Fol@@ 10
Foo@@ 10
Fri@@ 10
Hạ_@@ 10
Ira@@ 10
Jet@@ 10
Jord@@ 10
Long_@@ 10
Mô@@ 10
Nghi@@ 10
Ngoại_@@ 10
Nhân_@@ 10
Ninh_@@ 10
RO@@ 10
Sus@@ 10
TC 10
Touris@@ 10
Tro@@ 10
Vương_@@ 10
World@@ 10
_liệu 10
_n@@ 10
_thuận 10
_Đ@@ 10
a_s@@ 10
acad@@ 10
aire 10
ame@@ 10
applic@@ 10
ared 10
atar 10
ble@@ 10
bran@@ 10
breaks 10
buôn_@@ 10
bật 10
cem@@ 10
challe@@ 10
cho_@@ 10
chủ@@ 10
clou@@ 10
concer@@ 10
confir@@ 10
cular 10
cáo_@@ 10
cả@@ 10
cản 10
du_@@ 10
dục 10
eat@@ 10
eing 10
ems 10
enced 10
environ@@ 10
eor@@ 10
erate 10
eron 10
favor@@ 10
fem@@ 10
fts 10
gent 10
gin@@ 10
gion 10
governmental 10
gó@@ 10
góp 10
hoàn_@@ 10
huy@@ 10
huỷ_@@ 10
hướng_@@ 10
igh@@ 10
indepen@@ 10
ink@@ 10
inte@@ 10
itation 10
iềm 10
jects 10
kháng_@@ 10
khích 10
khử 10
kỳ_@@ 10
kỹ_thuật_@@ 10
lai 10
luật_@@ 10
m_sát 10
main@@ 10
mart 10
messa@@ 10
mi 10
millenni@@ 10
mosqu@@ 10
mur@@ 10
mái 10
n_thu@@ 10
nes 10
ng_sinh 10
ngầm 10
ngộ_@@ 10
ngờ 10
nhánh 10
né@@ 10
olution 10
omatic 10
ood 10
organ@@ 10
ough 10
phá_@@ 10
pic@@ 10
poin@@ 10
pollu@@ 10
quá@@ 10
ra_@@ 10
ras@@ 10
redi@@ 10
rence 10
rences 10
rents 10
resi@@ 10
ron 10
rying 10
sea@@ 10
siêu_@@ 10
soát 10
sph@@ 10
sters 10
sue 10
surpris@@ 10
sá@@ 10
só@@ 10
sức_@@ 10
tax@@ 10
thích_@@ 10
thượng_@@ 10
thần 10
thập_@@ 10
tically 10
tice 10
tiện 10
tract 10
traffic@@ 10
tranded 10
transit 10
transporting 10
trian 10
trick 10
trigg@@ 10
trou@@ 10
truy_@@ 10
trí_@@ 10
trả@@ 10
trợ_giúp 10
trực 10
trực_thuộc 10
tti 10
tting 10
tural 10
tuyệt 10
tục 10
tuổi_thọ 10
twin 10
tác_hại 10
tác_nhân 10
tính_cách 10
tạm_@@ 10
tấn_xã 10
tật 10
tố_@@ 10
tồn_kho 10
tổ_@@ 10
tội_danh 10
từ_vựng 10
tự_hào 10
tỷ_số 10
u_hộ 10
uation 10
ugh@@ 10
ulture 10
uph@@ 10
uring 10
uris@@ 10
us_@@ 10
uti@@ 10
uyen 10
vast 10
vin 10
violation 10
visi@@ 10
voted 10
voters 10
votes 10
vòng_@@ 10
vô_gia_cư 10
vô_tình 10
vĩnh_viễn 10
vươn 10
vắng 10
vẹn 10
vết_thương 10
vịt 10
walks 10
wholes@@ 10
wid@@ 10
winning 10
witn@@ 10
wom@@ 10
woo@@ 10
workplaces 10
writing 10
wro@@ 10
x_@@ 10
xa_x@@ 10
xinh_@@ 10
xuố@@ 10
xà_phòng 10
yar@@ 10
yên_@@ 10
Âu 10
ài_đặt 10
át_@@ 10
áu 10
ây_giờ 10
ã_@@ 10
ép_@@ 10
êu_tả 10
ếu 10
ì_@@ 10
ì_thế 10
ôn_học 10
õ@@ 10
ăm_sóc 10
ăn_mừng 10
ăng_dầu 10
Đoòng 10
Đình 10
Đông_Nam 10
Đặc_@@ 10
Đị@@ 10
Đừng 10
đa@@ 10
đa_dạng 10
đa_dạng_hoá 10
đau_đớn 10
điện_ngầm 10
điện_ảnh 10
đo@@ 10
đà 10
đá_@@ 10
đúng_@@ 10
đạn 10
đấu_thầu 10
đắt_đỏ 10
đỉnh 10
định_nghĩa 10
đối_lập 10
đối_thoại 10
độ@@ 10
độc_tính 10
đột_biến 10
đời_@@ 10
đựng 10
ĩa 10
Ước_tính 10
ương_mù 10
ương_mặt 10
ướng_@@ 10
ười_@@ 10
̀a 10
́p 10
̃ 10
̣i 10
ả_hoạn 10
ảnh_khắc 10
ất_nhiên 10
ẫu 10
ẫy 10
ận_rộn 10
ậu 10
ắm_bắt 10
ắp_nơi 10
ặc_@@ 10
ặp_@@ 10
ẹ_nh@@ 10
ẹn_hò 10
ề_@@ 10
ển 10
ệnh_lệnh 10
ị_định 10
ọc_@@ 10
ồ_Đào_Nha 10
ộm 10
ờ_Biển_Ng@@ 10
ụp 10
ủi 10
ức_trách 10
ử_@@ 10
ử_dụng 10
ửa_sổ 10
* 9
Bl@@ 9
Briti@@ 9
Budd@@ 9
Chiến_@@ 9
Chủ_@@ 9
Cre@@ 9
Direc@@ 9
Doc@@ 9
Elec@@ 9
Fal@@ 9
Fl@@ 9
Gia_@@ 9
Goo@@ 9
Ham@@ 9
Hành_@@ 9
Hô@@ 9
Islam@@ 9
MO 9
Manch@@ 9
Medic@@ 9
Nav@@ 9
Nhiệt_@@ 9
Nig@@ 9
PT 9
Princ@@ 9
SC 9
Scienti@@ 9
Spec@@ 9
Techno@@ 9
Thương_@@ 9
Tiên 9
Up@@ 9
Vietj@@ 9
_lượng 9
_thi 9
a_khoa 9
agement 9
agers 9
ags 9
alled 9
ances@@ 9
anci@@ 9
anding 9
arch@@ 9
bad@@ 9
bai 9
band 9
beli@@ 9
bird 9
biế@@ 9
bling 9
blu@@ 9
bon 9
bằng_@@ 9
bỏ_@@ 9
centur@@ 9
chil@@ 9
choo@@ 9
collea@@ 9
comfor@@ 9
commerce 9
competi@@ 9
control@@ 9
correc@@ 9
côn_@@ 9
công_nghệ_@@ 9
cược 9
cố@@ 9
dang@@ 9
deter@@ 9
dipl@@ 9
dump@@ 9
dẫn_@@ 9
dụ@@ 9
ealthy 9
erc@@ 9
erous 9
ether 9
fic 9
ficiency 9
gian@@ 9
gir@@ 9
gni@@ 9
hes 9
hiệ@@ 9
hoảng 9
hứ@@ 9
hữu_@@ 9
igh 9
igners 9
illing 9
introduc@@ 9
ip@@ 9
iratory 9
isol@@ 9
ital 9
iên_@@ 9
iều_@@ 9
iểm 9
iểu 9
ject 9
kiế@@ 9
kê 9
kỷ 9
kỹ@@ 9
lam@@ 9
langu@@ 9
ldwide 9
lish@@ 9
ly_@@ 9
lâm_@@ 9
lạc 9
lạm_@@ 9
lớn_@@ 9
manufac@@ 9
mean@@ 9
mine 9
minh_@@ 9
modi@@ 9
mov@@ 9
munic@@ 9
musi@@ 9
mật 9
mộ@@ 9
nal@@ 9
nership 9
ng_thái 9
nh_m@@ 9
nhiễm_@@ 9
o_dài 9
ocr@@ 9
ond@@ 9
oosevelt 9
opin@@ 9
ou 9
ould 9
phối_@@ 9
phức_@@ 9
pow@@ 9
proto@@ 9
quy@@ 9
reco@@ 9
repatri@@ 9
rest@@ 9
reveal@@ 9
s-@@ 9
sanc@@ 9
sing@@ 9
sinh_thái 9
situ@@ 9
skil@@ 9
ssi@@ 9
stics 9
stom@@ 9
suppor@@ 9
surance 9
sốt_@@ 9
t_nhất 9
tee 9
telli@@ 9
thúc 9
tificial 9
tin_@@ 9
tiểu_@@ 9
tol@@ 9
tral@@ 9
treat@@ 9
tribu@@ 9
triệu_@@ 9
trực_@@ 9
tuyệt_@@ 9
tôn_@@ 9
tại_@@ 9
tả 9
tức_@@ 9
ues 9
unar 9
unh@@ 9
uối 9
venti@@ 9
vers@@ 9
viru@@ 9
vào_@@ 9
vị@@ 9
wift 9
worsen@@ 9
xim@@ 9
xếp_@@ 9
zu@@ 9
áp_th@@ 9
ía 9
ù_@@ 9
ý_th@@ 9
đai 9
đò@@ 9
đăng_@@ 9
đến_@@ 9
đố@@ 9
ư_dân 9
ạy 9
ảnh_@@ 9
ần_đảo 9
ầu_@@ 9
ẫ@@ 9
ặng 9
ẹn 9
ệ_@@ 9
ệch 9
ỏ_@@ 9
ộ_@@ 9
ộn 9
ộp 9
ờ@@ 9
ủ_@@ 9
ỵ@@ 9
–@@ 9
Americ@@ 8
Ba_@@ 8
Bec@@ 8
By@@ 8
Bà_Rị@@ 8
Chil@@ 8
Christ@@ 8
Chú@@ 8
Clin@@ 8
Colom@@ 8
Cổ_@@ 8
DP 8
Eg@@ 8
Emir@@ 8
Eng@@ 8
Er@@ 8
Goo_@@ 8
Guine@@ 8
HA 8
Hond@@ 8
Hàn_@@ 8
JP@@ 8
Kyo@@ 8
Lim@@ 8
Mol@@ 8
Nep@@ 8
Os 8
Pak@@ 8
Peter@@ 8
Pom@@ 8
Prof@@ 8
Rail@@ 8
S-@@ 8
Saig@@ 8
Spr@@ 8
Stre@@ 8
Trin@@ 8
Trái_@@ 8
VO@@ 8
Veg@@ 8
Vill@@ 8
We@@ 8
_hậu 8
_lý 8
_lẽ 8
abin@@ 8
achi@@ 8
acity 8
aller 8
amin 8
amoun@@ 8
anned 8
antibio@@ 8
apar@@ 8
bour@@ 8
broad@@ 8
burgh 8
bạo_@@ 8
cao_tốc 8
ceremon@@ 8
chec@@ 8
chipel@@ 8
chí@@ 8
chặ@@ 8
chỉ_@@ 8
cial 8
cil 8
citiz@@ 8
cont@@ 8
critici@@ 8
cro@@ 8
curren@@ 8
cú@@ 8
cơ_s@@ 8
cầ@@ 8
cửa_@@ 8
deploy@@ 8
develo@@ 8
dio 8
distribu@@ 8
dol@@ 8
dows 8
earing 8
eller 8
ember 8
emis@@ 8
enfor@@ 8
enters 8
ert 8
escap@@ 8
estab@@ 8
estic 8
eves 8
experi@@ 8
expo@@ 8
fail@@ 8
fif@@ 8
figh@@ 8
formation 8
frau@@ 8
friend@@ 8
gh 8
giới_@@ 8
giờ_@@ 8
gri@@ 8
heavi@@ 8
hep@@ 8
histor@@ 8
hiểm 8
hoan_@@ 8
house@@ 8
ij@@ 8
implem@@ 8
inclu@@ 8
inno@@ 8
inspec@@ 8
ition 8
iền_@@ 8
ji 8
kar@@ 8
khối_@@ 8
legi@@ 8
liqu@@ 8
logies 8
lí@@ 8
maj@@ 8
mary 8
meas@@ 8
mption 8
mẫu_@@ 8
mắn 8
mở_@@ 8
n_tho@@ 8
n_thể 8
n_đổi 8
necess@@ 8
nel 8
nghệ_@@ 8
ngly 8
nhi@@ 8
nấu_@@ 8
nổi_@@ 8
obs 8
omet@@ 8
ones@@ 8
onom@@ 8
phiên_@@ 8
phê_@@ 8
prec@@ 8
quarantin@@ 8
quarters 8
quyề@@ 8
recei@@ 8
recommend@@ 8
scand@@ 8
scho@@ 8
scri@@ 8
shor@@ 8
spac@@ 8
spok@@ 8
stan@@ 8
suspen@@ 8
số@@ 8
sụ@@ 8
tak@@ 8
thoại 8
thuy@@ 8
thị_@@ 8
tis@@ 8
tom 8
truy@@ 8
truyề@@ 8
tude 8
tă@@ 8
tố@@ 8
ural 8
uyền 8
vacc@@ 8
vel 8
veness 8
visit@@ 8
web@@ 8
wed@@ 8
xychloroquine 8
xúc 8
you@@ 8
É@@ 8
ây_dựng 8
æ@@ 8
èo 8
ín 8
óm 8
Đăk_@@ 8
Đầu_@@ 8
đa_@@ 8
điệ@@ 8
đồng_t@@ 8
ư_vậy 8
̃@@ 8
γ@@ 8
ạn_nhân 8
Ả@@ 8
ấn_luy@@ 8
ấn_đề 8
ẩn_đoán 8
ậu_@@ 8
ằng_@@ 8
ể_@@ 8
ện_@@ 8
ện_viên 8
ịch_@@ 8
ịu 8
ọn_@@ 8
ỏng 8
ời_@@ 8
ức_độ 8
ững_@@ 8
ỷ_l@@ 8
#@@ 7
Aer@@ 7
Bet@@ 7
Big@@ 7
Chỉ_@@ 7
Dan@@ 7
Dem@@ 7
Fed@@ 7
Hear@@ 7
Inc@@ 7
Inst@@ 7
Jack@@ 7
Lê_Thị_@@ 7
Mil@@ 7
Organiz@@ 7
Phụ@@ 7
Tao@@ 7
Trí_@@ 7
Tur@@ 7
Uỷ_ban_@@ 7
Vir@@ 7
With@@ 7
Ya@@ 7
Zha@@ 7
_năng 7
ambo@@ 7
ames 7
an_M@@ 7
apo@@ 7
appropri@@ 7
approv@@ 7
ascular 7
attle 7
autonom@@ 7
aver@@ 7
avirus 7
awai@@ 7
bir@@ 7
brea@@ 7
bả@@ 7
cally 7
cee@@ 7
certific@@ 7
chair@@ 7
chi_ph@@ 7
chị_@@ 7
ckro@@ 7
consum@@ 7
cum@@ 7
currencies 7
custom@@ 7
cách_@@ 7
cư@@ 7
cố_@@ 7
das 7
dre@@ 7
drome 7
dự@@ 7
e.@@ 7
effici@@ 7
ellers 7
employ@@ 7
enter@@ 7
entially 7
epid@@ 7
esides 7
eth 7
exac@@ 7
fal@@ 7
fam@@ 7
fan@@ 7
fav@@ 7
gator 7
gene@@ 7
giải_th@@ 7
giảng_@@ 7
guil@@ 7
gy 7
hon@@ 7
hospit@@ 7
hoá@@ 7
hầu 7
hết_@@ 7
hồ@@ 7
i_lòng 7
i_thường 7
ign@@ 7
ilities 7
immigr@@ 7
issu@@ 7
ive 7
iệu_@@ 7
ka@@ 7
khi@@ 7
khuôn_@@ 7
khô@@ 7
ledge 7
liam@@ 7
lier 7
load@@ 7
longed 7
lych@@ 7
lý_@@ 7
mar 7
mater@@ 7
maz@@ 7
mes@@ 7
miễn_@@ 7
moder@@ 7
motor@@ 7
motorbi@@ 7
n_tính 7
n_tải 7
nees 7
ngton 7
nia 7
occur@@ 7
oce@@ 7
ool 7
ordin@@ 7
org@@ 7
phòng_th@@ 7
play@@ 7
presid@@ 7
priv@@ 7
recogni@@ 7
repor@@ 7
riê@@ 7
rus 7
san@@ 7
sau@@ 7
sci@@ 7
sco@@ 7
see@@ 7
si 7
sia 7
sib@@ 7
six@@ 7
solu@@ 7
subsidi@@ 7
succ@@ 7
sugges@@ 7
surve@@ 7
sus@@ 7
sáng_t@@ 7
sắt 7
tension 7
thiểu_số 7
thành_ph@@ 7
thụ 7
trav@@ 7
tric 7
triển_@@ 7
tuy@@ 7
twe@@ 7
tỷ_@@ 7
uana 7
ury 7
vec@@ 7
vention 7
vi-@@ 7
vic@@ 7
vong 7
vy 7
weap@@ 7
wered 7
whi@@ 7
y_vọng 7
àu_@@ 7
âng 7
ä@@ 7
ính 7
ùm 7
úi 7
đoàn_@@ 7
đè@@ 7
đương 7
đấ@@ 7
đẩy_@@ 7
động_viên 7
ưng_@@ 7
ản_@@ 7
ẫn_@@ 7
ắm_@@ 7
ẳ@@ 7
ẹ_@@ 7
ếp 7
ể@@ 7
ỉnh 7
ỉnh_@@ 7
ị_tr@@ 7
ị_trấn 7
ọt 7
ốn 7
ở_h@@ 7
ở_hữu 7
ụ_việc 7
​ 7
​@@ 7
290 6
AID@@ 6
Af@@ 6
Asi@@ 6
Associ@@ 6
BM 6
Bei@@ 6
Bà_@@ 6
Báo_@@ 6
CO 6
Commer@@ 6
Coron@@ 6
Def@@ 6
Eas@@ 6
Fili@@ 6
Franc@@ 6
Hum@@ 6
Hán 6
Hồi_@@ 6
Ind@@ 6
John@@ 6
Jour@@ 6
Khí@@ 6
Kinh 6
Lai_@@ 6
Lati@@ 6
Laz@@ 6
Lux@@ 6
Mộ@@ 6
Nam_Á 6
Nguyễn_Xuân_@@ 6
Nhi@@ 6
OP@@ 6
Phili@@ 6
Phone 6
Produc@@ 6
Prov@@ 6
Resear@@ 6
Sa_@@ 6
Sey@@ 6
Sing@@ 6
Sân_@@ 6
Tex@@ 6
Thuỷ_@@ 6
Tok@@ 6
Trang_@@ 6
Trinid@@ 6
Trẻ 6
Var@@ 6
Zeal@@ 6
_chơi 6
_trưởng 6
add@@ 6
advan@@ 6
agg@@ 6
agno@@ 6
alley 6
anded 6
anese 6
anh@@ 6
apers 6
arity 6
ashimi 6
atively 6
avail@@ 6
bli@@ 6
boy@@ 6
bud@@ 6
bus@@ 6
bài_@@ 6
bạch_@@ 6
bệnh_@@ 6
bổ_@@ 6
cao_su 6
chan@@ 6
chiế@@ 6
chuẩn_@@ 6
chào_@@ 6
chấp_@@ 6
cies 6
cling 6
coas@@ 6
commun@@ 6
consequ@@ 6
crimin@@ 6
cuố@@ 6
cãi 6
cắt_@@ 6
củ@@ 6
dated 6
decreas@@ 6
diffe@@ 6
dingly 6
dividu@@ 6
drag@@ 6
dạ@@ 6
ece 6
ech 6
edu@@ 6
een 6
egal 6
eni@@ 6
enna 6
enterpris@@ 6
entrepreneur@@ 6
eorological 6
eth@@ 6
ferred 6
ferti@@ 6
fici@@ 6
fli@@ 6
fru@@ 6
giai_@@ 6
gien@@ 6
hat 6
havi@@ 6
hoo@@ 6
hou 6
hoá_@@ 6
hyper@@ 6
hạt_@@ 6
hệ@@ 6
ially 6
illance 6
illenni@@ 6
illions 6
ince 6
ion@@ 6
istance 6
istent 6
itch@@ 6
iết_@@ 6
khiế@@ 6
khiếm_@@ 6
khám_@@ 6
khủng_@@ 6
know@@ 6
kẹt 6
ld 6
ld@@ 6
licen@@ 6
lightly 6
like@@ 6
lim@@ 6
lom@@ 6
loroquine 6
loy@@ 6
lãm 6
lập_tức 6
lắp_@@ 6
mak@@ 6
manag@@ 6
mas 6
mom@@ 6
mou@@ 6
màu_@@ 6
máy_tính_@@ 6
mét_@@ 6
ne_@@ 6
net@@ 6
ng_lũng 6
ng_thư 6
ng_tâm 6
ngập_@@ 6
nitr@@ 6
norm@@ 6
oes 6
pan@@ 6
perman@@ 6
phtheria 6
phát_ngôn 6
phụ@@ 6
plying 6
posal 6
prohi@@ 6
publi@@ 6
qua_@@ 6
quảng_@@ 6
rain@@ 6
rau@@ 6
recor@@ 6
remo@@ 6
requ@@ 6
require@@ 6
rescu@@ 6
resear@@ 6
resh 6
s. 6
spid@@ 6
spit@@ 6
ston 6
store@@ 6
stru@@ 6
subsi@@ 6
sơ_@@ 6
tack@@ 6
tem@@ 6
tening 6
territ@@ 6
thanh@@ 6
them@@ 6
thiế@@ 6
thuận_@@ 6
thần_@@ 6
thứ_@@ 6
tici@@ 6
tiềm_@@ 6
tress 6
truy_t@@ 6
trá@@ 6
trách 6
tuỳ@@ 6
tác_@@ 6
tốc 6
u_l@@ 6
ultural 6
versities 6
vinh_@@ 6
vulner@@ 6
vũ@@ 6
xâm_@@ 6
°@@ 6
µ@@ 6
ão 6
å@@ 6
í_nghiệm 6
òng_th@@ 6
úng_@@ 6
đá@@ 6
đôi_@@ 6
đẳng 6
đị@@ 6
đỡ 6
Š@@ 6
š@@ 6
ũng 6
ưa@@ 6
ương_t@@ 6
ường_như 6
ε@@ 6
ν@@ 6
ảy 6
ậm_chí 6
ắc_xin 6
ặt_@@ 6
ẹt 6
ếng 6
ỉ_đột 6
Ố@@ 6
ở@@ 6
ỡng_@@ 6
ứng_t@@ 6
ử_nghiệm 6
ự_@@ 6
ỳnh_@@ 6
ὑ@@ 6
医@@ 6
院 6
.v@@ 5
AirPo@@ 5
Amaz@@ 5
Biên 5
CL@@ 5
Cel@@ 5
Chin@@ 5
Chánh 5
Commit@@ 5
Cảnh_@@ 5
Dịch_@@ 5
Dự_@@ 5
Ear@@ 5
Epidemio@@ 5
Es@@ 5
Ethiop@@ 5
Exp@@ 5
Exper@@ 5
Glob@@ 5
Hoàn_@@ 5
Indus@@ 5
Inf@@ 5
Isra@@ 5
Kết_@@ 5
Loan 5
Lombar@@ 5
Mauriti@@ 5
Met@@ 5
NS 5
Người_@@ 5
Nhiệ@@ 5
PC@@ 5
Part@@ 5
Phu@@ 5
Plus 5
Republi@@ 5
Respon@@ 5
Reu@@ 5
Saf@@ 5
Satur@@ 5
Shin@@ 5
Singa@@ 5
Số@@ 5
Sức_@@ 5
Thạnh 5
Thế_vận_hội_M@@ 5
Thừa_@@ 5
Tren@@ 5
Trước_@@ 5
Trường_@@ 5
Victor@@ 5
Việ@@ 5
Wo@@ 5
_Princess 5
_trì 5
_tượng_@@ 5
accep@@ 5
accur@@ 5
ainable 5
alg@@ 5
algorith@@ 5
alli@@ 5
allow@@ 5
arr@@ 5
ata 5
atitis 5
atly 5
atmosph@@ 5
awa@@ 5
bassa@@ 5
berculosis 5
biểu_@@ 5
bum 5
buýt 5
bày_@@ 5
bồ@@ 5
cardi@@ 5
care@@ 5
celeb@@ 5
chick@@ 5
chiến_th@@ 5
chuy@@ 5
cinem@@ 5
circum@@ 5
cla@@ 5
cohol 5
coron@@ 5
cà_@@ 5
căn_@@ 5
delay@@ 5
dou@@ 5
duy@@ 5
dã@@ 5
eddy 5
edom 5
ef@@ 5
elines 5
elt 5
emmelweis 5
ene@@ 5
ergy 5
essor 5
exerc@@ 5
ext 5
fed@@ 5
festi@@ 5
ffs 5
fisher@@ 5
four@@ 5
fresh@@ 5
gency 5
gical 5
giảm_@@ 5
glas@@ 5
harv@@ 5
hiện_th@@ 5
hiện_đ@@ 5
hus@@ 5
huyết_@@ 5
hạ_@@ 5
icide 5
impl@@ 5
inces 5
indus@@ 5
ingredi@@ 5
instruc@@ 5
iors 5
ishment 5
jected 5
ke_@@ 5
khác_@@ 5
kin@@ 5
kindergar@@ 5
lar@@ 5
lawful 5
leng@@ 5
lob@@ 5
lành_@@ 5
lịch_@@ 5
lời_@@ 5
m_xét 5
maintain@@ 5
mature 5
memb@@ 5
menti@@ 5
mod@@ 5
mosph@@ 5
moun@@ 5
mptomatic 5
mù 5
mại_@@ 5
n_tử 5
nell 5
ngay_@@ 5
ngest 5
noon 5
num@@ 5
nàn 5
nông_@@ 5
o_dõi 5
o_động 5
occu@@ 5
onable 5
orig@@ 5
orm 5
oro@@ 5
ought 5
pharm@@ 5
pilo@@ 5
pment 5
pne@@ 5
pois@@ 5
polis 5
poration 5
preh@@ 5
prog@@ 5
pur 5
ques 5
rainf@@ 5
rd 5
regar@@ 5
rượu_@@ 5
sam@@ 5
sian 5
slau@@ 5
soldi@@ 5
sovere@@ 5
spor@@ 5
subsequ@@ 5
sway 5
sứ_@@ 5
tai_@@ 5
tea@@ 5
thay_@@ 5
thered 5
thiết_@@ 5
thu_@@ 5
thí@@ 5
thừa_@@ 5
tricts 5
tron@@ 5
trung_học_@@ 5
truyền_th@@ 5
trào 5
tàng 5
tăng_@@ 5
từ@@ 5
u_thủ 5
u_trang 5
ull@@ 5
ured 5
uro 5
va_@@ 5
versity 5
vườ@@ 5
writ@@ 5
xi@@ 5
xá 5
yếu_@@ 5
âu_lạc_bộ 5
èm 5
ùi_@@ 5
ăng_tay 5
đám_@@ 5
đãi 5
đầ@@ 5
ược_lại 5
ς 5
Ả_R@@ 5
ảy_@@ 5
Ấ@@ 5
Ấn_@@ 5
ỗ_lực 5
ộ_chiếu 5
ợ_chồng 5
ủ_t@@ 5
Ứ@@ 5
ững 5
ỳ 5
ỵ 5
ỷ@@ 5
火@@ 5
> 4
AF@@ 4
Argenti@@ 4
Austral@@ 4
Braz@@ 4
Bris@@ 4
Bệnh_@@ 4
Cong@@ 4
Cà_@@ 4
Eliz@@ 4
Emer@@ 4
Ep@@ 4
Epid@@ 4
Faceb@@ 4
Fil@@ 4
Flor@@ 4
Foun@@ 4
Fren@@ 4
Fun@@ 4
Hã@@ 4
Học_@@ 4
Joh@@ 4
LI 4
Los_@@ 4
Lã@@ 4
Mosco@@ 4
Mosk@@ 4
Mr@@ 4
Musli@@ 4
Na_@@ 4
Nguy@@ 4
Nguyễn_Đức_@@ 4
ON 4
OS@@ 4
Pha@@ 4
S-CoV 4
SAR@@ 4
SU@@ 4
Spea@@ 4
Starbu@@ 4
Toyo@@ 4
Vic@@ 4
Vil@@ 4
VinF@@ 4
Washi@@ 4
_chịu 4
_hấp 4
_thuộc 4
_thành 4
_thủ 4
accoun@@ 4
acu@@ 4
administr@@ 4
aff 4
akh@@ 4
alleg@@ 4
along@@ 4
anh_t@@ 4
anxi@@ 4
aper 4
aran@@ 4
ario@@ 4
ashion 4
assess@@ 4
atellite 4
ateral 4
audi@@ 4
bacter@@ 4
biể@@ 4
bott@@ 4
brink 4
brow@@ 4
buil@@ 4
báo_@@ 4
bí_@@ 4
bậ@@ 4
bắ@@ 4
bắp 4
bị_@@ 4
c_sống 4
c_độ 4
cancel@@ 4
ch_thức 4
chung_@@ 4
chuyể@@ 4
châu_@@ 4
chăm_@@ 4
chương 4
chắn 4
civi@@ 4
compan@@ 4
compens@@ 4
conn@@ 4
consid@@ 4
conven@@ 4
cryp@@ 4
cuộ@@ 4
cân_@@ 4
dation 4
dest 4
develop@@ 4
div@@ 4
duce 4
eak 4
eardson 4
eco 4
ecti@@ 4
encing 4
entive 4
ept 4
eutical 4
eve 4
frequ@@ 4
gar 4
giam_@@ 4
gible 4
giấy_@@ 4
ha_@@ 4
health@@ 4
hec@@ 4
hiể@@ 4
hoang_@@ 4
hou@@ 4
i_phạm 4
ials 4
ida 4
igg@@ 4
ila 4
inal 4
ires 4
iso@@ 4
istant 4
isten@@ 4
ister 4
isure 4
itary 4
itco@@ 4
iểm_@@ 4
iệu_pháp 4
kar 4
kha@@ 4
khiếp 4
khoán 4
khẩn_@@ 4
kland 4
lege 4
lle 4
lockchain 4
lâu_@@ 4
lão 4
lự@@ 4
m_mạch 4
ma_@@ 4
minent 4
mits 4
monium 4
n-@@ 4
n_hiệu 4
ng_cửa 4
ngăn_@@ 4
ngặt 4
nhã@@ 4
nhấn_@@ 4
nific@@ 4
năng_@@ 4
nặng_@@ 4
oody 4
ople 4
opportun@@ 4
overy 4
oxide 4
p-@@ 4
partment 4
perc@@ 4
phen@@ 4
phenomen@@ 4
phạm_@@ 4
plac@@ 4
pot@@ 4
pregn@@ 4
prohib@@ 4
prote@@ 4
protes@@ 4
pus 4
quick@@ 4
quản_@@ 4
r. 4
reads 4
reduc@@ 4
rol@@ 4
roun@@ 4
rào 4
sel 4
selves 4
sent@@ 4
servi@@ 4
sider 4
sley 4
sof@@ 4
song_@@ 4
struction 4
sures 4
surroun@@ 4
sycho@@ 4
syst@@ 4
sơ@@ 4
sạn 4
t_ch@@ 4
tari@@ 4
thăm_@@ 4
thạo 4
thổ 4
tial 4
ticle 4
tik@@ 4
tin_t@@ 4
tionally 4
tiền_t@@ 4
tiệ@@ 4
tory 4
tournam@@ 4
trao_@@ 4
trưng 4
trợ@@ 4
trợ_@@ 4
trừ@@ 4
tuổ@@ 4
tế_@@ 4
tốt_@@ 4
tồn 4
tội_@@ 4
tục 4
u_hướng 4
une 4
unity 4
vang 4
vit@@ 4
vật_l@@ 4
vững 4
wee@@ 4
week@@ 4
ween 4
wil@@ 4
xa@@ 4
xy@@ 4
yed 4
yo 4
Å@@ 4
É 4
Ö@@ 4
âu_chuyện 4
ìn_@@ 4
õi 4
đình_@@ 4
đất_@@ 4
ē 4
ė@@ 4
ğ@@ 4
ương_vị 4
ˈ@@ 4
̃ng 4
ắp_@@ 4
ặp 4
ệnh_@@ 4
ị_trí 4
ới_đây 4
ợi_@@ 4
Ụ@@ 4
ụ_sở 4
ủi_ro 4
ứng_c@@ 4
ửi 4
山@@ 4
火 4
神@@ 4
金 4
雷@@ 4
%@@ 3
Acad@@ 3
Alibab@@ 3
Aug@@ 3
Bak@@ 3
Bangk@@ 3
Banglad@@ 3
Bloom@@ 3
Bác_@@ 3
Califor@@ 3
Catho@@ 3
Champion@@ 3
Chiế@@ 3
Coffe@@ 3
Con_@@ 3
Cour@@ 3
Côn_@@ 3
Develo@@ 3
Egyp@@ 3
Ethio@@ 3
Febru@@ 3
Genev@@ 3
HO 3
Hop@@ 3
Hoá 3
Hun@@ 3
Hung@@ 3
IO@@ 3
Infecti@@ 3
Inves@@ 3
Kr@@ 3
Kông 3
Leb@@ 3
Ma_@@ 3
Micro@@ 3
Ngày_@@ 3
Nhất 3
Năm_@@ 3
Parac@@ 3
Phoeni@@ 3
Previ@@ 3
Rị@@ 3
Spe@@ 3
Swit@@ 3
Thương 3
Tob@@ 3
Trắng 3
Twit@@ 3
VG 3
Vene@@ 3
Venezu@@ 3
Vide@@ 3
VnEx@@ 3
Wea@@ 3
_ 3
_la 3
_lại 3
_lời 3
_niệm 3
_nên 3
_thiệp 3
_trình 3
_trợ 3
_trữ 3
a_hè 3
accommo@@ 3
acles 3
adequ@@ 3
ading 3
adise 3
amework 3
anh_ch@@ 3
anh_th@@ 3
antin@@ 3
appear@@ 3
atell@@ 3
ava 3
barri@@ 3
benef@@ 3
bid@@ 3
borough 3
bối_@@ 3
cannab@@ 3
carri@@ 3
ch_nhiệm 3
charg@@ 3
chứng_@@ 3
chữa_@@ 3
coho@@ 3
commer@@ 3
convers@@ 3
cularly 3
cốt_@@ 3
cụ@@ 3
destin@@ 3
divor@@ 3
dã 3
dò 3
ealth 3
ealth@@ 3
eca 3
ectively 3
ele@@ 3
else@@ 3
encour@@ 3
ens@@ 3
etion 3
eved 3
fertiliz@@ 3
flow@@ 3
fran@@ 3
gencies 3
giu@@ 3
giải_ph@@ 3
giấ@@ 3
gle 3
grou@@ 3
grow@@ 3
gợi_@@ 3
hist@@ 3
hoo 3
hospital@@ 3
hoạt_@@ 3
hàm_@@ 3
họp_@@ 3
hối_@@ 3
icals 3
ilies 3
illion 3
influenz@@ 3
inis@@ 3
inning 3
intru@@ 3
iously 3
iri 3
iếm 3
jour@@ 3
khách_@@ 3
khó@@ 3
kịch_@@ 3
lish 3
lished 3
lls 3
lux@@ 3
magaz@@ 3
majiri 3
marri@@ 3
metho@@ 3
ministr@@ 3
mugg@@ 3
mô@@ 3
mưu 3
mẫ@@ 3
n_lực 3
n_sĩ 3
n_thương 3
n_tích 3
n_tượng 3
ng_cường 3
nghiệ@@ 3
nguy_@@ 3
ngôn 3
ngôn_viên 3
ngắn_@@ 3
nhiễ@@ 3
nhà@@ 3
ninh 3
nâ@@ 3
nă@@ 3
nề 3
obst@@ 3
ondary 3
oul 3
overs 3
pay@@ 3
perf@@ 3
ph 3
phổ_@@ 3
pneum@@ 3
power@@ 3
prehensive 3
present@@ 3
prevent@@ 3
probl@@ 3
professi@@ 3
public@@ 3
pylobac@@ 3
ques@@ 3
quest 3
raid 3
ral 3
recruit@@ 3
regist@@ 3
rests 3
rid 3
rison 3
rom 3
schedu@@ 3
sensi@@ 3
shar@@ 3
sibly 3
signific@@ 3
smar@@ 3
sov@@ 3
spital 3
success@@ 3
suff@@ 3
sung 3
sàng 3
sứ 3
tedly 3
thiểu_@@ 3
thu_h@@ 3
tific@@ 3
tiêm_@@ 3
tiết_@@ 3
tralized 3
travel@@ 3
treprene@@ 3
trung_th@@ 3
trò@@ 3
trò_@@ 3
trường_chứng_khoán 3
trục_@@ 3
tube 3
tuyển_@@ 3
tổng_c@@ 3
u_trúc 3
u_tố 3
ually 3
usti@@ 3
uyện 3
uốc_@@ 3
victi@@ 3
vide@@ 3
vil 3
việ@@ 3
vậ@@ 3
vận_@@ 3
xóm 3
xế 3
yế@@ 3
¥ 3
àu 3
âu_l@@ 3
ão_@@ 3
ình_phạt 3
î@@ 3
ôi_sao 3
õ_@@ 3
õ_ràng 3
Ă@@ 3
ăng_th@@ 3
Đă@@ 3
Đỗ@@ 3
điệp 3
đình 3
ē@@ 3
ō 3
ō@@ 3
Ư@@ 3
ươi 3
ươn 3
ə@@ 3
ˠ@@ 3
μ@@ 3
ấn_đ@@ 3
ần_suất 3
ần_đảo_@@ 3
Ẩ@@ 3
ật_sự 3
ắc_chắn 3
ẳng_@@ 3
Ặ@@ 3
ặng_@@ 3
ị_sĩ 3
ịch 3
ọi 3
ố_mẹ 3
ổ_th@@ 3
ỡng 3
ứ_trưởng 3
ử_th@@ 3
ự_th@@ 3
ự_thật 3
″ 3
五@@ 3
克@@ 3
武@@ 3
汉@@ 3
行 3
!@@ 2
< 2
Adi@@ 2
Agric@@ 2
Ai_@@ 2
Amer@@ 2
Andro@@ 2
Ara@@ 2
Arab@@ 2
Arg@@ 2
BT 2
Blo@@ 2
Brune@@ 2
Byte@@ 2
COVID@@ 2
Chair@@ 2
Chuy@@ 2
Chí@@ 2
Commun@@ 2
Cử@@ 2
Dance 2
Democr@@ 2
Dịch_t@@ 2
Foot@@ 2
Hiện_@@ 2
Hyund@@ 2
Hôm_@@ 2
Hợp_Quốc 2
Ire@@ 2
Jap@@ 2
Kab@@ 2
Kras@@ 2
Lt@@ 2
Lôi 2
Mexic@@ 2
NAS@@ 2
Ngo@@ 2
Nha_@@ 2
Nhà_th@@ 2
Paste@@ 2
Phòng_@@ 2
Pit@@ 2
QI 2
Sain@@ 2
Shang@@ 2
Smith@@ 2
Sull@@ 2
Thiên-@@ 2
Thuỵ@@ 2
Thơ 2
Thể@@ 2
Truyề@@ 2
Trường_Sơn 2
Vietnam@@ 2
Wed@@ 2
YouTu@@ 2
^ 2
_chiến 2
_huy 2
_huynh 2
_hơi 2
_hội 2
_sở 2
_thích 2
_tín 2
a_sẻ 2
accor@@ 2
aga 2
agen@@ 2
agos 2
airy 2
anon 2
ashed 2
asy@@ 2
atab@@ 2
athon 2
bea@@ 2
beauti@@ 2
bec@@ 2
beg@@ 2
bei 2
bourne 2
bè 2
bề_@@ 2
c_ngủ 2
cac@@ 2
cam_@@ 2
campa@@ 2
cancell@@ 2
categ@@ 2
chang@@ 2
charac@@ 2
chat@@ 2
chiếu_@@ 2
chị@@ 2
combank 2
common@@ 2
confid@@ 2
culo@@ 2
decis@@ 2
dergar@@ 2
dition 2
dless 2
doms 2
dàng 2
dưỡng_@@ 2
dạng_@@ 2
dắt 2
dị_@@ 2
dội 2
dụ 2
effic@@ 2
ellec@@ 2
elsen 2
ensur@@ 2
esterday 2
estim@@ 2
etes 2
exper@@ 2
fall@@ 2
famili@@ 2
fig@@ 2
get@@ 2
ghing 2
giản 2
gom 2
guid@@ 2
góp_@@ 2
gắng 2
gồ@@ 2
harm@@ 2
holi@@ 2
hò 2
hạn_@@ 2
hấp_th@@ 2
icon 2
import@@ 2
infrastruc@@ 2
inks 2
insec@@ 2
invas@@ 2
invol@@ 2
itage 2
itchen 2
iệm 2
jing 2
karao@@ 2
kel 2
kel@@ 2
kem@@ 2
khổ@@ 2
kong 2
kra@@ 2
kí@@ 2
landsli@@ 2
leges 2
liệt_@@ 2
loro@@ 2
loroqu@@ 2
lý_học 2
lương_@@ 2
lục 2
lục_@@ 2
m. 2
m_đốc_@@ 2
mach@@ 2
maxim@@ 2
mic 2
mitted 2
mắc_@@ 2
n_bộ 2
n_giả 2
nea@@ 2
newsp@@ 2
nghĩ@@ 2
nh_mì 2
nhiêu 2
nhuận 2
nhạ@@ 2
nings 2
onds 2
onstr@@ 2
ority 2
ouris@@ 2
overies 2
pare 2
partments 2
perform@@ 2
phas@@ 2
phán_@@ 2
phỏng_@@ 2
plat@@ 2
pover@@ 2
pread 2
preced@@ 2
preci@@ 2
probab@@ 2
proced@@ 2
profession@@ 2
pson 2
quan_chức_năng 2
quần_@@ 2
rail@@ 2
recomm@@ 2
remain@@ 2
remon@@ 2
represent@@ 2
rities 2
riting 2
rãi 2
rét 2
sburg 2
sday 2
secu@@ 2
seve@@ 2
seven@@ 2
sharp@@ 2
simp@@ 2
so_@@ 2
step@@ 2
storm@@ 2
stration 2
streng@@ 2
suffici@@ 2
susp@@ 2
sánh 2
sẵ@@ 2
sửa_@@ 2
thanh_l@@ 2
thes 2
thi_th@@ 2
thiện 2
thly 2
thqu@@ 2
through@@ 2
thuỷ@@ 2
thà@@ 2
thương_mại_@@ 2
thảo_@@ 2
thức_@@ 2
tiể@@ 2
tning 2
tour@@ 2
trepreneur@@ 2
tria 2
trầm_@@ 2
typ@@ 2
túc 2
tạp 2
tận_@@ 2
tịch 2
tụ@@ 2
u_quả 2
u_trợ 2
unic@@ 2
uynh 2
ventions 2
viện_@@ 2
volunte@@ 2
who@@ 2
wide@@ 2
y_L@@ 2
yle 2
yond 2
³ 2
À 2
Â 2
× 2
×@@ 2
Ü@@ 2
ß@@ 2
à_N@@ 2
àn_sóng 2
ác_thải 2
áng_gi@@ 2
ân_sách 2
èo_@@ 2
ế@@ 2
ï@@ 2
ø 2
ù_vậy 2
ý_t@@ 2
ăng_thẳng 2
Č@@ 2
Đôi_@@ 2
Đất_@@ 2
Đồ@@ 2
đ 2
đa_dạng_@@ 2
đáo 2
đạp 2
đấu_@@ 2
đẩ@@ 2
đức 2
ĩnh_vực 2
İ@@ 2
ı@@ 2
Ō 2
ž@@ 2
Ướ@@ 2
ướp 2
ượt 2
ș 2
ɕ@@ 2
ɪ@@ 2
ɾ@@ 2
έ@@ 2
ή 2
ή@@ 2
ί@@ 2
α 2
η 2
τ@@ 2
χ@@ 2
ό@@ 2
М@@ 2
Н@@ 2
р@@ 2
Ạ@@ 2
ạ_@@ 2
ạnh_tranh 2
ải_nghiệm 2
ấp_nhiệt_đới 2
ầng 2
ầu_như 2
ẩn_th@@ 2
ắng_nóng 2
ẳn 2
ẵ@@ 2
ẹ 2
Ế@@ 2
ếu 2
ềm 2
ền_tảng 2
ệt_may 2
ỉ_@@ 2
ối_loạn 2
Ồ 2
ổi_mới 2
ớn 2
Ờ@@ 2
ủ_tục 2
ừa_@@ 2
ữa_@@ 2
ữu 2
ỷ_lục 2
Ὑ@@ 2
中@@ 2
九@@ 2
市@@ 2
心@@ 2
木 2
木@@ 2
生@@ 2
省@@ 2
神 2
育 2
衢 2
通@@ 2
雷 2
食@@ 2
신@@ 2
지 2
천@@ 2
"@@ 1
(@@ 1
=@@ 1
AE@@ 1
AID 1
ASEA@@ 1
Afric@@ 1
Auck@@ 1
Bamboo_@@ 1
Belar@@ 1
Belgi@@ 1
Bắt_@@ 1
Bệ@@ 1
Cambo@@ 1
Campu@@ 1
Coffee_@@ 1
Covi@@ 1
Cụ@@ 1
Donal@@ 1
Dubl@@ 1
Europe@@ 1
Explo@@ 1
Feb@@ 1
Francis@@ 1
Gallu@@ 1
Giải_th@@ 1
Hang-@@ 1
Harv@@ 1
Hua@@ 1
Hà_N@@ 1
Họ@@ 1
Hồ_Chí_@@ 1
Hợ@@ 1
Icel@@ 1
Indones@@ 1
Inv@@ 1
Johns_@@ 1
Kiên_@@ 1
Kỹ@@ 1
Lum@@ 1
Luân_Đ@@ 1
Lê_Thị_Thu_@@ 1
Malay@@ 1
Massachuset@@ 1
Micha@@ 1
Mê_@@ 1
Netfli@@ 1
New_York_@@ 1
Nghệ_@@ 1
Ngãi 1
Niên 1
Nông 1
Năng_@@ 1
Pakist@@ 1
Phi-@@ 1
Phil@@ 1
Prot@@ 1
Quyết_@@ 1
Quá@@ 1
Scar@@ 1
Schul@@ 1
Sci@@ 1
Sept@@ 1
Smi@@ 1
Soci@@ 1
Swe@@ 1
Switzer@@ 1
Thiên-Huế 1
Thuỵ_S@@ 1
Thà@@ 1
Thổ_Nh@@ 1
TikTo@@ 1
Triều_@@ 1
Tuy_@@ 1
Tân_Sơn_@@ 1
Tĩnh 1
Ug@@ 1
Uỷ_@@ 1
Vinamil@@ 1
Vinas@@ 1
Vũng_@@ 1
Wedn@@ 1
Yêu_@@ 1
Zimbab@@ 1
_chất 1
_chối 1
_hương 1
_khăn 1
_lận 1
_lập 1
_lỗi 1
_mạo 1
_sơ 1
_sư 1
_sở_hữu 1
_thiện 1
_thạch 1
_trùng 1
_tầng 1
_tử 1
_ý 1
`@@ 1
a_bán 1
a_viên 1
accom@@ 1
aco 1
ai_trò 1
ainst 1
allets 1
anitarian 1
anni@@ 1
annivers@@ 1
approxim@@ 1
assy 1
atedly 1
atest 1
aul 1
bery 1
billionai@@ 1
bub@@ 1
buộc_@@ 1
bê_b@@ 1
bình_ph@@ 1
bạch 1
bầu_@@ 1
bở@@ 1
bởi_@@ 1
bụ@@ 1
c_sinh 1
chatbo@@ 1
chi_@@ 1
chức_@@ 1
chứng_t@@ 1
cident 1
cides 1
claim@@ 1
compet@@ 1
complet@@ 1
corona@@ 1
cung_@@ 1
củ@@ 1
cuộc_@@ 1
cyto@@ 1
cất_@@ 1
cậy 1
d-19 1
danh_t@@ 1
decla@@ 1
declar@@ 1
defend@@ 1
derly 1
dern 1
diarr@@ 1
diarrhe@@ 1
dorm@@ 1
doz@@ 1
dral 1
dren 1
dặ@@ 1
dẹp 1
earthqu@@ 1
eases 1
electric@@ 1
elles 1
embly 1
emmelwe@@ 1
entage 1
ept@@ 1
equival@@ 1
erings 1
esp@@ 1
etings 1
ety 1
eval@@ 1
exic@@ 1
expan@@ 1
expor@@ 1
extrem@@ 1
fati@@ 1
fie 1
fish@@ 1
g. 1
ghters 1
giene 1
giá_@@ 1
giớ@@ 1
gues 1
gũi 1
him@@ 1
hind 1
hoạn 1
huy_@@ 1
huống 1
hành_đoàn 1
hâm_@@ 1
hảo 1
hợ@@ 1
i_thiện 1
i_thân 1
i_thế 1
iden 1
idney 1
ijuana 1
illion@@ 1
incial 1
individu@@ 1
inking 1
inves@@ 1
isition 1
itely 1
ito 1
iếng 1
iếu_niên 1
iển_@@ 1
iện_tích 1
jus@@ 1
khai_th@@ 1
khái_@@ 1
khảo_@@ 1
kêu_@@ 1
larg@@ 1
limin@@ 1
liminary 1
lomerate 1
lymp@@ 1
lãi_@@ 1
lợ@@ 1
m_d@@ 1
mari@@ 1
minu@@ 1
mones 1
mosquit@@ 1
mountain@@ 1
movi@@ 1
mà_@@ 1
màn_@@ 1
môi_@@ 1
mỏi 1
n_lẻ 1
n_lồng 1
n_thiết 1
n_thức 1
n_đoán 1
n_đổi_gen 1
natur@@ 1
nergy 1
nex@@ 1
ng_cụ 1
ngoài_@@ 1
ngoái 1
ngườ@@ 1
nh_phí 1
nhũng 1
như_th@@ 1
nhạy_@@ 1
nhở 1
nic 1
nin@@ 1
ofer 1
offic@@ 1
ored 1
ort@@ 1
ortation 1
ources 1
ourself 1
ovascular 1
overed 1
p_học 1
parl@@ 1
pati@@ 1
perfor@@ 1
phục_@@ 1
pig@@ 1
poc@@ 1
quá_kh@@ 1
quố@@ 1
quỵ 1
relev@@ 1
rels 1
requi@@ 1
restaur@@ 1
riêng_@@ 1
rought 1
rượ@@ 1
rộn 1
rộng_@@ 1
sati@@ 1
scienti@@ 1
seis@@ 1
sius 1
stances 1
strate@@ 1
stud@@ 1
sóc 1
sụt_@@ 1
sứ_quán 1
tality 1
techni@@ 1
teller 1
tels 1
tempor@@ 1
thanh_th@@ 1
thern 1
thio@@ 1
thiểu 1
thiệt_@@ 1
thuyết_@@ 1
thuế_@@ 1
tiếp_th@@ 1
touris@@ 1
tox@@ 1
trast 1
trict 1
trườ@@ 1
trị_@@ 1
trừng_@@ 1
tuy_@@ 1
tuý 1
tuệ_@@ 1
tware 1
tì@@ 1
tìm_@@ 1
tấn_@@ 1
tỉ@@ 1
tối_th@@ 1
tồi_@@ 1
tụ_@@ 1
u_thầu 1
u_vực 1
urch 1
uy_thoái 1
veh@@ 1
vered 1
versi@@ 1
vices 1
viễn 1
việc_@@ 1
vương_@@ 1
vết_@@ 1
vựng 1
ware@@ 1
wei 1
wr@@ 1
xung_@@ 1
xâm_l@@ 1
xế@@ 1
zer@@ 1
¡ 1
¡@@ 1
¢ 1
« 1
· 1
» 1
½ 1
À@@ 1
Ã@@ 1
ài_ra 1
àng_lọc 1
àng_tử 1
ân_Đ@@ 1
ì_hoãn 1
í_th@@ 1
ích_dẫn 1
ói_quen 1
õ_r@@ 1
ý_túc_xá 1
ā@@ 1
ăn_nuôi 1
ć 1
ć@@ 1
č@@ 1
Đi@@ 1
Đà_N@@ 1
Đán 1
Đất 1
điển_@@ 1
đàm_@@ 1
đáng_@@ 1
đạo_@@ 1
đầy_@@ 1
đắp 1
đắt_@@ 1
địch 1
đột 1
ī@@ 1
ũ_lụt 1
ū 1
Ước_@@ 1
ươi_@@ 1
ưới 1
ưởng_th@@ 1
ượn 1
ǒ@@ 1
ǔ@@ 1
ə 1
ɛ@@ 1
ɡ@@ 1
ʌ@@ 1
ʑ@@ 1
ʰ@@ 1
ʲ@@ 1
ː 1
ː@@ 1
ˠ 1
̩@@ 1
̪@@ 1
Ν@@ 1
ί 1
δ@@ 1
ο@@ 1
π@@ 1
ạ_tầng 1
ạn_bè 1
ạng_thái 1
Ả 1
ải_thiều 1
ảng_cách 1
ảy_máu 1
ấ 1
ần_dần 1
ần_thể 1
ần_đ@@ 1
ầng_lớp 1
ầu_thô 1
ẫu_thuật 1
ận_thức 1
ập_nhật 1
ắ 1
ắc-@@ 1
ẳ 1
ẳng_định 1
ền_vững 1
ễn_thông 1
ễn_đ@@ 1
Ệ@@ 1
ệt_mỏi 1
Ị@@ 1
ịp 1
ồn_gốc 1
ổ_thông 1
ổn_@@ 1
Ộ@@ 1
Ớ@@ 1
Ờ 1
ở_thích 1
ủi_@@ 1
Ứng_@@ 1
ừa_đảo 1
Ử@@ 1
ử_thách 1
ử_trùng 1
ử_viên 1
Ự 1
ựng 1
ἐ@@ 1
ῆ@@ 1
‘@@ 1
”@@ 1
オ@@ 1
ク 1
ッ@@ 1
ピ@@ 1
リ@@ 1
ン@@ 1
地 1
城 1
夏@@ 1
天@@ 1
季@@ 1
封@@ 1
年@@ 1
新@@ 1
肺 1
madeupword0000 0
madeupword0001 0
madeupword0002 0
madeupword0003 0
madeupword0004 0
madeupword0005 0
madeupword0006 0
