, 48228
. 39112
the 23797
to 12841
of 12468
" 12268
and 11984
và 11119
in 10039
a 8209
của 8052
các 7503
đã 7443
được 6220
- 6077
một 5878
trong 5337
người 5138
cho 5042
là 4905
for 4209
có 4183
' 4007
on 3900
The 3880
với 3845
ở 3774
is 3681
này 3611
that 3607
vào 3602
đến 3411
những 3372
( 3334
) 3330
tháng 3294
ngày 3095
with 3040
từ 3020
tại 3019
from 2969
năm 2833
để 2813
khi 2731
Việt_Nam 2600
không 2587
was 2580
as 2395
at 2369
“ 2315
về 2314
” 2308
sẽ 2264
are 2210
have 2206
has 2201
by 2198
’s 2195
bị 2065
Vietnam 2046
biết 1933
be 1899
said 1895
ra 1876
rằng 1861
trên 1855
có_thể 1793
đó 1776
it 1697
họ 1684
đang 1631
hơn 1629
19 1559
3 1529
thứ 1518
sau 1474
were 1458
sự 1447
an 1431
việc 1419
or 1388
nhiều 1378
had 1372
khác 1325
year 1320
cũng 1318
not 1306
people 1290
been 1278
như 1246
will 1241
trường_hợp 1211
their 1210
coronavirus 1188
Trung_Quốc 1187
: 1179
who 1167
phải 1126
Các 1117
also 1116
hai 1116
2 1095
's 1091
its 1090
do 1088
2020 1073
mới 1065
March 1054
lại 1036
this 1020
virus 1020
more 1016
trước 1004
hoặc 999
ông 994
nhất 989
they 983
nước 982
Covid 946
Vào 945
first 934
can 928
1 919
theo 919
Covid-19 915
cases 915
[ 914
which 910
On 899
] 889
mình 888
quốc_gia 880
In 874
10 862
China 860
two 849
nhà 848
số 841
tuổi 838
mà 832
after 830
làm 823
other 822
sử_dụng 820
he 818
one 803
but 802
lên 798
nhiễm 796
all 795
thành_phố 787
cuộc 781
his 778
nhưng 777
country 775
than 774
đi 771
new 751
so 747
xác_nhận 745
đưa 742
bạn 738
triệu 736
Bộ 731
Vietnamese 731
tỉnh 731
đầu_tiên 720
her 716
lớn 714
thấy 714
million 709
bởi 708
confirmed 706
công_ty 700
4 695
Anh 691
vì 685
bao_gồm 683
chỉ 683
cô 681
bệnh 677
would 662
up 660
about 653
cao 644
you 640
nói 634
tăng 634
over 632
nó 627
tới 625
Trong 622
bệnh_nhân 621
còn 621
– 619
Ông 616
con 613
hàng 609
cả 608
Một 606
A 604
$ 600
Hoa_Kỳ 592
I 589
ca 587
giảm 582
percent 579
qua 579
time 579
ba 573
gần 573
Hà_Nội 568
It 567
du_lịch 564
health 564
một_số 562
5 559
she 559
Theo 558
cách 553
báo_cáo 546
vẫn 541
cách_ly 540
Hanoi 539
tất_cả 538
old 537
15 533
cùng 531
gây 529
; 528
He 526
nào 526
anh 525
bằng 525
nơi 525
đây 525
some 520
rất 517
7 515
case 515
them 515
y_tế 513
many 512
countries 511
thế_giới 510
khu_vực 509
into 508
when 505
reported 503
20 502
hoạt_động 502
6 500
U. 500
14 499
years 499
nghiên_cứu 494
loại 493
Mỹ 492
khoảng 492
bay 491
including 490
12 488
Chinese 488
lần 485
day 483
Health 480
phát_triển 478
8 477
chuyến 474
đối_với 474
out 472
could 465
three 465
last 464
nay 464
government 463
being 460
2019 454
thêm 454
number 453
only 453
đồng 451
world 449
30 443
COVID-19 438
days 438
yêu_cầu 438
there 435
Y_tế 434
hôm 434
bắt_đầu 433
tuần 433
đầu 433
city 429
địa_phương 429
phụ_nữ 426
9 425
mọi 425
liên_quan 423
tôi 421
sức_khoẻ 420
thực_hiện 418
COVID 416
most 409
no 409
such 408
thì 404
tỷ 404
home 402
February 400
tổ_chức 400
Hospital 399
S. 399
pandemic 397
Những 396
đại_dịch 394
xét_nghiệm 393
điều_trị 393
mỗi 392
Ministry 390
This 389
while 388
since 384
Hai 383
tuyên_bố 383
làm_việc 382
District 380
chính_phủ 377
11 374
thời_gian 374
nhân_viên 373
South 372
bệnh_viện 371
company 371
Bệnh_viện 370
if 370
like 368
% 367
before 364
use 364
high 363
phía 363
tiền 361
trở 361
patients 360
according 359
tin 359
announced 358
kể 357
hay 356
ảnh_hưởng 354
positive 350
cần 349
we 349
disease 348
ta 348
16 347
giữa 346
around 345
nước_ngoài 345
S@@ 344
may 343
man 342
điều 342
25 341
nhận 339
under 339
Nguyen 337
chết 337
nhau 337
those 337
đều 337
chúng 336
gì 336
between 335
public 335
đàn_ông 334
well 332
tested 331
sản_xuất 330
used 330
/ 329
local 329
these 329
mức 328
quốc_tế 328
đô_la 327
nên 326
sống 325
United 324
khỏi 324
They 322
giúp 321
She 318
nếu 318
tạo 317
tử_vong 316
Nam 315
now 315
work 314
patient 313
giờ 312
cung_cấp 310
13 309
because 309
biện_pháp 308
gia_đình 307
quarantine 307
thường 307
vấn_đề 307
17 305
found 305
City 302
kiểm_soát 301
xã_hội 301
22 300
children 300
HCMC 299
April 297
học 297
mang 296
nhóm 296
phát_hiện 296
where 296
chia_sẻ 294
b@@ 293
trẻ 293
dương_tính 292
tìm 292
vaccine 292
18 290
chưa 290
four 290
ăn 290
24 288
medical 288
phần 288
hospital 287
same 287
HCM 286
chống 284
dịch_vụ 284
tốt 283
authorities 282
billion 281
của 280
made 280
thông_tin 280
Tuy_nhiên 279
cuối 278
through 277
vùng 277
kiểm_tra 276
take 276
B@@ 275
during 275
sang 275
thuốc 275
January 274
make 274
province 274
M@@ 273
kế_hoạch 273
chiếc 272
khách 272
woman 272
23 271
cấm 271
27 270
T@@ 270
bộ 270
total 270
any 269
giá 269
vụ 269
trường 268
As 267
khiến 267
thuộc 267
Sau 266
due 266
mua 266
đường 266
Hàn_Quốc 265
xảy 265
But 264
Facebook 264
bán 264
told 264
đóng_cửa 264
H@@ 263
dùng 263
’ 263
26 262
Nhưng 262
Nhật_Bản 262
help 262
outbreak 262
trở_thành 262
2018 261
According 261
spread 261
National 260
against 259
ngoài 259
miền 258
social 258
your 258
based 257
thử_nghiệm 257
Đà_Nẵng 257
just 254
month 254
quyết_định 254
Họ 253
areas 253
gọi 253
quan_trọng 253
still 253
3@@ 252
Trump 252
market 252
USD 251
không_thể 251
Province 250
C@@ 248
chúng_ta 248
corona 248
tên 248
tiếng 247
chính 246
infection 246
28 245
cộng_đồng 245
khả_năng 245
đặc_biệt 245
bên 244
điểm 244
50 243
bà 243
family 243
says 243
trung_tâm 243
21 242
công_bố 242
thông_báo 242
school 241
sáng 241
thị_trường 241
tàu 241
dịch 240
students 240
@@ 239
dịch_bệnh 239
hiện 239
hỗ_trợ 239
second 238
100 237
five 236
international 236
kết_quả 236
several 236
both 235
down 235
ấy 235
A@@ 234
air 234
infected 234
chuyên_gia 233
re@@ 233
cái 232
hệ_thống 231
travel 231
information 230
should 230
However 229
national 229
Minister 228
Người 228
TP 228
triệu_chứng 228
? 227
tiếp_xúc 226
sản_phẩm 225
xuống 225
Bệnh_nhân 224
contact 224
tiếp_tục 224
_@@ 223
mất 223
what 223
States 222
months 222
-@@ 221
bác_sĩ 221
công_dân 221
s@@ 221
L@@ 220
N@@ 220
University 220
D@@ 219
Năm 219
Thanh 219
hãng 219
Khi 218
chuyển 218
bùng_phát 217
kinh_tế 217
off 217
per 217
then 217
until 217
vắc-xin 217
food 216
bé 215
cơ_quan 215
police 215
get 214
nguồn 214
tham_gia 214
New 213
dưới 213
even 213
study 213
Korea 212
Quang 212
thay_đổi 212
back 211
cấp 211
cho_phép 210
người_dân 210
un@@ 210
xác_định 210
Đại_học 210
bài 209
cơ_sở 209
Trung_tâm 208
s 208
treatment 208
Iran 207
chính_quyền 207
group 207
measures 207
muốn 207
person 207
risk 207
women 207
2016 206
Ba 206
khu 206
trẻ_em 206
4@@ 205
did 205
next 205
năm_ngoái 205
K@@ 204
called 204
phòng 204
report 204
tình_trạng 204
2017 203
WHO 203
chúng_tôi 203
each 203
hạn_chế 203
An 202
Việt 202
công_nghệ 202
flight 202
week 202
Tư 201
m@@ 201
nhiễm_bệnh 201
online 201
central 200
bảo_vệ 199
cửa_hàng 199
ngành 199
top 199
đạt 199
Malaysia 198
l@@ 198
nữa 198
video 198
media 197
Department 196
P@@ 196
Tại 196
bốn 196
part 196
tổng_số 196
very 196
xây_dựng 196
5@@ 195
Minh 195
huyện 195
place 195
gửi 194
long 194
trở_lại 194
without 194
độ 194
40 193
June 193
workers 193
hành_khách 192
toàn_cầu 192
từng 192
đất_nước 192
Cô 191
Công_ty 191
Nga 191
Tôi 191
an_toàn 191
g@@ 191
quận 191
Japan 190
biển 190
death 190
trực_tuyến 190
Chính_phủ 189
R@@ 189
\ 189
doanh_nghiệp 189
Italy 188
among 188
control 188
d@@ 188
state 188
system 188
water 188
31 187
Da 187
US 187
báo 187
foreign 187
nhỏ 187
đứng 187
land 186
nguy_cơ 186
đặt 186
Thủ_tướng 185
later 185
29 184
ban 184
em 184
quyền 184
set 184
— 184
Bà 183
mắc 183
ngăn_chặn 183
Điều 183
If 182
Thái_Lan 182
giữ 182
major 182
our 182
research 182
thấp 182
July 181
chương_trình 181
mối 181
nhằm 181
thành 181
International 180
data 180
him 180
học_sinh 180
infections 180
lệnh 180
working 180
Philippines 179
gái 179
lây_nhiễm 179
services 179
Pháp 178
known 178
kỳ 178
say 178
t@@ 178
y 178
cảnh_sát 177
dự_kiến 177
i 177
life 177
sân_bay 177
đất 177
May 176
Sáu 176
become 176
quản_lý 176
using 176
Đức 176
Wuhan 175
came 175
deaths 175
quan_chức 175
test 175
trận 175
VND 174
added 174
director 174
dẫn 174
flights 174
returned 174
xuất_hiện 174
AI 173
cá_nhân 173
gặp 173
không_khí 173
lây_lan 173
theo_dõi 173
Google 172
HIV 172
Nếu 172
Singapore 172
end 172
face 172
khẩu_trang 172
symptoms 172
vòng 172
way 172
xe 172
thông_qua 171
August 170
Trung 170
Vũ_Hán 170
We 170
máy_bay 170
Ý 170
Hồ_Chí_Minh 169
ai 169
ch@@ 169
công_việc 169
tự 169
vị_trí 169
G@@ 168
how 168
n@@ 168
số_lượng 168
caused 167
lúc 167
t 167
xuất_khẩu 167
World 166
another 166
công_cộng 166
lời 166
my 166
r@@ 166
taken 166
thành_viên 166
xem 166
điều_tra 166
đầu_tư 166
Binh 165
TikTok 165
hàng_không 165
For 164
companies 164
mạng 164
sự_kiện 164
Th@@ 163
V@@ 163
chăm_sóc 163
máy 163
n’t 163
Đây 163
Nang 162
passengers 162
sinh 162
toàn 162
E@@ 161
bắc 161
include 161
northern 161
products 161
support 161
dựa 160
early 160
ghi_nhận 160
nằm 160
team 160
After 159
Friday 159
Hong 159
able 159
diễn 159
Thailand 158
community 158
ứng_dụng 158
body 157
least 157
m 157
much 157
thiết_bị 157
v@@ 157
đủ 157
expected 156
môi_trường 156
order 156
quarantined 156
asked 155
go 155
At 154
area 154
business 154
close 154
er 154
ministry 154
need 154
nhà_nghiên_cứu 154
rice 154
six 154
dành 153
dự_án 153
h@@ 153
mùa 153
6@@ 152
Monday 152
human 152
masks 152
Indonesia 151
Son 151
come 151
developed 151
ng@@ 151
region 151
tránh 151
ô_nhiễm 151
Ngày 150
care 150
following 150
quá 150
Ha 149
citizens 149
quan_hệ 149
F@@ 148
across 148
every 148
hàng_đầu 148
n't 148
o 148
7@@ 147
Hoa 147
bất_kỳ 147
con_người 147
global 147
lấy 147
officials 147
others 147
schools 147
tập_trung 147
đảm_bảo 147
Asia 146
There 146
money 146
must 146
tìm_kiếm 146
One 145
hiệu_quả 145
making 145
mẫu 145
sinh_viên 145
200 144
lượng 144
thăm 144
thực_phẩm 144
Một_số 143
c@@ 143
good 143
members 143
nâng 143
capital 142
cảnh_báo 142
e 142
head 142
món 142
nổi_tiếng 142
technology 142
tỷ_lệ 142
Wednesday 141
largest 141
mạnh 141
nhà_khoa_học 141
prevent 141
put 141
truyền_thông 141
tính 141
Airlines 140
cần_thiết 140
far 140
low 140
morning 140
sent 140
thở 140
trường_học 140
500 139
60 139
does 139
k@@ 139
nữ 139
recent 139
Van 138
giai_đoạn 138
họp 138
phim 138
phổi 138
related 138
sớm 138
tấn 138
President 137
bỏ 137
châu_Âu 137
closed 137
development 137
ngay 137
đứa 137
Chi 136
cơ_thể 136
results 136
th@@ 136
trở_nên 136
ít_nhất 136
C 135
Internet 135
few 135
list 135
novel 135
third 135
times 135
These 134
chuẩn_bị 134
dài 134
hit 134
hoàn_toàn 134
large 134
late 134
nghĩ 134
nặng 134
official 134
own 134
past 134
show 134
testing 134
2015 133
Ho 133
Many 133
mẹ 133
mở 133
điện_thoại 133
đông 133
8@@ 132
Sunday 132
When 132
experts 132
nam 132
phép 132
quy_định 132
see 132
users 132
điện 132
Australia 131
Some 131
Thành_phố 131
danh_sách 131
died 131
hours 131
increase 131
khẩn_cấp 131
men 131
nhu_cầu 131
weeks 131
Tuesday 130
age 130
cây 130
khó_khăn 130
less 130
phổ_biến 130
production 130
seven 130
trả 130
vài 130
Center 129
Dong 129
a_@@ 129
having 129
kinh_doanh 129
news 129
returning 129
áp_dụng 129
Ấn_Độ 129
important 128
nghiêm_trọng 128
plans 128
provinces 128
thời_điểm 128
ít 128
khách_hàng 127
kêu_gọi 127
nghỉ 127
nhà_máy 127
us 127
đánh_giá 127
Patient 126
Việc 126
cities 126
hành_động 126
ing 126
loài 126
nghìn 126
phản_ứng 126
tourists 126
uống 126
động_vật 126
2@@ 125
biên_giới 125
cơn 125
ers 125
lao_động 125
nhanh 125
stay 125
People 124
Quốc_gia 124
quay 124
rừng 124
showed 124
xa 124
young 124
American 123
Ch@@ 123
Korean 123
Sea 123
Viện 123
change 123
half 123
kéo_dài 123
rời 123
trải 123
u 123
Ninh 122
SARS 122
Saturday 122
affected 122
buổi 122
earlier 122
es 122
km 122
lãnh_thổ 122
meeting 122
period 122
researchers 122
thành_lập 122
tấn_công 122
tối 122
đình_chỉ 122
All 121
I@@ 121
Long 121
chính_thức 121
dữ_liệu 121
suspended 121
within 121
France 120
India 120
chất 120
further 120
result 120
tay 120
took 120
Chúng_tôi 119
Kong 119
blood 119
different 119
khách_sạn 119
level 119
nỗ_lực 119
phương_tiện 119
recently 119
staff 119
sáu 119
Úc 119
đại_học 119
! 118
J@@ 118
Vingroup 118
lý_do 118
might 118
nearly 118
quá_trình 118
right 118
thiếu 118
tương_tự 118
vốn 118
300 117
9@@ 117
Bảy 117
Nhiều 117
máu 117
night 117
project 117
taking 117
thi 117
Bắc 116
activities 116
hỏi 116
industry 116
nền 116
recorded 116
39 115
ASEAN 115
O@@ 115
ate 115
chịu 115
công_nghiệp 115
free 115
mưa 115
negative 115
phòng_ngừa 115
thành_công 115
Asian 114
Canada 114
September 114
better 114
border 114
continue 114
increased 114
population 114
trung_bình 114
viết 114
đối_mặt 114
đợt 114
ảnh 114
70 113
State 113
khoản 113
led 113
lớp 113
miễn_dịch 113
như_vậy 113
security 113
Đông 113
Bộ_trưởng 112
CEO 112
Control 112
Nó 112
away 112
chiều 112
cuối_cùng 112
cảm_thấy 112
demand 112
doctors 112
du_khách 112
gia_tăng 112
giải 112
hành_vi 112
in@@ 112
khó 112
law 112
likely 112
me 112
released 112
treated 112
Phó 111
Reuters 111
allowed 111
child 111
cổ_phiếu 111
drug 111
events 111
game 111
giám_đốc 111
heart 111
hospitals 111
hầu_hết 111
i@@ 111
n 111
nhanh_chóng 111
nhìn 111
xử_lý 111
… 111
Central 110
General 110
Hồng_Kông 110
Prime 110
e@@ 110
economic 110
giống 110
hợp_tác 110
nhập_khẩu 110
received 110
residents 110
safety 110
tác_động 110
worth 110
đáng 110
Ở 110
Kim 109
Trước 109
am@@ 109
bắt 109
chất_lượng 109
chứa 109
given 109
kiểm_dịch 109
quality 109
waste 109
0 108
2014 108
London 108
ation 108
center 108
coi 108
da 108
eight 108
giám_sát 108
going 108
lan 108
ngày_càng 108
often 108
p@@ 108
trị_giá 108
viêm 108
xin 108
36 107
English 107
Russia 107
Saigon 107
Thursday 107
Tokyo 107
Tất_cả 107
diseases 107
e_@@ 107
reports 107
response 107
thu_hút 107
điện_tử 107
Paris 106
Tr@@ 106
al 106
an@@ 106
cost 106
especially 106
living 106
lễ 106
o@@ 106
on@@ 106
thậm_chí 106
And 105
CDC 105
Mai 105
căn_bệnh 105
employees 105
en@@ 105
giá_trị 105
giải_quyết 105
internet 105
lot 105
nhà_sản_xuất 105
power 105
prices 105
service 105
suspected 105
& 104
Institute 104
Japanese 104
Phu 104
Tổng_thống 104
Từ 104
VND@@ 104
Washington 104
a@@ 104
chuỗi 104
dừng 104
rate 104
small 104
thích 104
thịt 104
trai 104
trực_tiếp 104
đấu 104
US$ 103
Với 103
cố_gắng 103
decided 103
find 103
mặc_dù 103
pollution 103
price 103
w@@ 103
Germany 102
Government 102
Pakistan 102
ar@@ 102
department 102
know 102
places 102
plan 102
riêng 102
statement 102
too 102
went 102
Apple 101
To 101
UK 101
bản 101
held 101
lịch_sử 101
phạt 101
popular 101
thương_mại 101
điều_kiện 101
đồng_thời 101
ước_tính 101
Danang 100
ago 100
chi_phí 100
chủng 100
cư_dân 100
decision 100
ed 100
giết 100
hướng_dẫn 100
p 100
process 100
situation 100
started 100
tim 100
ting 100
tiến_hành 100
địa_điểm 100
already 99
average 99
bất_cứ 99
cậu 99
enough 99
epidemic 99
feel 99
fever 99
giới 99
highest 99
rộng 99
trưởng 99
tình_dục 99
want 99
xe_buýt 99
xuất_viện 99
Giang 98
Không 98
Microsoft 98
Và 98
With 98
emergency 98
facilities 98
firm 98
hoàn_thành 98
noted 98
parents 98
sốt 98
today 98
trillion 98
truyền_thống 98
vi_phạm 98
vừa 98
đảo 98
35 97
Airport 97
Thế_giới 97
began 97
best 97
businesses 97
bão 97
bất_hợp_pháp 97
bổ_sung 97
cause 97
growth 97
i_@@ 97
leading 97
một_cách 97
mở_rộng 97
phương_pháp 97
provide 97
t_@@ 97
term 97
tests 97
tr@@ 97
transmission 97
tăng_trưởng 97
án 97
Cho 96
Ngoài_ra 96
along 96
gạo 96
hiểu 96
khắp 96
live 96
lĩnh_vực 96
management 96
o_@@ 96
oil 96
outside 96
thu 96
ti@@ 96
via 96
Europe 95
al@@ 95
bang 95
currently 95
cạnh 95
cải_thiện 95
deputy 95
levels 95
mother 95
pay 95
scientists 95
territories 95
think 95
1.@@ 94
Cơ_quan 94
October 94
Pacific 94
almost 94
dân_số 94
k 94
lives 94
nghi_ngờ 94
son 94
strong 94
vận_chuyển 94
y@@ 94
đội 94
Chủ_tịch 93
Tổ_chức 93
addition 93
an_ninh 93
app 93
co@@ 93
de 93
distancing 93
duy_trì 93
evidence 93
gấp 93
lo_ngại 93
move 93
nhập_cảnh 93
start 93
tiếp_theo 93
1,000 92
1@@ 92
British 92
Sự 92
T 92
YouTube 92
bringing 92
chính_sách 92
conditions 92
en 92
f@@ 92
growing 92
hô_hấp 92
mặt 92
xã 92
đánh 92
400 91
800 91
Chủ_nhật 91
Park 91
bức 91
chúng 91
chủ_yếu 91
considered 91
former 91
ngừng 91
nhiễm_trùng 91
nhiệt_độ 91
required 91
respiratory 91
southern 91
starting 91
student 91
sông 91
thông_minh 91
tuyến 91
visa 91
vàng 91
đề_xuất 91
Có 90
available 90
avoid 90
câu 90
dầu 90
er@@ 90
killed 90
liệu 90
or@@ 90
tons 90
tương_lai 90
Đông_Nam_Á 90
đáng_kể 90
2011 89
Disease 89
November 89
Southeast 89
Sở 89
Two 89
W@@ 89
X@@ 89
bảng 89
common 89
customers 89
discharged 89
give 89
nh@@ 89
nạn_nhân 89
open 89
return 89
rủi_ro 89
thường_xuyên 89
visitors 89
vị 89
xem_xét 89
Đài_Loan 89
Le 88
North 88
Thi 88
arrived 88
chiếm 88
chọn 88
cuộc_sống 88
cơ_hội 88
dis@@ 88
issued 88
mức_độ 88
phút 88
recovered 88
thực_sự 88
tài_chính 88
vaccines 88
website 88
y_@@ 88
đóng 88
... 87
18@@ 87
2012 87
Air 87
Company 87
East 87
Nghiên_cứu 87
Phuc 87
Public 87
Tan 87
Tran 87
admitted 87
ated 87
coming 87
con_số 87
develop 87
domestic 87
estimated 87
fight 87
giao_thông 87
khí_hậu 87
latest 87
line 87
nation 87
phù_hợp 87
ra_mắt 87
shows 87
things 87
Biển 86
European 86
Group 86
Samsung 86
Taiwan 86
an_@@ 86
became 86
bình_thường 86
chạy 86
developing 86
military 86
mục_tiêu 86
nguy_hiểm 86
possible 86
similar 86
tourism 86
vai_trò 86
đeo 86
đầy 86
34 85
43 85
Do 85
Israel 85
agencies 85
ban_đầu 85
cũng 85
nghĩa 85
problems 85
restrictions 85
rights 85
u@@ 85
2021 84
Brazil 84
Nguyễn_@@ 84
am 84
approved 84
heavy 84
hoãn 84
left 84
personal 84
ph@@ 84
quán 84
site 84
ts 84
vượt 84
âm_tính 84
đồ 84
1,@@ 83
37 83
Mặc_dù 83
S 83
bằng_chứng 83
cá 83
future 83
giáo_dục 83
groups 83
khuyên 83
n_@@ 83
operations 83
phát 83
previous 83
quan_tâm 83
reduce 83
share 83
38 82
Committee 82
Cục 82
Kể 82
Nepal 82
Sa 82
big 82
cháy 82
chủ_tịch 82
example 82
higher 82
near 82
nhấn_mạnh 82
rõ 82
stop 82
thúc_đẩy 82
tạm 82
yet 82
90 81
Diseases 81
Ngoại_giao 81
chơi 81
cà_phê 81
càng 81
công 81
humans 81
hồi_phục 81
impact 81
individuals 81
jobs 81
khẳng_định 81
leave 81
ly 81
lợn 81
means 81
nguyên_nhân 81
parts 81
phone 81
really 81
regulations 81
run 81
saying 81
suốt 81
sở_hữu 81
thiết_kế 81
Để 81
đăng_ký 81
Bach 80
Hà 80
Since 80
bảy 80
goods 80
history 80
hiện_tại 80
một_vài 80
ng_@@ 80
thật 80
toàn_quốc 80
tờ 80
ung_thư 80
đáp_ứng 80
‘ 80
as@@ 79
car 79
ensure 79
entering 79
environment 79
got 79
keep 79
kh@@ 79
launched 79
lead 79
learning 79
lower 79
lực_lượng 79
reached 79
st@@ 79
thực_tế 79
trang_web 79
tài_sản 79
vợ 79
đêm 79
CoV 78
Mar@@ 78
Tính 78
again 78
buy 78
c 78
chủ 78
dấu_hiệu 78
followed 78
general 78
gồm 78
kẻ 78
little 78
localities 78
lợi_nhuận 78
năng_lượng 78
office 78
phi_công 78
phục_hồi 78
thủ_đô 78
whether 78
Đ@@ 78
đe_doạ 78
đôi 78
đại_diện 78
45 77
AIDS 77
Hiệp_hội 77
Thai 77
animals 77
dễ 77
effective 77
equipment 77
gi@@ 77
giao_dịch 77
hết 77
included 77
isolation 77
khuyến_khích 77
nhà_nước 77
nhựa 77
though 77
trách_nhiệm 77
tám 77
visited 77
ủng_hộ 77
2013 76
3,@@ 76
Y@@ 76
You 76
Zealand 76
biggest 76
di_chuyển 76
friends 76
here 76
house 76
hát 76
hạ_cánh 76
kg 76
lo@@ 76
lâm_sàng 76
nghe 76
placed 76
potential 76
pressure 76
real 76
seen 76
self 76
supply 76
ted 76
trang 76
trung 76
trụ_sở 76
tăng_cường 76
đúng 76
ổn_định 76
Foreign 75
Ph@@ 75
active 75
ating 75
buộc 75
doanh_thu 75
father 75
gốc 75
it@@ 75
khảo_sát 75
li@@ 75
luật 75
once 75
private 75
published 75
đăng 75
10@@ 74
2030 74
California 74
Cùng 74
December 74
Hue 74
Last 74
So 74
Vu 74
Xuan 74
bữa 74
chung 74
declared 74
ha 74
ngàn 74
nhà_đầu_tư 74
phong_toả 74
plant 74
remain 74
rồi 74
thay_thế 74
trăm 74
-2 73
19@@ 73
By 73
Truong 73
biểu_tình 73
born 73
campaign 73
compared 73
deal 73
difficult 73
economy 73
getting 73
giành 73
great 73
hand 73
job 73
nine 73
plastic 73
prevention 73
produce 73
rise 73
ship 73
soon 73
special 73
sẵn_sàng 73
tiếp_cận 73
Bac 72
Giám_đốc 72
Tập_đoàn 72
building 72
chiến_dịch 72
chân 72
di@@ 72
ever 72
fully 72
h 72
hãy 72
instead 72
kỹ_thuật 72
mở_cửa 72
nations 72
ngôi 72
phê_duyệt 72
phòng_thí_nghiệm 72
thai 72
thuế 72
tế_bào 72
usually 72
weather 72
wife 72
80 71
Campuchia 71
EU 71
In@@ 71
Myanmar 71
Sài_Gòn 71
That 71
Vietnam_Airlines 71
While 71
bối_cảnh 71
create 71
crisis 71
entry 71
full 71
gan 71
girl 71
huỷ_bỏ 71
hướng 71
l 71
lâu 71
lựa_chọn 71
meet 71
nhà_hàng 71
não 71
quần_đảo 71
sold 71
tourist 71
tình_hình 71
tư 71
tự_do 71
x@@ 71
đ@@ 71
đơn 71
His 70
Islands 70
Other 70
The_@@ 70
ad@@ 70
b 70
bus 70
carrier 70
illegal 70
kết_thúc 70
lockdown 70
luôn 70
làng 70
name 70
quả 70
samples 70
trade 70
traditional 70
trả_lời 70
yêu 70
​​sẽ 70
Cup 69
Deputy 69
Hoang 69
My 69
Quảng_Nam 69
Tropical 69
Tây_Ban_Nha 69
York 69
access 69
bóng_đá 69
chẩn_đoán 69
cut 69
cắt_giảm 69
date 69
es@@ 69
field 69
giải_thích 69
hôm_nay 69
incident 69
khá 69
khủng_hoảng 69
longer 69
phục_vụ 69
president 69
quảng_cáo 69
ro@@ 69
saw 69
thời_tiết 69
toà 69
truyền_nhiễm 69
tích_cực 69
tạm_thời 69
works 69
Đại_dịch 69
65 68
Beijing 68
Bạch_Mai 68
Prevention 68
Z@@ 68
ban_hành 68
biến 68
chairman 68
chặt_chẽ 68
climate 68
construction 68
discovered 68
doctor 68
efforts 68
identified 68
increasing 68
linked 68
liên_hệ 68
mobile 68
mơ 68
nationals 68
ng 68
nhà_chức_trách 68
nhờ 68
phát_hành 68
sex 68
stock 68
thanh_toán 68
thuê 68
tiêm 68
trial 68
từ_chối 68
visit 68
ví_dụ 68
đối_phó 68
53 67
From 67
Organization 67
SARS-CoV 67
TV 67
banned 67
bước 67
châu_Á 67
comes 67
current 67
duy_nhất 67
el@@ 67
giả 67
involved 67
member 67
mạnh_mẽ 67
nhiệm_vụ 67
ri@@ 67
sea 67
serious 67
something 67
thiệt_hại 67
ty 67
tồn_tại 67
value 67
văn_hoá 67
vụ_việc 67
đám 67
​​@@ 67
Association 66
Cuộc 66
Dinh 66
New_Zealand 66
Uỷ_ban 66
Vương_quốc_Anh 66
chú_ý 66
cầu 66
d 66
ho 66
khổng_lồ 66
minister 66
nóng 66
shares 66
systems 66
văn_phòng 66
worldwide 66
z@@ 66
$@@ 65
32 65
America 65
Bắc_Kinh 65
Con@@ 65
Hoàng_Sa 65
More 65
News 65
Of 65
amid 65
be@@ 65
chất_thải 65
concerns 65
education 65
financial 65
leaders 65
lây_truyền 65
main 65
necessary 65
ordered 65
qu@@ 65
red 65
rơi 65
stated 65
tổng_thống 65
vì_vậy 65
điều_hành 65
150 64
700 64
Cảnh_sát 64
Dung 64
French 64
Research 64
aircraft 64
ations 64
attention 64
capacity 64
clinical 64
cáo_buộc 64
event 64
families 64
follow 64
however 64
không_chỉ 64
ký 64
legal 64
liên_tục 64
lưu_ý 64
makes 64
mục_đích 64
nghi 64
numbers 64
nền_tảng 64
present 64
problem 64
quickly 64
side 64
trước_đây 64
viên 64
yếu_tố 64
đơn_vị 64
42 63
Al@@ 63
Dubai 63
K. 63
Mekong 63
Phong 63
Quận 63
Twitter 63
U@@ 63
at@@ 63
brain 63
bring 63
ch 63
dự_báo 63
effect 63
energy 63
essential 63
giải_trí 63
ia 63
il@@ 63
investment 63
issues 63
lá 63
nhân 63
phòng_chống 63
phản_đối 63
regions 63
rest 63
sources 63
thị_thực 63
vi@@ 63
won 63
Americans 62
Ar@@ 62
B 62
Chung 62
Công_an 62
During 62
Forbes 62
Medical 62
Trang 62
Vinh 62
agency 62
airport 62
always 62
arrested 62
cancer 62
condition 62
công_nhân 62
done 62
either 62
failure 62
fall 62
j@@ 62
mainland 62
màu 62
phó 62
sales 62
severe 62
source 62
thể_thao 62
u_@@ 62
various 62
viện 62
vé 62
vắc_xin 62
ô_tô 62
đối_tác 62
’re 62
Africa 61
Bạn 61
Bệnh 61
Development 61
Duc 61
Moscow 61
Trường_hợp 61
ab@@ 61
call 61
export 61
exposure 61
fell 61
giáo_viên 61
hy_vọng 61
immune 61
kiếm 61
markets 61
never 61
ngay_lập_tức 61
program 61
receive 61
season 61
trung_học 61
try 61
tầm 61
tự_nhiên 61
ways 61
đi_lại 61
động 61
0@@ 60
2,@@ 60
2009 60
55 60
Cả 60
ac@@ 60
ag@@ 60
behind 60
biến_đổi 60
bờ 60
chị 60
chỗ 60
chức_năng 60
công_cụ 60
daily 60
form 60
holiday 60
hàng_hoá 60
hình_ảnh 60
investigation 60
kia 60
kém 60
loss 60
model 60
máy_tính 60
ngủ 60
ong 60
sách 60
transport 60
vehicles 60
Đến 60
đề_cập 60
+ 59
Amazon 59
Cambodia 59
Gi@@ 59
Quốc_tế 59
Russian 59
aged 59
bãi 59
chín 59
chỉ_số 59
chụp 59
coffee 59
cạnh_tranh 59
dạng 59
em@@ 59
et@@ 59
hard 59
khai_thác 59
khí 59
music 59
named 59
ngân_hàng 59
phá 59
phẫu_thuật 59
point 59
poor 59
protect 59
role 59
safe 59
significant 59
siêu_thị 59
thu_thập 59
tương_đương 59
vi_khuẩn 59
Đó 59
đau 59
600 58
Mexico 58
Nations 58
P 58
PM 58
Quốc 58
Street 58
VinFast 58
action 58
brought 58
certain 58
cuộc_chiến 58
cặp 58
drugs 58
enter 58
experience 58
fishing 58
immediately 58
khoa_học 58
lòng 58
nhà_lãnh_đạo 58
north 58
nông_nghiệp 58
position 58
room 58
scheduled 58
sức 58
thiết_lập 58
thousands 58
truyền 58
truyền_hình 58
tập_đoàn 58
vậy 58
đồng_ý 58
0,@@ 57
2.@@ 57
2003 57
An@@ 57
BBC 57
Commune 57
Ho@@ 57
Linh 57
Ng@@ 57
Security 57
Syria 57
Vietjet 57
adding 57
allow 57
ates 57
bao_giờ 57
birth 57
bu@@ 57
built 57
chó 57
cụ_thể 57
dụng_cụ 57
fact 57
giúp_đỡ 57
greater 57
healthcare 57
homes 57
investors 57
is@@ 57
lack 57
lượt 57
lỗi 57
minutes 57
mô_hình 57
needs 57
normal 57
play 57
quarter 57
quân_sự 57
robot 57
skin 57
survey 57
te 57
tham_dự 57
thương_hiệu 57
tin_tức 57
tiết_lộ 57
together 57
xếp_hạng 57
1.000 56
Affairs 56
Also 56
Con 56
Global 56
Hồ 56
Mercy 56
Phát_triển 56
Spain 56
TP. 56
bar 56
bia 56
board 56
de@@ 56
female 56
foreigners 56
hundreds 56
look 56
natural 56
ngồi 56
nhập_cư 56
nhập_viện 56
non-@@ 56
pilot 56
programs 56
sector 56
someone 56
store 56
suy 56
việc_làm 56
warned 56
why 56
worked 56
x 56
xa0@@ 56
're 55
20@@ 55
3,000 55
4,@@ 55
57 55
66 55
AFF 55
Agency 55
Chính_quyền 55
Italian 55
Thái_Bình_Dương 55
_S@@ 55
changes 55
chính_trị 55
claimed 55
critical 55
ghi 55
ha@@ 55
hợp_đồng 55
key 55
kết_hợp 55
kết_nối 55
liên_lạc 55
nhạc 55
physical 55
previously 55
release 55
risks 55
rượu 55
thư 55
thảo_luận 55
training 55
trao 55
đô 55
2.5 54
75 54
Cộng_hoà 54
German 54
Nhat 54
Police 54
additional 54
bo@@ 54
chi 54
couple 54
cố 54
damage 54
district 54
dòng 54
ent 54
fourth 54
giao 54
giải_pháp 54
hotel 54
issue 54
language 54
looking 54
male 54
nhiệt_đới 54
núi 54
nặng_nề 54
ol@@ 54
protective 54
remains 54
rõ_ràng 54
short 54
singer 54
sinh_học 54
surveillance 54
temporarily 54
toàn_bộ 54
trying 54
tù 54
tặng 54
wave 54
đoạn 54
Afghanistan 53
Bên 53
Hung 53
Most 53
Trên 53
ability 53
abroad 53
afternoon 53
chồng 53
công_khai 53
gatherings 53
giãn 53
ground 53
ine 53
kilometers 53
lãnh_đạo 53
lợi_ích 53
mắt 53
mặc 53
một_nửa 53
nửa 53
over@@ 53
policy 53
prime 53
quý 53
series 53
shared 53
signed 53
thiết_yếu 53
thought 53
tiêu_dùng 53
transferred 53
trials 53
tổn_thương 53
vận_tải 53
vật 53
war 53
wear 53
Đan_Mạch 53
đá 53
33 52
44 52
49 52
52 52
Times 52
Ví_dụ 52
announcement 52
ant 52
bộ_phận 52
complete 52
daughter 52
ded 52
dễ_dàng 52
final 52
fire 52
forecast 52
giảm_thiểu 52
gone 52
hiện_nay 52
hàng_loạt 52
idea 52
im@@ 52
laws 52
lost 52
m_@@ 52
mua_sắm 52
multiple 52
needed 52
newspaper 52
ngoại_giao 52
organizations 52
owned 52
per@@ 52
phát_biểu 52
reason 52
representative 52
resources 52
song 52
sữa 52
tea 52
temperatures 52
th 52
themselves 52
thu_nhập 52
thập_kỷ 52
âm_nhạc 52
41 51
Du_lịch 51
Earlier 51
Hãng 51
Hơn 51
Thổ_Nhĩ_Kỳ 51
Tourism 51
Year 51
a.m. 51
bắt_giữ 51
cancelled 51
degrees 51
effects 51
established 51
facility 51
fear 51
gió 51
gói 51
hoang_dã 51
imported 51
imposed 51
improve 51
khoá 51
losses 51
ngắn 51
overseas 51
plane 51
ready 51
rác 51
sa@@ 51
sao 51
ships 51
signs 51
stage 51
stores 51
sợ 51
triển_khai 51
tuyển_dụng 51
wanted 51
xu_hướng 51
đại_lục 51
đẹp 51
46 50
Another 50
Britain 50
La 50
N 50
Nigeria 50
Party 50
Phuong 50
Starbucks 50
Sơn 50
Tu 50
above 50
activity 50
advised 50
als 50
believe 50
cells 50
chờ 50
chủ_quyền 50
claims 50
clear 50
concern 50
created 50
dù 50
film 50
front 50
gen 50
giấc 50
hands 50
le@@ 50
mét 50
nhớ 50
ones 50
pháp_lý 50
raised 50
rates 50
receiving 50
responsible 50
sp@@ 50
spend 50
suffered 50
tech 50
thay 50
thời 50
tiêu_thụ 50
trạm 50
tài_khoản 50
tài_liệu 50
waters 50
đầy_đủ 50
đỏ 50
2008 49
3.@@ 49
5,000 49
64 49
Bank 49
Birx 49
CAAV 49
Co@@ 49
Hải 49
Li@@ 49
Ro@@ 49
Rất 49
Su@@ 49
Those 49
To@@ 49
What 49
apps 49
arriving 49
beginning 49
bàn 49
bởi_vì 49
chain 49
chief 49
chỉ_đạo 49
chứng_kiến 49
câu_chuyện 49
despite 49
diễn_viên 49
drop 49
exports 49
factors 49
fish 49
già 49
giới_hạn 49
hi@@ 49
huỷ 49
hạt 49
hồi 49
laboratory 49
learn 49
love 49
lạnh 49
lễ_hội 49
met 49
network 49
ngôn_ngữ 49
ongoing 49
opened 49
phí 49
points 49
pop 49
product 49
qua_đời 49
quy_trình 49
rau 49
restaurants 49
sell 49
sở 49
thế 49
thể_hiện 49
thị_trấn 49
types 49
đốt 49
2010 48
4.@@ 48
Azerbaijan 48
Hang 48
Highlands 48
Khoảng 48
Lan 48
Lê_@@ 48
Nh@@ 48
Thành 48
Ukraine 48
act 48
amount 48
baby 48
believed 48
brand 48
carbon 48
causes 48
chính_xác 48
chứng_minh 48
cough 48
cúm 48
dead 48
designed 48
ding 48
do@@ 48
est 48
firms 48
hơi 48
hậu_quả 48
ill 48
immunity 48
includes 48
limited 48
miễn_phí 48
nguồn_gốc 48
nhẹ 48
offer 48
pneumonia 48
procedures 48
proposed 48
reach 48
reasons 48
rising 48
se 48
south 48
studies 48
suggested 48
ten 48
ter 48
tour 48
treat 48
ul@@ 48
whose 48
ý_tưởng 48
đoàn 48
đổ 48
0.@@ 47
47 47
54 47
Coronavirus 47
D 47
Kh@@ 47
School 47
Thuan 47
Thuỵ_Điển 47
Trade 47
account 47
airports 47
ang 47
ans 47
bình_luận 47
chiến_lược 47
chuyện 47
châu_Phi 47
chở 47
chợ 47
con@@ 47
căng_thẳng 47
el 47
ghé 47
hiệu_lực 47
hoá 47
husband 47
khác_biệt 47
kind 47
located 47
loạt 47
lung 47
miệng 47
operating 47
owner 47
planned 47
produced 47
projects 47
provided 47
quần_áo 47
resident 47
ru@@ 47
scale 47
species 47
spent 47
sure 47
temperature 47
thing 47
thông 47
thùng 47
thế_hệ 47
tions 47
toll 47
traffic 47
trồng 47
tuyệt_vời 47
vùng_biển 47
10% 46
Duong 46
Her 46
Mo@@ 46
Obama 46
Qu@@ 46
Re@@ 46
Thu 46
Venezuela 46
Viet 46
bò 46
ca_sĩ 46
cha_mẹ 46
cold 46
conference 46
costs 46
detected 46
dự_đoán 46
let 46
limit 46
lo_lắng 46
lạm_dụng 46
lập 46
middle 46
mis@@ 46
monitoring 46
nông_dân 46
nạn 46
reduced 46
round 46
selling 46
sign 46
story 46
tai_nạn 46
takes 46
tax 46
terms 46
trò_chơi 46
trắng 46
trứng 46
tài_trợ 46
tốc_độ 46
tụ_tập 46
understand 46
ur@@ 46
ve 46
xếp 46
Đa_khoa 46
Đối_với 46
ảo 46
48 45
Australian 45
Bắc_@@ 45
Even 45
Games 45
H 45
House 45
Hàng 45
Hầu_hết 45
Industry 45
Khu 45
Paracel 45
Pro@@ 45
R 45
Se@@ 45
Three 45
Transport 45
actions 45
ar 45
attack 45
caught 45
causing 45
cha 45
chục 45
court 45
cùng 45
cơ 45
cựu 45
digital 45
dân 45
football 45
g 45
giant 45
heat 45
infectious 45
inside 45
kept 45
king 45
mostly 45
nationwide 45
nhiên_liệu 45
niềm 45
nội_địa 45
phần_mềm 45
remaining 45
revenues 45
răng 45
s_@@ 45
sites 45
stopped 45
thận 45
vessel 45
victim 45
victims 45
whole 45
đua 45
đề_nghị 45
2,000 44
50% 44
58 44
African 44
GDP 44
Huế 44
Ngoc 44
Now 44
Quốc_hội 44
Republic 44
Sa@@ 44
Social 44
Trần_@@ 44
Vì 44
Văn_@@ 44
adults 44
alcohol 44
ap@@ 44
bạn_bè 44
centers 44
conducted 44
công_chúng 44
cư_trú 44
cắt 44
dangerous 44
dropped 44
dạy 44
dụng 44
entered 44
everyone 44
facing 44
fast 44
forest 44
giải_thưởng 44
giấy_phép 44
giới_thiệu 44
hold 44
hotels 44
hại 44
khám_phá 44
kiến 44
kiện 44
leader 44
mainly 44
om@@ 44
p.m. 44
phi 44
phân_tích 44
protection 44
revenue 44
shop 44
sleep 44
status 44
su@@ 44
supplies 44
sắp 44
số_liệu 44
thoát 44
thử 44
town 44
tốt_nghiệp 44
vệ_sinh 44
worst 44
wrote 44
xấu 44
Đại_sứ_quán 44
đâu 44
đóng_góp 44
đơn_giản 44
đọc 44
ổ 44
56 43
61 43
73 43
Although 43
Among 43
Chúng 43
Com@@ 43
Di@@ 43
Hồi_giáo 43
Island 43
Milan 43
New_York 43
Nhóm 43
No 43
Online 43
Secretary 43
agreed 43
bed 43
break 43
buộc_tội 43
bản_thân 43
carried 43
cars 43
chỉ_trích 43
citizen 43
completed 43
crew 43
cập_nhật 43
directly 43
dần 43
fans 43
hot 43
hour 43
hình 43
hút 43
ic 43
isolated 43
loại_bỏ 43
lái_xe 43
lợi 43
materials 43
methods 43
moved 43
môn 43
ne@@ 43
ngăn_ngừa 43
nhận_thức 43
nỗi 43
paid 43
phần_lớn 43
quy_mô 43
record 43
sẵn 43
ters 43
thoả_thuận 43
threat 43
thời_kỳ 43
thừa_nhận 43
to@@ 43
trà 43
tu@@ 43
tuân_thủ 43
tình_huống 43
tư_nhân 43
tại_sao 43
tồi_tệ 43
village 43
white 43
đô_thị 43
5% 42
51 42
8% 42
88 42
Ad@@ 42
Administration 42
Christmas 42
Day 42
Donald 42
Dũng 42
Lee 42
Lào 42
Nguyễn_Xuân_Phúc 42
_B@@ 42
annual 42
arrival 42
boy 42
build 42
bắt_buộc 42
bớt 42
cam_kết 42
carry 42
chiến_thắng 42
classes 42
có_vẻ 42
công_viên 42
cơ_bản 42
cảng 42
diagnosed 42
dẫn_đầu 42
eat 42
entire 42
expressed 42
fruit 42
governments 42
grow 42
hoa 42
hội_nghị 42
identify 42
individual 42
intelligence 42
khói 42
manufacturing 42
muỗi 42
nguyên 42
ngư_dân 42
ous 42
passed 42
phiên_bản 42
phần_trăm 42
phức_tạp 42
po@@ 42
political 42
press 42
quan 42
registered 42
requested 42
rose 42
specific 42
storm 42
ter@@ 42
thay_vì 42
throughout 42
thách_thức 42
tiềm_năng 42
turn 42
áp_đặt 42
Đảng 42
đào_tạo 42
2005 41
250 41
6,@@ 41
8,@@ 41
85 41
Chau 41
Dr. 41
Hubei 41
Le@@ 41
O 41
Over 41
Par@@ 41
Quoc 41
St@@ 41
Tri 41
Tổng_cục 41
Women 41
acute 41
album 41
anyone 41
bày_tỏ 41
coast 41
cultural 41
cảm_giác 41
cầu_thủ 41
cứu 41
cửa 41
devices 41
direct 41
elderly 41
environmental 41
extended 41
fresh 41
girls 41
giving 41
gần_gũi 41
host 41
hộ 41
illegally 41
khuyến_cáo 41
kỹ_năng 41
kỹ_thuật_số 41
letter 41
light 41
meters 41
occur 41
p_@@ 41
particularly 41
passenger 41
phones 41
phụ_huynh 41
plants 41
pro@@ 41
quan_điểm 41
sh@@ 41
speed 41
thủ_tục 41
trees 41
trốn 41
tư_cách 41
tổng 41
urged 41
user 41
uses 41
weekend 41
đội_tuyển 41
15@@ 40
30% 40
5.000 40
83 40
Celsius 40
Chúng_ta 40
Công_nghệ 40
Earth 40
Education 40
Khanh 40
Liên_Hợp_Quốc 40
Miss 40
NHS 40
Nam_@@ 40
Olympic 40
Song 40
Thứ_trưởng 40
Trường 40
VnExpress 40
Vì_vậy 40
administration 40
airline 40
ally 40
ao 40
appeared 40
buồn 40
bây_giờ 40
bị_thương 40
can_thiệp 40
chẳng 40
chứ 40
diplomatic 40
distance 40
diện_tích 40
ds 40
effort 40
evening 40
farmers 40
fishermen 40
games 40
ho@@ 40
hâm_mộ 40
la@@ 40
lâu_dài 40
lương 40
measure 40
mà_còn 40
nổi 40
operation 40
orders 40
organization 40
particular 40
phiên 40
quân_đội 40
recovery 40
rửa 40
se@@ 40
shops 40
space 40
summer 40
sạch 40
transportation 40
tree 40
type 40
tư_vấn 40
tạp_chí 40
universities 40
ventilators 40
volume 40
xanh 40
26@@ 39
5,@@ 39
8.@@ 39
99 39
Airways 39
Alibaba 39
Bangkok 39
Hoa_hậu 39
Mọi 39
Ngoài 39
Nhà_nước 39
Pham 39
Quảng_Ninh 39
Thông_tin 39
Trung_@@ 39
UAE 39
UNCLOS 39
V 39
Varadkar 39
Vũ 39
accused 39
agricultural 39
bán_lẻ 39
check 39
chemical 39
chìm 39
chặn 39
chế_độ 39
competition 39
cu@@ 39
cuốn 39
câu_lạc_bộ 39
côn_trùng 39
cảnh 39
dioxide 39
districts 39
doing 39
eating 39
ec@@ 39
ex@@ 39
failed 39
fake 39
fifth 39
gián 39
giấy 39
highly 39
hiện_tượng 39
interest 39
kháng 39
locals 39
location 39
mask 39
ons 39
phố 39
phụ_thuộc 39
prior 39
profit 39
quan_sát 39
routes 39
send 39
shut 39
sing 39
single 39
states 39
successful 39
supermarket 39
te@@ 39
teams 39
thôi 39
thức_ăn 39
tiêu_chuẩn 39
tây 39
units 39
whom 39
xung_quanh 39
đo 39
’ve 39
10,000 38
2006 38
74 38
AFP 38
Agriculture 38
Bo@@ 38
Both 38
Cha@@ 38
Chương_trình 38
Delta 38
Denmark 38
Donald_Trump 38
Ireland 38
K 38
Lai 38
Lam 38
Luật 38
Masan 38
Press 38
Số 38
Tháng 38
although 38
anti-@@ 38
bacteria 38
buses 38
bố 38
chi_tiết 38
class 38
coal 38
committee 38
completely 38
contain 38
cover 38
cánh 38
driving 38
easily 38
experienced 38
fined 38
for@@ 38
force 38
hiếm 38
ic@@ 38
ice 38
illness 38
khơi 38
khử_trùng 38
kỷ_niệm 38
leaving 38
luật_pháp 38
lô 38
match 38
net 38
ngưng 38
nàng 38
offering 38
phát_sóng 38
planning 38
players 38
postponed 38
prepare 38
protein 38
recommended 38
sexual 38
sick 38
taxi 38
television 38
thể 38
trip 38
um 38
virtual 38
ý 38
2000 37
59 37
6.@@ 37
62 37
67 37
77 37
91 37
98 37
Báo_cáo 37
Châu_Âu 37
Chỉ 37
Do_đó 37
En@@ 37
First 37
Giáo_dục 37
Gu@@ 37
Kết_quả 37
M 37
Nông_nghiệp 37
Previously 37
Q@@ 37
River 37
Several 37
Trung_ương 37
Tây 37
Tết 37
Under 37
VNĐ 37
accounts 37
affect 37
aviation 37
beer 37
bóng 37
bạc 37
bảo_hộ 37
bị_cáo 37
calls 37
chú 37
chứng 37
closely 37
commercial 37
consumers 37
cực_kỳ 37
decades 37
der 37
destinations 37
di_động 37
et 37
exported 37
findings 37
forces 37
gu@@ 37
happened 37
helped 37
khoa 37
khoảng_cách 37
ks 37
kết_hôn 37
locations 37
machine 37
maintain 37
mèo 37
ngạc_nhiên 37
nông_thôn 37
nội_dung 37
post 37
posted 37
regular 37
shown 37
software 37
spreading 37
sub@@ 37
sơ_tán 37
thiệt_mạng 37
thế_kỷ 37
thức 37
tinh_thần 37
tranh 37
tuân 37
tổng_cộng 37
vợ_chồng 37
xa0 37
đường_sắt 37
16@@ 36
7,@@ 36
AQI 36
Bài 36
E 36
Food 36
Gần 36
High 36
Hoàng_@@ 36
Its 36
Lazada 36
Ngân_hàng 36
No. 36
Năm_ngoái 36
Office 36
Pompeo 36
Tien 36
Tuan 36
WeChat 36
Y 36
actually 36
ary 36
ba@@ 36
bank 36
bl@@ 36
breath 36
buôn_bán 36
chains 36
closure 36
depression 36
existing 36
famous 36
focus 36
hectares 36
hope 36
huge 36
hành 36
income 36
island 36
launch 36
matter 36
mã 36
nhắn 36
ni@@ 36
offers 36
park 36
party 36
pate 36
pilots 36
pre@@ 36
pregnant 36
quanh 36
rains 36
rạp 36
si@@ 36
sovereignty 36
sports 36
station 36
thông_thường 36
thứ_bảy 36
traveled 36
travelled 36
trái 36
twice 36
us@@ 36
viruses 36
áp_lực 36
đẩy 36
đổi 36
-- 35
1996 35
30@@ 35
7% 35
86 35
Associated 35
Authorities 35
Can 35
Châu 35
Cuba 35
England 35
F 35
Festival 35
Giao_thông 35
Giá 35
Huong 35
Hà_Lan 35
Kiểm_soát 35
Local 35
Lu@@ 35
Meanwhile 35
Researchers 35
Sun 35
Tiến_sĩ 35
Town 35
Toà_án 35
Trường_Sa 35
Turkey 35
X 35
Yen 35
ance 35
ants 35
approval 35
art 35
associated 35
bánh 35
bầu_cử 35
carrying 35
chance 35
changed 35
chậm 35
chẳng_hạn 35
chứng_nhận 35
controls 35
công_an 35
cảm 35
cần_sa 35
device 35
dogs 35
dọc 35
electricity 35
employee 35
felt 35
fighting 35
fruits 35
hoà_bình 35
hề 35
học_tập 35
initial 35
ist 35
không_gian 35
khối_lượng 35
kits 35
labor 35
ling 35
láng_giềng 35
lẫn 35
mass 35
meter 35
method 35
mo@@ 35
mong_muốn 35
một_chút 35
nghiêm_ngặt 35
nghiện 35
ngăn 35
nhất_định 35
ou@@ 35
permission 35
played 35
questions 35
quà 35
quốc_tịch 35
r 35
relationship 35
relevant 35
require 35
review 35
rác_thải 35
rẻ 35
ses 35
shopping 35
showing 35
sometimes 35
square 35
staying 35
step 35
sushi 35
thanh_niên 35
thực 35
tiếp_nhận 35
ton 35
understanding 35
wants 35
y_tá 35
điểm_nóng 35
điện_thoại_di_động 35
đàm_phán 35
đời 35
ước 35
20% 34
5G 34
79 34
Bai 34
Besides 34
Centre 34
Dak 34
Dao 34
Dịch_vụ 34
Floyd 34
Following 34
Gia 34
Hiện_tại 34
Instagram 34
Laos 34
Me@@ 34
Oblast 34
Po@@ 34
Science 34
Te@@ 34
Technology 34
Tây_Nguyên 34
Tỉnh 34
Vụ 34
Ward 34
acid 34
ages 34
agreement 34
animal 34
av@@ 34
begin 34
borders 34
brands 34
broke 34
bề_mặt 34
cash 34
charges 34
cruise 34
cảm_xúc 34
cổ_phần 34
dream 34
ended 34
falling 34
festival 34
forced 34
fuel 34
gia 34
goal 34
healthy 34
hạ 34
imports 34
ing@@ 34
involving 34
kidney 34
kết_án 34
lao 34
le 34
liên_tiếp 34
lỏng 34
may_mắn 34
me@@ 34
millions 34
mặt_trời 34
như_thế_nào 34
nhắm 34
no@@ 34
notice 34
nuôi 34
nắng 34
ob@@ 34
outbreaks 34
outlets 34
peace 34
phase 34
producers 34
revealed 34
rules 34
rắn 34
sai_lệch 34
senior 34
size 34
streets 34
suspension 34
tin_đồn 34
tion 34
tranh_chấp 34
tried 34
trộm 34
tải 34
videos 34
viral 34
vào_khoảng 34
w 34
warning 34
watch 34
win 34
zone 34
ánh 34
điều_chỉnh 34
đồ_ăn 34
đồng_nghiệp 34
2004 33
25@@ 33
3% 33
4,000 33
68 33
76 33
Bitcoin 33
Bác_sĩ 33
CNN 33
Children 33
Co. 33
Court 33
Công_Thương 33
Go@@ 33
Hùng 33
Indian 33
Khoa_học 33
Kế_hoạch 33
League 33
Mr 33
Mu@@ 33
Nhiệt_đới 33
Seoul 33
Teddy 33
Triều_Tiên 33
Tân_Sơn_Nhất 33
War 33
abuse 33
aimed 33
airlines 33
allowing 33
ard 33
bad 33
behavior 33
bi@@ 33
camera 33
century 33
chim 33
chuyên 33
chắc_chắn 33
chức 33
claim 33
college 33
continued 33
contracted 33
cooperation 33
công_tác 33
cửa_khẩu 33
entertainment 33
eventually 33
exam 33
expert 33
f 33
features 33
fields 33
flew 33
gas 33
gives 33
giáo_sư 33
holding 33
hospitalised 33
houses 33
ies 33
impacts 33
improved 33
ir@@ 33
islands 33
karaoke 33
lan_truyền 33
landed 33
lúa 33
marriage 33
medicine 33
movement 33
moving 33
mô 33
mũi 33
nam_giới 33
nhiệt 33
nối 33
officers 33
organic 33
original 33
pa@@ 33
par@@ 33
payment 33
performed 33
phân_biệt 33
phường 33
providing 33
quốc 33
rain 33
range 33
retail 33
screening 33
search 33
sharing 33
stable 33
sâu 33
teacher 33
tell 33
thiên_nhiên 33
thực_vật 33
trừ 33
turned 33
tái_chế 33
tâm 33
tội_phạm 33
university 33
upon 33
wearing 33
z 33
ý_nghĩa 33
đem 33
đánh_dấu 33
độc_hại 33
13@@ 32
17@@ 32
4% 32
Bamboo 32
Ban 32
Ca 32
Công_@@ 32
Experts 32
FIFA 32
Georgia 32
Huawei 32
Hãy 32
Lo@@ 32
Lunar 32
Manila 32
Netflix 32
Ngay 32
Người_dân 32
Scotland 32
Tay 32
Tho 32
Tinh 32
basis 32
bom 32
bạo_lực 32
bất_ngờ 32
changing 32
chiến_tranh 32
chloroquine 32
chữa 32
co 32
collected 32
có_mặt 32
công_nhận 32
cướp 32
cẩn_thận 32
cổ 32
cứ 32
deep 32
determine 32
difficulties 32
dish 32
documents 32
dường_như 32
dược_phẩm 32
everything 32
exercise 32
forward 32
gave 32
giường 32
helping 32
id@@ 32
ina 32
jail 32
ked 32
lu@@ 32
meat 32
mm 32
monitor 32
mô_tả 32
nCoV 32
neighboring 32
nghệ_thuật 32
ngoại_trừ 32
nhà_thờ 32
notes 32
older 32
opening 32
personnel 32
platform 32
policies 32
ra@@ 32
race 32
raise 32
request 32
respectively 32
rộng_rãi 32
science 32
skills 32
syndrome 32
sợ_hãi 32
sức_mạnh 32
taste 32
teachers 32
tools 32
trình 32
trải_nghiệm 32
tội 32
unit 32
vaccination 32
vulnerable 32
vải 32
âm 32
ăn_uống 32
đối_tượng 32
độc 32
ứng 32
/8 31
1990 31
2025 31
23@@ 31
5.@@ 31
69 31
C. 31
Centers 31
Colombia 31
Dell 31
Despite 31
Dự_án 31
Ebola 31
FC 31
Ford 31
Ian 31
Index 31
Jo@@ 31
Lao 31
Nguyễn_Văn_@@ 31
Nhung 31
Nhật 31
Northern 31
PCR 31
Princess 31
Quốc_phòng 31
Sức_khoẻ 31
Thêm 31
Today 31
add 31
application 31
ass@@ 31
ator 31
au@@ 31
authority 31
below 31
calling 31
charge 31
chiến_đấu 31
chấp_nhận 31
chấp_thuận 31
com@@ 31
comment 31
consider 31
continues 31
course 31
cũ 31
danh 31
denied 31
dry 31
dậy 31
dịp 31
er_@@ 31
executive 31
flu 31
foods 31
friend 31
gã 31
hành_chính 31
hồi_hương 31
index 31
khuyến_nghị 31
khán_giả 31
khô 31
kênh 31
liền 31
lít 31
lọt 31
miles 31
monitored 31
mortality 31
mouth 31
movie 31
màn_hình 31
mười 31
nghèo 31
người_thân 31
nhà_cung_cấp 31
nổ 31
operate 31
os 31
partners 31
phá_huỷ 31
pháp_luật 31
phóng_viên 31
phương 31
proposal 31
quỹ 31
reportedly 31
ring 31
rooms 31
sad 31
seek 31
seeking 31
smart 31
solutions 31
stand 31
success 31
suffering 31
suspend 31
sơ_sinh 31
temporary 31
thus 31
thất_bại 31
thắng 31
tiến 31
tiết_kiệm 31
tiềm_ẩn 31
truy_cập 31
trì_hoãn 31
tuy_nhiên 31
version 31
violence 31
xe_tải 31
Ý. 31
đậu 31
10.@@ 30
12.@@ 30
2% 30
2.000 30
2007 30
27@@ 30
50,000 30
94 30
Brunei 30
Corporation 30
Giáng_sinh 30
Kingdom 30
Law 30
Môi_trường 30
Navy 30
No@@ 30
Once 30
RT 30
Samadova 30
Saudi 30
Sulli 30
Thien 30
Thương_mại 30
Tre 30
Truyền_thông 30
advice 30
al_@@ 30
applied 30
assistance 30
ay 30
beauty 30
becomes 30
becoming 30
buying 30
cho_hay 30
chặt 30
clean 30
computer 30
cung 30
diện 30
do_đó 30
drink 30
dùng 30
dưỡng_lão 30
dự_định 30
except 30
expanded 30
guidelines 30
hiến 30
hồ 30
hữu_cơ 30
industrial 30
inter@@ 30
kháng_thể 30
kiểu 30
kể_cả 30
larger 30
link 30
liều 30
lân_cận 30
lỗ 30
lừa_đảo 30
ma@@ 30
matches 30
mean 30
mentioned 30
minute 30
miễn 30
municipal 30
nursing 30
nắm 30
occurred 30
out@@ 30
paper 30
practice 30
provincial 30
ranked 30
rather 30
reducing 30
relations 30
removed 30
shortage 30
significantly 30
siêu_vi 30
songs 30
sáng_tạo 30
sét 30
sự_cố 30
talk 30
thanks 30
thuốc_lá 30
tiêu 30
tiếp 30
towards 30
treating 30
trông 30
tung 30
tài_nguyên 30
tôn_giáo 30
tầng 30
tự_động 30
vận_hành 30
weapons 30
winter 30
đen 30
đại_dương 30
đảng 30
động_đất 30
ưu_tiên 30
ấm 30
1.5 29
210 29
3.000 29
6% 29
9.@@ 29
93 29
Business 29
ByteDance 29
Chi@@ 29
Coffee 29
Cu@@ 29
Giám_đốc_điều_hành 29
Home 29
LGBT 29
Lao_động 29
Market 29
Mon@@ 29
Network 29
Noi 29
Nước 29
Pakistani 29
Sha@@ 29
Tenma 29
Thang 29
Thuỵ_Sĩ 29
Thị_@@ 29
Vi@@ 29
Victoria 29
West 29
address 29
advertising 29
ahead 29
air@@ 29
allows 29
ang@@ 29
appear 29
ask 29
attacks 29
ber@@ 29
bio@@ 29
book 29
budget 29
bác_bỏ 29
carriers 29
ches 29
chronic 29
chủ_đề 29
concerned 29
customs 29
căn 29
degree 29
die 29
dặm 29
dự 29
e-@@ 29
ence 29
explained 29
exposed 29
extremely 29
giới_tính 29
green 29
helps 29
hiện_đại 29
huyết_tương 29
hè 29
hình_thành 29
hơn_nữa 29
họp_báo 29
ian 29
immigration 29
inc@@ 29
k_@@ 29
kids 29
landing 29
les 29
lo 29
lots 29
lọc 29
machines 29
managed 29
map 29
mental 29
mind 29
ministries 29
mời 29
nhân_sự 29
nêu 29
origin 29
oxygen 29
payments 29
peak 29
performance 29
phân_phối 29
phụ 29
processing 29
ra_lệnh 29
raising 29
rapid 29
read 29
religious 29
remained 29
resort 29
rút 29
serve 29
smoke 29
star 29
stayed 29
studying 29
sốc 29
technical 29
thế_nào 29
tonnes 29
trao_đổi 29
trích_dẫn 29
trưởng_thành 29
tái 29
tâm_lý 29
urban 29
vegetables 29
ven 29
visiting 29
vườn 29
word 29
xương 29
ô 29
đón 29
đạo 29
đồng_bằng 29
130 28
14@@ 28
2022 28
AP 28
Chairman 28
Embassy 28
Hoi 28
Hà_Tĩnh 28
La@@ 28
Lombardy 28
Lệnh 28
MV 28
Mr. 28
Nghe 28
Nhân_dân 28
Phạm_@@ 28
Quản_lý 28
Sân_bay 28
Tuấn 28
Tờ 28
ak@@ 28
ale 28
apply 28
attract 28
az@@ 28
biểu_diễn 28
bí_mật 28
bất_động_sản 28
ca@@ 28
chạm 28
chỉ_định 28
consequences 28
decide 28
deployed 28
dragon 28
driver 28
email 28
factory 28
figures 28
flow 28
freedom 28
generally 28
genetic 28
gold 28
granted 28
gắn 28
happen 28
happy 28
hiệu 28
hết_sức 28
ical 28
implemented 28
itself 28
join 28
kinh_nghiệm 28
kích_hoạt 28
leaves 28
loved 28
lây 28
majority 28
manager 28
mar@@ 28
meaning 28
ment 28
mu@@ 28
mảnh 28
nearby 28
ngon 28
nguyên_liệu 28
ngộ_độc 28
nói_chuyện 28
nộp 28
pain 28
phỏng_vấn 28
quarantining 28
recognition 28
regional 28
riêng_tư 28
road 28
simple 28
so@@ 28
society 28
standards 28
standing 28
stations 28
stress 28
studied 28
suffer 28
suy_giảm 28
sàng_lọc 28
sụt_giảm 28
throat 28
tickets 28
tracking 28
traveling 28
trầm_cảm 28
typically 28
tách 28
tấm 28
tệ 28
tụ_họp 28
tỷ_phú 28
urgent 28
vice 28
visas 28
walk 28
wildlife 28
xuất 28
yếu 28
Được 28
độc_lập 28
ứng_cử_viên 28
10.000 27
200,000 27
24@@ 27
63 27
7.@@ 27
70% 27
9,@@ 27
90% 27
Before 27
Ben 27
Bien 27
Bình_Thuận 27
Car@@ 27
Defense 27
Do@@ 27
Em 27
Four 27
HCV 27
John 27
Madrid 27
Me 27
Nam_Phi 27
Natural 27
Not 27
Phase 27
Phúc 27
Phương 27
Scientists 27
Sh@@ 27
Spratly 27
Texas 27
Thái 27
Tung 27
Village 27
_R@@ 27
ad 27
alleged 27
alone 27
appropriate 27
arrivals 27
assets 27
bao 27
bought 27
burning 27
báo_chí 27
bệnh_tật 27
chiến 27
chuyển_đổi 27
cluster 27
consumption 27
có_lẽ 27
căn_hộ 27
cổ_đông 27
damaged 27
destination 27
dong 27
dân_cư 27
dị_ứng 27
dựng 27
ed@@ 27
false 27
generation 27
hạn 27
immediate 27
instance 27
ity 27
ke 27
lived 27
liên_kết 27
looks 27
lowest 27
lungs 27
làn_sóng 27
lưu_trữ 27
lắp_đặt 27
lối 27
lớp_học 27
ma_tuý 27
mer@@ 27
modern 27
networks 27
nghiệm 27
nguy_kịch 27
ngân_sách 27
nhận_dạng 27
note 27
nấu 27
offered 27
opportunity 27
phát_ngôn_viên 27
phân 27
phạm_vi 27
plasma 27
pork 27
pregnancy 27
prepared 27
producing 27
professor 27
purchase 27
quyền_lực 27
ranking 27
requires 27
sai 27
sed 27
seized 27
seriously 27
spokesman 27
street 27
strictly 27
suggests 27
surface 27
target 27
tham_quan 27
thải 27
tia 27
tic 27
ties 27
tive 27
tiết 27
toà_án 27
trading 27
tranh_cãi 27
tri@@ 27
tropical 27
trái_cây 27
trái_phép 27
trùng 27
tác_dụng 27
v 27
vay 27
view 27
voi 27
waiting 27
wild 27
xe_máy 27
yourself 27
ăn_@@ 27
đến_nơi 27
đối_thủ 27
đối_xử 27
/@@ 26
100,000 26
12,@@ 26
12@@ 26
1982 26
9% 26
ABC 26
Biển_Đông 26
Buddha 26
Bắc_Ninh 26
Bắt_đầu 26
Cai 26
Chiếc 26
Châu_Á 26
Chị 26
Commission 26
Có_thể 26
Cường 26
Cửu_Long 26
Environment 26
Foundation 26
Hy_Lạp 26
Hội_đồng 26
Johnson 26
Liên_minh 26
MERS 26
Medicine 26
Mười 26
Mỗi 26
N. 26
Na_Uy 26
Netherlands 26
Nguyễn 26
Nguyễn_Thị_@@ 26
Phụ_nữ 26
Quy 26
Switzerland 26
Thao 26
UN 26
Union 26
apartment 26
ars 26
bit 26
boats 26
bridge 26
bảo_tồn 26
car@@ 26
chuột 26
clothing 26
club 26
complex 26
containing 26
content 26
contract 26
culture 26
customer 26
cụ 26
decade 26
directed 26
doanh_số 26
dollars 26
election 26
embassy 26
encourage 26
enjoy 26
estimates 26
ets 26
figure 26
finding 26
fires 26
flying 26
ft 26
fund 26
funds 26
giảm_giá 26
gloves 26
grade 26
gỡ 26
har@@ 26
heard 26
hôn_nhân 26
hấp_dẫn 26
hệ 26
image 26
isolate 26
killing 26
kèm 26
kết_luận 26
kỷ_lục 26
lightning 26
liver 26
liệu_pháp 26
married 26
meals 26
message 26
milk 26
muộn 26
ne 26
ngày_nay 26
ngón 26
nhân_vật 26
nổi_bật 26
phiên_toà 26
phạm 26
pi@@ 26
port 26
powerful 26
preparing 26
protests 26
provides 26
ps 26
ran 26
res@@ 26
restaurant 26
route 26
rule 26
running 26
sa 26
sale 26
scored 26
served 26
solution 26
spokesperson 26
st 26
stands 26
steps 26
strength 26
stressed 26
subject 26
subsequently 26
sống_sót 26
sự_nghiệp 26
ta@@ 26
teen 26
territory 26
thi_đấu 26
thú 26
thống_kê 26
tiêu_cực 26
tiền_mặt 26
tiệc 26
toxic 26
trains 26
trans@@ 26
trại 26
tài_xế 26
um@@ 26
unknown 26
vai 26
violations 26
vũ_khí 26
vật_lý 26
web 26
widely 26
wind 26
words 26
xe_đạp 26
yêu_sách 26
zero 26
Đông_Anh 26
đa 26
đạo_diễn 26
đồng_tính 26
động_thái 26
’m 26
10,@@ 25
30,000 25
4.000 25
71 25
72 25
84 25
95 25
96 25
Bangladesh 25
Ber@@ 25
Between 25
Boeing 25
Britney 25
Bur@@ 25
Bình 25
Cola 25
Harvard 25
Hải_quân 25
IOC 25
Iraq 25
Khu_vực 25
Loi 25
Nội 25
Ohio 25
Oise 25
Pa@@ 25
Phú_Quốc 25
Post 25
Rural 25
Santa 25
Sinh 25
Statistics 25
Swift 25
Tam 25
Thanh_@@ 25
Thompson 25
Tú 25
VOA 25
Virus 25
_l@@ 25
_t@@ 25
accounting 25
advantage 25
alert 25
and@@ 25
artificial 25
ative 25
attracted 25
behaviors 25
biểu_hiện 25
boat 25
băng 25
bản_đồ 25
bảo 25
bậc 25
bỏ_phiếu 25
c_@@ 25
cell 25
ceremony 25
challenge 25
chu@@ 25
chấn_thương 25
chế_biến 25
chủ_sở_hữu 25
coastal 25
considering 25
consumer 25
cooking 25
criminal 25
cuộc_đời 25
cô_lập 25
dance 25
decisions 25
detained 25
diphtheria 25
dishes 25
doanh_nhân 25
dreams 25
else 25
en_@@ 25
estate 25
forms 25
funding 25
gets 25
grown 25
hotspot 25
hygiene 25
hàng_hải 25
hưởng 25
hải_quan 25
hối_lộ 25
hợp 25
importance 25
ines 25
infrastructure 25
initially 25
injuries 25
kháng_sinh 25
khủng_bố 25
lũ 25
lửa 25
med 25
messages 25
mạng_lưới 25
mặt_hàng 25
mặt_nạ 25
ness 25
nghỉ_dưỡng 25
ngoài_trời 25
người_lớn 25
nhân_dân 25
nhạy_cảm 25
nới 25
ocean 25
ov@@ 25
overall 25
phi_hành_đoàn 25
picture 25
property 25
putting 25
quyên_góp 25
reaching 25
regarding 25
reopen 25
resulted 25
ry 25
score 25
seat 25
separate 25
simply 25
spending 25
subjects 25
successfully 25
sun 25
surgery 25
sát 25
sâu_sắc 25
teaching 25
technologies 25
tend 25
therapy 25
thả 25
thủ_tướng 25
tin_cậy 25
tournament 25
train 25
transactions 25
trình_diễn 25
trừng_phạt 25
tìm_hiểu 25
tập_trận 25
under@@ 25
up@@ 25
views 25
visits 25
vết 25
worker 25
xăng 25
younger 25
é@@ 25
đánh_bại 25
đòi_hỏi 25
đặc_điểm 25
định 25
ứng_phó 25
've 24
.@@ 24
243 24
3rd 24
450 24
900 24
97 24
:30 24
About 24
Ac@@ 24
Around 24
Assembly 24
AstraZeneca 24
Auckland 24
Awards 24
Bill 24
Bắc_Triều_Tiên 24
Col@@ 24
Communist 24
Dang 24
Dien 24
Due 24
Hu@@ 24
Hye 24
Hải_Phòng 24
Hội_An 24
Kỳ 24
L 24
Lister 24
Liên_hợp_quốc 24
Melbourne 24
Ngọc_@@ 24
Như 24
OPEC 24
Phương_@@ 24
Project 24
Service 24
Sweden 24
Tau 24
Tencent 24
Their 24
Trái_đất 24
White 24
acquire 24
affecting 24
agriculture 24
aid 24
ash@@ 24
asking 24
atmosphere 24
attended 24
bars 24
beautiful 24
breaking 24
broadcast 24
camp 24
candidates 24
challenges 24
chay 24
chia 24
choose 24
coach 24
commonly 24
contracts 24
cân 24
cân_nhắc 24
công_suất 24
cấp_tính 24
delivery 24
design 24
diagnosis 24
difference 24
document 24
double 24
dozens 24
dã_chiến 24
dỡ 24
earned 24
easy 24
ery 24
eyes 24
faced 24
faces 24
fines 24
frequency 24
gene 24
ghế 24
gián_đoạn 24
households 24
hoá_chất 24
hoá_học 24
hình_thức 24
hạnh_phúc 24
hội_chứng 24
id 24
il 24
implement 24
influence 24
insects 24
introduced 24
items 24
khuôn_mặt 24
kích_thích 24
la 24
liên_bang 24
lái 24
lạ 24
lực 24
ma 24
marketing 24
material 24
may_mặc 24
mid-@@ 24
moment 24
neighbors 24
nhà_@@ 24
nhện 24
nitrate 24
nấu_ăn 24
nắng_nóng 24
officially 24
photos 24
phán_quyết 24
phân_loại 24
phối_hợp 24
pl@@ 24
prison 24
question 24
quá_cảnh 24
quân 24
rare 24
recognized 24
reporters 24
requirements 24
sample 24
scene 24
scientific 24
scores 24
seems 24
sentenced 24
smartphone 24
stability 24
suspects 24
suy_nghĩ 24
sản 24
sốt_rét 24
sử 24
table 24
thanh_long 24
thuốc_trừ_sâu 24
tiếp_viên 24
tiệm 24
toward 24
transmitted 24
treatments 24
trò_chuyện 24
trôi 24
trời 24
tương_ứng 24
tập_thể_dục 24
values 24
vessels 24
vi-rút 24
vô_@@ 24
vô_cùng 24
weight 24
widespread 24
winds 24
xâm_nhập 24
ên 24
ý_kiến 24
Đầu 24
đôi_khi 24
đường_phố 24
đấy 24
địa 24
đồng_hồ 24
11,@@ 23
120 23
15,000 23
15.@@ 23
1995 23
1998 23
201@@ 23
3.5 23
9,000 23
92 23
Academy 23
Bamboo_Airways 23
Barley 23
Based 23
Bu@@ 23
Báo 23
College 23
Cu 23
Cũng 23
Daegu 23
Du@@ 23
Dịch_bệnh 23
ECMO 23
G 23
Hàng_không 23
Hôm 23
Hồng_@@ 23
III 23
Im@@ 23
Industrial 23
Khánh_Hoà 23
Kien 23
Liên_@@ 23
Mal@@ 23
Michael 23
Military 23
Ngành 23
Nha 23
Nhi 23
Norway 23
Olympics 23
Per@@ 23
Quảng_Trị 23
Saint 23
Sen@@ 23
Silicon 23
Station 23
Số_lượng 23
TW 23
Thuy 23
U 23
Un@@ 23
VN@@ 23
Vung 23
Xã_hội 23
accident 23
actress 23
aim 23
aims 23
ang_@@ 23
ati@@ 23
attend 23
back@@ 23
benefits 23
biểu_tượng 23
black 23
broken 23
bàn_giao 23
bạch_hầu 23
bất_thường 23
bầu 23
bụi 23
celebrate 23
centralized 23
chai 23
collect 23
creating 23
cáo 23
công_@@ 23
công_trình 23
cắn 23
cồn 23
cục 23
deadly 23
ders 23
details 23
drinking 23
educational 23
electric 23
ent@@ 23
ev@@ 23
expand 23
extra 23
extreme 23
factories 23
fears 23
finally 23
forests 23
gh@@ 23
goals 23
găng_tay 23
hormone 23
humanitarian 23
huy_động 23
hưu 23
hộ_chiếu 23
hợp_pháp 23
ings 23
injured 23
joined 23
keeping 23
khắc_nghiệt 23
khởi_hành 23
knowledge 23
kéo 23
lành_mạnh 23
lấp 23
lớn_tuổi 23
mission 23
miếng 23
mong 23
na 23
nghệ_sĩ 23
người_phát_ngôn 23
nhất_là 23
nurses 23
nước_@@ 23
nợ 23
occurs 23
on_@@ 23
operated 23
organized 23
oxy 23
package 23
parks 23
parties 23
partner 23
pe@@ 23
pigs 23
platforms 23
playing 23
polluted 23
promote 23
protected 23
railway 23
reporting 23
rượu_vang 23
save 23
section 23
seeing 23
serving 23
sky 23
slow 23
smaller 23
speech 23
startup 23
sw@@ 23
sáng_lập 23
sân_vận_động 23
sòng 23
sợi 23
thuyền 23
thành_phần 23
thương_mại_điện_tử 23
thẩm_quyền 23
thật_sự 23
thực_thi 23
toàn_diện 23
trafficking 23
transfer 23
travellers 23
true 23
trust 23
tối_đa 23
tổn_thất 23
tổng_hợp 23
vehicle 23
vô_địch 23
vải_thiều 23
washing 23
xuyên 23
xác_minh 23
Á. 23
Á@@ 23
à 23
Độ 23
đoán 23
đại 23
ấp 23
'll 22
00@@ 22
1,0@@ 22
1.0@@ 22
1/@@ 22
124 22
2,5 22
28@@ 22
80,000 22
Be@@ 22
Border 22
Boston 22
Bảo_tàng 22
Civil 22
Coca 22
Director 22
Drug 22
EF 22
FDA 22
Goo 22
Honda 22
Inter@@ 22
Investment 22
JSC 22
Lực_lượng 22
Malaysian 22
New@@ 22
Nội_Bài 22
Peace 22
Pennsylvania 22
Phuoc 22
Play 22
Putin 22
Rec@@ 22
Resources 22
TNHH 22
Thanh_Hoá 22
Thua 22
Turkish 22
UNESCO 22
VN 22
VietnamPlus 22
Về 22
Western 22
Yahoo 22
bas@@ 22
beef 22
block 22
books 22
bất_@@ 22
bệnh_dịch 22
canceled 22
career 22
charged 22
checks 22
ched 22
chi@@ 22
chiếu_phim 22
cho@@ 22
chế 22
chữ 22
chữa_trị 22
co-@@ 22
col@@ 22
combat 22
cur@@ 22
currency 22
cuts 22
cutting 22
cán_bộ 22
cấp_độ 22
cụm 22
decline 22
delivered 22
depending 22
door 22
doses 22
duty 22
dù 22
dụng 22
dính 22
ease 22
es_@@ 22
ethnic 22
experiencing 22
fail 22
federal 22
feet 22
fine 22
frequently 22
function 22
garment 22
gathering 22
giàu 22
globally 22
gradually 22
gà 22
góp_phần 22
hopes 22
hình_sự 22
hòn 22
hạn_hán 22
họng 22
ial 22
ism 22
iz@@ 22
ker 22
khai 22
kho 22
khung 22
khởi_nghiệp 22
kill 22
kích_thước 22
listed 22
lose 22
lúc 22
làm_@@ 22
lần_lượt 22
manufacturers 22
marijuana 22
missing 22
models 22
mon@@ 22
mosquitoes 22
muối 22
màu_sắc 22
mây 22
mới_đây 22
names 22
ng_t@@ 22
ngôi_sao 22
nhân_đạo 22
nhảy 22
normally 22
năng_lực 22
nước_ngọt 22
perform 22
persons 22
preventive 22
producer 22
progress 22
purposes 22
quan_ngại 22
reaction 22
remove 22
requiring 22
res 22
residing 22
respond 22
roads 22
rumors 22
sectors 22
seem 22
sense 22
sensitive 22
sinh_mạng 22
smartphones 22
spoke 22
spot 22
stake 22
str@@ 22
strict 22
suggest 22
surrounding 22
tally 22
ther 22
thu_hoạch 22
thông_điệp 22
thứ_sáu 22
tiêm_chủng 22
tiếp_thị 22
tiểu_bang 22
track 22
trái_tim 22
trợ_lý 22
tình 22
túi 22
tức_là 22
từ_thiện 22
tự_tin 22
unable 22
unusual 22
ure 22
uỷ_ban 22
ves 22
violating 22
vui 22
vừa_qua 22
wait 22
wide 22
worse 22
xứ 22
ze 22
£ 22
é 22
ô@@ 22
đánh_bắt 22
đồn 22
ẩn 22
ốm 22
1.3 21
25% 21
4.0 21
6,000 21
AFC 21
Arabia 21
Argentina 21
BMS 21
Because 21
Berlin 21
Bri@@ 21
Bình_Dương 21
Bốn 21
Canadian 21
Chỉ_số 21
Chủ_Nhật 21
Community 21
Congo 21
Cách 21
Cổ_phần 21
Dat 21
Data 21
Dr 21
Dù_vậy 21
Dự_báo 21
Emergency 21
Ex@@ 21
Force 21
Har@@ 21
Herat 21
Hoan 21
How 21
Information 21
Islamic 21
Ju@@ 21
Liu 21
Ma@@ 21
Man@@ 21
Nghệ_An 21
Ngọc 21
Or@@ 21
Pa 21
Pe@@ 21
Phan 21
Phòng_ngừa 21
Pre@@ 21
Qatar 21
Quốc_@@ 21
Ray 21
Sar@@ 21
Six 21
Sydney 21
Thứ 21
Toyota 21
Travel 21
Tài_nguyên 21
Vaccine 21
Vinasun 21
Việt_@@ 21
Văn_phòng 21
Vũ_@@ 21
Vắc-xin 21
Wales 21
ach@@ 21
am_@@ 21
ana 21
anh_chàng 21
apart 21
article 21
ational 21
award 21
batch 21
battle 21
bodies 21
box 21
bur@@ 21
buôn_người 21
bảo_mật 21
bỏ_qua 21
bụng 21
casino 21
certificate 21
chi_trả 21
chàng 21
cháu 21
chì 21
chấm_dứt 21
comp@@ 21
concluded 21
cor@@ 21
covered 21
covering 21
cơ_sở_hạ_tầng 21
cập 21
departments 21
described 21
di_sản 21
di_truyền 21
dinh_dưỡng 21
diễn_biến 21
exams 21
gather 21
ge 21
giàu_có 21
handed 21
harmful 21
hepatitis 21
himself 21
huyết_áp 21
hàng_xóm 21
hương_vị 21
hầu_như 21
hồng 21
hội 21
hữu_ích 21
ig@@ 21
impacted 21
increases 21
increasingly 21
inf@@ 21
informed 21
institutions 21
investigate 21
ise 21
ka 21
khai_báo 21
khoẻ_mạnh 21
khối 21
kính 21
lab 21
lau 21
liệt_kê 21
maritime 21
mùi 21
mạch 21
ngọn 21
nhắc 21
non-essential 21
nose 21
nuclear 21
operates 21
originated 21
pass 21
pen@@ 21
pig 21
planes 21
presence 21
primary 21
quite 21
relatives 21
remember 21
replace 21
rich 21
risen 21
ruled 21
rural 21
rối_loạn 21
shift 21
shortness 21
sion 21
sit 21
sti@@ 21
strategy 21
strongly 21
struck 21
suit 21
supermarkets 21
survive 21
suspect 21
suy_yếu 21
tai 21
thuận_lợi 21
thích_hợp 21
thương_nhân 21
thể_chất 21
tin_tưởng 21
tiểu_đường 21
trang_trí 21
treo 21
trình_độ 21
trí_nhớ 21
tăng_giá 21
tương_tác 21
tập 21
tốt_đẹp 21
underlying 21
unique 21
usual 21
van 21
vui_vẻ 21
vật_liệu 21
waves 21
west 21
western 21
xuất_bản 21
xây 21
yesterday 21
ép 21
Đồng_thời 21
đường_băng 21
đừng 21
ương 21
ống 21
ủ 21
# 20
0.000 20
1.2 20
140 20
1974 20
1988 20
1994 20
1999 20
2002 20
22@@ 20
262 20
4th 20
8,000 20
89 20
Authority 20
Bằng 20
Commerce 20
Cong 20
Cor@@ 20
Công_cộng 20
Delhi 20
Dữ_liệu 20
Economic 20
Every 20
Fiji 20
Florida 20
Giải_thưởng 20
Hiện 20
Inc. 20
Is@@ 20
Kim_@@ 20
Ko@@ 20
Lang 20
Later 20
Minh_@@ 20
Museum 20
Nai 20
Nong 20
Nữ 20
Ocean 20
Officials 20
Peter 20
Phòng 20
Phú_@@ 20
Pri@@ 20
Qom 20
SE@@ 20
Sal@@ 20
Ser@@ 20
Smith 20
Starting 20
Then 20
Thảo 20
Thế_vận_hội 20
Thống_kê 20
Together 20
Trước_đây 20
Tàu 20
Tám 20
Tây_@@ 20
USAID 20
VABIOTECH 20
Valley 20
Vice 20
Vuong 20
Wal@@ 20
Zimbabwe 20
accordance 20
adds 20
administrative 20
anti@@ 20
anything 20
armed 20
ath 20
attending 20
banning 20
bar@@ 20
beyond 20
billions 20
bài_học 20
bông 20
bền_vững 20
camps 20
cap@@ 20
chiếu 20
choice 20
ci@@ 20
clothes 20
combined 20
communities 20
constantly 20
crime 20
cú 20
cảm_ơn 20
cầu_nguyện 20
cử 20
cực 20
d_@@ 20
declaration 20
decrease 20
determined 20
discuss 20
divorce 20
draw 20
eastern 20
enhance 20
equivalent 20
escape 20
ess 20
ess@@ 20
establishment 20
fallen 20
feeling 20
finished 20
fl@@ 20
floor 20
ful 20
functions 20
ghép 20
gia_hạn 20
giam_giữ 20
giám_đốc_điều_hành 20
giảng_dạy 20
giấy_tờ 20
giọng 20
go@@ 20
gỗ 20
he@@ 20
historical 20
hiểu_biết 20
hosted 20
hu@@ 20
hôm_qua 20
hạt_nhân 20
hứa_hẹn 20
import 20
instructions 20
intensive 20
interventions 20
ize 20
ized 20
kỹ_sư 20
leads 20
lessons 20
lines 20
liên 20
lock 20
lucky 20
lính 20
lý 20
lập_pháp 20
massive 20
memory 20
mild 20
mountainous 20
màn 20
mấy 20
mệt_mỏi 20
nature 20
negotiations 20
ner 20
nguồn_lực 20
nhập 20
numerous 20
officer 20
offices 20
ol 20
page 20
partnership 20
phiếu 20
por@@ 20
potentially 20
preventing 20
proper 20
protesters 20
pu@@ 20
quen 20
quoted 20
quy_tắc 20
quá_khứ 20
quê 20
radio 20
recover 20
refused 20
relatively 20
repeatedly 20
runs 20
ròng 20
severely 20
sinh_sống 20
sk@@ 20
sound 20
super@@ 20
sóng 20
săn 20
sản_lượng 20
sắp_xếp 20
sửa_chữa 20
thơm 20
thưởng_thức 20
tim_mạch 20
tiến_bộ 20
tracing 20
trained 20
travelling 20
trend 20
tur@@ 20
tác_phẩm 20
tóc 20
tần_suất 20
tận 20
tổ_tiên 20
ved 20
vo@@ 20
vụ 20
văn_bản 20
vắc 20
vỡ 20
willing 20
xuân 20
xét 20
á@@ 20
Đã 20
Đại_diện 20
Đất_nước 20
Đầu_tư 20
đàn 20
đánh_bạc 20
đề 20
đồng_@@ 20
ơ 20
ấn_tượng 20
ế 20
ếch 20
1.8 19
100.000 19
122 19
133 19
180 19
1989 19
1st 19
2001 19
50.000 19
6.000 19
80% 19
Aviation 19
Bar@@ 19
CD 19
Cam 19
Cam@@ 19
Championship 19
Chief 19
Chiến 19
Coca-Cola 19
Cuong 19
Doctors 19
Dân_chủ 19
El@@ 19
Euro 19
Federation 19
Gia_đình 19
Huyện 19
Hà_@@ 19
Hồng 19
John_@@ 19
Ke@@ 19
Kiem 19
King 19
Liên_đoàn 19
Luong 19
Luxembourg 19
Là 19
Lễ_hội 19
Macau 19
Massachusetts 19
Nhà_@@ 19
Ninh_Bình 19
OSV 19
Pikachu 19
Ria 19
Rice 19
Sabeco 19
San 19
Shilla 19
Sophia 19
Southern 19
Spanish 19
Stock 19
Tet 19
Thái_Bình 19
Trương_@@ 19
Trưởng 19
Tết_Nguyên_đán 19
Tổng 19
Vinmart 19
World_Cup 19
_th@@ 19
ade 19
ai@@ 19
all@@ 19
ancient 19
ann@@ 19
association 19
ay@@ 19
bags 19
base 19
basic 19
beat 19
beds 19
ber 19
beverage 19
boo@@ 19
bright 19
bác 19
béo 19
bùng_nổ 19
bỏng 19
cao_tuổi 19
cent 19
char@@ 19
chemicals 19
ching 19
claiming 19
committed 19
commune 19
confirmation 19
contacted 19
contribute 19
cr@@ 19
cuộc_gọi 19
cá_sấu 19
công_nghệ_cao 19
cảm_nhận 19
cấp_cứu 19
cố_vấn 19
declined 19
detect 19
dies 19
discovery 19
du@@ 19
e-commerce 19
ea@@ 19
eggs 19
el_@@ 19
ens 19
enterprises 19
equ@@ 19
establish 19
examined 19
exchange 19
farming 19
fashion 19
fired 19
formed 19
gain 19
gates 19
gender 19
ges 19
goes 19
guidance 19
happens 19
heavily 19
honor 19
hồ_sơ 19
ics 19
images 19
in_@@ 19
ind@@ 19
indicated 19
influenza 19
ins 19
invested 19
investing 19
investments 19
ised 19
ists 19
không_@@ 19
kit 19
knew 19
kết 19
kịp_thời 19
largely 19
lie 19
losing 19
ly_hôn 19
lãi_suất 19
manage 19
massage 19
medium 19
monthly 19
motorbike 19
mãn_tính 19
mắc_kẹt 19
mặt_đất 19
native 19
newly 19
nghề 19
nghề_nghiệp 19
ngưỡng 19
nhiên 19
nhận_diện 19
nothing 19
năng 19
op@@ 19
options 19
packages 19
participants 19
passing 19
performing 19
phản_hồi 19
phẩm 19
phủ 19
pm 19
presidential 19
pri@@ 19
probably 19
professional 19
prohibited 19
publicly 19
que 19
quá_tải 19
rec@@ 19
recognize 19
records 19
replaced 19
respect 19
resulting 19
resume 19
sa_thải 19
sanctions 19
scientist 19
sees 19
sen 19
session 19
shock 19
skilled 19
so_sánh 19
solar 19
sore 19
sought 19
speaking 19
supporting 19
surgical 19
symptom 19
sửa_đổi 19
talks 19
techniques 19
thanh 19
therefore 19
thoải_mái 19
ths 19
thuyết_phục 19
thú_vị 19
thảm_hoạ 19
thẳng 19
thời_trang 19
trash 19
travelers 19
truck 19
tuberculosis 19
tâm_lý_học 19
tưởng_tượng 19
tắm 19
unprecedented 19
upcoming 19
useful 19
ve@@ 19
ving 19
vệ_tinh 19
vọt 19
worried 19
áo 19
ôm 19
Đông_@@ 19
Đại_sứ 19
Đồng_Nai 19
Đức_@@ 19
đài 19
đầu_@@ 19
đặc_trưng 19
định_vị 19
Ấn 19
ần 19
ập 19
ắc 19
/7 18
1% 18
1,5 18
1,500 18
15,@@ 18
1980 18
1991 18
2.3 18
20,000 18
230 18
300,000 18
5-@@ 18
5th 18
Air@@ 18
Alzheimer 18
An_@@ 18
Bal@@ 18
Bi@@ 18
Bridge 18
Char@@ 18
Chien 18
Climate 18
Columbia 18
Convention 18
Customs 18
DNA 18
Den@@ 18
Duy 18
Emirates 18
Fan 18
Flight 18
Fund 18
GM 18
Gallup 18
George 18
Greece 18
Guinea 18
Hotel 18
Hoà 18
Hoàn_Kiếm 18
Hà_Nam 18
Hệ_thống 18
Je@@ 18
Jin 18
Jordan 18
Just 18
Khasi 18
Khí_tượng_Thuỷ_văn 18
Lake 18
Loc 18
Los 18
Lễ 18
Mc@@ 18
Mich@@ 18
Moreover 18
Ngh@@ 18
Nguyên 18
Ngày_nay 18
Nhan 18
Nhà_Trắng 18
Ob@@ 18
Only 18
Others 18
Pasteur 18
Philadelphia 18
Phát_biểu 18
Plan 18
Quan 18
Red 18
Ri@@ 18
Rwanda 18
Steering 18
Summer 18
Thực_phẩm 18
Tri@@ 18
Tsai 18
Tài_chính 18
Tân_@@ 18
UV 18
VAS 18
VinMart 18
Vùng 18
Vận_tải 18
Vịnh 18
Wang 18
William 18
a-@@ 18
ac 18
achieved 18
af@@ 18
ammonium 18
answer 18
approach 18
artist 18
ators 18
ats 18
banks 18
bao_nhiêu 18
barrel 18
billionaires 18
bing 18
biological 18
boost 18
buildings 18
bánh_mì 18
bọn 18
can@@ 18
chi_tiêu 18
chung_kết 18
chủ 18
chút 18
chấn 18
citing 18
civil 18
clubs 18
code 18
colleagues 18
comments 18
con_em 18
confidence 18
conglomerate 18
contacts 18
cul@@ 18
cười 18
cộng 18
den 18
diet 18
diễn_đàn 18
drought 18
dữ_dội 18
dự_trữ 18
easier 18
eb@@ 18
efficacy 18
ending 18
enforcement 18
engine 18
engineering 18
expect 18
factor 18
faster 18
feature 18
feed 18
feelings 18
fees 18
fi@@ 18
founder 18
gambling 18
giao_tiếp 18
giúp 18
giá_cả 18
giấc_ngủ 18
glass 18
guard 18
guests 18
halt 18
herd 18
hiện_hành 18
household 18
hành_trình 18
hôn_mê 18
hải_sản 18
hứa 18
ide 18
ill@@ 18
illnesses 18
independent 18
injury 18
insurance 18
involve 18
kilograms 18
kim 18
kinds 18
ley 18
loa 18
locally 18
locked 18
mandatory 18
meant 18
measles 18
micro@@ 18
min@@ 18
moderate 18
moon 18
ms 18
musical 18
mát 18
mầm 18
nguyên_tắc 18
ngã 18
ngực 18
nh 18
nhà_phát_triển 18
non@@ 18
ném 18
oo@@ 18
organ 18
ory 18
owners 18
pharmaceutical 18
phân_@@ 18
phụ_trách 18
pose 18
positions 18
processes 18
professionals 18
protest 18
purpose 18
quê_hương 18
ra_đời 18
rapidly 18
recording 18
ren@@ 18
responsibility 18
riêng_biệt 18
ro 18
screen 18
sending 18
sets 18
setting 18
sha@@ 18
sister 18
situations 18
snake 18
soft 18
speak 18
spring 18
stood 18
strategic 18
swine 18
sĩ_quan 18
tal@@ 18
teeth 18
ten@@ 18
tens 18
tensions 18
the@@ 18
thinking 18
threatened 18
thân 18
thí_nghiệm 18
thí_sinh 18
thực_hành 18
ticket 18
tiền_sử 18
tor 18
tra 18
tra@@ 18
trang_bị 18
trang_trại 18
transplant 18
trạng_thái 18
trọng 18
trục_xuất 18
tình_yêu 18
tại_chỗ 18
tỉ_lệ 18
tối_thiểu 18
updated 18
va 18
ventilator 18
voice 18
vòng_loại 18
vô_trùng 18
vật_tư 18
vẽ 18
wake 18
wo 18
xe_hơi 18
xâm_phạm 18
xét_xử 18
y_học 18
ya 18
ying 18
zones 18
Áo 18
á 18
áng 18
ê@@ 18
Đà_Lạt 18
điều_khiển 18
đánh_cá 18
đáp 18
ấn 18
’d 18
'd 17
113 17
125 17
16.@@ 17
270 17
320 17
360 17
40% 17
60% 17
70,000 17
7th 17
:00 17
Ad5 17
Ba_Lan 17
Bang 17
Bar 17
Belgium 17
Black 17
Bui 17
Bùi_@@ 17
Bảo_@@ 17
Bỉ 17
Châu_Phi 17
Chợ_Rẫy 17
Council 17
Currently 17
Công 17
De@@ 17
Diamond_Princess 17
Doanh_thu 17
Don 17
Energy 17
FLC 17
Finance 17
Giải 17
Grill 17
Here 17
Hoa_@@ 17
Hoàng 17
Hằng 17
Hội 17
II 17
Jong 17
Justin 17
Kenya 17
Khánh 17
Lai_Châu 17
MS 17
Michael_@@ 17
Middle 17
Moskva 17
Mrs. 17
Noul 17
Partnership 17
Prince 17
Protection 17
Resort 17
Sa_Pa 17
Shi@@ 17
Sho@@ 17
Si@@ 17
Speaking 17
Sports 17
St. 17
Swedish 17
Tesla 17
Tha@@ 17
Thành_@@ 17
Ti@@ 17
Top 17
Tra 17
Tuoi 17
Tây_Ninh 17
V. 17
VNPT 17
Yet 17
_h@@ 17
actor 17
ain@@ 17
antibodies 17
applications 17
arrive 17
aware 17
awareness 17
babies 17
bao_cao_su 17
believes 17
birds 17
bitcoin 17
breakfast 17
breathe 17
breathing 17
bảo_tàng 17
bất_chấp 17
bầu_không_khí 17
bắt_nguồn 17
bếp 17
bọc 17
candidate 17
cao_điểm 17
chi_nhánh 17
chosen 17
chào_đón 17
châu 17
chôn 17
chảy 17
chỉ_thị 17
chứng_khoán 17
closing 17
confirm 17
connected 17
consecutive 17
contained 17
crimes 17
crop 17
cung_ứng 17
cơ_quan_chức_năng 17
cỏ 17
cổng 17
dealing 17
decreased 17
defense 17
delayed 17
deliver 17
developments 17
diabetes 17
difficulty 17
dinner 17
downtown 17
du_học_sinh 17
dịch_tễ_học 17
earn 17
east 17
effectively 17
els 17
emb@@ 17
encouraged 17
ends 17
ents 17
eo 17
exist 17
expanding 17
expensive 17
eye 17
facial 17
farm 17
fatality 17
favorite 17
filed 17
filled 17
films 17
flag 17
fore@@ 17
friendly 17
fu@@ 17
gate 17
generated 17
gian_lận 17
gin 17
giây 17
grew 17
guilty 17
gợi_ý 17
harvest 17
hearing 17
heritage 17
hiện_trường 17
hiệp 17
hub 17
hy@@ 17
hít 17
hẳn 17
hệ_sinh_thái 17
identification 17
inh 17
insect 17
interests 17
inv@@ 17
ion 17
is_@@ 17
ising 17
ite 17
kem 17
khám 17
khí_thải 17
khía_cạnh 17
khóc 17
khả_thi 17
khởi_động 17
ký_túc_xá 17
licenses 17
lifted 17
likes 17
lin@@ 17
logy 17
lâu_đời 17
lò 17
malaria 17
man@@ 17
mas@@ 17
matters 17
mice 17
minh_bạch 17
mục 17
mét_vuông 17
mảng 17
ngài 17
ngược_lại 17
ngại 17
nhân_tạo 17
ns 17
onto 17
ors 17
output 17
phenomenon 17
phương_thức 17
phản_ánh 17
phủ_nhận 17
piece 17
ping 17
possibly 17
pping 17
privacy 17
profits 17
properly 17
protecting 17
prove 17
quick 17
reality 17
reduction 17
regulatory 17
rejected 17
robots 17
row 17
schedule 17
secret 17
ser@@ 17
shot 17
sinh_@@ 17
sinh_sản 17
siêu 17
slightly 17
stomach 17
suggesting 17
suy_thoái 17
sân 17
súng 17
sĩ 17
sởi 17
tes 17
thanh_thiếu_niên 17
thiếu_hụt 17
thiếu_niên 17
thân_thiện 17
thẻ 17
thị_phần 17
tor@@ 17
tors 17
trung_ương 17
trí 17
trí_tuệ_nhân_tạo 17
trầm_trọng 17
tác_giả 17
tương_đối 17
tận_dụng 17
undergoing 17
ung 17
variety 17
vegan 17
ví 17
vương_quốc 17
vận_động 17
warm 17
weekly 17
wn 17
written 17
xu 17
yên 17
zing 17
ánh_sáng 17
âm_thanh 17
ân 17
í 17
ó@@ 17
ón 17
ăng 17
Đảo 17
đường_@@ 17
đường_bay 17
đất_đai 17
đệ 17
đỗ 17
độc_quyền 17
độc_đáo 17
̀ 17
ải 17
.vn 16
/9 16
1000 16
105 16
11.@@ 16
110 16
12th 16
157 16
19.@@ 16
2-@@ 16
200.000 16
212 16
219 16
300.000 16
350 16
50@@ 16
8th 16
9.000 16
ADIDAS 16
Ardern 16
Austria 16
Bang_@@ 16
Bay 16
Big 16
Bio@@ 16
Bkav 16
Bor@@ 16
Buddha_Bar 16
Cau 16
Cen@@ 16
Chiến_dịch 16
Chiến_tranh 16
Cho@@ 16
Chu 16
Chuyến 16
Clinton 16
Cuối_cùng 16
Cái 16
Công_giáo 16
Công_ước 16
Cộng_sản 16
Dalat 16
Dam 16
Dan 16
Diamond 16
Dương 16
Dược_phẩm 16
Epidemiology 16
Fac@@ 16
Giáo_sư 16
Grand 16
Green 16
Học_sinh 16
IV 16
Iranian 16
KIDO 16
Ka@@ 16
Kabul 16
Kar@@ 16
Karachi 16
Khoa 16
Labor 16
Lan@@ 16
Liem 16
Liên 16
Liên_bang 16
Lung 16
Lyons 16
Lào_Cai 16
Ma_Cao 16
Mau 16
Mexican 16
Mi@@ 16
Mor@@ 16
Một_khi 16
Na 16
Ngo 16
Ngoại_trưởng 16
Nuenen 16
Oper@@ 16
Oxford 16
Phú 16
Phản_ứng 16
Region 16
Ru@@ 16
San@@ 16
Sars 16
Schulenberg 16
Shanghai 16
Show 16
Siri 16
So@@ 16
Sri 16
Sri_Lanka 16
Số_liệu 16
Therefore 16
Though 16
Thắng 16
Thể_thao 16
Tour 16
Tra@@ 16
Trang_web 16
Trẻ_em 16
UTC 16
Vo 16
Võ_@@ 16
Woody 16
Z 16
Zhang 16
ably 16
academic 16
acts 16
ads 16
advanced 16
affects 16
alongside 16
ambassador 16
amounts 16
analysis 16
ances 16
annually 16
app@@ 16
arm 16
arms 16
arrest 16
assist 16
attempt 16
beaches 16
bigger 16
biến_đổi_gen 16
ble 16
blockchain 16
burden 16
bàn_@@ 16
bình 16
bản_@@ 16
bỏ_rơi 16
bồi_thường 16
bột 16
ca_ngợi 16
cable 16
cao_cấp 16
cat@@ 16
catch 16
cay 16
che@@ 16
chịu_đựng 16
chờ_đợi 16
chủng_tộc 16
cleaning 16
cm 16
colleges 16
color 16
coma 16
communication 16
comprehensive 16
conduct 16
confirms 16
connection 16
continuing 16
cook 16
core 16
courses 16
covers 16
crops 16
crucial 16
cách_thức 16
cân_bằng 16
cưới 16
cứu_trợ 16
dao_động 16
daughters 16
decree 16
demanded 16
des 16
dic@@ 16
differences 16
din@@ 16
drive 16
dy 16
dâng 16
dây 16
dơi 16
economies 16
ect 16
ell@@ 16
emerged 16
ensuring 16
ep@@ 16
euros 16
evaluation 16
expansion 16
expects 16
extend 16
falls 16
fatalities 16
fe@@ 16
fee 16
festivals 16
fewer 16
fin@@ 16
flower 16
flowers 16
fly 16
focused 16
founded 16
ga@@ 16
gained 16
gaming 16
giấu 16
gorillas 16
hand@@ 16
handle 16
handling 16
hoàn_hảo 16
huấn_luyện_viên 16
hành_tinh 16
hình_phạt 16
hạng 16
hợp_lý 16
ia_@@ 16
ica 16
ideas 16
ie 16
impossible 16
installed 16
investor 16
izing 16
kinh_ngạc 16
kitchen 16
ko 16
kỳ_vọng 16
lis@@ 16
liter 16
liên_minh 16
lo_sợ 16
looked 16
luck 16
luật_sư 16
lưới 16
lắm 16
maker 16
meetings 16
millennials 16
minority 16
mất_tích 16
mục 16
ng-@@ 16
nghỉ_mát 16
nhà_báo 16
nhãn_hiệu 16
như_thế 16
ning 16
none 16
nói_chung 16
nướng 16
nửa_đêm 16
occupational 16
oi 16
ome 16
organs 16
originally 16
parking 16
performances 16
phi_chính_phủ 16
phì 16
phòng_khám 16
plays 16
populations 16
posting 16
posts 16
practices 16
prize 16
profile 16
promised 16
promising 16
promotion 16
publication 16
quên 16
quốc_phòng 16
rainfall 16
ram@@ 16
ranks 16
re 16
reading 16
regulation 16
rely 16
rent 16
ride 16
salt 16
sashimi 16
seventh 16
smoking 16
stages 16
stating 16
stocks 16
storage 16
strain 16
sufficient 16
supported 16
sư_tử 16
sắc 16
tariffs 16
task 16
tasks 16
teens 16
text 16
thành_tích 16
thép 16
thông_tấn_xã 16
thất_nghiệp 16
thắt 16
thời_hạn 16
tin@@ 16
tissue 16
tiếng_vang 16
tiền_tệ 16
tiểu_học 16
tranh_luận 16
transported 16
trật_tự 16
typical 16
tài 16
tái_tạo 16
tính_toán 16
tôn_trọng 16
tươi 16
tất 16
tỏ 16
tự_nguyện 16
uy@@ 16
val@@ 16
virut 16
vital 16
viễn_thông 16
vote 16
vấn 16
wards 16
watched 16
wedding 16
wing 16
ws 16
xi 16
xong 16
yellow 16
ác 16
ái 16
áp_@@ 16
át 16
â@@ 16
ích 16
ôi 16
Đình_@@ 16
Đại_@@ 16
điển_hình 16
đoàn_kết 16
đuổi 16
đào 16
đâm 16
đèn_lồng 16
đăng_tải 16
đường_cao_tốc 16
đường_dây 16
đại_sứ 16
đội_ngũ 16
ưu_đãi 16
̣ 16
ế@@ 16
ổ_@@ 16
&@@ 15
.. 15
.000 15
00 15
1,2 15
1,3@@ 15
1.4 15
1.6 15
127 15
14.@@ 15
151 15
190 15
195 15
268 15
40@@ 15
9th 15
Abe 15
Arthur 15
At@@ 15
Bình_@@ 15
Bản 15
CEOs 15
Can@@ 15
Change 15
Chẳng_hạn 15
Cậu 15
Dis@@ 15
Division 15
Dublin 15
Em@@ 15
Exchange 15
Federal 15
Film 15
Go 15
Hanh 15
Hi@@ 15
Hiện_nay 15
Hoàng_tử 15
Huu 15
Hà_Giang 15
Hồi 15
Joint 15
Journal 15
Kho@@ 15
Kinh_tế 15
Kyo 15
Kỹ_thuật 15
Limited 15
Luân_Đôn 15
Ly 15
Lâm 15
M. 15
Mac@@ 15
Man 15
Metro 15
MobiFone 15
My@@ 15
NASA 15
Ne@@ 15
Nhà 15
Nhật_@@ 15
Phòng_chống 15
Phúc_Long 15
Pl@@ 15
Professor 15
Program 15
Quynh 15
Romania 15
Royal 15
SA@@ 15
Such 15
The@@ 15
Thượng_Hải 15
Thừa_Thiên-Huế 15
Training 15
Trung_Đông 15
Trần 15
Turkmenistan 15
Tình_trạng 15
Tạp_chí 15
Uỷ_ban_nhân_dân 15
VFS 15
VN54 15
Video 15
Vinamilk 15
Vân_Đồn 15
Vệ_sinh 15
Vị 15
W 15
Wiesel 15
Xuân 15
Xuân_@@ 15
_M@@ 15
_s@@ 15
acc@@ 15
acquired 15
actual 15
advance 15
aging 15
aj@@ 15
allegations 15
allergy 15
ancestors 15
ani 15
are@@ 15
arg@@ 15
ari@@ 15
artists 15
assistant 15
atory 15
audience 15
author 15
benefit 15
bid 15
bidding 15
billionaire 15
bom@@ 15
borne 15
bread 15
brother 15
bs 15
bubble 15
busy 15
bánh_@@ 15
cameras 15
campus 15
canh_tác 15
cao_đẳng 15
category 15
cats 15
certificates 15
ch_@@ 15
chances 15
character 15
che 15
chicken 15
chất_khử 15
chị_em 15
collaboration 15
comm@@ 15
communes 15
compete 15
competitive 15
computers 15
contracting 15
coronaviruses 15
criticized 15
crowded 15
crude 15
crypto 15
cure 15
cơ_chế 15
danh_tính 15
dash 15
dec@@ 15
delay 15
den@@ 15
donated 15
dr@@ 15
dropping 15
dust 15
duties 15
dy@@ 15
dạ_hội 15
dấu 15
dấy 15
e.g. 15
ear@@ 15
earthquake 15
edge 15
effectiveness 15
egg 15
electronic 15
end@@ 15
estimate 15
etc 15
examples 15
exercises 15
floods 15
fluids 15
forcing 15
form@@ 15
fuels 15
ga 15
ge@@ 15
giả_mạo 15
giải_phóng 15
guards 15
heads 15
holds 15
hosting 15
hoàn 15
hydroxychloroquine 15
hỏng 15
hộp 15
identifying 15
impose 15
instructed 15
introduce 15
invest 15
investigated 15
issuing 15
j 15
joint 15
kho@@ 15
khái_niệm 15
khí_quyển 15
khó_chịu 15
kilometer 15
knows 15
kín 15
legs 15
ler 15
lic@@ 15
liters 15
lên_án 15
lặp 15
lịch_trình 15
lợi_thế 15
magazine 15
maintaining 15
marked 15
marks 15
mat@@ 15
meal 15
medicines 15
midnight 15
mothers 15
na@@ 15
ned 15
nghiệp 15
ngoại_ô 15
ngs 15
nhân_chứng 15
non-governmental 15
noodles 15
nâng_cấp 15
nước_biển 15
objects 15
ology 15
opposition 15
ore 15
ously 15
parent 15
parlors 15
percentage 15
pho@@ 15
phong 15
phong_trào 15
phân_bón 15
phơi 15
phạm_tội 15
pick 15
pictures 15
planet 15
pp@@ 15
praised 15
premature 15
presented 15
punishment 15
rapper 15
raw 15
recommendations 15
representatives 15
rescue 15
residential 15
responses 15
river 15
seconds 15
sharply 15
sides 15
sinking 15
sitting 15
soldiers 15
spell 15
sport 15
standard 15
stem 15
strange 15
streaming 15
structure 15
struggling 15
studio 15
talking 15
targets 15
taxes 15
telling 15
thinks 15
thu_gom 15
thành_thạo 15
thói_quen 15
thương 15
thị_trường_chứng_khoán 15
tiên_tiến 15
tiêu_chảy 15
tiêu_hoá 15
to_@@ 15
tool 15
tough 15
tours 15
trips 15
trouble 15
trung_niên 15
truy_tìm 15
trình_bày 15
trưa 15
tuần_tra 15
tweet 15
tâm_thần 15
tín_hiệu 15
tưởng 15
tượng 15
tắt 15
tế 15
tổng_giám_đốc 15
tổng_thể 15
tụt 15
ud@@ 15
unclear 15
undergo 15
unlawful 15
vector 15
ver 15
ver@@ 15
vitamin 15
volunteers 15
văn 15
vận_động_viên 15
vẻ 15
vỏ 15
walking 15
war@@ 15
ward 15
wealth 15
wi@@ 15
wine 15
xin_lỗi 15
ys 15
zed 15
ôn 15
ôn_@@ 15
ông_@@ 15
đề_cử 15
địa_lý 15
đổ_bộ 15
động_mạch 15
đợi 15
ơi 15
́c 15
ạt 15
ấn_phẩm 15
ẩm_thực 15
ẻ 15
ị 15
ồn 15
ục 15
‑ 15
'@@ 14
,000 14
-19 14
106 14
142 14
16th 14
17th 14
1987 14
1993 14
200@@ 14
201 14
209 14
233 14
3.8 14
370 14
500,000 14
6th 14
7,000 14
7.000 14
8-@@ 14
80@@ 14
87 14
AEON 14
AT@@ 14
Ab@@ 14
Accordingly 14
Additionally 14
Adidas 14
Ai_Cập 14
Android 14
As@@ 14
Asiad 14
Black@@ 14
Bloomberg 14
Br@@ 14
Bắc_Giang 14
Cambridge 14
Cameron 14
Cas@@ 14
Catholic 14
Chan 14
Charles 14
Chay 14
Chín 14
Chính 14
Con_số 14
County 14
Cy@@ 14
Công_dân 14
Cộng_đồng 14
Củ_Chi 14
Daily 14
Democratic 14
Des@@ 14
Don@@ 14
Dù 14
Dịch 14
Early 14
Egypt 14
FI@@ 14
FPT 14
Football 14
For@@ 14
Forecasting 14
GMA 14
Hopkins 14
Hoà_@@ 14
Huynh 14
Hydro 14
Hôm_nay 14
Hương 14
Hải_Dương 14
Học_viện 14
IBM 14
ICU 14
Initiative 14
Kas@@ 14
Kuwait 14
Kể_cả 14
La_@@ 14
Lebanon 14
Li 14
Like 14
Ltd 14
Lộc 14
Mag@@ 14
Mai_@@ 14
Management 14
Mart 14
Mauritius 14
Mel@@ 14
Michigan 14
Minh_Chay 14
Moldova 14
Music 14
Musk 14
Mẹ 14
Nearly 14
Nghị_định 14
Nguyễn_Ngọc_@@ 14
Nha_Trang 14
Nhà_sản_xuất 14
Nhân_viên 14
Nielsen 14
Our 14
Patients 14
Production 14
QR 14
Quang_@@ 14
Queen 14
RON92 14
Republican 14
Request 14
ST@@ 14
Senegal 14
Services 14
Seychelles 14
Sindh 14
Smithsonian 14
Society 14
Sou@@ 14
Sp@@ 14
Star@@ 14
Sushi 14
Sơn_Tùng 14
Ten@@ 14
Thu@@ 14
Thuỷ 14
Thái_@@ 14
Thật 14
Tiki 14
Toàn_cầu 14
Trinh 14
Trường_Sinh 14
Tuổi_Trẻ 14
Tâm 14
Tân 14
Tùng 14
Tổng_@@ 14
Tổng_Giám_đốc 14
Tổng_số 14
Upon 14
VNA 14
VND1 14
Vĩnh_Phúc 14
Watch 14
Youtube 14
Yên 14
_H@@ 14
_tr@@ 14
accept 14
afraid 14
agents 14
ain 14
ak 14
alive 14
antibiotics 14
any@@ 14
appearing 14
applying 14
approximately 14
au 14
aw@@ 14
bilateral 14
blo@@ 14
bonds 14
boys 14
bri@@ 14
brings 14
broadcasting 14
bào 14
bảo_hiểm 14
bất_ổn 14
bố_mẹ 14
bộ_trưởng 14
cat 14
centres 14
charity 14
chatbots 14
chose 14
chuyên_nghiệp 14
chéo 14
chùa 14
chăn_nuôi 14
chắc 14
chỉ_huy 14
chủ_động 14
chức_vụ 14
circumstances 14
cited 14
clients 14
closures 14
clusters 14
cockroach 14
collection 14
competent 14
complicated 14
con_@@ 14
con_cái 14
connect 14
connecting 14
container 14
contaminated 14
contractor 14
cope 14
crowds 14
cup 14
cản_trở 14
cảnh_giác 14
cấu_trúc 14
cốt_lõi 14
dark 14
deals 14
dem@@ 14
der@@ 14
di 14
directive 14
discussed 14
disputes 14
distributed 14
drinks 14
dung 14
dài_hạn 14
dân_tộc 14
dẫn_dắt 14
dọn 14
eaten 14
emissions 14
employment 14
enti@@ 14
ently 14
entrepreneurs 14
ep 14
est@@ 14
evacuated 14
exp@@ 14
explain 14
featured 14
fer@@ 14
ff@@ 14
flies 14
flooding 14
fluid 14
fr@@ 14
frequent 14
gar@@ 14
gathered 14
gay 14
gen@@ 14
generate 14
generations 14
gifts 14
giáo 14
giáp 14
giếng 14
graduation 14
greatly 14
guide 14
hair 14
hardest 14
hear 14
herself 14
hiện_diện 14
hosts 14
hoà 14
hoàng_gia 14
huyết_thanh 14
huấn_luyện 14
hài_lòng 14
hấp_thụ 14
họ_hàng 14
hữu 14
im 14
immigrants 14
industries 14
ine_@@ 14
injection 14
install 14
intense 14
interested 14
internationally 14
interview 14
invasive 14
involvement 14
involves 14
ious 14
ization 14
journey 14
jumped 14
khoẻ 14
khỉ_đột 14
khớp 14
khủng_khiếp 14
kiêm 14
landslides 14
laser 14
lea@@ 14
license 14
loo@@ 14
ly@@ 14
lên_tiếng 14
lưu_thông 14
lưu_trú 14
lịch 14
lốc 14
lộ 14
manufacturer 14
mate 14
measured 14
ments 14
minimum 14
modified 14
mountain 14
moves 14
movies 14
muscle 14
màng 14
mượn 14
mẫu_giáo 14
mặn 14
mộ 14
một_@@ 14
một_triệu 14
mực 14
mỳ 14
n_l@@ 14
n_đ@@ 14
ners 14
ngo@@ 14
ngập 14
nh_@@ 14
nhiệm 14
nhà_bán_lẻ 14
nhà_ga 14
nhà_thuốc 14
nhân_lực 14
nhãn 14
nhé 14
nhận_định 14
nhắc_nhở 14
nu@@ 14
nuts 14
nông_sản 14
năm_tháng 14
nấm 14
nội_bộ 14
oldest 14
opinion 14
opportunities 14
ours 14
outdoor 14
passport 14
permit 14
permits 14
pha 14
phim_truyền_hình 14
photo 14
phụ 14
phà 14
phát_động 14
phản_@@ 14
popularity 14
ports 14
poverty 14
pre-@@ 14
preventable 14
priority 14
prolonged 14
pun@@ 14
quản_trị 14
recommends 14
recycling 14
referred 14
relationships 14
relative 14
remote 14
repatriation 14
resistance 14
responding 14
restrict 14
ris@@ 14
roles 14
runway 14
selfie 14
shareholders 14
sharp 14
sinh_vật 14
spreads 14
ster 14
storms 14
strengthen 14
stroke 14
substance 14
suitable 14
supports 14
sur@@ 14
surge 14
surprise 14
sàn 14
số_ít 14
sửa 14
targeted 14
targeting 14
thank 14
theaters 14
thu_hồi 14
thuật_toán 14
thuỷ_thủ 14
thẩm_phán 14
thời_@@ 14
tics 14
tinh_@@ 14
tiêu_diệt 14
tiến_sĩ 14
traders 14
transgender 14
truly 14
trung_học_phổ_thông 14
trượt 14
trợ_cấp 14
tures 14
tuỳ 14
tuỳ_thuộc 14
tw@@ 14
tính_năng 14
tự_@@ 14
unless 14
valued 14
vinh_danh 14
violate 14
viện_trợ 14
vật_lộn 14
vật_thể 14
vị_thành_niên 14
wash 14
watching 14
websites 14
wh@@ 14
winner 14
xung_đột 14
xâm_lấn 14
ã@@ 14
ùng 14
Đen 14
Đài 14
Đăk_Nông 14
Đạt 14
đám_cưới 14
đại_lý 14
đại_sứ_quán 14
đạo_luật 14
đặt_hàng 14
địa_chấn 14
đồ_chơi 14
đồng_nghĩa 14
đổi_mới 14
đột_quỵ 14
́ 14
ả 14
ật 14
Ứng_dụng 14
/11 13
0,000 13
0-@@ 13
000 13
1,8 13
10th 13
12,000 13
128 13
135 13
160 13
18th 13
1968 13
1975 13
2.6 13
25th 13
3-@@ 13
3/@@ 13
30.000 13
32@@ 13
6-@@ 13
6.5 13
60,000 13
8.000 13
:@@ 13
AVG 13
AirPods 13
Angeles 13
Ansley 13
Apart 13
Army 13
Aside 13
Ba@@ 13
Bao 13
Bas@@ 13
Belarus 13
Billboard 13
Bà_Rịa-Vũng_Tàu 13
Ca@@ 13
Cao 13
Chanh 13
Church 13
Chợ 13
Cuối 13
Còn 13
Côn_Đảo 13
Dai 13
Danish 13
Dưới 13
Ethiopia 13
Five 13
Giờ 13
Golden 13
Goo_Hye_Sun 13
Gr@@ 13
Grab 13
Gro@@ 13
He@@ 13
Heart 13
Her@@ 13
Hiến 13
Holdings 13
Human 13
Hungary 13
Hyundai 13
Hành_khách 13
Hơn_nữa 13
Hưng 13
Hạ_Long 13
Hải_quan 13
Hội_nghị 13
Iceland 13
Inc 13
Indonesian 13
Invalids 13
Istanbul 13
James 13
Khang 13
Khoa_@@ 13
Kiên_Giang 13
Lanka 13
Lea@@ 13
Liên_hoan_phim 13
Long_Biên 13
Ltd. 13
Lê_Thị_Thu_Hằng 13
Lúc 13
Lần 13
Macron 13
Mali 13
Manchester 13
Mariem 13
Massons 13
Mat@@ 13
Munich 13
Mặc 13
NBC 13
Na@@ 13
Nature 13
New_York_Times 13
Nhà_máy 13
Nhà_thờ 13
Ni@@ 13
Nien 13
Nov@@ 13
Năng_lượng 13
Pat@@ 13
Phan_@@ 13
Phi 13
Phát_@@ 13
Poland 13
Quảng_Ngãi 13
Rio 13
Robert 13
Roosevelt 13
Roy 13
SU290 13
Sao 13
Sch@@ 13
Semmelweis 13
Symptoms 13
Tech@@ 13
Television 13
Thu_@@ 13
Thung_lũng 13
Thời_gian 13
Thực_@@ 13
Tim 13
Time 13
Tower 13
Trí_tuệ_nhân_tạo 13
Tuyên_bố 13
Tw@@ 13
Tết_Nguyên_Đán 13
USNS 13
VND10 13
VNĐ@@ 13
Val@@ 13
Vienna 13
Vientiane 13
Vin@@ 13
Vĩnh_@@ 13
Warner 13
World_@@ 13
Young 13
_J@@ 13
accommodation 13
accounted 13
accurate 13
ach 13
achieve 13
adopted 13
ake 13
almajiri 13
alternative 13
analy@@ 13
anc@@ 13
anxiety 13
appearance 13
appears 13
appointed 13
ara 13
assessment 13
ation_@@ 13
attractive 13
autonomous 13
axit 13
badly 13
banana 13
barriers 13
bat@@ 13
bill 13
biến_chứng 13
bon@@ 13
bones 13
browser 13
bul@@ 13
burns 13
bài_tập 13
bí_ẩn 13
bất_lợi 13
bắn 13
bệnh_lý 13
bộ_@@ 13
cake 13
cas@@ 13
cast 13
categories 13
ce 13
celebrated 13
checked 13
checking 13
chuối 13
chính_trị_gia 13
chúc_mừng 13
chấm 13
chất_lỏng 13
chủ_nhật 13
cinemas 13
cl@@ 13
cockroaches 13
comply 13
concept 13
contains 13
contributed 13
contribution 13
cool 13
correct 13
crash 13
creation 13
critically 13
cryptocurrencies 13
công_lập 13
cạn 13
cầm 13
củ 13
củng_cố 13
dates 13
debt 13
deceased 13
defendants 13
destroyed 13
developers 13
di_cư 13
diarrhea 13
direction 13
disaster 13
dollar 13
doors 13
duyệt 13
dân_sự 13
dân_tộc_thiểu_số 13
dạ_dày 13
dần_dần 13
dầu_thô 13
dọn_dẹp 13
earnings 13
edition 13
efficiency 13
employers 13
enjoyed 13
entirely 13
ered 13
ering 13
essing 13
eu 13
evacuate 13
examination 13
exporters 13
express 13
familiar 13
fastest 13
fatigue 13
ff 13
foot 13
gener@@ 13
genetically 13
ghi_nhớ 13
gia_nhập 13
ging 13
graduates 13
greatest 13
harm 13
hiệu_suất 13
holidays 13
hoping 13
hormones 13
hoàn_thiện 13
hoá_thạch 13
hoạt 13
hôn 13
iPad 13
implementation 13
internal 13
intervention 13
investigations 13
ited 13
ities 13
journal 13
khôi_phục 13
khúc 13
ki@@ 13
kịch_bản 13
kỹ 13
leg 13
letters 13
locality 13
lychees 13
lũ_lụt 13
lưu_hành 13
lương_thực 13
lưỡi 13
marathon 13
maximum 13
maybe 13
measuring 13
medication 13
mountains 13
muscles 13
máy_tính_xách_tay 13
mạo_hiểm 13
n_t@@ 13
ngh@@ 13
ngăn_cản 13
người_yêu 13
ngập_mặn 13
ngừa 13
nhiễm_khuẩn 13
nhiệm_kỳ 13
nhà_sáng_lập 13
nhà_thầu 13
nhân_quyền 13
nhóc 13
nhận_xét 13
nhịp 13
nor 13
năng_suất 13
object 13
ories 13
painting 13
pas@@ 13
paying 13
permanent 13
permitted 13
phi_@@ 13
phàn_nàn 13
phê_bình 13
phục 13
poisoning 13
possibility 13
predicted 13
procedure 13
properties 13
provider 13
psychologists 13
pushed 13
quyết 13
rainy 13
ranging 13
rea@@ 13
reopened 13
researcher 13
returnees 13
revolution 13
rolls 13
rộng_lớn 13
scandal 13
seafood 13
seismic 13
sel@@ 13
selected 13
sentence 13
seo 13
severity 13
sight 13
sions 13
sis 13
solve 13
song_phương 13
steel 13
stronger 13
stuck 13
submitted 13
subsidiary 13
substances 13
sugar 13
summit 13
supposed 13
surprised 13
surprising 13
technique 13
tells 13
tered 13
tham_nhũng 13
theory 13
thiên_@@ 13
thiên_tai 13
thiết 13
thu_giữ 13
thuyết 13
thuật_ngữ 13
thuế_quan 13
thuỷ_sản 13
thân_nhiệt 13
thượng_đỉnh 13
thần_kinh 13
thận_trọng 13
tic@@ 13
tiny 13
triggered 13
triển_lãm 13
tro@@ 13
trái_phiếu 13
trăng 13
trống 13
trở_ngại 13
tình_báo 13
tích_hợp 13
tương 13
tội_ác 13
tức 13
từ_bỏ 13
un 13
una 13
unhealthy 13
venue 13
venues 13
vi_rút 13
welcome 13
welcomed 13
workplace 13
worsening 13
xoá 13
xâm_hại 13
xử 13
xử_phạt 13
y_khoa 13
Á 13
ài 13
àn 13
àng 13
âm_mưu 13
Đào_tạo 13
Đôi_khi 13
Đường 13
Đặc_biệt 13
Đồng 13
điều_tra_viên 13
đuôi 13
đèn 13
đại_@@ 13
đất_liền 13
đấu_giá 13
đồi 13
độc_tố 13
ư@@ 13
́t 13
̣c 13
ệ 13
ốc 13
ồng 13
ức 13
’@@ 13
/3 12
0.5 12
1.1 12
10-@@ 12
12% 12
12.000 12
13.@@ 12
143 12
179 12
18.@@ 12
199 12
2.2 12
20.@@ 12
2050 12
23% 12
240 12
251 12
280 12
4-@@ 12
650 12
80.000 12
81 12
Aeroflot 12
Air_@@ 12
Ambassador 12
Amid 12
Au@@ 12
Ban@@ 12
Beardson 12
Beer 12
Biden 12
Board 12
Brazilian 12
Buetikofer 12
Bình_Thạnh 12
Bến_Tre 12
Bức 12
CBS 12
CE 12
CE@@ 12
CO2 12
COC 12
Cal@@ 12
Cambodian 12
Cases 12
Chúng 12
Co 12
Communications 12
Congress 12
Corps 12
Creil 12
Czech 12
Cây_@@ 12
Cần_Thơ 12
Cụ_thể 12
Diễn_đàn 12
Doha 12
Dịch_tễ_học 12
E5 12
Eastern 12
Ed@@ 12
Embraer 12
Fe@@ 12
Fer@@ 12
Filipino 12
Financial 12
Francis 12
Fu@@ 12
G4 12
Gao 12
Gar@@ 12
Gate 12
Gates 12
Gen@@ 12
Geneva 12
Ger@@ 12
Gh@@ 12
Ghana 12
Gia_Lai 12
Giêng 12
Global_@@ 12
Guard 12
Hamlet 12
Hang-seo 12
Hen@@ 12
Hien 12
Hol@@ 12
Hou@@ 12
Hundreds 12
Hygiene 12
Hà_Lôi 12
IT 12
Jetstar 12
Joe 12
Johns 12
KCNA 12
Kazakhstan 12
Kim@@ 12
Kristeller 12
Lady 12
Lagos 12
Long_An 12
Ly@@ 12
Maduro 12
Maldives 12
Manh 12
Maritime 12
Mike 12
Min@@ 12
Monaco 12
Mur@@ 12
Mê_Linh 12
NCE 12
Nat@@ 12
Ngai 12
Nguyễn_Trường_Sơn 12
Ngô_@@ 12
Norton 12
OSHA 12
Oracle 12
Oslo 12
Pal@@ 12
Pan@@ 12
Panasonic 12
Paul 12
PepsiCo 12
Phoenix 12
Play@@ 12
Quyết_định 12
Quá_trình 12
Quảng_Bình 12
Quỹ 12
Quỹ_@@ 12
RON95 12
Railway 12
Recently 12
Rome 12
Sab@@ 12
Salustiano 12
Scarborough 12
Seattle 12
Sec@@ 12
Silver 12
Storm 12
Studies 12
Syrian 12
TP@@ 12
Techcombank 12
Tegnell 12
Thorotrast 12
Thế_vận_hội_Mùa_hè 12
Thị 12
Thời 12
Thực_tế 12
Trading 12
Traffic 12
Trinidad 12
Truc 12
Trung_Hoa 12
Trái_Đất 12
Trần_Thị_@@ 12
Tu@@ 12
Tỷ_lệ 12
USA 12
USS 12
Uganda 12
Up 12
VN0054 12
VTV 12
Vilnius 12
Việt_nam 12
Vài 12
Văn 12
Walsh 12
Web 12
Wi@@ 12
Windows 12
Within 12
Without 12
Wor@@ 12
YSEALI 12
Zi@@ 12
Zika 12
Zone 12
_Ch@@ 12
accepted 12
accuracy 12
acting 12
ah 12
algorithm 12
alized 12
anniversary 12
ano 12
assigned 12
asymptomatic 12
audiences 12
backed 12
ban_đêm 12
banh 12
bans 12
bet 12
bites 12
biên_@@ 12
bleeding 12
blocked 12
blue 12
branch 12
bro@@ 12
brothers 12
burned 12
bàn_tay 12
báo_động 12
bê_bối 12
bình_phục 12
bù_đắp 12
bản_quyền 12
bất_kể 12
bắt_tay 12
bến_xe 12
cacbon 12
cancellation 12
capable 12
cardiovascular 12
celebrities 12
cen@@ 12
ces 12
channel 12
chào_đời 12
chảy_máu 12
chứng_tỏ 12
chừng 12
climbed 12
cloth 12
cloud 12
collecting 12
combination 12
compensation 12
completion 12
compound 12
concentrated 12
confident 12
considers 12
contest 12
contributions 12
controlled 12
conversation 12
costly 12
coughing 12
crashed 12
cups 12
cá@@ 12
cá_cược 12
cách_mạng 12
công_thức 12
cơ_@@ 12
cưng 12
cổ_@@ 12
cứu_hoả 12
dairy 12
danger 12
declarations 12
defined 12
del 12
developer 12
dispute 12
donors 12
doubled 12
dozen 12
drama 12
dri@@ 12
dệt_may 12
dự_phòng 12
ear 12
earthquakes 12
easing 12
ecosystem 12
ee 12
ell 12
elling 12
ely 12
ement 12
emergencies 12
emerging 12
emic 12
emotional 12
empty 12
entrance 12
escaped 12
exact 12
expressway 12
ey@@ 12
failing 12
farms 12
ferry 12
fertilizer 12
fit 12
flown 12
ford 12
fossil 12
framework 12
fraud 12
freshwater 12
fried 12
fying 12
ged 12
ghi_bàn 12
gift 12
giải_cứu 12
gram 12
gánh 12
gói_thầu 12
harder 12
headquarters 12
historic 12
hiện_thời 12
hospitalized 12
hoá_đơn 12
hunting 12
hurt 12
hàm_lượng 12
hậu 12
học_@@ 12
học_đường 12
hợp_chất 12
iOS 12
iPhone 12
improving 12
ined 12
infant 12
inspection 12
intrusion 12
investigating 12
ish 12
ites 12
joining 12
khuôn_viên 12
kháng_nguyên 12
kilogram 12
kindergarten 12
kiến_thức 12
kế 12
kế_toán 12
lawmakers 12
lay 12
legally 12
leisure 12
length 12
letting 12
licensed 12
lift 12
limiting 12
limits 12
load 12
locate 12
luận 12
lành 12
lãi 12
lời_nói 12
lợi_dụng 12
maintained 12
mark 12
master 12
medicinal 12
met@@ 12
minimize 12
miss 12
mix 12
mosquito 12
mp@@ 12
multi-@@ 12
my@@ 12
mô_phỏng 12
mươi 12
mạch_máu 12
mỏng 12
mốc 12
nghi_lễ 12
nghĩa_là 12
nghĩa_vụ 12
nhu_yếu_phẩm 12
nhân_@@ 12
nhận_biết 12
những_ai 12
nở 12
oms 12
oned 12
option 12
our@@ 12
pa 12
panic 12
path 12
pending 12
pesticides 12
pets 12
physically 12
phát_ban 12
phân_bổ 12
phương_án 12
phổ_thông 12
phụ_@@ 12
picked 12
pin 12
pink 12
player 12
pocong 12
pol@@ 12
posed 12
poses 12
posing 12
powered 12
powers 12
pped 12
preliminary 12
preparation 12
prevented 12
proficiency 12
proteins 12
protocol 12
psychology 12
push 12
quen_thuộc 12
quần_thể 12
re-@@ 12
recession 12
recommend 12
register 12
registration 12
rep@@ 12
repatriated 12
resistant 12
resorts 12
restricted 12
royal 12
ruồi 12
rắc_rối 12
san 12
satellite 12
sauce 12
scenarios 12
secondary 12
seeks 12
septic 12
shelter 12
shipped 12
sho@@ 12
shortly 12
sixth 12
sor@@ 12
sounds 12
spokeswoman 12
sporting 12
sta 12
starts 12
statistics 12
stone 12
stories 12
strategies 12
sts 12
submit 12
suicide 12
supervision 12
surveyed 12
suspending 12
sustainable 12
sáp_nhập 12
sơ_bộ 12
sự_thật 12
tackle 12
tall 12
tasked 12
tay_@@ 12
thi_thể 12
thủ 12
thuần 12
thuỷ_tinh 12
thác 12
thù_địch 12
thất_vọng 12
thị_xã 12
thổi 12
thủ 12
thừa 12
ti 12
tiêu_đề 12
tiến_triển 12
to_lớn 12
topped 12
touch 12
touched 12
tradition 12
trending 12
trends 12
tric@@ 12
turning 12
turns 12
ty@@ 12
tâm_trí 12
tình_nguyện_viên 12
tắc 12
tỉ 12
tối_ngày 12
tốn 12
tốn_kém 12
tử 12
underground 12
uni@@ 12
update 12
va_chạm 12
vaping 12
ven@@ 12
victory 12
ván 12
vô 12
vạch 12
vắc-xin. 12
vọng 12
vừa_phải 12
wa@@ 12
warehouse 12
warn 12
weighing 12
wore 12
wrapped 12
write 12
xoáy 12
xuất_sắc 12
yuan 12
ào 12
áp_thấp_nhiệt_đới 12
êu 12
ình 12
í@@ 12
óc 12
ói 12
óng 12
ô_@@ 12
ông_bà 12
ùng_@@ 12
ý_định 12
Đường_sắt 12
đa_số 12
đánh_cắp 12
đáy 12
đĩa 12
đường_bộ 12
đầu_bếp 12
đẩy_mạnh 12
đẻ 12
đệ_trình 12
đối 12
đống 12
ư 12
ưa 12
ượng 12
̉ 12
ạ 12
ạc 12
ọc 12
ỏ 12
ồng_@@ 12
ớt 12
000-@@ 11
09 11
116 11
13,@@ 11
134 11
14,@@ 11
144 11
162 11
163 11
165 11
1960 11
1985 11
1990s 11
20th 11
21,@@ 11
228 11
25,000 11
3.3 11
33,@@ 11
4,300 11
420 11
5.5 11
500.000 11
70.000 11
75% 11
82 11
A. 11
AT 11
ATM 11
Alliance 11
Amir@@ 11
An_ninh 11
Andre@@ 11
Andrew 11
Arab 11
Audi 11
Award 11
Bakery 11
Baku 11
Be 11
Bristol 11
Brown 11
Bình_Chánh 11
Bảo_vệ 11
CD4 11
CT 11
Capital 11
Cat 11
Chu@@ 11
Coast 11
Construction 11
Corona 11
Cuban 11
Cur@@ 11
Cà_Mau 11
Cơ_sở 11
D. 11
Daniel 11
Declaration 11
Disney 11
Dự_kiến 11
EEZ 11
Echo 11
Elizabeth 11
Essex 11
Face 11
Ga@@ 11
Giống 11
Globally 11
Gre@@ 11
Han@@ 11
Having 11
Highlands_Coffee 11
Huỳnh_@@ 11
Hàng_@@ 11
Hành_động 11
IA@@ 11
ICO 11
Infectious 11
Intelligence 11
Ir@@ 11
Israeli 11
JPY 11
Jackson 11
Java 11
Johns_Hopkins 11
Juli@@ 11
Khánh_@@ 11
Không_quân 11
Ku@@ 11
Kur@@ 11
Kyoto 11
Lac 11
Lat 11
Latin 11
Liêm 11
Los_Angeles 11
Lyrebird 11
Lương 11
MH370 11
Map 11
Martin 11
Meteorological 11
Minneapolis 11
Mis@@ 11
Miền 11
Mong 11
Motor 11
Muslim 11
Món 11
Nam_Mỹ 11
Nguyên_@@ 11
Nguyễn_Đức_Chung 11
Người_phát_ngôn 11
Nice 11
Niña 11
Noel 11
Nu@@ 11
Oc@@ 11
Old 11
Palestine 11
Paradise 11
Pepsi 11
Peru 11
Phước_@@ 11
Phượng 11
Phố 11
Pittsburgh 11
Po 11
Pol@@ 11
Policy 11
Pr@@ 11
Pu@@ 11
Pó 11
Q 11
Quân_đội 11
Quý 11
Red@@ 11
Res@@ 11
Response 11
SUV 11
Safety 11
Sam@@ 11
Sciences 11
Sen 11
Shincheonji 11
Sun@@ 11
Sáng 11
TA 11
THPT 11
Tab@@ 11
Taylor 11
Ter@@ 11
Thanh_Niên 11
Thông_báo 11
Thương_binh 11
Thế_@@ 11
Thủ_Tướng 11
Thủ_Đức 11
Tiến 11
Tiếng 11
Tom 11
Trends 11
Tru@@ 11
Tuần 11
Tình_@@ 11
Tổng_cộng 11
Tổng_giám_đốc 11
UNICEF 11
Until 11
VND2 11
Vancouver 11
Veneto 11
Vi 11
Viên 11
Vũng_Tàu 11
WRI 11
Wh@@ 11
Wilcox 11
Wilden 11
Yu@@ 11
abandoned 11
abused 11
acquisition 11
acted 11
acy 11
addiction 11
addressed 11
adequate 11
adi@@ 11
ai_@@ 11
allegedly 11
allies 11
alligator 11
anger 11
antiviral 11
anywhere 11
ao@@ 11
appeal 11
archipelagos 11
as_@@ 11
ase 11
ash 11
aspect 11
assert 11
assess 11
attacked 11
attacking 11
avoiding 11
awaiting 11
ay_@@ 11
bao_@@ 11
barrels 11
bats 11
bà 11
begins 11
belief 11
bers 11
biểu 11
blamed 11
blog 11
bomb 11
bottles 11
bpd 11
bribery 11
burial 11
burn 11
but@@ 11
bán_@@ 11
bán_phá_giá 11
bình_đẳng 11
bảo_@@ 11
bổ_nhiệm 11
ca_khúc 11
cancel 11
cannabis 11
careful 11
carefully 11
carries 11
ced 11
celebrations 11
cement 11
charter 11
chatbot 11
chú 11
chuẩn 11
chăm_chỉ 11
chủ_@@ 11
chứng_chỉ 11
coins 11
comfort 11
competitors 11
complications 11
concentration 11
condoms 11
consumed 11
context 11
controlling 11
cooked 11
cooperating 11
count 11
cured 11
cycle 11
cơ_bắp 11
cơm 11
cất_cánh 11
cấy_ghép 11
dare 11
debate 11
del@@ 11
demanding 11
distribution 11
dreaming 11
drove 11
dày 11
dập 11
earning 11
ears 11
electrical 11
eligible 11
elsewhere 11
emotions 11
employed 11
encouraging 11
ency 11
engineers 11
ented 11
entitled 11
ere 11
ession 11
establishments 11
evacuation 11
exactly 11
experiment 11
explains 11
explo@@ 11
exploitation 11
exporter 11
favor 11
fill 11
finger 11
fled 11
flu@@ 11
foundation 11
gam@@ 11
gases 11
giỏi 11
giờ_đây 11
gr@@ 11
guides 11
gối 11
hack 11
hailing 11
halted 11
happening 11
her@@ 11
hired 11
hiển_thị 11
honored 11
housing 11
hoàn_cảnh 11
hoàn_tất 11
huy_chương 11
huyết 11
hydrogen 11
hypertension 11
hàng_rào 11
hành_hương 11
hình_@@ 11
hương 11
hội_@@ 11
ick@@ 11
ina_@@ 11
infect 11
ingredients 11
ino 11
introduction 11
ire 11
justice 11
khiếm_thính 11
khắc 11
kings 11
kinh_phí 11
kph 11
kịp 11
lat@@ 11
lease 11
leo_thang 11
links 11
liquid 11
listening 11
logical 11
long@@ 11
lou@@ 11
loạn 11
luxury 11
lưng 11
lưu 11
lưu_@@ 11
lươn 11
managers 11
managing 11
manufactured 11
marking 11
med@@ 11
memories 11
mention 11
metric 11
ming 11
misinformation 11
mood 11
mor@@ 11
movements 11
mua_bán 11
murder 11
mysterious 11
máy_chủ 11
môi_giới 11
một_khi 11
mừng 11
naturally 11
neck 11
nghiêm_túc 11
nghệ 11
ngoại 11
ngáp 11
ngẫu_nhiên 11
ngắn_hạn 11
ngọt 11
ngữ 11
nha 11
nhà_tài_trợ 11
nhà_tù 11
nhà_văn 11
nhạc_sĩ 11
ninth 11
observed 11
obstacles 11
oc@@ 11
offerings 11
onset 11
operational 11
operators 11
organizers 11
organizing 11
ot 11
owns 11
ozon 11
ozone 11
papers 11
ped 11
perfect 11
pesticide 11
phân_tử 11
placing 11
ple 11
pointed 11
pot 11
primarily 11
processed 11
produces 11
projected 11
prominent 11
promoting 11
pul@@ 11
quy 11
quét 11
quốc_hội 11
ran@@ 11
rank 11
rarely 11
realized 11
reas@@ 11
recoveries 11
recovering 11
recruitment 11
reduces 11
refers 11
regardless 11
regularly 11
reliable 11
reopening 11
represents 11
requests 11
reserve 11
residence 11
ret@@ 11
ric@@ 11
rushed 11
rèn_luyện 11
sai_lầm 11
sal@@ 11
salaries 11
saltwater 11
saving 11
screened 11
searches 11
secretary 11
seniors 11
serves 11
sexually 11
sh 11
shareholder 11
sinh_hoạt 11
sinh_nở 11
sive 11
sized 11
snakes 11
sons 11
sort 11
spaces 11
spider 11
startups 11
sterile 11
stored 11
struggle 11
style 11
sweet 11
sót 11
sơ_thẩm 11
sở_thích 11
tap@@ 11
temple 11
tes@@ 11
thick 11
thousand 11
threatening 11
thua 11
thái 11
tháp 11
thích_nghi 11
thăm_dò 11
thường_trực 11
thế_này 11
thống 11
thống_trị 11
thời_đại 11
thử_thách 11
tied 11
tiếp_diễn 11
tiểu 11
touching 11
toxin 11
toxins 11
toàn_@@ 11
transiting 11
triển 11
tru@@ 11
trích 11
trò 11
tròn 11
trị 11
tuyệt_chủng 11
twins 11
tàn_@@ 11
tơ 11
tường 11
tầng_lớp 11
tận_hưởng 11
tập_hợp 11
ue 11
ult 11
unexpected 11
unveiled 11
uy_tín 11
ventilation 11
venture 11
vers 11
villagers 11
ville 11
vision 11
vùng 11
vá 11
vũ_lực 11
vật_chất 11
vệ 11
vừa_rồi 11
vực 11
wan 11
warnings 11
worries 11
wrong 11
xả 11
youngest 11
youth 11
~ 11
ê 11
êm_@@ 11
êng 11
ò@@ 11
òng 11
ô-@@ 11
út 11
ý_thức 11
ă@@ 11
Điểm 11
Đặng_@@ 11
đi_@@ 11
điều_trần 11
đủ 11
đạo_đức 11
địa_bàn 11
địa_chất 11
đồng_minh 11
động_lực 11
ưa_thích 11
ươ@@ 11
ập_@@ 11
ắ@@ 11
ền 11
ệt_@@ 11
ối 11
ổn 11
ừ 11
ực_@@ 11
’ll 11
€ 11
+@@ 10
/2 10
04 10
06 10
1,3 10
1,4 10
1.500 10
1.7 10
101 10
109 10
111 10
120,000 10
123 10
129 10
13% 10
145 10
149 10
15% 10
16,000 10
172 10
18,@@ 10
194 10
1957 10
1970 10
1972 10
1979 10
1986 10
2.1 10
20-@@ 10
20.000 10
2024 10
22,@@ 10
245 10
260 10
45@@ 10
470 10
550 10
60.000 10
737 10
850 10
9.5 10
90@@ 10
= 10
AP@@ 10
AR 10
ASF 10
Al 10
Am@@ 10
Ap@@ 10
App 10
Auto 10
BC 10
BCG 10
Baby 10
Bahrain 10
Bifaretti 10
Bluezone 10
Bordeaux 10
Bro@@ 10
Brussels 10
Bureau 10
Busan 10
Bây_giờ 10
Bãi 10
Bồ_Đào_Nha 10
CA@@ 10
CH@@ 10
COPD 10
CRISPR 10
Champ@@ 10
Chen 10
Chicago 10
Chăm_sóc 10
Chủ 10
Code 10
Common 10
Corp 10
Danh_sách 10
Dawn 10
Del@@ 10
Disaster 10
Domin@@ 10
Du_khách 10
Duke 10
Dutch 10
Dân_dụng 10
Dương_@@ 10
Dựa 10
EK@@ 10
Edge 10
Electronics 10
Elon_Musk 10
Entertainment 10
Everyone 10
FBI 10
Fin@@ 10
Firefox 10
First_News 10
Foo@@ 10
Forces 10
Fore@@ 10
Forest 10
Formula 10
Forum 10
Fr@@ 10
Further 10
Galaxy 10
Game 10
Germanwatch 10
Giai_đoạn 10
Giáo_viên 10
Gol@@ 10
Graham 10
Grand@@ 10
HC@@ 10
Haiphong 10
Haiyang 10
Hanson 10
Hill 10
Hoai 10
Hoà_Bình 10
Hoà_bình 10
Hy@@ 10
Hye_Kyo 10
IP@@ 10
Jer@@ 10
Jiang 10
Joseph 10
Josh 10
Kazan 10
Keys 10
Kha@@ 10
Kids 10
Kinh_@@ 10
Kiribati 10
Kiên 10
Krai 10
Land@@ 10
Laurel 10
Len@@ 10
Loewenberg 10
Long_@@ 10
Lotte 10
Love 10
Làng 10
Lương_@@ 10
Lệ 10
MSN 10
MW 10
Madai 10
Mail 10
MarchOn 10
Maria 10
Max 10
Miller 10
Moon 10
Mô_hình 10
Mối 10
NGO 10
NSW 10
Netanyahu 10
New_@@ 10
Ngoại_@@ 10
Nhà_chức_trách 10
Nhân_@@ 10
Nic@@ 10
Nor@@ 10
Nông_thôn 10
Nước_@@ 10
Nẵng 10
Nội_@@ 10
Nội_vụ 10
OS 10
Oklahoma 10
Ortagus 10
PHE 10
Panther 10
Passengers 10
Phi-líp-pin 10
Phi_công 10
Phiến 10
Phú_Thọ 10
Planning 10
Politburo 10
Port 10
Pres@@ 10
Quality 10
Quả 10
Quỳnh 10
RT-PCR 10
Ra@@ 10
Rathore 10
Risk 10
SEA 10
SSI 10
Samoa 10
Sansha 10
Search 10
Sinh_viên 10
Socrates 10
Somalia 10
Sometimes 10
Srpska 10
Stadium 10
Steve 10
Sto@@ 10
Store 10
Students 10
Sub@@ 10
Sudan 10
Sup@@ 10
Super@@ 10
Sử_dụng 10
TB 10
Tai 10
Taoiseach 10
Tbilisi 10
Tham_@@ 10
Thi@@ 10
Thác_@@ 10
Thông_qua 10
Thông_tấn_xã 10
Thống_đốc 10
Tim@@ 10
Tiền 10
Trịnh_@@ 10
Trọng_@@ 10
Tuy@@ 10
Tân_Phú 10
UEFA 10
US@@ 10
Uni@@ 10
Unlike 10
Uzbekistan 10
VEC 10
VFF 10
VN0062 10
VNG 10
Vac 10
Vatican 10
Viet@@ 10
VinAI 10
VinSmart 10
Vinmec 10
Vinschool 10
Vân 10
Vòng 10
Vương 10
Weibo 10
Wisconsin 10
X-ray 10
Xanh 10
Xu 10
You@@ 10
Yên_@@ 10
_Đ@@ 10
absence 10
accidents 10
accompanied 10
ack@@ 10
activated 10
actively 10
adopt 10
ae 10
aff@@ 10
affairs 10
afford 10
aire 10
aired 10
aki 10
ama 10
amazing 10
ami 10
ane 10
anh_trai 10
announce 10
argued 10
attractions 10
auction 10
bal@@ 10
ban_bố 10
beach 10
begun 10
behavioral 10
betting 10
bills 10
biên_phòng 10
blame 10
bre@@ 10
break@@ 10
breaks 10
broth 10
buôn_lậu 10
by@@ 10
bát 10
bùng 10
bơm 10
bước_tiến 10
bước_đi 10
bận_rộn 10
bật 10
bộ_đồ 10
cal@@ 10
captain 10
capture 10
captured 10
cargo 10
cashew 10
chest 10
chihuahua 10
chiên 10
chiếu 10
cholesterol 10
chung_cư 10
chuyển_nhượng 10
cirrhosis 10
clip 10
closer 10
clouds 10
cocoa 10
colon@@ 10
commitment 10
communicate 10
components 10
condemned 10
confirming 10
contagious 10
contrast 10
contributing 10
convenience 10
corn 10
cow 10
cre@@ 10
creates 10
credit 10
crises 10
cryptocurrency 10
cua 10
curb 10
cytokine 10
cài_đặt 10
cá_nhân_hoá 10
cám_ơn 10
cáo_trạng 10
cúng 10
cường_độ 10
cải_tiến 10
cảm_hứng 10
cầu_@@ 10
cờ 10
cứu_hộ 10
cửa_sổ 10
damaging 10
database 10
debut 10
def@@ 10
deforestation 10
demands 10
departure 10
depend 10
detailed 10
dings 10
discover 10
discrimination 10
discussions 10
disinfection 10
dismissed 10
doc@@ 10
dock 10
donate 10
draws 10
drivers 10
dân_làng 10
dại 10
dấu_vết 10
eKYC 10
earth 10
eased 10
eighth 10
elected 10
elephant 10
ements 10
endangered 10
eng@@ 10
engage 10
ening 10
epidemiological 10
equipped 10
ever@@ 10
examine 10
explosion 10
fa@@ 10
fair 10
fan 10
fatal 10
feels 10
fil@@ 10
finish 10
fo@@ 10
follows 10
footage 10
formic 10
garden 10
gear 10
gging 10
gian 10
giày 10
gián_điệp 10
giáo_@@ 10
giải_khát 10
governmental 10
governor 10
graders 10
grass 10
gãy 10
góp 10
gập 10
gặp_gỡ 10
gọn 10
ham 10
handled 10
hazard 10
hazards 10
height 10
hiệp_hội 10
hoa_quả 10
hor@@ 10
hoạ 10
hoả_hoạn 10
hoảng_loạn 10
hum@@ 10
humidity 10
hundred 10
hút 10
hướng_dẫn_viên 10
hẹn_hò 10
hẻm 10
hệ_miễn_dịch 10
hợp_nhất 10
ick 10
identity 10
igh@@ 10
ik@@ 10
ili@@ 10
ils 10
improvement 10
indoor 10
indoors 10
inflammation 10
ink@@ 10
intensity 10
io@@ 10
iti@@ 10
ium 10
iều 10
jo@@ 10
keen 10
khai_trương 10
khen_ngợi 10
khuẩn 10
khăn 10
khắp_nơi 10
khử 10
kinh_hoàng 10
ký_kết 10
kỹ_thuật_viên 10
laboratories 10
lai 10
landfall 10
lanterns 10
latter 10
learned 10
lia 10
lies 10
lifestyle 10
literally 10
liên_doanh 10
loan 10
logist 10
làn 10
lê 10
lúc_nào 10
lưu_lượng 10
lỡ 10
malls 10
meaningful 10
mi 10
mi@@ 10
mitigate 10
miêu_tả 10
multi@@ 10
mur@@ 10
mái 10
máy_móc 10
môn_học 10
mọc 10
một_mình 10
n_th@@ 10
na_@@ 10
naval 10
neighbor 10
neighbouring 10
nes 10
netizens 10
ng_l@@ 10
nghi_vấn 10
nghiên 10
nghị_định 10
ngoại_@@ 10
ngu@@ 10
nguy 10
nguyên_@@ 10
ngày_một 10
người_mẫu 10
ngược 10
ngầm 10
ngộ_sát 10
ngờ 10
ngựa 10
nhiệt_điện 10
nhà_cửa 10
nhân_loại 10
noting 10
nurse 10
nuốt 10
nòng_nọc 10
năm_học 10
nắm_bắt 10
nội_@@ 10
o-@@ 10
occasion 10
oma 10
onal 10
onia 10
ood 10
oral 10
ordering 10
ordinary 10
organize 10
ound 10
overcome 10
ox@@ 10
partly 10
passports 10
pathogen 10
peaceful 10
penalties 10
pes 10
plus 10
polymerase 10
polypill 10
poorly 10
portfolio 10
post-@@ 10
pounds 10
pr@@ 10
precautionary 10
preclinical 10
preparations 10
pres@@ 10
probe 10
productivity 10
prom 10
promptly 10
publishing 10
purchased 10
quang 10
quy_hoạch 10
quyền_lợi 10
quyển 10
ra_@@ 10
rail 10
ras@@ 10
ratio 10
rejects 10
relief 10
removing 10
rence 10
renewable 10
renowned 10
repeated 10
replacement 10
rer 10
resumed 10
retirement 10
reveal 10
revised 10
richest 10
rivals 10
roots 10
ruling 10
rung 10
sa_@@ 10
safer 10
saved 10
sec@@ 10
secure 10
sen@@ 10
sepsis 10
sey 10
shipping 10
shocked 10
shu@@ 10
sisters 10
sk 10
sky@@ 10
sleeping 10
slowed 10
smell 10
sn@@ 10
sorry 10
speaker 10
stadium 10
ster@@ 10
stopping 10
straight 10
stranded 10
stream 10
strengthened 10
suits 10
sát_@@ 10
sắc_đẹp 10
sẻ 10
sức_ép 10
t-@@ 10
taught 10
te_@@ 10
teach 10
terrorist 10
thang 10
ther@@ 10
thermal 10
thi@@ 10
thi_hành 10
tho@@ 10
thro@@ 10
thu@@ 10
thuỷ 10
thái_độ 10
thông_tấn 10
thúc_giục 10
thần 10
thề 10
thị 10
tically 10
tinh 10
tional 10
titled 10
tiện_lợi 10
tle 10
toán 10
tragedy 10
transit 10
transporting 10
tries 10
trung_thu 10
tràn 10
trần 10
trợ 10
trợ_giúp 10
trực 10
trực_thuộc 10
tuyệt 10
tục 10
tuổi_thọ 10
twin 10
tác 10
tác_hại 10
tác_nhân 10
tính_cách 10
tước 10
tồn_kho 10
tổ 10
tổng_@@ 10
tội_danh 10
từ_vựng 10
tự_hào 10
tỷ_số 10
ura 10
us_@@ 10
uố@@ 10
vast 10
violation 10
voted 10
voters 10
votes 10
vua 10
vô_gia_cư 10
vô_tình 10
vĩnh_viễn 10
vũ 10
vũ_trang 10
vươn 10
vết_thương 10
vịt 10
wer 10
winning 10
workplaces 10
writing 10
xà_phòng 10
xưa 10
yên_@@ 10
zz@@ 10
àng_@@ 10
áp 10
âu 10
éo 10
ích_@@ 10
úc 10
ăn_mừng 10
ăng_@@ 10
Đà 10
Đông_Nam 10
Đừng 10
đa@@ 10
đa_dạng 10
đa_dạng_hoá 10
đau_đớn 10
điện_ảnh 10
đà 10
đánh_@@ 10
đạn 10
đấu_thầu 10
đắt_đỏ 10
đỉnh 10
địa_@@ 10
định_nghĩa 10
đối_@@ 10
đối_lập 10
đối_thoại 10
độc_tính 10
đột_biến 10
đựng 10
ơn 10
Ước_tính 10
́ng 10
̃ 10
ại 10
ạng 10
ầm 10
ẫy 10
ắp 10
ống_@@ 10
ồ 10
ỗ 10
ủi 10
ực 10
ỹ 10
* 9
.000-@@ 9
05 9
1,1 9
1-@@ 9
108 9
117 9
15.000 9
150,000 9
153 9
15th 9
16.000 9
17,@@ 9
177 9
18% 9
187 9
19,@@ 9
1981 9
1984 9
19th 9
2,1 9
2,2 9
2,500 9
2,7@@ 9
2.8 9
21@@ 9
250,000 9
255 9
3,5 9
3.6 9
30th 9
330 9
410 9
43@@ 9
4G 9
9,5 9
9-@@ 9
90,000 9
90.000 9
AI@@ 9
Aceh 9
Afghan 9
Ah@@ 9
Ahn 9
Ahn_Jae_Hyun 9
Ak@@ 9
Albert 9
Ali@@ 9
Amok 9
Anthony 9
Artificial 9
Associated_Press 9
Azerbaijani 9
Baidu 9
Ban_đầu 9
Barcelona 9
Best 9
Beverage 9
Bill_Gates 9
Bl@@ 9
Book 9
Britney_Spears 9
Brooklyn 9
Bulkeley 9
Bun@@ 9
Bus 9
Bá_@@ 9
Bác 9
Bí_thư 9
Bắc_Mỹ 9
Bộ_Chính_trị 9
Bờ_Biển_Ngà 9
Ca_sĩ 9
Cabinet 9
Carolina 9
Castro 9
Chile 9
Chủ_@@ 9
Cir@@ 9
Communicable 9
Countries 9
Cre@@ 9
Crist 9
Croatia 9
Cẩm_@@ 9
Cốc 9
Cụ 9
Dam@@ 9
David 9
Decree 9
Dr@@ 9
Dân_@@ 9
Each 9
El 9
Elon 9
Emmanuel 9
Environmental 9
F. 9
Falls 9
Frank 9
GMT 9
Gal@@ 9
Gia_@@ 9
Giá@@ 9
Giá_trị 9
Giám_sát 9
Gián 9
God 9
Guatemala 9
Gã 9
Haiyan 9
Hau@@ 9
Heilmayr 9
Hel@@ 9
Heliogen 9
Huanan 9
Hydro@@ 9
Hyun 9
Hành_@@ 9
Hòa 9
Hạnh 9
Hải_@@ 9
Hội_@@ 9
IC 9
Insider 9
Investigation 9
Investigators 9
Irish 9
Is 9
Jackie 9
Jae 9
Jennifer 9
Jon@@ 9
Justice 9
Kal@@ 9
Ken@@ 9
Kent 9
Khan 9
Khách 9
Kim_Jong_Un 9
Kritenbrink 9
Kyrgyzstan 9
L. 9
La_Niña 9
Labour 9
Lancelot 9
Land 9
Las@@ 9
Laskowski 9
Lim 9
Liên_Hiệp_Quốc 9
Lou@@ 9
Lý_@@ 9
Mad@@ 9
Mark 9
Maur@@ 9
Media 9
Medic@@ 9
Merkel 9
Minis@@ 9
Ministers 9
Minsk 9
Mobile 9
Montenegro 9
Motor@@ 9
Mumbai 9
Mus@@ 9
Mạnh 9
Mục_tiêu 9
Mục_đích 9
Mỹ_@@ 9
NA 9
NC@@ 9
National_@@ 9
Nav@@ 9
Nghi 9
Ngu 9
Nguyên_nhân 9
Nguyễn_Thanh_@@ 9
Ngô 9
Ngô_Thanh_Vân 9
Ngôi 9
Nhiệt_độ 9
Nhân 9
Ninh_Thuận 9
Nishino 9
Nơi 9
OK 9
Os@@ 9
Oscar 9
Overseas 9
PC 9
PT 9
Pas@@ 9
Phạm 9
Phạm_Văn_@@ 9
Pictures 9
Plague 9
Pokemon 9
Poli@@ 9
Pop 9
Population 9
Premier 9
Princ@@ 9
Quân_@@ 9
Quần_đảo 9
Quốc_khánh 9
Respiratory 9
Richter 9
Rights 9
Rob@@ 9
Rol@@ 9
Ryan 9
Rồi 9
SEA_Games 9
Saint_@@ 9
Sap@@ 9
Schools 9
Scott 9
Securities 9
She@@ 9
Som@@ 9
Soon 9
Sor@@ 9
Spears 9
Star 9
Stockholm 9
Stu@@ 9
Summit 9
System 9
Sáng_kiến 9
Sơn_Đoòng 9
Sự_kiện 9
TO@@ 9
Tajikistan 9
Take 9
Tam_@@ 9
Tatarstan 9
Tea 9
Temple 9
Thay 9
The_Associated 9
The_Coffee_House 9
Theodore 9
Theodore_Roosevelt 9
Thiên_@@ 9
Tho@@ 9
Thomas 9
Thoả_thuận 9
Through 9
Thành_Long 9
Thái_Nguyên 9
Thông_thường 9
Thú_y 9
Thế 9
Thị_trường 9
Timor 9
Tina 9
Tiên 9
Toan 9
Ton@@ 9
Toàn 9
Toàn_bộ 9
Traditional 9
Tran@@ 9
Trans@@ 9
Trận 9
Trọng 9
Tuyet 9
Tác_@@ 9
Ultra 9
Up@@ 9
Urban 9
Using 9
VN00@@ 9
VND50 9
Vaccines 9
Vietjet_Air 9
Vincent 9
Virginia 9
Vivi 9
Vũ_Đức_Đam 9
Water@@ 9
Why 9
Wildlife 9
Williams 9
Workers 9
Worldwide 9
Xi 9
Y_khoa 9
Za@@ 9
ables 9
aboard 9
accomplices 9
activation 9
ades 9
aerosol 9
affirmed 9
aggressive 9
agree 9
agu@@ 9
ail@@ 9
ality 9
amidst 9
analyze 9
anh_em 9
announcing 9
answered 9
antibody 9
apping 9
archipelago 9
ari 9
arm@@ 9
ashi@@ 9
ately 9
atives 9
attached 9
attendant 9
attendants 9
attracting 9
autumn 9
bacterial 9
balance 9
ball 9
band 9
banking 9
bao_phủ 9
basically 9
bat 9
beating 9
belonging 9
bird 9
biên 9
bled 9
bling 9
boarding 9
booking 9
botulinum 9
boyfriend 9
branches 9
bribes 9
buried 9
bày 9
bám 9
bán_buôn 9
bán_kết 9
bình_@@ 9
bình_chọn 9
bóc_lột 9
bản_địa 9
bất_bình_đẳng 9
bến 9
bệnh_phẩm 9
bỏ_tù 9
bộ_não 9
cai_trị 9
calm 9
calo 9
campaigns 9
cards 9
cautious 9
centre 9
centuries 9
chiếm_giữ 9
chiếm_đóng 9
chocolate 9
choosing 9
chui 9
chuyên_môn 9
chuyển_giao 9
chuyển_động 9
chỉnh_sửa 9
chủ_chốt 9
clearly 9
clo@@ 9
colleague 9
commission 9
commit 9
communications 9
comparison 9
concentrate 9
conducting 9
connections 9
conservation 9
constant 9
continuous 9
cookies 9
cooperate 9
cooperated 9
corporations 9
coupled 9
crashes 9
creative 9
cy@@ 9
cáp 9
cây_@@ 9
cây_cối 9
công_hàm 9
cước 9
cầm_đầu 9
cỡ 9
cử_tri 9
damages 9
danh_mục 9
danh_tiếng 9
debts 9
deemed 9
dementia 9
deny 9
dered 9
designer 9
desired 9
det@@ 9
di_@@ 9
dia 9
directors 9
disadvantage 9
disappeared 9
dispatched 9
disputed 9
dog 9
dormitories 9
drawn 9
dress 9
dressed 9
drew 9
drills 9
drops 9
du 9
duration 9
dying 9
dày_đặc 9
dám 9
dâu 9
dương 9
dược 9
dữ 9
eclipse 9
ected 9
ection 9
ects 9
ei@@ 9
elephants 9
ella 9
engaged 9
engagement 9
engineer 9
enjoying 9
epicenter 9
equal 9
ere@@ 9
ero@@ 9
erosion 9
ese 9
even@@ 9
everywhere 9
expenses 9
experimental 9
explore 9
fabric 9
fe 9
feared 9
fet@@ 9
finds 9
floating 9
focuses 9
focusing 9
formal 9
gasoline 9
gay_gắt 9
gem 9
genes 9
genotype 9
geographical 9
gia_cầm 9
gian_@@ 9
giants 9
giao_@@ 9
giác 9
giọt 9
gn@@ 9
goers 9
golden 9
graduate 9
greenhouse 9
gross 9
grounds 9
guarantee 9
guest 9
gương_mặt 9
ham@@ 9
hazardous 9
headed 9
headlines 9
helpful 9
hi_vọng 9
high@@ 9
hiring 9
hits 9
hitting 9
homeless 9
hotspots 9
hoạ_sĩ 9
humanity 9
hydro@@ 9
hà@@ 9
hình_dạng 9
hải_quân 9
hầm 9
hậu_cần 9
học_hỏi 9
hồn 9
hổ 9
hợp_@@ 9
hứng_thú 9
ians 9
ically 9
illi@@ 9
inated 9
incentives 9
inch 9
incidence 9
incidents 9
indicate 9
indictment 9
inequality 9
infants 9
inform 9
ingly 9
innovation 9
inst@@ 9
instant 9
institute 9
integr@@ 9
intellectual 9
intended 9
interesting 9
investigators 9
ip@@ 9
isolating 9
isting 9
iếu 9
jailed 9
ju@@ 9
judge 9
judges 9
ke@@ 9
khoan 9
kháng_cáo 9
khắc_phục 9
khởi_phát 9
khởi_xướng 9
killer 9
kim_loại 9
kiế@@ 9
kiềm_chế 9
km2 9
knee 9
knowing 9
ku 9
kê 9
kích_cỡ 9
kẻ_thù 9
kỷ 9
lab@@ 9
laid 9
lam@@ 9
land@@ 9
landfill 9
lands 9
languages 9
laptop 9
lash 9
lawsuit 9
lawyer 9
layer 9
len@@ 9
lif@@ 9
linh_@@ 9
listing 9
lists 9
liệt 9
logo 9
ls 9
lunar 9
lyrics 9
làm_giàu 9
lãnh_hải 9
lạc 9
lập_luận 9
lậu 9
makers 9
manner 9
manslaughter 9
mates 9
mechanism 9
medications 9
membrane 9
messaging 9
millennial 9
mine 9
minor 9
mol@@ 9
mong_đợi 9
mosque 9
museum 9
máy_@@ 9
mất_@@ 9
mật 9
mềm 9
mờ 9
navigation 9
newborn 9
nghiêm_khắc 9
nghèo_đói 9
nghĩa_trang 9
ngoại_lệ 9
người_bệnh 9
nhà_bếp 9
nhà_kính 9
nhà_thiết_kế 9
nhà_trường 9
nhà_vệ_sinh 9
nhà_xuất_bản 9
nhân_dân_tệ 9
nhật 9
non 9
non-profit 9
northwest 9
ny 9
năm_tuổi 9
nước_bọt 9
nội_trú 9
obesity 9
observation 9
observers 9
obtained 9
occupying 9
od@@ 9
olds 9
ond@@ 9
ong@@ 9
oning 9
opens 9
opinions 9
oring 9
otherwise 9
ou 9
oven 9
overloaded 9
ownership 9
pag@@ 9
panel 9
parliament 9
partially 9
participate 9
participating 9
particles 9
pathogens 9
perhaps 9
personality 9
petrol 9
phong_tục 9
phosphine 9
phá_sản 9
phát_minh 9
phát_tán 9
phần_cứng 9
phận 9
pledged 9
politics 9
portal 9
portion 9
post@@ 9
precautions 9
prepares 9
probable 9
programme 9
prompting 9
proportion 9
prosecu@@ 9
proud 9
proven 9
providers 9
psychological 9
purchasing 9
quay_phim 9
questioned 9
quyết_liệt 9
quyết_tâm 9
quá_cố 9
quầy 9
racing 9
radiation 9
reactions 9
readers 9
reference 9
refrain 9
regard 9
remarked 9
repair 9
residency 9
resides 9
responded 9
returns 9
rolled 9
roughly 9
routine 9
runners 9
rush 9
ruột 9
rưỡi 9
s-@@ 9
safely 9
san_hô 9
sanitizers 9
satisfy 9
sau_này 9
scenario 9
scenes 9
searching 9
servers 9
settings 9
settle 9
shape 9
shipments 9
shortages 9
shutdown 9
signal 9
sil@@ 9
sinh_thái 9
situated 9
slowly 9
sm@@ 9
soccer 9
soil 9
solidarity 9
sourced 9
spotted 9
stance 9
stick 9
stolen 9
straw 9
substantial 9
succeeded 9
sudden 9
suddenly 9
sum 9
sunlight 9
surance 9
surged 9
sustain 9
swallowing 9
symbol 9
sáng_kiến 9
sát_sao 9
săn_bắt 9
sạt_lở 9
sổ 9
sự_việc 9
tal 9
tant 9
tears 9
technological 9
teenage 9
teenager 9
textile 9
theme 9
theo_đuổi 9
thiêu_đốt 9
thrown 9
thuỷ_ngân 9
thành_@@ 9
thích_ứng 9
thúc 9
thương_gia 9
thương_tích 9
thường_ngày 9
thống_đốc 9
thời_gian_thực 9
thủ_công 9
thủ_thuật 9
tiên 9
tonight 9
topic 9
tops 9
toxicity 9
transmit 9
transparency 9
transparent 9
triệu_tập 9
trung_bộ 9
trúng 9
trái_đất 9
trường_@@ 9
trọng_lượng 9
tun@@ 9
tuyệt_@@ 9
tài_năng 9
tàu_sân_bay 9
tái_@@ 9
tâm_trạng 9
tê_liệt 9
tích 9
tư@@ 9
tạp_hoá 9
tả 9
tảng 9
tập_thể 9
tỉnh_thành 9
tị_nạn 9
tố 9
tổ_hợp 9
tử_thi 9
unchanged 9
underwent 9
unemployment 9
unh@@ 9
unlikely 9
unnecessary 9
urging 9
uri 9
va@@ 9
vaccinated 9
van@@ 9
vari@@ 9
vegetable 9
verify 9
versions 9
vocational 9
vật_dụng 9
vặt 9
vịnh 9
waivers 9
wallets 9
we@@ 9
wealthy 9
wed 9
wildfire 9
witch 9
withdrawn 9
wor@@ 9
work@@ 9
workforce 9
worsen 9
worsened 9
xing 9
xo@@ 9
xuất_phát 9
xy 9
xác 9
xói_mòn 9
xăm 9
xăng_dầu 9
xơ_gan 9
xưởng 9
xếp_hàng 9
xứng_đáng 9
za 9
Ít_nhất 9
à@@ 9
à_@@ 9
á_@@ 9
ách 9
áp_suất 9
áp_thấp 9
âm_@@ 9
âm_lịch 9
ây_@@ 9
ì 9
ôi_@@ 9
ù 9
ú 9
ú@@ 9
Đào_@@ 9
Đáng 9
Đối_tác 9
Đội 9
đam_mê 9
đau_đầu 9
điểm_số 9
đích 9
đông_lạnh 9
đảm_nhiệm 9
đầu_gối 9
đập 9
đắt 9
đền 9
đổ_xô 9
độ_ẩm 9
động_cơ 9
đột_kích 9
đời_sống 9
đực 9
ưa_chuộng 9
ưu_@@ 9
ước_@@ 9
̀n 9
ạch 9
ạo 9
ả@@ 9
ấ@@ 9
ấu 9
ầm_@@ 9
ầu 9
ẩm 9
ận 9
ặng 9
ế_@@ 9
ệ_@@ 9
ị_@@ 9
ọng 9
ồi 9
ộc 9
ớ 9
–@@ 9
/6 8
02 8
07 8
1,200 8
1,400 8
100% 8
11,000 8
115 8
118 8
136 8
146 8
148 8
158 8
16,@@ 8
161 8
17.@@ 8
170 8
19% 8
1950 8
1956 8
1965 8
198 8
1997 8
199@@ 8
2,6 8
2.0 8
2/3 8
247 8
257 8
265 8
276 8
29@@ 8
3.7 8
325 8
34% 8
35% 8
380 8
4.3 8
40,@@ 8
400,000 8
430 8
5.1 8
53.@@ 8
54.@@ 8
6,5 8
600,000 8
60@@ 8
65% 8
7-@@ 8
740 8
8.6 8
85% 8
8:00 8
911 8
95% 8
:15 8
AB@@ 8
AD@@ 8
Aarhus 8
AccuWeather 8
Acheson 8
Ag@@ 8
Allen 8
Almaty 8
Along 8
Altern@@ 8
Americ@@ 8
An_toàn 8
Anh_@@ 8
Anim@@ 8
Anth@@ 8
Anti@@ 8
Archipelago 8
Ass@@ 8
BR395 8
Bab@@ 8
Ballarat 8
Barack 8
Bean 8
Bec@@ 8
Ben@@ 8
Bia_Sài_Gòn 8
Bieber 8
Bis@@ 8
Biên_@@ 8
Bluetooth 8
Bon@@ 8
Brent 8
Bud@@ 8
Burhani 8
Burundi 8
Bà_Rịa 8
Bạch 8
Bản_đồ 8
Bất_cứ 8
Bến_xe 8
CAS 8
CD@@ 8
CFCB 8
CG@@ 8
Cam_@@ 8
CanSino 8
Cannes 8
Cao_@@ 8
Chauvin 8
Choi 8
Christchurch 8
Chromium 8
Chất_lượng 8
Chẩn_đoán 8
Cla@@ 8
Clar@@ 8
Clin@@ 8
Clinic 8
Clostridium 8
Co.op 8
Colombian 8
Colonel 8
Conduct 8
Conte 8
Coopersmith 8
Cra@@ 8
Cri@@ 8
Cris@@ 8
Culture 8
Cát 8
Cây 8
Có_lẽ 8
Công_nghiệp 8
Công_viên 8
Cần 8
Cầu 8
Dakar 8
Daniella 8
De 8
Detective 8
Doan 8
Doong 8
Dù 8
Dòng 8
ESL 8
Ecuador 8
Edinburgh 8
Eff@@ 8
Eg@@ 8
Erdogan 8
Euro@@ 8
Ev@@ 8
Executive 8
Family 8
Field 8
Fields 8
Fine 8
Flip 8
Francisco 8
GPS 8
Gaga 8
Gateway 8
Gio 8
Giới 8
Godsey 8
Gogh 8
Golf 8
Goo_Hara 8
Greek 8
Guam 8
Guyana 8
Gwent 8
Hainan 8
Haiti 8
Hancock 8
Hangzhou 8
Hanoian 8
Haswell 8
Hawking 8
Hea@@ 8
Head 8
Health_@@ 8
Hiệp 8
Hoa_Nam 8
Hollywood 8
Honduras 8
Hotels 8
Huy 8
Huấn_luyện_viên 8
Hydroxychloroquine 8
Hạ_viện 8
Hồ_@@ 8
Hứa 8
IATA 8
IC@@ 8
IDICO 8
Islamabad 8
Ivory 8
J 8
JICA 8
JLL 8
Jamaica 8
Jeff@@ 8
Jetstar_Pacific 8
Jim 8
Jinping 8
Jinyintan 8
Jutland 8
Kaunas 8
Kavugho 8
Khê 8
Ki@@ 8
Kings 8
Kit@@ 8
Kiểm_tra 8
Klebsiella 8
Knight 8
Koreans 8
Kuala 8
Kuala_Lumpur 8
LAC 8
Ladakh 8
Lalla 8
Lam@@ 8
Lavenue 8
Lexington 8
Life 8
LinkedIn 8
Lover 8
Lumpur 8
Lãnh_đạo 8
Lê 8
Lý_do 8
Lượng 8
MC 8
Ma 8
Manticore 8
Marathon 8
Mari@@ 8
May@@ 8
Meg@@ 8
Mi 8
Mike_Pompeo 8
Minnesota 8
Mir@@ 8
Moore 8
Morano 8
Morgan 8
Movie 8
Máy_bay 8
Mạng_Yêu_cầu 8
Mạnh_@@ 8
Mắt 8
Mặt_khác 8
Một_vài 8
Mức_độ 8
Mỹ@@ 8
N95 8
NH@@ 8
Nad@@ 8
Nam_Triều_Tiên 8
Nep@@ 8
Nguyễn_Quang_@@ 8
Nguyễn_Đình_@@ 8
Nhiễm_trùng 8
Nhu_cầu 8
Như_vậy 8
Nine 8
Nooyi 8
Nowadays 8
Nạn_nhân 8
Nữ_hoàng 8
Oppo 8
Or 8
Os 8
Out@@ 8
PPE 8
Parties 8
Pattaya 8
Petersburg 8
Philippine 8
Phong_@@ 8
Phái_đoàn 8
Pháp_@@ 8
Phát_hiện 8
Phú_Lâm 8
Phước 8
Phần_Lan 8
Pla@@ 8
Pokémon 8
Pollock 8
Portugal 8
Pouyuen 8
Prior 8
Procuracy 8
Qantas 8
Quar@@ 8
Quyền 8
Quảng_Hoà 8
R. 8
RNA 8
RS 8
Ram@@ 8
Reed 8
Riedl 8
Right 8
Road 8
Robinson 8
Rodríguez 8
Roebling 8
Romagna 8
Roskilde 8
Rou@@ 8
S-@@ 8
SAH 8
SEZ 8
SM 8
Sai 8
San_Diego 8
San_Francisco 8
Seafood 8
Shar@@ 8
Sim@@ 8
Sinterklaas 8
Six@@ 8
Sony 8
Specifically 8
Sport 8
St 8
St_@@ 8
Ste@@ 8
Stephen 8
Stephen_@@ 8
Stoltenberg 8
Suriname 8
Sản_xuất 8
TC@@ 8
TH 8
THC 8
TNG 8
Tak@@ 8
Tech 8
Tenerife 8
Teresa 8
Tes@@ 8
Thaco 8
ThaiBev 8
Thai_@@ 8
Thomas_@@ 8
Thuốc 8
Thạch 8
Thảo_Điền 8
Thứ_@@ 8
Tin 8
Tiế@@ 8
Tiền_Giang 8
Tiểu_@@ 8
Tobago 8
Todorvo 8
Tonight 8
Torres 8
Tou@@ 8
Toà 8
Trung_bình 8
Trái 8
Trái_@@ 8
Tuấn_@@ 8
Tài_@@ 8
Tìm_kiếm 8
Tô_@@ 8
Tôn_@@ 8
Tưởng 8
Tập_@@ 8
Tập_Cận_Bình 8
U-@@ 8
U23 8
UNWTO 8
Un 8
Unit 8
Users 8
VA@@ 8
VI@@ 8
VN84App 8
VNAT 8
VND30 8
VND7@@ 8
Vang 8
Vanguard 8
Vanuatu 8
Vegas 8
Vi_khuẩn 8
Viettel 8
VinBus 8
Vinatex 8
Việt_Á 8
Vladimir 8
Vu@@ 8
Vui 8
Vàng 8
Vấn_đề 8
WB 8
WTA 8
WTI 8
Wall 8
War@@ 8
Warsaw 8
Water 8
WebMD 8
Winter 8
Woolf 8
Wozniak 8
Wy@@ 8
X-@@ 8
Xin 8
Xuất_khẩu 8
Xã 8
Y_học 8
Yemen 8
Yo@@ 8
Yêu_cầu 8
Zing 8
Zoom 8
_ch@@ 8
a_G@@ 8
abandoning 8
abilities 8
abor@@ 8
achi@@ 8
achieving 8
ack 8
adapt 8
addic@@ 8
adrenaline 8
adult 8
advantages 8
aftermath 8
agent 8
ali 8
ali@@ 8
alo@@ 8
aluminum 8
analysts 8
ania 8
anned 8
answers 8
anti-dumping 8
antibiotic 8
antly 8
appreciate 8
approaching 8
ar_@@ 8
ards 8
aria 8
arian 8
aries 8
arrange 8
arti@@ 8
aspects 8
assaulted 8
asserted 8
ater 8
att@@ 8
attempting 8
attributed 8
ature 8
auto 8
automatically 8
avi@@ 8
awards 8
ax@@ 8
background 8
bacterium 8
bal 8
ban_@@ 8
beam 8
behaviour 8
bene@@ 8
bet@@ 8
binding 8
biology 8
birthday 8
birthmark 8
biến_động 8
biết_điều 8
biết_ơn 8
blocking 8
bluechips 8
bottom 8
bowl 8
brief 8
bron@@ 8
burg 8
buyers 8
bản_xứ 8
bản_án 8
bảo_đảm 8
bất 8
bầu_trời 8
bẩn 8
bọ_chét 8
bốc_thăm 8
cabin 8
cabinet 8
cal 8
card 8
ceremonies 8
certainly 8
challenging 8
championship 8
cheaper 8
checkpoints 8
church 8
chuông 8
chút 8
chí 8
chặng 8
chế_tạo 8
chỉnh 8
citizenship 8
climbing 8
clinic 8
completing 8
complicate 8
conflict 8
consensus 8
consistent 8
consulting 8
containers 8
counter@@ 8
cows 8
criticism 8
critics 8
cross-border 8
crossing 8
crowd 8
cru@@ 8
cụ 8
cây_trồng 8
có@@ 8
có_thai 8
cô_dâu 8
côn_trùng_học 8
công_chức 8
công_lý 8
căn_cứ 8
cơ_sở_dữ_liệu 8
cải_cách 8
cấp_bách 8
cột 8
cởi_mở 8
cứng_rắn 8
dai 8
dangers 8
danh_dự 8
dar@@ 8
dating 8
deadline 8
deaf 8
definitely 8
depends 8
dering 8
describes 8
designated 8
detection 8
determining 8
develops 8
dialogue 8
dirty 8
discounts 8
discovering 8
disruption 8
divi@@ 8
diễu_hành 8
diệt 8
donation 8
down@@ 8
dramas 8
drastic 8
driven 8
duo 8
dykes 8
dây_cáp 8
dư_lượng 8
dịch_tả 8
dự_luật 8
eBay 8
eas@@ 8
echoes 8
ections 8
ees 8
eling 8
elled 8
ema 8
embar@@ 8
emo@@ 8
enters 8
entities 8
eo@@ 8
episodes 8
ero 8
escalating 8
essed 8
establishing 8
eted 8
eter 8
eu@@ 8
evol@@ 8
exceeding 8
excluding 8
exclusive 8
exclusively 8
existence 8
experiences 8
explanation 8
exploded 8
exploring 8
extensive 8
extent 8
extracorporeal 8
f_@@ 8
facilitate 8
farmer 8
fault 8
favorable 8
favored 8
fellow 8
fetus 8
fication 8
fied 8
filmed 8
finance 8
fixed 8
flat 8
flavanol 8
fleet 8
flesh 8
forget 8
forum 8
gains 8
gan@@ 8
generating 8
geopark 8
ghi_chú 8
gia_@@ 8
giam 8
giao_phối 8
gián_tiếp 8
giúp_ích 8
giải_@@ 8
giết_hại 8
gl@@ 8
golf 8
gra@@ 8
grades 8
grams 8
graves 8
gro@@ 8
gánh_chịu 8
góc 8
habit 8
hackers 8
hal@@ 8
hang_động 8
hanging 8
hardware 8
hate 8
heading 8
hel@@ 8
heo 8
heroin 8
hide 8
hills 8
hire 8
hoan_nghênh 8
hometown 8
hoped 8
hàng_tiêu_dùng 8
hành_@@ 8
hơn_bao_giờ_hết 8
học_giả 8
học_phí 8
hở 8
hứng_chịu 8
iPads 8
i_th@@ 8
ib@@ 8
ids 8
ile 8
iled 8
iling 8
ility 8
immuno@@ 8
impaired 8
implementing 8
implications 8
imposing 8
inadequate 8
inappropriate 8
indic@@ 8
indicating 8
ine@@ 8
iness 8
initiated 8
ink 8
inspected 8
interaction 8
interactions 8
invite 8
ise_@@ 8
ished 8
ist@@ 8
isted 8
ity_@@ 8
iết 8
ji 8
jin 8
journalists 8
jump 8
jurisdiction 8
ket 8
khai_@@ 8
khai_mạc 8
khan_hiếm 8
khoảnh_khắc 8
khu@@ 8
khung_cảnh 8
khét_tiếng 8
khả_quan 8
khối_u 8
kilos 8
kinh 8
kinh_@@ 8
kiến_trúc 8
ky 8
kính_@@ 8
kết_@@ 8
laborers 8
lan_toả 8
laptops 8
lar 8
lasted 8
lasting 8
leadership 8
leo 8
lers 8
les@@ 8
lethal 8
life@@ 8
lights 8
listen 8
liên_@@ 8
ll 8
lockdowns 8
logists 8
los@@ 8
loại_trừ 8
luyện_tập 8
lát 8
lãng_mạn 8
lãng_phí 8
lông 8
lập_@@ 8
lắng_nghe 8
lở 8
lục_địa 8
mag@@ 8
magnitude 8
mai_táng 8
mel@@ 8
mer 8
merchant 8
mercury 8
metal 8
metro 8
migrants 8
missions 8
monitors 8
municipalities 8
mutual 8
myself 8
mâm 8
múa 8
mạng_nhện 8
mật_khẩu 8
mỏ 8
mổ 8
needlestick 8
neighborhood 8
neuro@@ 8
ng_c@@ 8
ngang 8
nger 8
ngô 8
người_nhà 8
người_quản_lý 8
ngắm 8
nhiễm_độc 8
nhuộm 8
nhà_kho 8
nhà_phân_tích 8
nhôm 8
như_thể 8
nhầm 8
night@@ 8
nights 8
notable 8
nutrition 8
nước_thải 8
nạp 8
nấu_nướng 8
nội 8
nội_các 8
nội_tạng 8
nứt 8
of@@ 8
offshore 8
ok 8
oke 8
ological 8
ome@@ 8
oming 8
ond 8
op 8
ore@@ 8
organisations 8
organisms 8
ori@@ 8
originating 8
ounce 8
outlined 8
outstanding 8
ova 8
ow@@ 8
oxygenation 8
pace 8
packaging 8
packed 8
pair 8
patches 8
pedestrian 8
pen 8
periods 8
pet@@ 8
pha_chế 8
pharmacies 8
phim_tài_liệu 8
phút 8
physics 8
phá_thai 8
pháp 8
phê_chuẩn 8
phòng_vệ 8
phù_thuỷ 8
phú 8
phế 8
phức_hợp 8
pieces 8
pills 8
plu@@ 8
poaching 8
politicians 8
pper 8
pressing 8
pretty 8
prevents 8
priced 8
protects 8
protested 8
publisher 8
pushing 8
puts 8
quan_niệm 8
quarantines 8
quarters 8
quit 8
quãng 8
quốc_@@ 8
rammed 8
rape 8
ratings 8
reasonable 8
reck@@ 8
recommendation 8
red@@ 8
referring 8
refrigerated 8
reg@@ 8
relating 8
religion 8
removal 8
replacing 8
represent 8
represented 8
reputation 8
residues 8
respondents 8
restricting 8
retailers 8
reverse 8
revoked 8
risky 8
robotics 8
ros 8
rum@@ 8
run@@ 8
ruộng 8
rào_cản 8
rơm_rạ 8
rải_rác 8
sat 8
sc@@ 8
scandals 8
scoring 8
scrap 8
searched 8
seasons 8
sections 8
seemed 8
semen 8
set@@ 8
shall 8
shots 8
silent 8
silk 8
sinh_nhật 8
sli@@ 8
solid 8
somewhere 8
son_@@ 8
southeast 8
specialized 8
specifically 8
spends 8
spirit 8
spots 8
stadiums 8
stan@@ 8
stand@@ 8
statements 8
ste@@ 8
stepped 8
stimulus 8
stormquakes 8
stricken 8
strikes 8
structures 8
struggled 8
stu@@ 8
sun@@ 8
sunk 8
suất 8
switch 8
sưng 8
sưu_tập 8
sướng 8
sưởi 8
sắp_sửa 8
sốt_xuất_huyết 8
tablet 8
tains 8
tan 8
tay_nghề 8
technicians 8
tees 8
th_@@ 8
tham 8
tham_vọng 8
thanked 8
therapies 8
thoại 8
thr@@ 8
threw 8
thunderstorms 8
thí_điểm 8
thông_@@ 8
thông_cáo 8
thú_y 8
thường_niên 8
thưởng 8
thập_niên 8
thứ_hạng 8
tian 8
tical 8
tile 8
tinh_dịch 8
tion@@ 8
title 8
tivi 8
tiên_phong 8
tiếc 8
tobacco 8
toes 8
tongue 8
tower 8
towns 8
trang_phục 8
tranh_@@ 8
tranh_cử 8
transited 8
transition 8
translation 8
tre 8
tre@@ 8
triệt_để 8
trình_tự 8
trí_tuệ 8
trú 8
trút 8
trăn 8
trưng_bày 8
trước_tiên 8
trộn 8
tt@@ 8
tual 8
ture 8
tured 8
tuyển 8
tàu_điện_ngầm 8
tây_nam 8
tính_chất 8
tính_mạng 8
tô 8
tôn_vinh 8
tù_nhân 8
tăng_tốc 8
tĩnh_mạch 8
tương_đồng 8
tổn_hại 8
tử_cung 8
tự_trị 8
tự_động_hoá 8
u_th@@ 8
uncommon 8
uncovered 8
und@@ 8
underway 8
updates 8
upper 8
ur 8
usage 8
vacation 8
vegetarian 8
vi 8
villages 8
violated 8
violent 8
voluntarily 8
vùng_đất 8
vị_thế 8
vở 8
vừa_mới 8
w_@@ 8
wall 8
wat@@ 8
weak 8
wet 8
wildfires 8
win@@ 8
window 8
wish 8
with@@ 8
wonder 8
wood 8
worn 8
worry 8
wrap 8
writer 8
xe_điện 8
xoá_bỏ 8
xuất_trình 8
xác_thực 8
y-@@ 8
yan 8
zi@@ 8
àm 8
ác_mộng 8
ái_@@ 8
án_@@ 8
âm_đạo 8
âu_@@ 8
è 8
ì@@ 8
ò 8
ý@@ 8
ăm 8
ăn_chay 8
Đài_truyền_hình 8
Đáp 8
Đường_@@ 8
Đại 8
Định 8
Đồng_@@ 8
Động_thái 8
Đợt 8
đa_@@ 8
đa_khoa 8
đu@@ 8
đòi 8
đón_nhận 8
đại_biểu 8
đậu_phộng 8
đắc_địa 8
đặc 8
đặc_nhiệm 8
đặc_quyền 8
đặt_chân 8
đặt_cược 8
đỉnh_điểm 8
định_cư 8
đồ_dùng 8
đồng_phạm 8
độ_chính_xác 8
độc_@@ 8
đụng_độ 8
ư_@@ 8
ương_@@ 8
ướ@@ 8
ướng 8
ưởng_@@ 8
̀ng 8
̣t 8
ạn 8
ảo_@@ 8
ất_@@ 8
ần_@@ 8
ắm 8
ết 8
ễ 8
ệ@@ 8
ố@@ 8
ồ@@ 8
ỗi 8
ớ@@ 8
ờ_@@ 8
ụ@@ 8
ứ 8
ức_@@ 8
ứng_viên 8
ứng_xử 8
ửa 8
#@@ 7
'm 7
/1 7
/5 7
0s 7
1,300 7
1,600 7
1,7 7
1.9 7
11% 7
11-@@ 7
112 7
11@@ 7
14,000 7
150.000 7
152 7
154 7
156 7
16% 7
173 7
174 7
184 7
1920 7
197@@ 7
1980s 7
1983 7
2,600 7
2.4 7
20,@@ 7
21% 7
216 7
24% 7
24.@@ 7
25.000 7
252 7
253 7
254 7
3,500 7
3.4 7
328 7
343 7
355 7
36% 7
369 7
4.5 7
4.6 7
4.7 7
40,000 7
42.@@ 7
45% 7
47.@@ 7
47@@ 7
480 7
5,5 7
5.3 7
5.6 7
5.7 7
51% 7
56% 7
6.1 7
6.3 7
6.8 7
69@@ 7
6:30 7
7,5 7
78 7
8,5@@ 7
8.5 7
82,@@ 7
AC 7
AJ@@ 7
AN@@ 7
APT@@ 7
Abigail 7
Action 7
Aer@@ 7
Airbus 7
Algeria 7
An_Giang 7
Angela 7
Anguilla 7
Are 7
Armed 7
Assam 7
Athmuqam 7
Beg@@ 7
Bichat 7
Biological 7
Bour@@ 7
Box 7
Bra@@ 7
Brun@@ 7
Buenos 7
Business_Insider 7
Bất_@@ 7
Bến_@@ 7
Bởi 7
CCTV 7
CFO 7
CMO 7
CO@@ 7
Campylobacter 7
Cann@@ 7
Caruana 7
Cat@@ 7
Cha 7
Cha_@@ 7
Channel 7
Chemical 7
Chi_@@ 7
Chi_nhánh 7
China_@@ 7
Chuyên_gia 7
Chàng 7
Chính_sách 7
Chưa 7
Clara 7
Coc 7
Cockroaches 7
Command 7
Cro@@ 7
Cua 7
Cá_@@ 7
Công_việc 7
Cơ_@@ 7
Cư_dân 7
Cấp_@@ 7
Cần_Giờ 7
Cầu_Giấy 7
Cổ_phiếu 7
DHSC 7
Dac 7
Dan_@@ 7
Dani@@ 7
Davi@@ 7
Dem@@ 7
Diego 7
Diep 7
Dizhi 7
Doctor 7
Dou@@ 7
Dunedin 7
Duy_@@ 7
Dân_số 7
EPI 7
Econom@@ 7
Equatorial 7
Euromonitor 7
Eventually 7
Falkland 7
Fed@@ 7
Fidel 7
Fidel_Castro 7
Finland 7
Flappy 7
Flappy_Bird 7
Flights 7
Four@@ 7
Foxconn 7
Fukuoka 7
Geo@@ 7
Give 7
Given 7
Giáo_hoàng 7
Giữa 7
Governor 7
Grace 7
Grays 7
Great 7
Greaves 7
Guangzhou 7
Guardian 7
Haiyang_Dizhi 7
Hamachi 7
Haneda 7
Hashimoto 7
Hau 7
Hawaii 7
Hi 7
Hoiana 7
Hospitalier 7
Hoài_@@ 7
Hoàng_gia 7
Hoạt_động 7
Huệ 7
Hy_vọng 7
Hưng_@@ 7
Hưng_Yên 7
Hương_@@ 7
Hạn_chế 7
Hải_Châu 7
Hậu 7
Hợp_tác 7
ID@@ 7
IDU 7
Il@@ 7
Impact 7
Indians 7
Initially 7
IoT 7
Ital@@ 7
JPY@@ 7
Jaghab 7
Jas@@ 7
Jen@@ 7
Ken 7
Không_khí 7
Khủng_hoảng 7
Kiến 7
Kor@@ 7
Ky 7
Kênh 7
LG 7
La_Mã 7
Leaders 7
Lieu 7
Lin 7
Litva 7
Liệu 7
Louis 7
Lê_Thị_@@ 7
Lê_Văn_@@ 7
Lạc_@@ 7
Lạng_Sơn 7
Major 7
Marie 7
Mars 7
Matt 7
Matthe@@ 7
Mer@@ 7
Mid-Autumn 7
Mil@@ 7
Moi 7
Morrison 7
Muangthong 7
Móng_Cái 7
Mức 7
Nauru 7
New_South_Wales 7
Nguoi 7
Nguyễn_Anh_@@ 7
Nguyễn_Hữu_@@ 7
Nguyễn_Tấn_@@ 7
Ngũ_@@ 7
Nhu 7
Nhà_khoa_học 7
Nicaragua 7
Norm@@ 7
North@@ 7
Novel 7
Nói 7
Nằm 7
Old@@ 7
Oncology 7
Operation 7
Organiz@@ 7
Out 7
PRECEDE 7
Pakse 7
Palau 7
Pay@@ 7
Pellegrino 7
Pharma 7
Phóng_viên 7
Phương_pháp 7
Phụ@@ 7
Pi@@ 7
Pic@@ 7
Plant 7
Plas@@ 7
Plaza 7
Point 7
Pope 7
Por@@ 7
Prize 7
Proceedings 7
Quy@@ 7
Quy_định 7
Quảng_Châu 7
Quần_đảo_Falkland 7
RA@@ 7
RT@@ 7
Regarding 7
Rep@@ 7
Representative 7
Resid@@ 7
Residents 7
Review 7
Revolution 7
Robert_@@ 7
Roman 7
Sahara 7
Sedere 7
Severe 7
Shenzhen 7
Shores 7
Shortly 7
Sil@@ 7
Silver@@ 7
Sky 7
Special 7
Stat@@ 7
Studios 7
Suga 7
Sung 7
Swiss 7
Syndrome 7
Sơn_@@ 7
Sơn_Trà 7
Sẽ 7
Taipei 7
Tanzania 7
Task 7
Tax@@ 7
Te 7
Technologies 7
Tel@@ 7
The_S@@ 7
Thuận 7
Thị_trấn 7
Thủ_@@ 7
Thủ_đô 7
Timothy 7
Tiểu 7
Tmall 7
Toronto 7
Tree 7
Trà 7
Trà_Vinh 7
Trí 7
Trí_@@ 7
Trăng 7
Trấn_Thành 7
Trần_Hồng_@@ 7
Tur@@ 7
Tuy 7
Tyrol 7
Tyumen 7
Tân_Bình 7
Tây_Bắc 7
Tư_@@ 7
Tư_pháp 7
Tổng_thư_ký 7
Tử_Cấm_Thành 7
Tự_@@ 7
Tự_do 7
UBND 7
Ukrainian 7
Universal 7
Uppsala 7
Ut 7
Uỷ_ban_Nhân_dân 7
VND3 7
VT 7
Venice 7
Venus 7
Vietnam_@@ 7
Vis@@ 7
Visitors 7
Visual 7
Vivo 7
Viện_kiểm_sát 7
Vol@@ 7
Vsmart 7
Văn_hoá 7
Vụ_việc 7
W. 7
Watson 7
Wen@@ 7
Whether 7
Win@@ 7
Wol@@ 7
Wom@@ 7
Xo 7
Xây_dựng 7
Xô 7
Your 7
_G@@ 7
_Oblast 7
_n@@ 7
ab 7
abortion 7
accidentally 7
achievements 7
actors 7
adap@@ 7
adverti@@ 7
advise 7
adviser 7
affordable 7
ager 7
ail 7
aiming 7
alarm 7
alization 7
ama@@ 7
ambi@@ 7
ame 7
amounted 7
ams 7
an_M@@ 7
anda 7
anim@@ 7
annoying 7
anymore 7
appreciation 7
aps 7
arguing 7
army 7
arri@@ 7
arrives 7
ased 7
aside 7
assa@@ 7
asset 7
automatic 7
automation 7
autonomy 7
aver@@ 7
awa 7
ban_ngày 7
bathroom 7
battery 7
behalf 7
benchmark 7
bes 7
besides 7
bit@@ 7
bite 7
biện 7
biệt 7
bol@@ 7
boosting 7
boring 7
borrow 7
boxes 7
briefing 7
bureau 7
bá@@ 7
bãi_bỏ 7
bìa 7
bình_tĩnh 7
bình_ổn 7
bóng_rổ 7
bù 7
bơi 7
bước_ngoặt 7
bả@@ 7
bầy 7
bắt_chước 7
bằng_sáng_chế 7
bốc 7
cafes 7
calcium 7
cam 7
cancers 7
cao_@@ 7
carmaker 7
carnival 7
ce_@@ 7
celebration 7
cellular 7
cemetery 7
cer@@ 7
cha_con 7
chair 7
champions 7
channels 7
chased 7
chef 7
cher 7
cho_nên 7
chuyên_dụng 7
chuyên_khoa 7
chính_@@ 7
chất_@@ 7
chị_gái 7
civilian 7
ck@@ 7
clash 7
classified 7
client 7
clu@@ 7
co-founder 7
cocaine 7
coconut 7
coi_trọng 7
collaborating 7
comfortable 7
commented 7
commitments 7
competing 7
conferences 7
congestion 7
conspiracy 7
consul@@ 7
consume 7
consuming 7
controversial 7
convicted 7
corporate 7
coun@@ 7
council 7
counts 7
cra@@ 7
cracked 7
craft 7
cream 7
criteria 7
criticizing 7
cross 7
crossed 7
cs 7
cuisine 7
currencies 7
custom 7
cuồng 7
cá_thể 7
cánh_tay 7
cát 7
cây_xanh 7
cóc 7
cô@@ 7
công_nghệ_thông_tin 7
cũng_nên 7
cảm_biến 7
cảnh_quan 7
cầm_quyền 7
cận 7
cốc 7
cờ_vua 7
cử_động 7
d'@@ 7
da_@@ 7
danh_hiệu 7
das 7
deciding 7
declining 7
deeply 7
defence 7
delegation 7
dengue 7
departed 7
depicting 7
deposits 7
des@@ 7
desalination 7
deserted 7
destroy 7
di_tản 7
dig@@ 7
disasters 7
disclosed 7
discount 7
discussion 7
disinfect 7
disinfecting 7
dismissal 7
disorder 7
dist@@ 7
distinct 7
division 7
documented 7
dormitory 7
dose 7
doub@@ 7
dow@@ 7
downloads 7
downpour 7
drawing 7
dre@@ 7
dro@@ 7
dubbed 7
dul@@ 7
dân_@@ 7
dân_chủ 7
dũng_cảm 7
dư_luận 7
dạo 7
dịch_tễ 7
dốc 7
dục 7
dừa 7
e_S@@ 7
eal 7
echolocation 7
economics 7
ecting 7
editorial 7
ef 7
eg@@ 7
electronics 7
eliminated 7
eline 7
elle 7
emakers 7
emer@@ 7
empire 7
employing 7
encountered 7
enrolled 7
ential 7
epidemiology 7
eration 7
et_@@ 7
eter@@ 7
eth 7
ette 7
evi@@ 7
evident 7
exceeded 7
exchanges 7
excited 7
excre@@ 7
explaining 7
exploit 7
exploration 7
expres@@ 7
extraordinary 7
fam@@ 7
fate 7
fathers 7
feedback 7
fiat 7
filming 7
finals 7
fix 7
flood 7
fold 7
followers 7
forming 7
founders 7
fragrant 7
franchise 7
freight 7
frog 7
frontline 7
fun 7
funded 7
fur@@ 7
fy 7
gg@@ 7
ghi_âm 7
ghét 7
gia_súc 7
gia_vị 7
girlfriend 7
giày_dép 7
giá@@ 7
giúp_việc 7
giảng_viên 7
giật 7
giặt 7
governance 7
governing 7
grader 7
grocery 7
gs 7
guess 7
guns 7
gy 7
gy@@ 7
gây_rối 7
hat@@ 7
haven 7
hearts 7
herbs 7
hes@@ 7
hi 7
hill 7
hon@@ 7
hoàn_chỉnh 7
hoạch 7
hoạch_định 7
hurricanes 7
hài_hước 7
hô@@ 7
hư_hại 7
hạng_mục 7
hết_@@ 7
học_thuật 7
hỗn_hợp 7
hội_thảo 7
i-@@ 7
ic_@@ 7
ices 7
identi@@ 7
im_lặng 7
imagine 7
imm@@ 7
impressive 7
improves 7
ination 7
ind 7
indefinitely 7
inevitable 7
influenced 7
informing 7
initiatives 7
innovative 7
ins@@ 7
insiders 7
intensify 7
intravenous 7
introducing 7
inundated 7
irrit@@ 7
ish@@ 7
issuance 7
item 7
itis 7
iệu_@@ 7
ja@@ 7
jar 7
ka@@ 7
keeps 7
kh 7
khi@@ 7
khiêu_vũ 7
khoáng 7
khu_phố 7
khuyến_mại 7
khuyết_tật 7
khủng 7
không_lưu 7
khứ_hồi 7
kilo 7
kiên_@@ 7
kiểm 7
kiểm_duyệt 7
knees 7
ko@@ 7
ko_@@ 7
kor@@ 7
kêu 7
kí 7
kích 7
kết_tội 7
kỳ@@ 7
kỳ_hạn 7
kỹ_lưỡng 7
lacking 7
lad@@ 7
lantern 7
lawyers 7
lay@@ 7
le_@@ 7
lear@@ 7
leg@@ 7
legitimate 7
lev@@ 7
li 7
lifetime 7
linh_hoạt 7
lion 7
literature 7
livelihoods 7
loading 7
log 7
longest 7
loud 7
low@@ 7
lowered 7
loài_người 7
luật_lệ 7
lychee 7
lòng_@@ 7
lý_thuyết 7
lưu_diễn 7
lập_trường 7
lều 7
lỗ_hổng 7
lừa 7
maintenance 7
mall 7
mangrove 7
mar 7
margin 7
marine 7
marry 7
mazut 7
meme 7
men@@ 7
ment@@ 7
mented 7
mes@@ 7
mile 7
minh 7
mir@@ 7
molecular 7
motorbikes 7
mãnh_liệt 7
mũ 7
mạc 7
mật_thiết 7
mệnh_lệnh 7
mồi 7
một_ít 7
necessities 7
neglect 7
ney 7
nghiêm 7
nghĩa_@@ 7
nghẹt_thở 7
nghỉ_ngơi 7
nguyên_tử 7
ngôn_luận 7
ngôn_từ 7
ngứa 7
nho 7
nhà_giáo 7
nhà_quản_lý 7
nhà_riêng 7
nhà_trẻ 7
nhân_dịp 7
nhìn_chung 7
nhượng 7
nhấn 7
nhậm_chức 7
nhật_thực 7
nhắn_tin 7
nhẹ_nhàng 7
nik 7
niên 7
noise 7
noticed 7
nét 7
nô_lệ 7
núi_lửa 7
nước_mắt 7
nước_mặn 7
nếm 7
nữ_giới 7
obj@@ 7
obtain 7
occurring 7
oceans 7
offensive 7
olish 7
ologists 7
onymous 7
ool 7
operator 7
organisation 7
outdoors 7
outlet 7
outsiders 7
ov 7
overnight 7
overuse 7
oxy@@ 7
oxy_hoá 7
pand@@ 7
participated 7
participation 7
partnerships 7
pastor 7
pat@@ 7
pel@@ 7
periodontal 7
persimmons 7
personalized 7
petition 7
pha@@ 7
phim_hoạt_hình 7
phong_@@ 7
phun 7
physician 7
phá_hoại 7
phác_đồ 7
phát_sinh 7
phát_âm 7
phân_chia 7
phòng_thủ 7
phóng 7
phải_chăng 7
phản 7
pin@@ 7
pit@@ 7
ples 7
positively 7
poultry 7
pound 7
pouring 7
pp 7
pra@@ 7
pray 7
prayer 7
precaution 7
predict 7
premises 7
premium 7
presents 7
prestigious 7
principal 7
print 7
prisons 7
proc@@ 7
prof@@ 7
programming 7
progres@@ 7
promoted 7
proof 7
proved 7
proves 7
proximity 7
pulled 7
purchases 7
py@@ 7
python 7
q@@ 7
qualified 7
qualifiers 7
quan_@@ 7
quy_@@ 7
quyền_sở_hữu 7
quản 7
rac@@ 7
racist 7
rap@@ 7
rash 7
rashes 7
rating 7
ray 7
real@@ 7
recalled 7
receives 7
recycled 7
reefs 7
reflect 7
regards 7
releases 7
releasing 7
remarkable 7
remin@@ 7
reporter 7
reproductive 7
reserves 7
reservoir 7
resolve 7
resource 7
restart 7
resuming 7
retailer 7
rey 7
ri 7
ris 7
riêng_lẻ 7
rock 7
roll 7
runner 7
runways 7
ry_@@ 7
rạn 7
rồng 7
salary 7
saliva 7
salons 7
salty 7
sao_chép 7
sau@@ 7
scal@@ 7
scan 7
scattered 7
sch@@ 7
scheme 7
sciences 7
scorching 7
scr@@ 7
sea@@ 7
secrets 7
see@@ 7
sells 7
sem@@ 7
sensors 7
separated 7
sers 7
serv@@ 7
server 7
shocking 7
shoes 7
shoot 7
shore 7
shrimp 7
sign@@ 7
signing 7
singers 7
sinh_đôi 7
skill 7
sl@@ 7
smuggling 7
soap 7
soba 7
socio 7
solo 7
song_sinh 7
sou@@ 7
speakers 7
specialist 7
spite 7
spoken 7
stall 7
steadily 7
steal 7
steamed 7
steering 7
sticky 7
strains 7
stricter 7
stuff 7
su 7
subscribers 7
succeed 7
supplied 7
suppliers 7
surpassed 7
surveys 7
survival 7
survivors 7
suspends 7
sustained 7
swab 7
swear 7
swept 7
sy@@ 7
syn@@ 7
sư 7
sạch_sẽ 7
sắt 7
tablets 7
tadpole 7
tail 7
tain@@ 7
talked 7
tam@@ 7
tar@@ 7
tation 7
tear 7
tends 7
tense 7
tension 7
ter_@@ 7
tering 7
terrible 7
terrorism 7
theft 7
ther_@@ 7
thiểu_số 7
thua_lỗ 7
thy 7
thái_quá 7
thánh 7
thương_@@ 7
thường_@@ 7
thường_trú 7
thảm_kịch 7
thảo 7
thế_@@ 7
thể@@ 7
thịnh_vượng 7
thống_nhất 7
thờ 7
thụ 7
thủ_phủ 7
thực_@@ 7
thực_khách 7
thực_thể 7
thực_tập_sinh 7
tiger 7
tighten 7
till 7
timely 7
tist 7
titles 7
tives 7
tiến_trình 7
tly 7
toddler 7
toilet 7
ton_@@ 7
tougher 7
toys 7
tract 7
traditionally 7
trang_thiết_bị 7
transi@@ 7
transmissions 7
treats 7
triage 7
tribute 7
triển_vọng 7
trung_@@ 7
trung_gian 7
trung_lưu 7
trusted 7
trình_duyệt 7
trượt_tuyết 7
trị_liệu 7
trốn_thuế 7
ts@@ 7
turing 7
tweeted 7
tz 7
tàu_@@ 7
tàu_thuyền 7
tâm_@@ 7
tê_giác 7
tên_lửa 7
tí@@ 7
tò_mò 7
tóm 7
tư_pháp 7
tươi_sống 7
tướng 7
tấy 7
tẩy 7
tập_luyện 7
tủ_lạnh 7
từ_chức 7
từ_trường 7
từ_từ 7
tựa 7
tỷ_suất 7
u_h@@ 7
unior 7
unsafe 7
urges 7
vào 7
ve_@@ 7
vendors 7
verdict 7
verse 7
vi-@@ 7
vi_sinh_vật 7
vic@@ 7
vice-@@ 7
visi@@ 7
visitor 7
visual 7
von 7
vong 7
vui_lòng 7
vui_mừng 7
vuông 7
vy 7
vào_cuộc 7
vân 7
vé_số 7
vòng_tay 7
vô_hiệu_hoá 7
vùi 7
vắng 7
wa 7
walks 7
ware 7
warming 7
warns 7
washed 7
weakened 7
welcomes 7
whatever 7
whi@@ 7
wholesale 7
windows 7
winners 7
withdraw 7
witnessed 7
witnesses 7
wooden 7
xa_cách 7
xe_lửa 7
xi_măng 7
xinh_đẹp 7
xiếc 7
xách 7
yen 7
zhou 7
zo@@ 7
zoo 7
zy 7
Âu 7
àn_@@ 7
ào_@@ 7
ác_@@ 7
ánh_@@ 7
áo_dài 7
áu 7
ân_@@ 7
âng 7
ä@@ 7
è@@ 7
ê_@@ 7
ông_Son 7
ü@@ 7
Điện_@@ 7
Đoàn_@@ 7
Đài_Bắc 7
Đàm 7
Đăng_@@ 7
Đống_Đa 7
Đồng_bằng 7
Động_vật 7
điểm_@@ 7
đo_lường 7
đài_phát_thanh 7
đài_truyền_hình 7
đánh_thức 7
đè 7
đê_biển 7
đô-la 7
đông_đúc 7
đúng_đắn 7
đầu_bảng 7
đẩy_lùi 7
đến_nỗi 7
đề_kháng 7
đề_phòng 7
đều_đặn 7
định_kỳ 7
đốc 7
đối_đầu 7
đội_trưởng 7
động_@@ 7
động_viên 7
đột_phá 7
ơ_@@ 7
ơm 7
ưng 7
ượng_@@ 7
́@@ 7
́i 7
́p 7
̣i 7
ại_@@ 7
ạm 7
Ả_Rập_Saudi 7
Ả_Rập_Thống 7
Ả_Rập_Xê_Út 7
ản 7
ản_@@ 7
ất 7
ẩn_@@ 7
ẫn 7
ắc_@@ 7
ắt 7
ếp 7
ỉnh 7
ỏi 7
ốn 7
ốn_@@ 7
ồn_@@ 7
ổ@@ 7
ổi_@@ 7
ỗ@@ 7
ội 7
ột 7
ới 7
ở_@@ 7
ứ@@ 7
ữa 7
​​ 7
​​trúc 7
​​vào 7
+603 6
-3 6
-r@@ 6
.org 6
/2020 6
0.8 6
1,5@@ 6
1.300 6
1.3@@ 6
1.400 6
12-@@ 6
121 6
12:@@ 6
14-@@ 6
14th 6
15-@@ 6
159 6
164 6
175 6
1884 6
1885 6
1945 6
1950s 6
1960s 6
1966 6
1970s 6
1973 6
1978 6
1992 6
2,3 6
2,700 6
2019-2020 6
2035 6
204 6
21.@@ 6
21/@@ 6
2100 6
211 6
214 6
22% 6
222 6
22nd 6
23,@@ 6
232 6
238 6
24,@@ 6
24/7 6
246 6
25.@@ 6
258 6
27% 6
271 6
288 6
290 6
2nd 6
3,200 6
3,3 6
3-5 6
3.1 6
3.2 6
314 6
315 6
321 6
324 6
332 6
334 6
33@@ 6
34,@@ 6
352 6
365 6
37.5 6
38,@@ 6
385 6
392 6
3G 6
4.2 6
40.000 6
400.000 6
4000 6
42% 6
44% 6
440 6
44@@ 6
45.@@ 6
46@@ 6
48% 6
49% 6
5.8 6
50,@@ 6
510 6
52@@ 6
6/@@ 6
60-@@ 6
61% 6
612 6
641 6
673 6
69,@@ 6
787 6
8,7 6
8.7 6
8.8 6
80.@@ 6
831 6
8K 6
91st 6
945 6
950 6
981 6
:20 6
ADC 6
AHEPA 6
AM@@ 6
API 6
AS 6
AUD 6
Abominable 6
Across 6
Again 6
Agreement 6
Ai 6
Ailen 6
Aires 6
Alabama 6
Alipay 6
Alsace 6
Andrews 6
Ang@@ 6
Animal 6
Anton@@ 6
Anyone 6
App_Store 6
Appota 6
Apsara 6
Architecture 6
Arctic 6
Arellano 6
Ari@@ 6
Asi@@ 6
Associ@@ 6
Austin 6
BTC 6
Bacter@@ 6
Bahamas 6
Bali 6
Ball 6
Barack_Obama 6
Basel 6
Bastille 6
Bat@@ 6
Beach 6
Behavi@@ 6
Being 6
Beirut 6
Bel@@ 6
Bernard 6
Bes@@ 6
Better 6
Big_Data 6
Bil@@ 6
Bird 6
Birx_@@ 6
Bixby 6
Biên_phòng 6
Blan@@ 6
Blood 6
Blue 6
BlueTrace 6
Bo 6
Bologna 6
Bom 6
Bom@@ 6
Born 6
Boseman 6
Bradley 6
Brand@@ 6
Broad@@ 6
Bru@@ 6
Bruce 6
Bruin 6
Brébisson 6
Buffalo 6
Bul@@ 6
Businesses 6
Buzz@@ 6
Bá@@ 6
Báo_chí 6
Bão_@@ 6
Bão_Noul 6
Bình_Tân 6
Bạc_Liêu 6
Bạch_@@ 6
Bộ_Tư_lệnh 6
Bộ_luật 6
Bộ_đội 6
Bởi_vì 6
CB 6
CBN 6
CC@@ 6
CNTT 6
CRI 6
Canary 6
Cancer 6
Candelaria 6
Cap@@ 6
Care 6
Carri@@ 6
Cay 6
Cer@@ 6
Cham@@ 6
Chamber 6
Chancellor 6
Chandy 6
Changi 6
Chaul 6
Cher@@ 6
Child 6
Chim 6
Chiron 6
Chloroquine 6
Chnam 6
Chris@@ 6
Chrome 6
Chuong 6
Chí_@@ 6
Chất 6
Chỉ_thị 6
Chỉ_đạo 6
Ci@@ 6
Cin@@ 6
Clau@@ 6
Cle@@ 6
Communication 6
Computer 6
Consul@@ 6
Cooperation 6
Copenhagen 6
Corey 6
Country 6
Critics 6
Cruises 6
Cyprus 6
Côn 6
Công_chúa 6
Công_nhân 6
Cơ@@ 6
Cơ_thể 6
Cảm 6
Cựu 6
DL 6
DOC 6
DS 6
Daily_@@ 6
Dak@@ 6
Damascus 6
Dane 6
Daura 6
David_@@ 6
Dean 6
Debater 6
Dermo@@ 6
Detroit 6
Did 6
Diphtheria 6
Diễn_@@ 6
Dmi@@ 6
Doanh_số 6
Doodle 6
Dor@@ 6
Dorsey 6
Dri@@ 6
Dubo@@ 6
Dường_như 6
EL@@ 6
ES@@ 6
EUL 6
Ecolo 6
Economics 6
Elledge 6
Engineering 6
Ernst 6
Estab@@ 6
Evans 6
Everhart 6
Every@@ 6
Exam@@ 6
Explorer 6
Eye 6
FIRS 6
Fahret@@ 6
Fair 6
Fam@@ 6
Far@@ 6
Ferrari 6
Fi@@ 6
Fif@@ 6
Finnair 6
Fish 6
Fleet 6
Flo@@ 6
Forbidden 6
Foreigners 6
Form@@ 6
Fran@@ 6
Franc@@ 6
Free 6
Freeman 6
Fri@@ 6
Frisco 6
GAP 6
GAS 6
GRS 6
Gab@@ 6
Gael 6
Gamaley@@ 6
Gamkrelidze 6
Gap 6
Garden 6
Garment 6
Garrett 6
Geisha 6
Gene@@ 6
GeneXpert 6
Generally 6
George_Floyd 6
Georgian 6
Gerrard 6
Ghosn 6
Giang_@@ 6
Giap 6
Giay 6
Gil@@ 6
Giáp 6
Giải_@@ 6
Giải_pháp 6
Glor@@ 6
Gold 6
Guinevere 6
Gulf 6
H1N1 6
HBM 6
HCDC 6
HD 6
HPG 6
Ha@@ 6
Had@@ 6
Ham 6
Han 6
Hara 6
Harry 6
Hasbro 6
Hieu 6
Hill@@ 6
Hills 6
Hiếu 6
Hiệp_@@ 6
Holding 6
Hollingsworth 6
Holocaust 6
Hong_Kong 6
Honolulu 6
Hor@@ 6
House@@ 6
Howard 6
Hoà_Vang 6
Huanggang 6
Hum@@ 6
Hyderabad 6
Hàm_@@ 6
Hàn 6
Hàng_loạt 6
Hình 6
Hình_ảnh 6
Hướng_@@ 6
Hạm_đội 6
Hải_Nam 6
Hải_Yến 6
Học 6
Hồi_@@ 6
Hội_chứng 6
Hữu_@@ 6
I. 6
ID 6
ILO 6
IM 6
IN@@ 6
IPPF 6
Imgur 6
Immigration 6
Imperial 6
Individuals 6
Innov@@ 6
Instead 6
Institu@@ 6
Intel 6
International_@@ 6
Internet_Explorer 6
Ira@@ 6
Irene 6
JAMA 6
Jack 6
Jake 6
Janeiro 6
Jetro 6
Jimm@@ 6
Jive 6
Jobs 6
Jocelyn 6
Jonathan 6
Joong 6
Joong_Ki 6
Jordanian 6
Jr 6
Jud@@ 6
Justin_@@ 6
KARA 6
Kazakh 6
Kelly 6
Kenny 6
Keqiang 6
Kerala 6
Khu@@ 6
Khói 6
Khắc_@@ 6
Kiet 6
Kil@@ 6
Kim_Ngân 6
Kinh 6
Kinh_doanh 6
Kite 6
Kiệt 6
Kolar 6
Krasnoyarsk 6
Kremlin 6
Kurdistan 6
Kyodo 6
Kẻ 6
Lan_Anh 6
Lang@@ 6
Lao_Động 6
Las 6
Las_Vegas 6
Lati@@ 6
Laz@@ 6
Leia 6
Light 6
Little 6
Living 6
Locals 6
Lotte_Mart 6
Lux@@ 6
Làm 6
Lâm_Đồng 6
Lễ_@@ 6
Lối_Sống_Mới 6
Lời 6
M-TP 6
MAUR 6
ME@@ 6
MIT 6
MRI 6
Mackey 6
Madagascar 6
Maezawa 6
Maharashtra 6
Mainland 6
Manaus 6
Manchester_City 6
Mandal@@ 6
Maria_@@ 6
Marinakis 6
Maryland 6
Mastercard 6
Maybe 6
Mayo 6
McKinney 6
Mecca 6
Men 6
Merri@@ 6
Metropol@@ 6
Micronesia 6
Mien 6
Mission 6
Mo 6
Moham@@ 6
Monogram 6
Moreno 6
Moun@@ 6
Mount 6
Mundt 6
Murillo 6
Musunuru 6
Myaladdinz 6
Máy 6
Mặt 6
Mặt_trăng 6
NG 6
NHC 6
Nairobi 6
Nam-@@ 6
Nam@@ 6
Nam_Trung 6
Nam_Á 6
Nam_Định 6
Nan@@ 6
Naomi 6
Neelum 6
Nestlé 6
Nevada 6
Ngan 6
Nghi@@ 6
Nghi_@@ 6
Nguy_cơ 6
Nguyễn_Xuân_@@ 6
Nguồn 6
Ngài_@@ 6
Ngồi 6
Nhi@@ 6
Nhìn 6
Nicholas 6
Night 6
Nobel 6
Noda 6
Norepinephrine 6
Notting@@ 6
Nues@@ 6
Nuoc 6
Nói_chung 6
Nội_các 6
OKCupid 6
ONE 6
Oakland 6
Off@@ 6
Offic@@ 6
Official 6
Oliver 6
Olympi@@ 6
Olympic_@@ 6
Oman 6
Ong 6
Onyango 6
Orange 6
Overall 6
PA 6
PFS 6
PRC 6
PROCEED 6
PTI 6
Pag@@ 6
Papua 6
Papua_New_Guinea 6
Paraguay 6
Parliament 6
Peace_Corps 6
Ped@@ 6
Pers@@ 6
Phi@@ 6
Phili@@ 6
Philippe 6
Phiên_bản 6
Pho@@ 6
Photo 6
Phát 6
Phòng_thí_nghiệm 6
Phúc_@@ 6
Pombar 6
Pradesh 6
Pro 6
Produc@@ 6
Quan_hệ 6
Quảng_Đông 6
Quốc_Khánh 6
REQ 6
RI@@ 6
RS@@ 6
Radi@@ 6
Rajasthan 6
Rang 6
Rem@@ 6
Report 6
Retail 6
Rh@@ 6
Robo@@ 6
Robocup 6
Rom@@ 6
Ros@@ 6
Rose 6
Ruh@@ 6
Rumani 6
Russians 6
Ruồi 6
Rạng_Đông 6
S20 6
SA 6
SH@@ 6
Sa_@@ 6
Sang 6
Sashimi 6
Sat@@ 6
Saudi_Arabia 6
Save 6
Saxony 6
Schengen 6
Scientific 6
Seex 6
Seven 6
Seymour 6
Shandong 6
Sheba 6
Shiyou 6
Shoal 6
Sing@@ 6
Sky@@ 6
Sokol 6
Song@@ 6
Spirit 6
Spring 6
Sput@@ 6
Stadia 6
Standard 6
Steyer 6
Sur@@ 6
Surrey 6
Surveillance 6
Survi@@ 6
Sus@@ 6
Sw@@ 6
Swaminathan 6
Sy@@ 6
Sở_giao_dịch 6
TH@@ 6
TT@@ 6
Table 6
Tal@@ 6
Tam_Sa 6
Taylor_Swift 6
Teams 6
TechInAsia 6
Teku 6
Telegram 6
Temasek 6
Test 6
Testing 6
Tex@@ 6
Thap 6
The_Associated_Press 6
Theron 6
Thessaloniki 6
Thiềm 6
Thre@@ 6
Thus 6
Thuỷ_@@ 6
Thám_tử 6
Tháng_@@ 6
Thâm_Quyến 6
Thường 6
Thượng_nghị_sĩ 6
Thượng_viện 6
Thạch_@@ 6
Thậm_chí 6
Thế_hệ 6
Thử_nghiệm 6
Tin_tức 6
Tiên_@@ 6
Tiến_@@ 6
Tiếp_theo 6
Toba 6
Tok@@ 6
Tonga 6
Torkham 6
Trail 6
Trang_@@ 6
Trav@@ 6
Tre@@ 6
Treatment 6
Trinidad_và_Tobago 6
Triển_lãm 6
Tro@@ 6
Trung_Nguyên 6
Truyền_hình 6
Trò_chơi 6
Trẻ 6
Tsarnaev 6
Tuncalp 6
Twenty 6
Typhoon 6
Tài 6
Tây_Thái_Bình_Dương 6
Tìm 6
Tương_tự 6
Tại_sao 6
Tất_nhiên 6
Tử_@@ 6
UN@@ 6
UNAIDS 6
UNDP 6
URL 6
USC 6
USDA 6
UXO 6
Ul@@ 6
Ulaanbaatar 6
Ullevål 6
Ung_thư 6
Universities 6
Uyen 6
VASCO 6
VFS-410 6
VFS-510 6
VHM 6
VIC 6
VOV 6
VR 6
Valenti@@ 6
Valitutto 6
Van_Gogh 6
Var@@ 6
Vel@@ 6
Ven@@ 6
Vien 6
Vinhomes 6
Vit@@ 6
Viêng_Chăn 6
Vladimir_Putin 6
Vo@@ 6
Voice 6
Vong 6
Vy 6
Vườn_quốc_gia 6
Vượng 6
Vắc_xin 6
WEF 6
WSJ 6
WWF 6
Warning 6
Weather 6
Westra 6
Whitty 6
Wikipedia 6
Wild@@ 6
Wilkins 6
William_@@ 6
Wing 6
Woolworths 6
World@@ 6
XPS 6
Xiao@@ 6
Xuân_Trường 6
Xuất_@@ 6
Xét_nghiệm 6
Y_@@ 6
Yoshimizu 6
Yusuf 6
Yuzen 6
Yến 6
Zabaykal@@ 6
Zhi@@ 6
Zho@@ 6
Zuckerberg 6
_K@@ 6
_Ser@@ 6
_kh@@ 6
_sinh 6
_sản 6
a_S@@ 6
abdominal 6
abnormal 6
abo@@ 6
absorb 6
accessible 6
accumul@@ 6
accusing 6
achievement 6
aci@@ 6
activate 6
activists 6
ad_@@ 6
add@@ 6
adjust 6
advances 6
adventure 6
adver@@ 6
adverse 6
advis@@ 6
advising 6
advoc@@ 6
ah@@ 6
ah_@@ 6
aining 6
airplane 6
aking 6
al_S@@ 6
ales 6
alists 6
alize 6
allergies 6
alley 6
alliance 6
alling 6
allocated 6
alls 6
alpha 6
alternatives 6
altogether 6
ame@@ 6
amed 6
amiăng 6
amusement 6
ancing 6
anh@@ 6
ank@@ 6
apartments 6
apers 6
apologize 6
appeals 6
aquatic 6
aring 6
arity 6
arranged 6
articles 6
arts 6
ashore 6
assessed 6
associate 6
assured 6
ate@@ 6
ath@@ 6
atic 6
ation@@ 6
atively 6
attitude 6
automaker 6
availability 6
avro@@ 6
bac@@ 6
backs 6
bag 6
ban_công 6
band@@ 6
bankrupt 6
bao_bì 6
barred 6
bb@@ 6
bear 6
bearing 6
beaten 6
beep 6
beings 6
bel 6
beliefs 6
belonged 6
bi 6
bi_kịch 6
bicycle 6
bin 6
binh 6
binh_lính 6
biên_tập 6
biên_tập_viên 6
black@@ 6
blanket 6
blaze 6
blea@@ 6
bles 6
bli@@ 6
boarded 6
bone 6
bor@@ 6
bottle 6
br@@ 6
brains 6
bride 6
broadcas@@ 6
broader 6
brokerage 6
bru@@ 6
bud@@ 6
bull@@ 6
bun@@ 6
bus@@ 6
bụng 6
báo_thức 6
bình_quân 6
bò_sữa 6
bú 6
búp_bê 6
bạch_@@ 6
bạo_hành 6
bản_sao 6
bảo_quản 6
bảo_trợ 6
bất_kì 6
bất_đồng 6
bấy_giờ 6
bắt_gặp 6
bể 6
bệnh_@@ 6
bổng 6
bộ@@ 6
bức_xạ 6
ca_@@ 6
cables 6
cakes 6
cam@@ 6
campylobacter 6
cao_su 6
cao_tầng 6
capabilities 6
caregivers 6
casting 6
cathedral 6
cattle 6
caution 6
cave 6
ce@@ 6
ceiling 6
certification 6
characteristics 6
chat 6
che_giấu 6
chia_tay 6
childhood 6
chiếm_lĩnh 6
chiếm_đoạt 6
chiến_binh 6
chiến_trường 6
churches 6
chuyên_ngành 6
chy 6
chào_@@ 6
chân_@@ 6
chênh_lệch 6
chóng 6
chùm 6
chú_trọng 6
chấn_động 6
chấp 6
chậm_trễ 6
cies 6
cin@@ 6
cing 6
circus 6
ck 6
cky 6
clarified 6
cleaned 6
clearer 6
clearing 6
coff@@ 6
collision 6
colorful 6
commemor@@ 6
compiled 6
complained 6
compulsory 6
cong@@ 6
conscious 6
consciousness 6
consistently 6
consists 6
containment 6
contestants 6
continuously 6
conver@@ 6
conversion 6
corridor 6
cotton 6
counter 6
counterfeit 6
county 6
cri@@ 6
crossings 6
crying 6
cubic 6
cultivation 6
custody 6
cúng 6
cuốn_hút 6
cyber@@ 6
cybersecurity 6
cá_@@ 6
cán 6
cãi 6
công_bằng 6
công_ước 6
cơ_cấu 6
cư_xử 6
cạn_kiệt 6
cảo 6
cấp_@@ 6
cổ_tức 6
cổ_đại 6
cỗ 6
củ@@ 6
cứng 6
cứu_@@ 6
dB 6
d_S@@ 6
dai_dẳng 6
dam 6
dated 6
dd@@ 6
de-France 6
declines 6
delicious 6
democracy 6
demolition 6
demonstrations 6
denies 6
density 6
depart 6
departing 6
deployment 6
deported 6
designs 6
desire 6
detail 6
determination 6
devastation 6
devised 6
diagnostic 6
dialysis 6
diesel 6
disability 6
discipl@@ 6
disinfectant 6
disinformation 6
disorders 6
disrup@@ 6
dium 6
diverse 6
diversify 6
dl 6
dom@@ 6
dominant 6
doubt 6
dow 6
download 6
downpours 6
drag@@ 6
dramatically 6
dried 6
droopy 6
drugstores 6
drunk 6
du_thuyền 6
dumped 6
dung_lượng 6
dán 6
dính_líu 6
dĩ 6
dư 6
dưỡng 6
dược_@@ 6
dầu_hoả 6
dầu_mỏ 6
dịch_chuyển 6
eCommerce 6
eable 6
ead 6
earmarked 6
editing 6
eel 6
eels 6
een 6
eff@@ 6
eh@@ 6
ei 6
eing 6
elec@@ 6
elections 6
eless 6
embrace 6
employer 6
ena 6
enable 6
endure 6
enemy 6
engineered 6
enhancing 6
enko 6
enormous 6
ental 6
enterprise 6
enzyme 6
episode 6
era 6
erc@@ 6
eri@@ 6
erial 6
eries 6
erous 6
ested 6
ests 6
evacuees 6
evaluated 6
evaluating 6
everybody 6
excellent 6
exception 6
exempt 6
expectancy 6
experiments 6
expression 6
ey 6
eyelids 6
faith 6
fame 6
far@@ 6
ferti@@ 6
fertility 6
fighter 6
file 6
firefighters 6
fitness 6
flagged 6
flames 6
flash 6
fli@@ 6
foldable 6
foodborne 6
footwear 6
forbidden 6
formula 6
forth 6
fortune 6
foster 6
frame 6
fre@@ 6
freedoms 6
frogs 6
fru@@ 6
fumes 6
functional 6
furniture 6
gaining 6
genetics 6
ger 6
gged 6
ghts 6
giai 6
gien 6
git 6
giáng 6
gió_giật 6
giải_thể 6
giận_dữ 6
giờ_địa_phương 6
globe 6
graduated 6
graffiti 6
grandchildren 6
graph@@ 6
grows 6
gym 6
gyms 6
habits 6
hacker 6
hair@@ 6
ham_@@ 6
han 6
handover 6
hang 6
hang@@ 6
happiness 6
hat 6
haul 6
haze 6
hearings 6
heatwave 6
heaviest 6
hed 6
highlighted 6
hiếp_dâm 6
hiện_hữu 6
hiệu_trưởng 6
hoang 6
hol@@ 6
homosexual 6
hopefully 6
horse 6
hoà_@@ 6
hu 6
hun@@ 6
hur@@ 6
hyper@@ 6
hàm 6
hành_hung 6
hành_lang 6
hành_pháp 6
héc 6
hình_dáng 6
hư_hỏng 6
hạ@@ 6
hạt_@@ 6
hắn 6
hắt_hơi 6
hằng 6
hệ_điều_hành 6
hồi_@@ 6
hỗn_loạn 6
hữu_@@ 6
i.e. 6
iPrice 6
i_ph@@ 6
icebergs 6
ides 6
idi@@ 6
if@@ 6
ignored 6
illa 6
imag@@ 6
immigrant 6
immunology 6
importing 6
inary 6
inating 6
incoming 6
independence 6
indicates 6
inflammatory 6
influential 6
innocent 6
inpatients 6
inspect 6
inspiration 6
instruments 6
int@@ 6
integrate 6
intention 6
interpreter 6
inventory 6
ira 6
irrigation 6
irs 6
ises 6
ishing 6
itable 6
itan 6
itate 6
ith 6
iz 6
iệp 6
jacket 6
jet 6
joke 6
journalist 6
jør@@ 6
kak@@ 6
kerosene 6
kers 6
khiếm_@@ 6
khoa_học_@@ 6
khoái 6
khéo_léo 6
khẩu 6
khởi_đầu 6
kick 6
kimchi 6
kingdom 6
ky@@ 6
kìm_hãm 6
ký_ức 6
kẹt 6
kịch 6
kỷ_luật 6
lake 6
lan@@ 6
lan_@@ 6
landmark 6
lao_công 6
las@@ 6
lasts 6
launching 6
law@@ 6
ld@@ 6
learners 6
legislation 6
legislative 6
lem@@ 6
lesson 6
lets 6
lied 6
lien 6
lightly 6
limitations 6
lish@@ 6
loaded 6
lopinavir 6
lor@@ 6
los 6
lover 6
loại_hình 6
luồng 6
lying 6
lâm 6
lăng_mạ 6
lạm_phát 6
lầm 6
lập_tức 6
lề 6
lệ 6
lồng 6
lớn_mạnh 6
macadamia 6
mai 6
maneuver 6
mat 6
maternal 6
math 6
mats 6
medically 6
merge 6
meteorological 6
metropolises 6
mid@@ 6
midfielder 6
midst 6
migrant 6
mined 6
minerals 6
mines 6
ministers 6
missed 6
mistake 6
mixed 6
mode 6
mono@@ 6
mph 6
museums 6
musicians 6
mùi 6
má@@ 6
máy_tính_cá_nhân 6
mâu_thuẫn 6
mét_khối 6
mê 6
mí 6
móng 6
mật_độ 6
mặt_bằng 6
mỉm 6
mồ_hôi 6
mụ 6
mục_sư 6
nal 6
ne_@@ 6
necessarily 6
nes@@ 6
net@@ 6
neutral 6
ng_th@@ 6
ng_tài 6
ngai_vàng 6
nged 6
nghiền 6
nghỉ_việc 6
nghị 6
ngoại_ngữ 6
ngoại_trú 6
nguy@@ 6
ngõ 6
người_@@ 6
ngốc 6
nhà_kinh_tế 6
nhân_tố 6
nhìn_nhận 6
như@@ 6
nhạy 6
nhất_@@ 6
nhất_quán 6
nhỉ 6
nhọn 6
nhức 6
nitrogen 6
niệm 6
nn 6
nominees 6
now@@ 6
nowadays 6
nut 6
nutritious 6
nát 6
nước_hoa 6
nồng_độ 6
nội_chiến 6
o_d@@ 6
obligation 6
oc 6
occasions 6
occupations 6
oes 6
ography 6
omi 6
ony 6
opmart 6
opposed 6
opposite 6
orts 6
ounded 6
ounding 6
outbound 6
outright 6
outs 6
over-@@ 6
overweight 6
owning 6
pack@@ 6
painful 6
pan@@ 6
pandemics 6
paralyzed 6
paraquat 6
paste 6
patrol 6
patterns 6
pe 6
peanuts 6
penalty 6
penn@@ 6
perceive 6
perfume 6
permanently 6
pers@@ 6
pests 6
phases 6
phe 6
phiền 6
phiền_@@ 6
pho 6
phủ 6
physi@@ 6
phán 6
pháp_@@ 6
phát_ngôn 6
phát_nổ 6
phân_huỷ 6
phân_tán 6
phòng_@@ 6
phòng_bệnh 6
phóng_sự 6
phóng_xạ 6
phúc_thẩm 6
phần_nào 6
phế_liệu 6
phế_quản 6
pic@@ 6
pilgrims 6
pill 6
pioneer 6
plantation 6
plastics 6
pleaded 6
pleasant 6
please 6
plenty 6
plots 6
poli@@ 6
policeman 6
pon@@ 6
populated 6
post-Covid-19 6
powder 6
pre-tax 6
predic@@ 6
preferential 6
preferred 6
presidency 6
preteens 6
prey 6
princess 6
proactively 6
promise 6
promotional 6
prompt 6
prompted 6
pron@@ 6
protocols 6
psycho@@ 6
puff@@ 6
pull 6
pulmonary 6
pursue 6
quantities 6
quyến_rũ 6
quá@@ 6
quảng 6
racism 6
rad@@ 6
radar 6
raging 6
raided 6
random 6
ranh_giới 6
rau@@ 6
react 6
realizing 6
recordings 6
recruit 6
redness 6
regime 6
reinfor@@ 6
relaxed 6
reliance 6
reliant 6
remotely 6
renal 6
rents 6
requirement 6
responsibilities 6
resumption 6
resurgence 6
retired 6
revealing 6
reviewed 6
richter 6
riding 6
rises 6
ritonavir 6
robust 6
robusta 6
roi 6
romantic 6
rou@@ 6
rubber 6
rumor 6
rup@@ 6
rupiah 6
rủi 6
ràng_buộc 6
rực_rỡ 6
sai_trái 6
sand 6
sandwich 6
sang_trọng 6
sanitation 6
scanner 6
scans 6
scar@@ 6
scrat@@ 6
screaming 6
segment 6
seizures 6
select 6
sessions 6
sewage 6
sexy 6
shi 6
shifted 6
shifts 6
shirts 6
shokuiku 6
shoppers 6
shutting 6
similarities 6
simul@@ 6
sits 6
siz 6
siêu_@@ 6
slapped 6
slowing 6
snacks 6
sni@@ 6
soaring 6
soci@@ 6
sol@@ 6
soup 6
soát 6
soạn 6
spar@@ 6
speculation 6
sph@@ 6
spicy 6
spiders 6
spl@@ 6
spon@@ 6
squ@@ 6
stakeholders 6
star@@ 6
starring 6
stars 6
stealing 6
sted 6
sters 6
stimul@@ 6
stin@@ 6
stockings 6
store@@ 6
stream@@ 6
strike 6
sued 6
sul@@ 6
sunscreen 6
super 6
supplements 6
supposedly 6
surfaces 6
surgeon 6
susceptible 6
suspicious 6
suy_@@ 6
swe@@ 6
swimming 6
sát_thương 6
săn_bắn 6
sơ 6
sản_phụ 6
sắc_@@ 6
số_@@ 6
sụp 6
sụp_đổ 6
tag 6
talent 6
tank 6
tapped 6
tariff 6
tas@@ 6
tel@@ 6
telecom 6
tending 6
teries 6
territorial 6
thai_nhi 6
tham_khảo 6
than@@ 6
thang_máy 6
thea@@ 6
thetic 6
thirds 6
thiêu 6
thiế@@ 6
thiếu_sót 6
thiệu 6
thoả_mãn 6
threaten 6
threatens 6
threats 6
threshold 6
throwing 6
thung_lũng 6
thùng 6
thuận_tiện 6
thành_tựu 6
thám_hiểm 6
thâm_nhập 6
thô 6
thư_ngỏ 6
thư_viện 6
thường_lệ 6
thảm_khốc 6
thất_@@ 6
thất_thoát 6
thế_chấp 6
thể_loại 6
thị_giác 6
thủ_phạm 6
tici@@ 6
tin_@@ 6
tings 6
tioning 6
tis 6
tissues 6
tiêu_chí 6
tiêu_huỷ 6
tiến_hoá 6
tiếng_nói 6
tiếp_quản 6
tiền_bạc 6
tiền_tuyến 6
tom@@ 6
tombs 6
tomorrow 6
ton@@ 6
tonne 6
toy 6
traced 6
traded 6
traditions 6
trafficked 6
traits 6
transaction 6
transfusion 6
trap 6
tray 6
tress 6
trick 6
trics 6
triple 6
trucks 6
trung_lập 6
truy 6
truy_@@ 6
tràn_ngập 6
trách 6
trông_@@ 6
trùm 6
trăm_năm 6
trạng 6
tune 6
tuyên_@@ 6
tuyên_truyền 6
twenty 6
tàn_phá 6
tá 6
tái_phát 6
tát 6
tích_trữ 6
tín_dụng 6
tô@@ 6
tươi_@@ 6
tường_thuật 6
tạm_trú 6
tập_@@ 6
tết 6
tố_cáo 6
tốc 6
tối_qua 6
tối_ưu_hoá 6
u_t@@ 6
uation 6
ultimately 6
umb@@ 6
ums 6
understood 6
unidentified 6
union 6
universal 6
unj@@ 6
unlike 6
unnamed 6
unpaid 6
unrest 6
upgrading 6
uph@@ 6
ures 6
urge 6
urred 6
uyen 6
ủng 6
uốt 6
uỷ_quyền 6
vagina 6
valuable 6
vascular 6
vely 6
vending 6
verification 6
versa 6
virtually 6
visible 6
viên_chức 6
viếng 6
voluntary 6
vomiting 6
voting 6
váy 6
vóc_dáng 6
vô_thời_hạn 6
vĩ_đại 6
vấp 6
vất_vả 6
vật_chủ 6
waking 6
walked 6
ward_@@ 6
waterway 6
wea@@ 6
weakening 6
weapon 6
wel@@ 6
wells 6
wire 6
womb 6
wonderful 6
wounded 6
xa_@@ 6
xa_lạ 6
xa_xôi 6
xuất_@@ 6
xuất_xứ 6
xác_chết 6
xát 6
xích 6
xơ_vữa 6
xấp_xỉ 6
yearly 6
yo@@ 6
yu@@ 6
yêu_mến 6
µg 6
Ô_nhiễm 6
ành 6
ày 6
áp_thuế 6
ã_@@ 6
ão 6
ên_@@ 6
ì_@@ 6
ía 6
ñ@@ 6
ón_@@ 6
ö@@ 6
ø@@ 6
ù@@ 6
ù_@@ 6
ăn_cắp 6
Đi 6
Điều_@@ 6
Điều_trị 6
Đoàn 6
Đông_Timor 6
Đông_Á 6
Đơn_vị 6
Đại_tá 6
Đầu_tiên 6
Đối_@@ 6
Đỗ_@@ 6
Đỗ_Tuấn_Đạt 6
Đứng 6
điên 6
điều_động 6
đàm 6
đàn_áp 6
đá@@ 6
đá_quý 6
đóng_băng 6
đóng_gói 6
đô@@ 6
đơn_phương 6
đường_biển 6
đường_thuỷ 6
được@@ 6
đại_lộ 6
đấu_tranh 6
đằng 6
địa_chỉ 6
địa_hình 6
định_@@ 6
đố 6
đốm 6
đồng_cảm 6
độ_@@ 6
độc_giả 6
đột_ngột 6
ũng 6
ới 6
ườ@@ 6
ường 6
̉n 6
̣@@ 6
̣p 6
ạ@@ 6
ạch_@@ 6
ạnh 6
ạnh_@@ 6
ạo_@@ 6
ảng_@@ 6
ảy 6
ấn_@@ 6
ấu_@@ 6
ẩm_@@ 6
ẩu 6
ằn 6
ẳng 6
ẹn 6
ẹt 6
ẻ@@ 6
ẻ_@@ 6
ề_@@ 6
ền_@@ 6
ễ@@ 6
ệt 6
ỉ 6
ọn 6
ỏ@@ 6
ố 6
ối_@@ 6
ổi 6
ở@@ 6
ụng 6
ủ_bệnh 6
ứng_@@ 6
ừng 6
ử_@@ 6
ữ 6
ự_@@ 6
​​nghị 6
0.3 5
000,000 5
0th 5
1,4@@ 5
1,9 5
1.600 5
1/3 5
1/5 5
10-15 5
102 5
104 5
107 5
11:@@ 5
120.000 5
14.000 5
15/@@ 5
171 5
180,000 5
180.000 5
188 5
1883 5
193 5
1930 5
1930s 5
1963 5
2.200 5
2.7 5
2011-@@ 5
2015-@@ 5
202 5
20s 5
22,000 5
220 5
227 5
234 5
23rd 5
241 5
25/7 5
250.000 5
26,000 5
26,@@ 5
26.@@ 5
26/8 5
266 5
267 5
27,@@ 5
279 5
29.@@ 5
2m 5
3,0@@ 5
3,7 5
3.500 5
30-@@ 5
316 5
32% 5
32,@@ 5
326 5
333 5
345 5
346 5
40.@@ 5
41% 5
416 5
42,@@ 5
44,000 5
45,@@ 5
450,000 5
450.000 5
46% 5
49,@@ 5
49.@@ 5
5,2 5
5,6 5
5.2 5
530 5
54,@@ 5
55% 5
550,000 5
550.000 5
59% 5
60.@@ 5
66.@@ 5
6:@@ 5
7,400 5
7.2 5
7.5 5
7.7 5
7.8 5
73% 5
79@@ 5
86,000 5
9/11 5
90-@@ 5
90s 5
930 5
939 5
98% 5
99% 5
:45 5
AH 5
AM 5
Access 5
Adams 5
Additional 5
Addressing 5
Advis@@ 5
Aguilar 5
AirPo@@ 5
Album 5
Alcohol 5
Alexander 5
Alexandre 5
Allergy 5
Amaz@@ 5
Amiens 5
Ander@@ 5
Angela_Merkel 5
Angko 5
Angola 5
Annecy 5
Antoni@@ 5
Any@@ 5
Area 5
Asian_@@ 5
BS@@ 5
Ba_Đình 5
Baby_One_More_Time 5
Bac@@ 5
Back 5
Bailey 5
Bale 5
Banja 5
Bao_gồm 5
Bap@@ 5
Barbados 5
Barthélemy 5
Bates 5
Bayer 5
Bea@@ 5
Bed@@ 5
Bengal 5
Benjamin 5
Big_C 5
Bill_@@ 5
Bir@@ 5
Biên 5
Biến_đổi 5
Biện_pháp 5
Body 5
Bolivia 5
Boris 5
Brit@@ 5
British_Airways 5
Browne 5
Buddh@@ 5
Buenos_Aires 5
Buil@@ 5
Buriram 5
Buzyn 5
Buổi 5
Bàng 5
Bé 5
Bình_Nhưỡng 5
Bình_Phước 5
Bích_@@ 5
Bước 5
Bản_@@ 5
Bảo_an 5
Bắc_Cực 5
Bằng_chứng 5
Bến 5
Bố 5
CBD 5
CCR5 5
CL@@ 5
CN@@ 5
COP 5
CPTPP 5
Café 5
Canton 5
Cao_Bằng 5
Cao_đẳng 5
Captain 5
Caribbean 5
Carrie 5
Cathedral 5
Cave 5
Cebu 5
Cel@@ 5
Chess 5
Chi_phí 5
Chin@@ 5
Chiến_lược 5
Cho_@@ 5
Chris 5
Chris_@@ 5
Chronic 5
Chua 5
Chánh 5
Châu_@@ 5
Châu_Mỹ 5
Chúa 5
Chế_@@ 5
Cities 5
Citiz@@ 5
Claire 5
Claude 5
Claudette 5
Claus 5
Club 5
Commenting 5
Commercial 5
Commit@@ 5
Common_Sense_Media 5
Conn@@ 5
Consum@@ 5
Craft 5
Crime 5
Cruise 5
Current 5
Custom@@ 5
Cuộc_chiến 5
Cách_ly 5
Cát_@@ 5
Câu_lạc_bộ 5
Công_Phượng 5
Căn 5
Căn_cứ 5
Cơn 5
Cảm_ơn 5
Cảnh_@@ 5
Cấm 5
Cần_@@ 5
Cầu_Treo 5
Cầu_thủ 5
Cố_vấn 5
Cộng_hoà_@@ 5
Cộng_hoà_Séc 5
DB@@ 5
DI@@ 5
DIT 5
DO@@ 5
DRC 5
Daklak 5
Deb@@ 5
Defence 5
Dep@@ 5
Der@@ 5
Desert 5
Diagnosis 5
Direct 5
Districts 5
Diễn_viên 5
Doanh_nghiệp 5
Does 5
Domestic 5
Domoff 5
Donetsk 5
Dornogovi 5
Drugs 5
Drum 5
Duchess 5
Dun@@ 5
Dung_Quất 5
Dynasty 5
Dược 5
Dịch_@@ 5
Dự_@@ 5
Ear@@ 5
Educ@@ 5
Eight 5
Eli@@ 5
Emilia 5
Emiratis 5
Epidemio@@ 5
Es@@ 5
Ethiopian 5
Exp@@ 5
Exper@@ 5
Expressway 5
FIA 5
FO 5
FRB 5
FRB@@ 5
Fair_@@ 5
Falcon 5
Farm@@ 5
Faso 5
Fisheries 5
Foehn 5
Fol@@ 5
Fortunately 5
Fouke 5
Fox 5
Freedom 5
Fresh 5
Fruit 5
Future 5
GI@@ 5
GO@@ 5
GP 5
Gambia 5
Geor@@ 5
Ghe@@ 5
Gilbert 5
Gim@@ 5
Gir@@ 5
Girls 5
Giáo 5
Giáo_hội 5
Giờ_đây 5
Glob@@ 5
Gomez 5
Gon 5
Gra@@ 5
Grenadines 5
Grey 5
Guangdong 5
Guinea_Xích_đạo 5
Guinness 5
Gy@@ 5
Găng_tay 5
HB@@ 5
HK@@ 5
HLV 5
HR 5
HT@@ 5
HTTP 5
Hab@@ 5
Hai_Bà_Trưng 5
Ham@@ 5
Heathrow 5
Hepatitis 5
Herald 5
Herzegovina 5
Highway 5
History 5
Hiền 5
Hiển 5
Hiệp_định 5
Hold 5
Holiday 5
Homeland 5
Hoàn_@@ 5
Hoàng_Anh 5
Hoàng_hậu 5
Hoả_Thần_Sơn 5
Hoặc 5
Hurricane 5
Hô@@ 5
Hương_Giang 5
Hạt_@@ 5
Hậu_@@ 5
Hồ@@ 5
Hộ_chiếu 5
Hợp_@@ 5
ICOs 5
Identi@@ 5
Ignaz 5
Images 5
Immun@@ 5
Inclu@@ 5
Increas@@ 5
Indo 5
Inf@@ 5
Initi@@ 5
Institutes 5
Interior 5
Intermediate 5
Investig@@ 5
Islam 5
Israelis 5
Italians 5
JR 5
Jamiul 5
Jan@@ 5
Jason 5
Jeju 5
Jenna 5
Jeremy 5
Ji@@ 5
Joe_@@ 5
Jones 5
Jose 5
Jose@@ 5
Joseph_@@ 5
Journal@@ 5
Julia 5
Justin_Bieber 5
Kaiser 5
Kaliningrad 5
Ke 5
Key@@ 5
Khairunnisa 5
Khalili 5
Khue 5
Khuê 5
Khách_hàng 5
Khí_hậu 5
Khẩu_trang 5
Ki 5
Kinda 5
Kir@@ 5
Koca 5
Koch 5
Krasnodar 5
Kured@@ 5
Kyo_York 5
Kết_@@ 5
Laboratory 5
Lady_Gaga 5
Lak 5
Large 5
Lausanne 5
Legal 5
Leger 5
Let 5
Lev@@ 5
Ley@@ 5
Li_@@ 5
Liberia 5
Light@@ 5
Line 5
Linh_@@ 5
Lion_@@ 5
List 5
Lithuania 5
Liverpool 5
Loan 5
Localities 5
Located 5
Lombardia 5
Loo@@ 5
Lopez 5
Lopifit 5
Loài 5
Luc 5
Luka 5
Lyon 5
Lâm_@@ 5
Lãnh_@@ 5
Lôi_@@ 5
Lạc 5
Lịch_sử 5
Lợi 5
Lục_quân 5
MB 5
MP 5
MTV 5
Mach@@ 5
Mak@@ 5
Mand@@ 5
Marche 5
Mark_@@ 5
Martinez 5
Marvel 5
Master 5
Mat 5
Matt_@@ 5
Mauriti 5
May_mắn 5
Mayo_Clinic 5
McFarlane 5
McMaster 5
Medium 5
Met@@ 5
Millennials 5
Moc 5
Model 5
Moderna 5
Morbihan 5
Morning 5
Mother 5
Mountain 5
Ms 5
Ms. 5
Muong 5
Má@@ 5
Môn 5
Mông_Cổ 5
Mùa 5
Mặt_Trời 5
Mộc_Bài 5
Một_cách 5
Mới 5
Mời 5
N1 5
NO@@ 5
NP 5
NS 5
Nagasaki 5
Naikon 5
Naivasha 5
Nancy 5
Nansha 5
Nas@@ 5
Natalie 5
Naz@@ 5
Newfoundland 5
Next 5
Ngac 5
Nghĩa 5
Nguyễn_Hồng_Nhung 5
Nguyễn_Thanh_Phong 5
Nguyễn_Tr@@ 5
Người_@@ 5
Ngược_lại 5
Nhi_đồng 5
Nhiệm_vụ 5
Nhuận 5
Nhật_Cường 5
Nhờ 5
Nigerian 5
Nikkei 5
Nile 5
Nom@@ 5
Norovirus 5
North_@@ 5
Norwegian 5
Number 5
Nông_dân 5
Núi 5
Nậm_@@ 5
Nền 5
Nỗ_lực 5
OM 5
OceanBank 5
Oli@@ 5
On@@ 5
On_@@ 5
One_World 5
Onward 5
Origin@@ 5
Orjuela 5
PC@@ 5
PH@@ 5
PMLE 5
PS 5
Pacific_Airlines 5
Pand@@ 5
Pap@@ 5
Paralympic 5
Parks 5
Parma 5
Part@@ 5
Pen@@ 5
Penh 5
Permanent 5
Petro@@ 5
Phan_Văn_Anh_Vũ 5
Phnom 5
Phnom_Penh 5
Pho 5
Photograph@@ 5
Phung 5
Phá@@ 5
Phúc_lợi 5
Phạm_Bình_Minh 5
Phần 5
Phần_lớn 5
Phần_mềm 5
Phụ_@@ 5
Pixar 5
Plus 5
Poor 5
Porto 5
Prices 5
Primary 5
Privacy 5
Prof 5
Promotion 5
Provinces 5
Puer@@ 5
Pyongyang 5
Qualcomm 5
Quat 5
Quy_@@ 5
Quyet 5
Quân 5
Quân_y 5
Quảng 5
Quảng_@@ 5
Quỳnh_@@ 5
Railways 5
Rap@@ 5
Ras@@ 5
Real@@ 5
Realtime_PCR 5
Regi@@ 5
Relief 5
Ren@@ 5
Republika 5
Rescue 5
Resolution 5
Resorts 5
Resp@@ 5
Results 5
Ret@@ 5
Reu@@ 5
Ris@@ 5
River@@ 5
Robotics 5
Romanian 5
Rosario 5
Rumors 5
Rus@@ 5
Ryan_@@ 5
Rừng 5
SN@@ 5
STIs 5
Saf@@ 5
San_@@ 5
Satur@@ 5
Savoie 5
Scre@@ 5
Second 5
Sector 5
Senate 5
Sense 5
Shan@@ 5
Shin@@ 5
Shop 5
Sihanoukville 5
Silva 5
Silver_Shores 5
Similar 5
Singaporean 5
Sinh_học 5
Smart 5
Some@@ 5
South@@ 5
Spa 5
SpaceX 5
Stanley 5
Stay 5
Stop@@ 5
Strategic 5
Student 5
Studio 5
Sulfur@@ 5
Sun_Group 5
Super 5
Supreme 5
Suy_@@ 5
Sân_vận_động 5
Séc 5
Sénégal 5
Sông 5
Sơn_La 5
Sơn_Tây 5
Sương_mù 5
Sản_lượng 5
Sản_phẩm 5
Số@@ 5
Sống 5
Sức_mạnh 5
Sự_@@ 5
T1 5
T2 5
T3 5
TCB 5
TPHCM 5
TS 5
Tae 5
Taiwanese 5
Taking 5
Taobao 5
Tar@@ 5
Team 5
Tests 5
Thach 5
Thanh_Xuân 5
Thank 5
Thay_vì 5
The_Old_Guard 5
Theo_dõi 5
Thirteen 5
Thiết_bị 5
Thiền_sư 5
Thiện_@@ 5
Thom@@ 5
Thuý_@@ 5
Thuật_@@ 5
Thành_uỷ 5
Thành_viên 5
Thư_ký 5
Thương_@@ 5
Thạnh 5
Thảm_hoạ 5
Thế_vận_hội_Mùa 5
Thời_trang 5
Thức 5
Tiêm 5
Tiến_Dũng 5
Tiền_@@ 5
Tiền_đạo 5
Tourist 5
Tourists 5
Tox@@ 5
Toàn_@@ 5
Tren@@ 5
Treo 5
Trinity 5
Trung_thu 5
Trust 5
Trúc_Nhân 5
Trước_@@ 5
Trường_học 5
Trần_Văn_@@ 5
Tuberculosis 5
Ty@@ 5
Type 5
Tái_@@ 5
Tâm_@@ 5
Tân_Thiên_Địa 5
Tín 5
Tạm 5
Tối 5
Tự 5
Unfortunately 5
Ung_bướu 5
United_@@ 5
V-@@ 5
VA 5
VIệt_Nam 5
VN50 5
VND200 5
VND4 5
VND5 5
VND7 5
VNDIRECT 5
VNPPA 5
Vabiotech 5
Vacc@@ 5
Vap 5
Vegan@@ 5
Verona 5
Victor@@ 5
Vincenot 5
Vitina 5
Việ@@ 5
Viện_Hàn_lâm 5
Vogue 5
Vs 5
Vào_khoảng 5
Vân_Nam 5
Vì_thế 5
Vùng_@@ 5
Văn_Mai_Hương 5
Vũ@@ 5
Vương_@@ 5
Vương_quốc 5
Vật_lý 5
Vợ_chồng 5
Way 5
Webster 5
Week 5
Welfare 5
Wellington 5
Wend@@ 5
Where 5
Will 5
Withington 5
Witnesses 5
Wo@@ 5
Works 5
X. 5
Xi@@ 5
Xisha 5
Xuyên 5
Yang 5
Yoshi@@ 5
Yoshihi@@ 5
Yunnan 5
Yurik@@ 5
Zam@@ 5
_Bro@@ 5
_Hùng_@@ 5
_lý 5
_thuật 5
_thực 5
_trang 5
abs 5
absolutely 5
abusing 5
abusive 5
accel@@ 5
accelerate 5
acceptable 5
accompl@@ 5
accurately 5
ace 5
acking 5
acquaintances 5
acquiring 5
acres 5
acti@@ 5
activist 5
ada 5
adapted 5
additions 5
adjusted 5
admission 5
adopting 5
advantageous 5
advisor 5
advisory 5
affirm 5
afterwards 5
agers 5
aggregator 5
ague 5
aides 5
ails 5
ainable 5
ained 5
ains 5
airs 5
akes 5
akia 5
alerts 5
alg@@ 5
alities 5
alizing 5
allergic 5
alleys 5
alli@@ 5
allow@@ 5
alt@@ 5
alter@@ 5
ambition 5
amine 5
aming 5
amniotic 5
amongst 5
ana@@ 5
ancestral 5
anci@@ 5
anding 5
ands 5
angel 5
angry 5
anh_@@ 5
animated 5
ank 5
ant@@ 5
antigens 5
apologized 5
apology 5
apparent 5
apparently 5
appe@@ 5
appealed 5
applicants 5
appreci@@ 5
approaches 5
arch@@ 5
architectural 5
argument 5
aro 5
arr@@ 5
array 5
asbesto@@ 5
ashi 5
aspir@@ 5
aspirin 5
associations 5
ata 5
atas 5
atherosclerosis 5
atmospheric 5
atories 5
attempted 5
attendance 5
attendees 5
attorney 5
attracts 5
aug@@ 5
aunt 5
aut@@ 5
authentication 5
autom@@ 5
automated 5
automobile 5
avoided 5
awa@@ 5
awarded 5
backing 5
baked 5
balanced 5
balcony 5
ballad 5
balls 5
bao_trùm 5
bare 5
basketball 5
baskets 5
battle@@ 5
behave 5
belong 5
beneficial 5
berry 5
beta 5
bike 5
bikes 5
bility 5
binh_@@ 5
birthmarks 5
births 5
biting 5
bitration 5
bitten 5
biến_thể 5
biểu_@@ 5
blind 5
boards 5
boasts 5
bom_mìn 5
boom 5
bordering 5
boss 5
botulism 5
boycott 5
bra@@ 5
branded 5
breakthrough 5
breast 5
breastfeeding 5
brewer 5
bridges 5
broadcaster 5
brushing 5
bug 5
bugs 5
bull 5
bustling 5
buys 5
buýt 5
buồn_nôn 5
byproducts 5
bày_bán 5
bán_chạy 5
bánh_chưng 5
bánh_quy 5
bánh_trung_thu 5
bí 5
bó@@ 5
bóng_@@ 5
bùn 5
bún 5
băng_đảng 5
bơ@@ 5
bước_@@ 5
bướm 5
bại_liệt 5
bạo 5
bất_khả_thi 5
bẩm_sinh 5
bằng_cấp 5
bề 5
bị@@ 5
bọ 5
bọt 5
bỏ_@@ 5
bồ@@ 5
bội 5
c-@@ 5
ca_sỹ 5
calculate 5
cancelling 5
candles 5
capit@@ 5
careers 5
caring 5
catering 5
celebrating 5
centered 5
chanh 5
characteristic 5
charts 5
cheap 5
check@@ 5
checkers 5
cheese 5
chem@@ 5
chemistry 5
chers 5
chi_phối 5
chili 5
chimney 5
chip 5
chiến_thuật 5
choking 5
chua 5
chuyên_sâu 5
chân_dung 5
chè 5
chính_thống 5
chóng_mặt 5
chú@@ 5
chúc 5
chăm 5
chăn 5
chạy_đua 5
chảo 5
chấp_hành 5
chất_nổ 5
chộp 5
chợt 5
chủ_nghĩa 5
chủ_trì 5
chữ_ký 5
circum@@ 5
cks 5
cla@@ 5
clas@@ 5
classification 5
cles 5
clinics 5
clock 5
clocks 5
coccal 5
collaborate 5
collap@@ 5
collar 5
combine 5
combining 5
commander 5
commerce 5
complaints 5
compliance 5
component 5
composed 5
comprising 5
computing 5
con_bé 5
conc@@ 5
concerning 5
conclude 5
conclusion 5
condom 5
confused 5
consent 5
consisting 5
constitu@@ 5
consultancy 5
consumes 5
contamination 5
continent 5
contraction 5
controversy 5
convenient 5
convention 5
convic@@ 5
convince 5
coordinate 5
copy 5
copyright 5
corner 5
corners 5
corporation 5
corruption 5
costing 5
cottonseed 5
cou@@ 5
cour@@ 5
courage 5
coverage 5
cram@@ 5
cried 5
crowned 5
cruises 5
curbing 5
cute 5
cuồng_nhiệt 5
cy 5
cà_@@ 5
cô_đơn 5
công_chúa 5
công_cuộc 5
công_nghệ_@@ 5
căn_@@ 5
căng 5
cường_quốc 5
cải_tạo 5
cải_tổ 5
cảnh_tượng 5
cấ@@ 5
cầu_khuẩn 5
cắp 5
cố_tình 5
cố_định 5
cống 5
cổ_họng 5
cứu_thương 5
cực_đoan 5
d_R@@ 5
dain 5
dam@@ 5
danh_@@ 5
dealt 5
deck 5
declaring 5
decorate 5
decorations 5
defeated 5
defend 5
deficit 5
dehydration 5
delaying 5
delays 5
deli@@ 5
demonstrate 5
densely 5
dependent 5
depressed 5
depth 5
describe 5
dian 5
dic 5
diff@@ 5
digestive 5
digging 5
digit 5
diplomats 5
dipping 5
directing 5
disappear 5
disappears 5
disclosing 5
disinfectants 5
disinfected 5
dislike 5
display 5
displayed 5
disposable 5
disposal 5
ditionally 5
diversi@@ 5
diversity 5
divide 5
dly 5
do_@@ 5
documentary 5
don@@ 5
donations 5
dou@@ 5
downloaded 5
dra@@ 5
draft 5
dramatic 5
droplets 5
ds_@@ 5
du_nhập 5
dual 5
duc@@ 5
dump 5
dur@@ 5
dân_dụng 5
dãy 5
dì 5
dưa 5
dược_sĩ 5
dầu_diesel 5
dẫn_chương_trình 5
dế 5
dọa 5
dồi_dào 5
e. 5
ea 5
eal@@ 5
earns 5
ecological 5
economically 5
ective 5
ed_@@ 5
eddy 5
editors 5
educators 5
ef@@ 5
efficiently 5
ela 5
elder 5
ele 5
electron 5
elements 5
eleventh 5
eliminate 5
ello 5
elt 5
em_gái 5
em_trai 5
emerge 5
emp@@ 5
employ 5
ems 5
enacted 5
encompass 5
endor@@ 5
ene@@ 5
ened 5
enroll 5
enthusiastic 5
environments 5
eon 5
epidemics 5
eption 5
equality 5
error 5
escaping 5
estation 5
ester 5
estrogen 5
etary 5
eties 5
euro 5
evaluate 5
everages 5
eves 5
ex-@@ 5
exam@@ 5
examinations 5
exceeds 5
exceptional 5
exceptions 5
excessive 5
exciting 5
executives 5
exemp@@ 5
exercising 5
exhibition 5
exists 5
exit 5
expectation 5
expectations 5
expecting 5
expelled 5
experimenting 5
explosives 5
expressing 5
extensions 5
external 5
fac@@ 5
fairly 5
falsely 5
fantasy 5
fare 5
fas@@ 5
fearing 5
featuring 5
fed 5
federation 5
fem@@ 5
females 5
ffs 5
fibers 5
fic@@ 5
fies 5
finger@@ 5
flavor 5
flavors 5
fleas 5
flexible 5
floodwaters 5
forecasting 5
format 5
fortnight 5
fr 5
fraudulent 5
fresh@@ 5
fridge 5
frigh@@ 5
fro@@ 5
frozen 5
ful@@ 5
funeral 5
futures 5
gall@@ 5
gan_@@ 5
gang 5
garbage 5
gardens 5
gems 5
gence 5
genic 5
genome 5
ghan 5
ghi_chép 5
ghost 5
gia_dụng 5
gian_hàng 5
giao_thức 5
gies 5
gio 5
giám_khảo 5
giông 5
giả_định 5
giải_mã 5
giảng 5
giận 5
glo@@ 5
gon 5
gotten 5
governors 5
grabbed 5
grand 5
grand@@ 5
grandmother 5
grandparents 5
granting 5
gratitude 5
grave 5
gre@@ 5
groceries 5
guy 5
gõ 5
gắn_kết 5
h30 5
h_@@ 5
hacking 5
hailed 5
hails 5
halting 5
handful 5
har 5
harvested 5
hashtag 5
healing 5
heating 5
hiatus 5
highlands 5
highlights 5
hing 5
hiếm_hoi 5
hiện_thực 5
hiện_đại_hoá 5
hiệp_ước 5
hiệu_ứng 5
holders 5
hong 5
hood 5
hop 5
hospitality 5
hot@@ 5
hoà_nhập 5
hoàng 5
hoành_hành 5
hoóc-môn 5
hut 5
huỷ_diệt 5
huỷ_hoại 5
hydr@@ 5
hydro 5
hygi@@ 5
hypo@@ 5
hãm_hiếp 5
hôi 5
hùng_vĩ 5
hạ_@@ 5
hải_lý 5
hấp 5
học_viên 5
hồi_tưởng 5
hội_đồng 5
hữu_hạn 5
iQiyi 5
i_l@@ 5
iana 5
icide 5
ida_@@ 5
identical 5
iding 5
igned 5
ilin 5
ills 5
ilton 5
immun@@ 5
impl@@ 5
importer 5
inability 5
incense 5
inches 5
incredible 5
incredibly 5
incubation 5
indeed 5
indirect 5
induced 5
industri@@ 5
ingo 5
ingredient 5
ining 5
inner 5
inspired 5
installation 5
instantly 5
instituted 5
insufficient 5
insul@@ 5
intelligent 5
inten@@ 5
intoxication 5
invited 5
iors 5
ir 5
iri@@ 5
iron 5
is-@@ 5
ishment 5
ital 5
iting 5
itor 5
itting 5
izes 5
iề@@ 5
iều_@@ 5
iện 5
jack@@ 5
janitor 5
jets 5
jian 5
joins 5
joy 5
kan 5
kar@@ 5
ke_@@ 5
ken 5
keting 5
khe 5
khoai_@@ 5
khoang 5
khoáng_chất 5
khuynh_hướng 5
khuyến_mãi 5
khuyết 5
khuôn 5
khuôn_khổ 5
khát_vọng 5
khâu 5
khí_đốt 5
khô_hạn 5
không_quân 5
khả 5
khốc_liệt 5
khởi_công 5
khởi_tố 5
khủng_hoảng_kinh_tế 5
kicked 5
kid 5
kilomet 5
kim_ngạch 5
kin 5
kin@@ 5
kiến_@@ 5
kiểm_@@ 5
kép 5
kích_cầu 5
kính_trọng 5
ký_sinh_trùng 5
kẹo 5
kế_@@ 5
kế_tiếp 5
kết_bạn 5
la_@@ 5
la_hét 5
lactic 5
lam 5
landscapes 5
lang_thang 5
lar@@ 5
laundering 5
lawful 5
laying 5
league 5
lecturer 5
lend 5
lesbian 5
let@@ 5
lics 5
lighting 5
lime 5
lin 5
lings 5
linh_hồn 5
linh_kiện 5
linh_mục 5
lions 5
liqu@@ 5
litchi 5
liều_lượng 5
ll@@ 5
lo_âu 5
loans 5
lob@@ 5
locating 5
logic 5
logistics 5
lope 5
lottery 5
lovers 5
lucrative 5
lunch 5
lure 5
làm_bạn 5
làm_sao 5
lành_nghề 5
lâm_@@ 5
lãnh 5
lão_hoá 5
lét 5
lên_@@ 5
lý_tưởng 5
lĩnh 5
lũ_quét 5
lạc_quan 5
lắp_ráp 5
lặng 5
lặp_đi_lặp_lại 5
lịch_sự 5
lọ 5
lờ 5
lời_@@ 5
m2 5
m_ch@@ 5
mad 5
maggots 5
maintains 5
makeup 5
malicious 5
malware 5
manages 5
manpower 5
manual 5
manufacture 5
marrying 5
matching 5
mature 5
meanwhile 5
mec 5
medals 5
memor@@ 5
mentally 5
merger 5
mg 5
mil@@ 5
min 5
minds 5
minimizing 5
mining 5
minorities 5
missile 5
mitigating 5
mitting 5
miễn_là 5
moderni@@ 5
monetary 5
moon@@ 5
moonshot 5
mort@@ 5
mortuary 5
motiv@@ 5
motivation 5
moun@@ 5
mp 5
ms@@ 5
mucosal 5
mud 5
multinational 5
mushrooms 5
mụ 5
mát_mẻ 5
máy_quét 5
máy_ảnh 5
mã_hoá 5
mãi 5
mãi_mãi 5
mì 5
mòn 5
mù 5
mại 5
mất_mát 5
mộc 5
mở_@@ 5
nam_@@ 5
nar@@ 5
nate 5
nausea 5
nd 5
nec@@ 5
necology 5
needing 5
neighb@@ 5
neighborhoods 5
neither 5
nell 5
nem_chua 5
ner@@ 5
neutral@@ 5
newest 5
ngers 5
nghi_án 5
nghỉ_hè 5
nghỉ_phép 5
nghị_quyết 5
ngoại_quốc 5
nguyên_tố 5
nguyên_vẹn 5
nguyện 5
nguyện_vọng 5
nguỵ_trang 5
ngày_mai 5
ngạt 5
ngụ_ý 5
nha_chu 5
nhiếp_ảnh_gia 5
nhiệt_tình 5
nhà_hát 5
nhà_vua 5
nhà_điều_hành 5
nhì 5
nhạc_@@ 5
nhấc 5
nhập_học 5
nhập_vai 5
nhỏ_xíu 5
ni 5
nightmare 5
niên_@@ 5
nonessential 5
noodle 5
noon 5
notably 5
notify 5
notorious 5
nt 5
nutritional 5
nuôi_@@ 5
nút 5
nâu 5
nói_dối 5
nôn_mửa 5
nông_@@ 5
nước_mắm 5
nến 5
nốt 5
nồi 5
nổi_@@ 5
o_động 5
obese 5
obtaining 5
occupied 5
oda 5
offenders 5
offspring 5
oides 5
ok@@ 5
ola 5
ole 5
om 5
on-@@ 5
onal@@ 5
onboard 5
ones@@ 5
onic 5
onne 5
onward 5
onwards 5
oods 5
opt 5
opted 5
opti@@ 5
or_@@ 5
ores 5
orest 5
orientation 5
origins 5
orm 5
oro@@ 5
ort 5
ould 5
oun@@ 5
outcome 5
outcomes 5
outer 5
outlying 5
outpatients 5
owing 5
packing 5
pages 5
pain@@ 5
painted 5
paintings 5
paras@@ 5
passbook 5
passwords 5
patent 5
paths 5
penetr@@ 5
perceived 5
perspective 5
pharmac@@ 5
phi@@ 5
phi_thường 5
phil@@ 5
philosoph@@ 5
phiêu_lưu 5
phong_cách 5
photograph@@ 5
phu@@ 5
phái 5
phái_đoàn 5
phát_thanh 5
phê 5
phình 5
phương_@@ 5
phương_diện 5
phần_@@ 5
phần_thưởng 5
phẫn_nộ 5
phụ_tùng 5
pine 5
pipe 5
pirated 5
plan@@ 5
planners 5
planted 5
plot 5
poachers 5
policemen 5
policymakers 5
poll 5
pollu@@ 5
pollutants 5
populous 5
portrait 5
postpone 5
pou@@ 5
prayers 5
presentation 5
presenting 5
preserve 5
pressed 5
prevailing 5
prevalence 5
priest 5
principles 5
prisoners 5
procurement 5
productions 5
prone 5
proposals 5
proving 5
ption 5
publici@@ 5
pump@@ 5
punish 5
pupils 5
pur 5
purifiers 5
pursuing 5
qua_lại 5
qualifying 5
que_@@ 5
queen 5
questi@@ 5
queue 5
quo 5
quo@@ 5
quý_@@ 5
quý_giá 5
quảng_bá 5
quấy_rối 5
quật 5
quỳ 5
rab@@ 5
races 5
racial 5
radi@@ 5
raises 5
rankings 5
re_@@ 5
reaches 5
reactor 5
recruited 5
recurring 5
recycle 5
ref@@ 5
refinery 5
reflected 5
reflects 5
reform 5
reforms 5
refu@@ 5
refugee 5
refusing 5
regarded 5
regret 5
rel@@ 5
reli@@ 5
rement 5
removes 5
rena 5
renewed 5
rental 5
repatriate 5
repeat 5
replied 5
reschedu@@ 5
rescued 5
resilient 5
resolution 5
resolved 5
restore 5
ret 5
rev@@ 5
reviews 5
ries 5
rit@@ 5
ritual 5
rituals 5
roaches 5
road@@ 5
ron@@ 5
roof 5
rors 5
rough 5
rounds 5
rub@@ 5
rung_chuyển 5
ry@@ 5
rìa 5
rò_rỉ 5
rút_tiền 5
rượu_bia 5
rể 5
rối 5
rỗng 5
rửa_tiền 5
sac@@ 5
sailors 5
sam@@ 5
savings 5
scales 5
scam@@ 5
scams 5
scared 5
scen@@ 5
screens 5
scri@@ 5
scrutiny 5
seas 5
seats 5
segments 5
selection 5
sely 5
sends 5
separating 5
sequence 5
serotype 5
serotypes 5
shaped 5
shelters 5
shi@@ 5
shire 5
shirt 5
shoo@@ 5
shooting 5
shor@@ 5
shouting 5
showers 5
shrink 5
sidelines 5
signals 5
silence 5
sim@@ 5
simultaneously 5
sing@@ 5
singing 5
sinh_kế 5
sional 5
sle@@ 5
soi 5
soldier 5
somewhat 5
son@@ 5
southwest 5
sovereign 5
span 5
spectators 5
specul@@ 5
speeds 5
spices 5
spir@@ 5
split 5
spo@@ 5
spor@@ 5
spotlight 5
spyware 5
squad 5
ss 5
stat@@ 5
statue 5
steroid 5
stic 5
stiff 5
stimulation 5
stitution 5
stor@@ 5
stra@@ 5
stri@@ 5
string 5
strokes 5
strongest 5
sub-Saharan 5
subsequent 5
subsidies 5
suburban 5
suit@@ 5
supervi@@ 5
supplying 5
surgeries 5
surprises 5
surprisingly 5
sweat 5
swelling 5
sym@@ 5
symptomatic 5
sách_@@ 5
sáng_@@ 5
sáng_chế 5
sát_viên 5
sân_nhà 5
sâu_răng 5
sâu_rộng 5
sương_mù 5
sẹo 5
sống_còn 5
sổ_đỏ 5
ta_@@ 5
tables 5
tackling 5
tagged 5
tak@@ 5
tan_vỡ 5
tap 5
tastes 5
te-@@ 5
tel_@@ 5
telecommunication 5
televised 5
tened 5
termin@@ 5
terror 5
tex@@ 5
tha 5
themes 5
then_chốt 5
thered 5
thi_@@ 5
thi_công 5
thin 5
thir@@ 5
thoughts 5
throne 5
thu_@@ 5
thuê_bao 5
thú 5
thuế_thu_nhập 5
thuốc_@@ 5
thách 5
thông_lệ 5
thơ_ấu 5
thảo_dược 5
thầu 5
thẩm_mỹ_viện 5
thắc_mắc 5
thắp 5
thằng 5
thế_là 5
thể_@@ 5
thể_xác 5
thợ 5
thủng 5
thứ_tự 5
tightened 5
tina 5
tina_@@ 5
tine 5
tip 5
tired 5
tized 5
tiêu_@@ 5
tiêu_biểu 5
tiếp_@@ 5
tiếp_đón 5
tiềm_tàng 5
tiền_vệ 5
toler@@ 5
tooth@@ 5
topics 5
torrential 5
toán_học 5
toạ_lạc 5
tracked 5
trader 5
tragic 5
train@@ 5
trang_trải 5
tremors 5
tres 5
triggering 5
trio 5
tron@@ 5
trong_@@ 5
troops 5
trung_học_cơ_sở 5
trusting 5
trustworthy 5
truy_tố 5
truyền_thuyết 5
truyền_tải 5
trào 5
trì 5
trình_@@ 5
trúng_thầu 5
trước_kia 5
trả_giá 5
trấn_an 5
trọn 5
trọng_@@ 5
trọng_tâm 5
trỗi 5
trội 5
tt 5
tted 5
tually 5
tuition 5
turnover 5
tuyên_thệ 5
tuyết 5
tuần_hoàn 5
twelve 5
tài_phán 5
tán_thành 5
tân_@@ 5
tình_cảnh 5
tình_nghi 5
tích_luỹ 5
tím 5
tôm 5
tăm 5
tăng_sản 5
tại_@@ 5
tẩy_chay 5
tắc_nghẽn 5
tố@@ 5
tổ@@ 5
tụ 5
tứ_kết 5
từ@@ 5
tử_hình 5
tự@@ 5
tự_hành 5
u-@@ 5
ula 5
ulations 5
ull@@ 5
uma 5
un_@@ 5
unemployed 5
united 5
unwell 5
upgrade 5
ural 5
urn 5
uối 5
uỷ_ban_nhân_dân 5
va_@@ 5
var@@ 5
varieties 5
venomous 5
verbal 5
versus 5
ves@@ 5
vi_@@ 5
vi_trùng 5
vibrant 5
viewed 5
viewing 5
vinh_dự 5
violators 5
viru@@ 5
viễn_cảnh 5
vu@@ 5
vulnerability 5
vành 5
vâ@@ 5
vì_thế 5
vòng_@@ 5
vòng_quanh 5
vô@@ 5
vô_số 5
vô_tuyến 5
vô_tội 5
vùng_cao 5
văn_@@ 5
vũ_khí_hoá_học 5
vũ_trường 5
vũ_trụ 5
vương 5
vẹn 5
về@@ 5
vốn_điều_lệ 5
walls 5
wanting 5
wars 5
was@@ 5
waterfalls 5
weakens 5
weakness 5
web@@ 5
weddings 5
weigh 5
weighs 5
wers 5
whereabouts 5
whereas 5
wherein 5
wider 5
wineries 5
witness 5
worrying 5
xay 5
xe_cộ 5
xe_khách 5
xi@@ 5
xia 5
xu@@ 5
xuống_@@ 5
xá 5
xáo_trộn 5
xâm_chiếm 5
ycle 5
yes 5
yp@@ 5
yêu_đương 5
za_@@ 5
zer 5
zes 5
zoos 5
Âm_nhạc 5
Út 5
àm_@@ 5
ày_@@ 5
áil 5
ám 5
ám_ảnh 5
áo_phao 5
át-xpi-rin 5
ãi 5
ãn 5
ét 5
êm 5
òng_@@ 5
õ 5
ùi_@@ 5
ý_muốn 5
Điền 5
Điện 5
Điện_tử 5
Đào 5
Đình 5
Đô 5
Đăk_@@ 5
Đại_Học 5
Đại_hội 5
Đại_hội_đồng 5
Đảng_Cộng_sản_Việt_Nam 5
Đồng_Tháp 5
Đứa 5
đe 5
điền 5
điều_@@ 5
điều_khoản 5
điệ@@ 5
điện_năng 5
điện_toán 5
điệu 5
đoạt 5
đun 5
đàn_@@ 5
đám_tang 5
đói 5
đóng_chai 5
đôi_lúc 5
đăng_nhập 5
được 5
đường_ống 5
đảm 5
đầu_vào 5
đậm 5
đắc_cử 5
đặc_@@ 5
đặc_khu_kinh_tế 5
đế 5
đề_tài 5
để_dành 5
để_ý 5
địa_danh 5
định_giá 5
định_hướng 5
đối_ngoại 5
đồ@@ 5
đồ_đạc 5
đồng_cỏ 5
đồng_tiền 5
đụng 5
ĩ 5
ĩ_@@ 5
ĩa 5
ĩnh 5
ơ@@ 5
ưu 5
ướt 5
ười_@@ 5
ưởi 5
ượ@@ 5
̀i 5
̀m 5
̉i 5
̉ng 5
̣n 5
̣ng 5
ς 5
ạc_sĩ 5
ạm_@@ 5
ạn_@@ 5
ạp 5
Ả_Rập 5
ả_@@ 5
ải_@@ 5
Ấ@@ 5
ấp_@@ 5
ầy 5
ắng 5
ằm 5
ẻo 5
ến_@@ 5
ể_@@ 5
ển 5
ệp 5
ọ_@@ 5
ỏ_@@ 5
ố_@@ 5
ống_khói 5
ốt_@@ 5
ộ_@@ 5
ớt_@@ 5
ờ 5
ởi 5
ợ@@ 5
ợ_@@ 5
ụ_@@ 5
ụt 5
ứ_@@ 5
ừa 5
ử 5
ửa_@@ 5
ửng 5
ựu_@@ 5
ỷ@@ 5
​​sự 5
​​trước 5
-24 4
-calorie 4
.com 4
.gov@@ 4
.uk 4
0,3% 4
0,5-1 4
0.4 4
0.6 4
03:00 4
0:30 4
1,069 4
1,6 4
1,6@@ 4
1-3 4
1.5@@ 4
1.65 4
103 4
10:00 4
10:30 4
11.4 4
11/9 4
114 4
121102 4
131 4
13th 4
141 4
147 4
15.9 4
155 4
160,000 4
161st 4
167 4
169 4
17% 4
176 4
176/2013 4
178 4
1800s 4
1818 4
182 4
185 4
186 4
1865 4
1882 4
1889 4
19-@@ 4
190@@ 4
191 4
1911 4
1919 4
192 4
1928 4
1931 4
1947 4
1954 4
1959 4
196 4
1961 4
1964 4
1976 4
1977 4
1:@@ 4
2,200 4
2,400 4
2,8 4
2,81 4
2.0@@ 4
2.400 4
2.81 4
2.9 4
20/8 4
2000s 4
2019-20 4
205 4
208 4
21-@@ 4
213 4
215 4
215,000 4
215.000 4
217 4
22.000 4
220.@@ 4
223 4
225 4
229 4
23.@@ 4
236 4
242 4
244 4
248 4
249 4
25,@@ 4
25-@@ 4
251st 4
26% 4
261 4
27.@@ 4
272 4
280,000 4
293 4
30,@@ 4
30-40% 4
3000 4
307 4
30s 4
31,@@ 4
310 4
31@@ 4
31st 4
322 4
323 4
327 4
336 4
344 4
35,000 4
362 4
367 4
36th 4
37% 4
372 4
378 4
38% 4
38.@@ 4
3:@@ 4
3x3 4
4,5 4
4,6 4
4,7 4
4-0 4
4.8 4
4.9 4
400@@ 4
405 4
407 4
417 4
42,000 4
423 4
425 4
431 4
454 4
460 4
471 4
472 4
490 4
49@@ 4
5,3 4
5,361 4
5,4 4
5,7 4
5.4 4
5/@@ 4
500-@@ 4
5000 4
500@@ 4
524 4
52nd 4
54@@ 4
556 4
56.@@ 4
56@@ 4
570 4
571 4
575 4
580,000 4
590 4
6,1% 4
6,3 4
6,5% 4
6,7 4
6.2 4
6.7 4
600.000 4
61st 4
62% 4
620 4
625 4
63% 4
633 4
67,@@ 4
675 4
685 4
690 4
695 4
70-@@ 4
706 4
73,000 4
730 4
735 4
755 4
764 4
774 4
777 4
780 4
789 4
78@@ 4
79% 4
7:30 4
7m 4
8.00 4
8.2 4
8.5@@ 4
8000 4
826 4
83% 4
840 4
86,@@ 4
863 4
870 4
88% 4
888 4
89% 4
90617 4
96% 4
960 4
> 4
A$ 4
AAG 4
ADD 4
ADL 4
AF@@ 4
AIDA 4
AJA 4
APEC 4
AQ 4
AR@@ 4
ARM 4
ARV 4
AS@@ 4
Aalborg 4
Abu 4
Abu_Dhabi 4
Act 4
Admir@@ 4
Adri@@ 4
Advances 4
Aedes 4
Afterwards 4
Agn@@ 4
Agnès 4
Agri@@ 4
Agudong 4
Ailee 4
Aingimea 4
Aircraft 4
Airline 4
Albania 4
Alber@@ 4
Alexa 4
Alexander_@@ 4
Ali 4
Alitalia 4
Aliyev 4
Alpha@@ 4
Alto 4
Alvarez 4
Amfo 4
Ammonium 4
Amok_Trey 4
An_Phú 4
Analy@@ 4
Andal@@ 4
Andy 4
Anh_chàng 4
Ann@@ 4
Anti-@@ 4
Antigu@@ 4
Antóni@@ 4
Any 4
Anzac 4
Applic@@ 4
Aquinas 4
Are@@ 4
Argenti@@ 4
Arizona 4
Armen@@ 4
Arsenal 4
Art 4
Art@@ 4
Asahi 4
Ash@@ 4
Ashra@@ 4
Asian_Cup 4
Asian_Games 4
Asner 4
Astronom@@ 4
Asunción 4
Athens 4
Atlantic 4
Atlas 4
Atmospheric 4
Attica 4
Attikon 4
Auschwitz 4
Austral@@ 4
Autom@@ 4
Average 4
Ay@@ 4
Ayliffe 4
Aylward 4
Ayudhya 4
Ayyu@@ 4
BA 4
BC@@ 4
BH@@ 4
BI@@ 4
BK@@ 4
BLE 4
BMX 4
BP 4
BV@@ 4
Baby_Yoda 4
Baghdad 4
Bah@@ 4
Baha@@ 4
Bahru 4
Bain 4
Balearic 4
Balochistan 4
Baltistan 4
Banja_Luka 4
Barbara 4
Barbie 4
Barcucci 4
Barra 4
Barreau 4
Barros 4
Basic 4
Bazar 4
Bear 4
Beau@@ 4
Belgian 4
Benjamin_@@ 4
Berges 4
Beyoncé 4
Bezos 4
BiVa 4
Bich 4
BigC 4
Big_@@ 4
Bing 4
Biologicals 4
Biologics 4
Biotechnology 4
Biên_Hoà 4
Biểu_@@ 4
Blitz 4
Blockchain 4
Boehler 4
Bolsonaro 4
Bolton 4
Bono 4
Bou@@ 4
Bourbon 4
Bow@@ 4
Braemar 4
Brazilians 4
Breitburg 4
Brest 4
Brighton 4
Brisbane 4
British_@@ 4
Bron@@ 4
Buckingham 4
Buda 4
Buddhist 4
Buhari 4
Bulgaria 4
Burkholderia 4
Bush 4
Butembo 4
By@@ 4
Bythewood 4
Bãi_@@ 4
Bình_An 4
Bình_Sơn 4
Bùi 4
Bùi_Chu 4
Bạch_hầu 4
Bản_thân 4
Bảng 4
Bảo 4
Bảo_tồn 4
Bất_chấp 4
Bắc_Bán_cầu 4
Bắc_Ireland 4
Bắc_Síp 4
Bắc_Ý 4
Bến_Thành 4
Bệnh_@@ 4
Bộ@@ 4
C2 4
CAGR 4
CCDC 4
CD8 4
CHU 4
CI@@ 4
CIB 4
CIRES 4
CITES 4
CJ 4
CMC 4
CN 4
CP 4
CPI 4
CR@@ 4
CS@@ 4
Cabello 4
Calderwood 4
Calling 4
Cameroon 4
Canalys 4
Canberra 4
Cang 4
Cape 4
Cape_Town 4
Capit@@ 4
Capita 4
Caracas 4
Cardi@@ 4
Carlos 4
Carlsen 4
Carnival 4
Carter 4
Casco 4
Castillejo 4
Catalonia 4
Catherine 4
Causes 4
Cemetery 4
Chalker 4
Challa 4
Challenge 4
Chang 4
Charlize 4
Chatbots 4
Chatterjee 4
Chec@@ 4
Chech@@ 4
Check 4
Cheek 4
Chel@@ 4
Chia 4
Chiến_@@ 4
Chongyou 4
Chosun 4
Christie 4
Christoph@@ 4
Chuhuiv 4
Chuyên_@@ 4
Chuẩn_@@ 4
Chuỗi 4
Chân_Mây 4
Chí 4
Chính_@@ 4
Chùa 4
Chương_@@ 4
Chống 4
Chồng 4
Chứng_khoán 4
Civiletti 4
Cl@@ 4
Clo@@ 4
Close 4
Cohen 4
Collomb 4
Colt 4
Companies 4
Compet@@ 4
Compiègne 4
Complex 4
Complications 4
Concer@@ 4
Conference 4
Confir@@ 4
Cong@@ 4
Connecticut 4
Conservation 4
Contact 4
Coordinator 4
Cork 4
Corona@@ 4
Corynebacterium 4
Cosmetics 4
Could 4
Coveney 4
Cowan 4
Cox 4
Craig@@ 4
Cres@@ 4
Criminal 4
Criteo 4
Crossrail 4
Crozier 4
Crump 4
Cruz 4
Crypto@@ 4
Crystal 4
Cultural 4
Cung_điện 4
Cyber 4
Cà_phê 4
Cách_mạng 4
Cách_mạng_Công_nghiệp 4
Câu 4
Câu_chuyện 4
Cé@@ 4
Cô@@ 4
Cô_@@ 4
Công_cụ 4
Công_nghệ_@@ 4
Cú@@ 4
Cải_@@ 4
Cảng 4
Cặp 4
Cỏ_@@ 4
Cổng 4
Cứu 4
Cửa_Tử 4
Cửa_hàng 4
Cửa_khẩu 4
DG@@ 4
DHA 4
DHS 4
DSDBO 4
DZB@@ 4
Daily@@ 4
Dak_@@ 4
Dal@@ 4
Dalai 4
Dalat_@@ 4
Dalat_Ultra_Trail 4
Dambri 4
Daniel_Kritenbrink 4
Dau 4
Days 4
Dec@@ 4
Deem 4
Deep 4
Degenhardt 4
Deli 4
Deloitte 4
Delpuech 4
Dere@@ 4
Detection 4
Detle@@ 4
Deyalsingh 4
Dha@@ 4
Dhabi 4
Dharan 4
Di 4
Di_@@ 4
Dictionary.com 4
Diet 4
Digital 4
Dijon 4
Dil@@ 4
Dinara 4
Ding@@ 4
Direc@@ 4
Diễm 4
Doboj 4
Donors 4
Downey 4
Dozens 4
Drag@@ 4
Dragon 4
Dravet 4
Dre@@ 4
Dream 4
DuPont 4
Dunas 4
Duệ 4
Dy@@ 4
Dzhokh@@ 4
Dầu_@@ 4
E. 4
E195 4
EC@@ 4
EFL 4
EMA 4
East_@@ 4
Economist 4
Editor 4
Edu@@ 4
Education_First 4
Eindhoven 4
Einstein 4
El_@@ 4
Elec@@ 4
Electricity 4
Elhayboubi 4
Elizabeth_@@ 4
Ellison 4
Elysee 4
Emer@@ 4
Emilia-@@ 4
Emp@@ 4
Employ@@ 4
Ep@@ 4
Epid@@ 4
Erdoğan 4
Erika 4
Esk@@ 4
Especially 4
Estadio 4
Esteb@@ 4
Eu@@ 4
Eva 4
Eva_Air 4
Evan 4
Evange@@ 4
Eve 4
Ewekoro 4
Examiner 4
Exclusive 4
Expl@@ 4
Export 4
Expres@@ 4
Ey@@ 4
FF@@ 4
FT 4
FTC 4
FTSE 4
Faceboo@@ 4
Fahrenheit 4
Falklands 4
Faroe 4
Fashion 4
Feli@@ 4
Ferguson 4
Fil@@ 4
Filipin@@ 4
Finding 4
Fine_Gael 4
Fire 4
Fire@@ 4
FlappyBird 4
Flemish 4
Flor@@ 4
Flu@@ 4
Flybe 4
Folklore 4
Forky 4
Former 4
Foun@@ 4
Fox_@@ 4
Franch@@ 4
Frank@@ 4
Frankfurt 4
Franço@@ 4
Fre@@ 4
Fren@@ 4
Fried@@ 4
Fulbright 4
Fun@@ 4
Furthermore 4
Fusarium 4
Fülö@@ 4
GAIA 4
GB 4
GH 4
GMP 4
GSAT 4
Galaxy_@@ 4
Galil@@ 4
Gama 4
Gamiz 4
Gamkrelidre 4
Ganguly 4
Gare@@ 4
Gartner 4
Gas@@ 4
Gatherings 4
Gau@@ 4
Gavi 4
Geographic 4
George_@@ 4
Gerwig 4
Giang_Hán 4
Giang_Tô 4
Giao_@@ 4
Gie 4
Gie_Trieng 4
Gill@@ 4
Giu@@ 4
Giuseppe 4
Giuseppe_Conte 4
Giám 4
Giáo_@@ 4
Giả@@ 4
Giấy 4
Giới_@@ 4
Gl@@ 4
Glad@@ 4
Glasgow 4
Glong 4
Gold@@ 4
Golikova 4
Gomera 4
Gonz@@ 4
Goodman 4
Governments 4
GrabFood 4
Gram@@ 4
Grand_Princess 4
Grap@@ 4
Graubünden 4
Greater 4
Greg@@ 4
Gren@@ 4
Griffith 4
Groninger 4
Gross 4
Gruzia 4
Guaidó 4
Gucci 4
Guterres 4
Gyeongbuk 4
Gò_Vấp 4
Gö@@ 4
HA 4
HA@@ 4
HAI 4
HLI 4
HO@@ 4
HT 4
Habeco 4
Haemophil@@ 4
Hal@@ 4
Hall 4
Halloween 4
Halsted 4
Hamburg 4
Hang@@ 4
Hann@@ 4
Hanni@@ 4
Hano@@ 4
Hanrahan 4
Happ@@ 4
Harare 4
Has@@ 4
Hate 4
Hauts 4
He_Jiankui 4
Head@@ 4
Healthcare 4
Heartbleed 4
Hedge 4
Hell 4
Hemisphere 4
Henry 4
Herd 4
Hidehi@@ 4
Highland 4
Him@@ 4
Himal@@ 4
Himalayan 4
Hindu 4
Hiot 4
Hiroshima 4
Hiế@@ 4
Hiệ@@ 4
Hole 4
Holland 4
Holmes 4
HomePod 4
Hon 4
Honey 4
Hong_@@ 4
Hope 4
Hopefully 4
Hospitals 4
Houston 4
Hoàng_Cương 4
Hoàng_Thị_@@ 4
Hughes 4
Hun 4
Hus@@ 4
Huy_@@ 4
Huyết_@@ 4
Hwange 4
Hydrogen 4
Hà_Nhì 4
Hà_Đông 4
Hã@@ 4
Hình_@@ 4
Hô_hấp 4
Hưởng 4
Hạt 4
Hải_Thành 4
Học_@@ 4
H’Mong 4
IDC 4
IEDCR 4
IELTS 4
IJCAI 4
IMF 4
IND 4
IPBF 4
IVAC 4
Iberia 4
Ignaz_Semmelweis 4
Ike 4
Import@@ 4
Indlov@@ 4
Indochina 4
Industries 4
Influenz@@ 4
Inner 4
Inspection 4
Inte@@ 4
Internation@@ 4
Iow@@ 4
Iraqi 4
J. 4
Ja@@ 4
Jac@@ 4
Jackson_@@ 4
Jan 4
Jeans 4
Jenkins 4
Jerome 4
Jesus 4
Jewish 4
Jianghan 4
Jiangsu 4
Jiankui 4
Jim_@@ 4
Jin@@ 4
Jo 4
Jodi 4
Joh@@ 4
Johnny 4
Jordanians 4
Josef 4
Ju 4
Juan 4
Juno 4
K-pop 4
KA@@ 4
KLM 4
KRX 4
Kadi 4
Kahlenberg 4
Kahumbu 4
Kai@@ 4
Kant@@ 4
Kanye_West 4
Kari@@ 4
Karnataka 4
Kater@@ 4
Kathmandu 4
Kathmandu_Post 4
Kazirang@@ 4
Keefe 4
Kei@@ 4
Kennedy 4
Kev@@ 4
Kevin 4
Khales 4
Kharkiv 4
Khe 4
Khmer 4
Kho 4
Kho_bạc 4
Khuyen 4
Khuyến_@@ 4
Khy@@ 4
Khách_sạn 4
Không_@@ 4
Không_chỉ 4
Khảo_@@ 4
Khởi_@@ 4
Kia 4
Kieu 4
Kikilias 4
Killpack 4
Kim_Tae_Hun 4
Kinda_Johnson 4
Kinshasa 4
Kio 4
Kiro@@ 4
Kiểm_@@ 4
Kleinman 4
Known 4
Koirala 4
Kok 4
Kom@@ 4
Kon 4
Kon_Tum 4
Kono 4
Koshi 4
Kosinski 4
Kpop 4
Krong 4
Krong_@@ 4
Kub@@ 4
Kucher 4
Kus@@ 4
Ky@@ 4
Kỳ@@ 4
Kỷ 4
LCSD 4
LDL 4
LHQ 4
LMC 4
LaSalle 4
Lab@@ 4
Labuan 4
Lama 4
Lanc@@ 4
Lancet 4
Landmark 4
Landscape 4
Langu@@ 4
Lat@@ 4
Late 4
Latvia 4
Lau@@ 4
Laurent 4
Leaf 4
Learning 4
Leary 4
Leh 4
Leicester 4
Leishenshan 4
Leisure 4
Les 4
Les@@ 4
Lesandric 4
Lesotho 4
Leste 4
Let@@ 4
Leuthold 4
Level 4
Lex@@ 4
Liang 4
Liber@@ 4
Liechtenstein 4
Lim@@ 4
Limassol 4
Lin@@ 4
Lind@@ 4
Linh-Hà 4
Linköping 4
Linzhou 4
Lion 4
Lis@@ 4
Literature 4
Live 4
Liver 4
Lizzo 4
Liệu_pháp 4
Lo 4
Loire 4
Lon@@ 4
London_@@ 4
Long@@ 4
Look 4
Lorenzana 4
Los_@@ 4
Louis@@ 4
Low 4
Lowcock 4
Loại 4
Luna 4
Lux 4
Luật_sư 4
Làm_sao 4
Lâm_Châu 4
Lã@@ 4
Lægevagten 4
Lô 4
Lý 4
Lưu 4
Lấy 4
Lối 4
Lợi_@@ 4
Lục_Ngạn 4
M-@@ 4
MA 4
MA@@ 4
MAG 4
MB@@ 4
MC@@ 4
MD 4
MERS-CoV 4
MEs 4
MH 4
MI@@ 4
MIB 4
MIPTV 4
MOP@@ 4
MR 4
MS@@ 4
MSG 4
MWG 4
MZ 4
MacLehose 4
Macao 4
Machine_Learning 4
Made 4
Madison 4
Mahidol 4
Mai@@ 4
Makova 4
Malaria 4
Mališevo 4
Mall 4
Maloney 4
Malpensa 4
Manhattan 4
Manion 4
Mansa 4
Manufacturers 4
Marchisotto 4
Marine 4
Marques 4
Marschhausen 4
Mary 4
Mas@@ 4
Masan_@@ 4
Maschmeyer 4
Masika 4
Mater@@ 4
Matsoukas 4
Mauritian 4
Mayer 4
Meas@@ 4
Med@@ 4
Medina 4
Medtronic 4
Melinda 4
Mem@@ 4
Member 4
Members 4
Memorial 4
Men@@ 4
Mercedes 4
Midd@@ 4
Millions 4
Mind@@ 4
Minzy 4
Missosology 4
Missouri 4
Mitsubishi 4
Miễn_@@ 4
MoHW 4
MoIT 4
Modi 4
Mogherini 4
Mohmand 4
Mol@@ 4
Molony 4
Money 4
Mongolia 4
Monitoring 4
Montreal 4
Moscow@@ 4
Mosk@@ 4
Motherwell 4
Mott 4
Mozgovojs 4
Mozilla 4
Mr@@ 4
Much 4
Muhammad@@ 4
Multiple 4
Murphy 4
Musa 4
Muslims 4
Mê 4
Mông 4
Müller 4
Mũi_@@ 4
Mưa 4
Mường_Tè 4
Mạng_lưới 4
Mặt_@@ 4
Một_@@ 4
Mới_đây 4
Mục 4
NCHEC 4
NCOVI 4
NDA 4
NEC 4
NEF 4
NHCC 4
NIH 4
NOAA 4
NORC 4
NYDC 4
Na_@@ 4
Nag@@ 4
Nagle 4
Naim 4
Nam_Bộ 4
Nam_Sa 4
Nam_Trung_Bộ 4
Nanogen 4
Napol@@ 4
Narita 4
Nationwide 4
Navigos 4
Neighbors 4
Neil 4
Nemeh 4
Net@@ 4
Newsweek 4
Nghia 4
Nghiệp 4
Nghĩa_@@ 4
Nghệ_sĩ 4
Nghệ_thuật 4
Nghị_quyết 4
Nguy@@ 4
Nguyễn_Minh_@@ 4
Nguyễn_Phú_Trọng 4
Nguyễn_T@@ 4
Nguyễn_Thanh_Long 4
Nguyễn_Trần_Trung_Quân 4
Nguyễn_Việt_@@ 4
Nguyễn_Đức_@@ 4
Ngăn_@@ 4
Nho 4
Nhon 4
Nhu@@ 4
Nhà_Bè 4
Nhà_hàng 4
Nhà_xuất_bản 4
Nhận_@@ 4
Niagara 4
Nicol@@ 4
Nicolá@@ 4
Nicosia 4
Niger 4
Nik@@ 4
Nike 4
Nimitz 4
Nimo@@ 4
Nina 4
Ninten@@ 4
Nissan 4
Nisshinkutsu 4
Nizamuddin 4
Niê 4
Nobel_@@ 4
Noble 4
None 4
Northeast 4
Nou@@ 4
Nowruz 4
Nu 4
Nuclear 4
Num@@ 4
Nà_Hills 4
Nàng 4
Nội-@@ 4
OH 4
ON 4
OS@@ 4
Oce@@ 4
Often 4
Ogun 4
Ok@@ 4
Olympiacos 4
Ontario 4
Opp@@ 4
Organ@@ 4
Oruro 4
Ow@@ 4
Ox@@ 4
Oxalis 4
Oxitec 4
Oxy@@ 4
Ozguruz 4
O’@@ 4
P. 4
PEP@@ 4
PEPFAR 4
PI@@ 4
PL@@ 4
PLOS 4
POLYVAC 4
PTSD 4
Pacyna 4
Pakhtunkhwa 4
Palace 4
Palmer@@ 4
Panama 4
Panel 4
Parachristo 4
Paralymp@@ 4
Parasol 4
Parents 4
Paso 4
Patr@@ 4
Patrick 4
Paul@@ 4
Paul_@@ 4
Pav@@ 4
Pavlo@@ 4
Pavlov 4
Pay 4
Pedia@@ 4
Penal 4
Pence 4
Performance 4
Perhaps 4
Perth 4
Pes@@ 4
Peter@@ 4
Peter_@@ 4
Peti@@ 4
Petr@@ 4
PetroVietnam 4
PhD 4
Pha@@ 4
Phan_Thiết 4
Pharmaceutical 4
Pharmacity 4
Philli@@ 4
Phim 4
Phosphine 4
Phu@@ 4
Physics 4
Phân_@@ 4
Phân_tích 4
Phạm_Nhật_Vượng 4
Phật_giáo 4
Phổi 4
Piece 4
Pier@@ 4
Piet 4
Pillai 4
Pin@@ 4
Piti@@ 4
Pix@@ 4
Pizza 4
Plan@@ 4
Planet 4
Poison 4
Polish 4
Politico 4
Pollu@@ 4
Potter 4
Poznan 4
Prea@@ 4
Premi@@ 4
President_Putin 4
Preventive 4
PricewaterhouseCoopers 4
Principe 4
Principles 4
Prof@@ 4
Proficiency 4
Profit 4
Programme 4
Project_@@ 4
Psycho@@ 4
Punjab 4
Q&@@ 4
Q. 4
QH1031 4
QH15@@ 4
QR970 4
Qua 4
Quaker 4
Quan_trọng 4
Quan_điểm 4
Quangnam 4
Que 4
Quin@@ 4
Quyết 4
Quán 4
Quý_@@ 4
Quần_đảo_@@ 4
Quần_đảo_Faroe 4
Quốc-@@ 4
Quốc_lộ 4
RDIF 4
REM 4
RES@@ 4
RIMPAC 4
RON 4
RTS 4
RTÉ 4
Rach@@ 4
Rafa@@ 4
Rai 4
Rainf@@ 4
Raj@@ 4
Ramaphosa 4
Rankings 4
Ravdonikas 4
Raven@@ 4
Reagan 4
Reb@@ 4
Recent 4
Records 4
Reddit 4
Reg@@ 4
Regional 4
Rel@@ 4
Relations 4
Remember 4
Reporter 4
Reports 4
Representatives 4
Research_@@ 4
Reserve 4
Resistance 4
Responding 4
Restaur@@ 4
Reyn@@ 4
Rhin 4
Rich@@ 4
Rico 4
Riella 4
Rigshospitalet 4
Rioja 4
Risch 4
Robb 4
Rober@@ 4
Roc@@ 4
Roma 4
Ronal@@ 4
Rosa 4
Roseman 4
Rosewood 4
Rouen 4
Roy@@ 4
Rudol@@ 4
Run@@ 4
Ryanair 4
Ryme 4
Rượ@@ 4
Rủi_ro 4
S8 4
SAR@@ 4
SE11 4
SE12 4
SEC 4
SJKC 4
SPT@@ 4
SQ@@ 4
SS 4
SU@@ 4
SVT 4
SW@@ 4
S_@@ 4
Saatchi 4
Saigontourist 4
Saikia 4
Saint_Paul 4
Saint_Petersburg 4
Sakellaropoulou 4
Sali@@ 4
Samco 4
Sanc@@ 4
Sap 4
Sarah 4
Satellite 4
Sawyer 4
Scanlon 4
Schneid@@ 4
Scott_Morrison 4
Sear@@ 4
Section 4
See 4
Sei@@ 4
Sel@@ 4
Selena 4
Selena_Gomez 4
Selçuk 4
Senator 4
Serve 4
Sha 4
Sheppard 4
Shilla_Monogram_@@ 4
Shokuiku 4
Shop_@@ 4
Shopee 4
Siberian 4
Siena 4
Simon 4
Simon_@@ 4
Sin@@ 4
Sineenat 4
Sinmun 4
Sinuiju 4
Sir 4
Sitting 4
Siêu_thị 4
Sky_@@ 4
Sky_Tour_Movie 4
Skycanner 4
Skype 4
Sleep 4
Sli@@ 4
Slov@@ 4
Snapchat 4
Sobyanin 4
Sokolowski 4
Solidarity 4
Solomon 4
Someone 4
Soo 4
Sophi@@ 4
Souillac 4
Soul 4
South_China_Morning_Post 4
Soviet 4
Space 4
Spea@@ 4
Speci@@ 4
Spencer 4
Sports@@ 4
Staff 4
Stand@@ 4
Stanford 4
Starbuck 4
Starthu@@ 4
Steve_Wozniak 4
Still 4
Stilwell 4
Strasbourg 4
Stre@@ 4
Street@@ 4
Strickland 4
Strong 4
Subang 4
Subsequ@@ 4
Sud@@ 4
Sum@@ 4
Suma@@ 4
Surajo 4
Sussex 4
Sust@@ 4
Suzuki 4
Sync 4
Sá@@ 4
Síp 4
Sơn_Đông 4
Sở_@@ 4
Sự_việc 4
T. 4
TCG 4
TEFL 4
TG@@ 4
TM 4
TRA 4
TS@@ 4
Ta 4
Ta@@ 4
Tabán 4
Tadesse 4
Tali@@ 4
Talk 4
Tameem 4
Tamer@@ 4
Tat@@ 4
Tayyip 4
Tea@@ 4
Tea_Leaf 4
Teachers 4
Teaching 4
Ted@@ 4
Tej@@ 4
Telangana 4
Tem@@ 4
Tennessee 4
Territ@@ 4
Teré@@ 4
Tess@@ 4
Tha 4
The_Shilla 4
The_Shilla_Hotels 4
Therac 4
Therac-@@ 4
Thiet 4
Thiếu_tướng 4
Thọ 4
Thuc 4
Thunberg 4
Thuong 4
Thuận_@@ 4
Thuỳ_@@ 4
Thành_công 4
Thánh_@@ 4
Thánh_Nicholas 4
Thông_cáo 4
Thăng_Long 4
Thương_hiệu 4
Thường_@@ 4
Thường_vụ 4
Thần_@@ 4
Thế_chiến 4
Thị_K@@ 4
Thị_Thu_@@ 4
Thống_@@ 4
Thời_@@ 4
Thời_điểm 4
Thủ@@ 4
Thừa 4
Thừa_Thiên_Huế 4
Tian@@ 4
Tidal 4
Tim_mạch 4
Timberlake 4
Timothy_Beardson 4
Tiêu_@@ 4
Tiếp_xúc 4
Tom@@ 4
Tom_@@ 4
Tome 4
Tony 4
Tor@@ 4
Toyo@@ 4
Traveller 4
Treasury 4
Tribhuvan 4
Tricho@@ 4
Trieng 4
Trojan 4
Trung_t@@ 4
Trust@@ 4
Trình 4
Trình_@@ 4
Trúc_Bạch 4
Trưng_@@ 4
Trần_Thanh_@@ 4
Trần_Đại_Quang 4
Trần_Đắc_Phu 4
Trụ_sở 4
Tsang 4
Tum 4
Tuong 4
Tuvalu 4
Tuyên 4
Tuyến 4
Tuyết 4
Tuyết_@@ 4
Tuấn_Anh 4
Tuần_lễ 4
Tuỳ@@ 4
Typ@@ 4
Tài_sản 4
Tàu_@@ 4
Tây_Nam 4
Tây_Phi 4
Tây_Tạng 4
Tô_Ân_Xô 4
Tôm 4
Tường 4
Tưởng_niệm 4
Tầm 4
Tỉ_lệ 4
Tố_An 4
Tối_cao 4
Tổ@@ 4
Tổng_công_ty 4
Tội_phạm 4
Từ_Liêm 4
Tỷ_@@ 4
UNHCR 4
USCIS 4
USTH 4
Ukra@@ 4
Ulyanovsk 4
Umrah 4
Uniqlo 4
Universit@@ 4
Urrego 4
Ursula 4
Use 4
Utt@@ 4
Uttarakhand 4
Uyên 4
VAPE 4
VBSP 4
VCPMC 4
VGB 4
VJ@@ 4
VL@@ 4
VN-Index 4
VN7@@ 4
VND100 4
VTC@@ 4
VTV@@ 4
Vag@@ 4
Vagabond 4
Vanel@@ 4
Vanh 4
Vasil@@ 4
Veg@@ 4
Vega 4
Veneno 4
Vermont 4
Veron@@ 4
Veterinary 4
Vic@@ 4
Vick@@ 4
Vie@@ 4
Vietnam_Air@@ 4
View 4
Vil@@ 4
Vill@@ 4
Villagas 4
VinCommerce 4
VinFas@@ 4
VinWon@@ 4
Vina 4
Vinacafe 4
Vinacas 4
Vincom 4
Vincommerce 4
Vinpearl 4
Virgin 4
Virunga 4
Vita 4
Viêm 4
Viết 4
Việt_Anh 4
Voic@@ 4
Volksw@@ 4
Vote 4
Vành_Khuyên 4
Vân_@@ 4
Vạc 4
Vận_@@ 4
Vậy 4
Vị_trí 4
Vợ 4
WIV 4
Wa@@ 4
Wakanda 4
Walmart 4
Walter 4
Want 4
Was@@ 4
Washington_@@ 4
Wat@@ 4
Waterglade 4
Wave 4
Way@@ 4
Well@@ 4
Wenzhou 4
West_@@ 4
Wester@@ 4
Westphalia 4
Wha@@ 4
Whitney 4
WiFi 4
Willi@@ 4
Wilmes 4
Windows_RT 4
Windsor 4
Wink@@ 4
Winner 4
Witcher 4
Womanizer 4
Wong 4
Woods 4
Work@@ 4
Working 4
Worldpanel 4
Wray 4
Writ@@ 4
Wu 4
Wyatt 4
X-quang 4
Xanh_@@ 4
Xinhu@@ 4
Xu_hướng 4
Xuân_Lan 4
Xác_@@ 4
YMC 4
Yahoo! 4
Yale 4
Yangon 4
Yasmeen 4
Yes 4
Yoda 4
Yokohama 4
Youth 4
Yên_Bái 4
ZTE 4
Zalo 4
Zealanders 4
Zhang_@@ 4
Zheng@@ 4
Zikusoka 4
Zoo 4
Zs 4
Zulia 4
Zwar@@ 4
Zürich 4
_Har@@ 4
_So@@ 4
_hình 4
_liệu 4
_thuộc 4
_thế 4
_thức 4
_tưởng 4
a_s@@ 4
a_và_@@ 4
aa 4
aband@@ 4
abdomen 4
abide 4
absorbed 4
abst@@ 4
abundant 4
acad@@ 4
accelerated 4
accepting 4
access@@ 4
accini 4
accolades 4
accompany 4
accoun@@ 4
accusation 4
ace@@ 4
ace_@@ 4
ached 4
acity 4
acked 4
acks 4
acou@@ 4
activ@@ 4
acu@@ 4
adaptation 4
adenovirus 4
adi 4
adic 4
adjacent 4
adjust@@ 4
administered 4
administrations 4
admitting 4
adolescent 4
adolescents 4
adv@@ 4
advertisement 4
advocacy 4
affili@@ 4
afore@@ 4
after@@ 4
afterward 4
aggregate 4
agne 4
agreements 4
agrees 4
aguar 4
aha@@ 4
ailment 4
aim@@ 4
airway 4
aison 4
akers 4
akor@@ 4
ala 4
alarming 4
alarms 4
albeit 4
aled 4
algorithms 4
alike 4
aling 4
alisation 4
alised 4
alist 4
alle@@ 4
alleg@@ 4
aller 4
alleviate 4
alongkorn 4
altar 4
altitude 4
alum@@ 4
amar@@ 4
amassed 4
ambassadors 4
ambo@@ 4
ambulances 4
ames_@@ 4
amm@@ 4
an_Airlines 4
analyzing 4
ance_@@ 4
ances@@ 4
ancy 4
aneurys@@ 4
ange 4
angol@@ 4
anh_t@@ 4
anh_tr@@ 4
anian 4
anis 4
anners 4
anno@@ 4
announcements 4
anonymity 4
anten@@ 4
anthems 4
anti-corruption 4
anti-flooding 4
antibacterial 4
anticip@@ 4
antigen 4
antimicrobial 4
antivirals 4
anxi@@ 4
anxious 4
anz@@ 4
ap 4
aper 4
apparel 4
applicable 4
applies 4
appointment 4
appropriation 4
approve 4
approving 4
aran@@ 4
archit@@ 4
architecture 4
ard_@@ 4
argue 4
ariol 4
arise 4
arrangements 4
arthritis 4
artistic 4
ary_@@ 4
asepsis 4
asing 4
asks 4
asp@@ 4
assem@@ 4
assertion 4
assessments 4
assistants 4
ast 4
ast@@ 4
asthma 4
at_@@ 4
atar 4
atch 4
ater@@ 4
ateur 4
athletes 4
ati 4
atrial 4
atrocities 4
attach 4
attempts 4
atten@@ 4
audi@@ 4
authenti@@ 4
authorization 4
authorized 4
awak@@ 4
ayev 4
aying 4
ayoun 4
ays 4
azz@@ 4
backwards 4
bacter@@ 4
bad@@ 4
baguette 4
baht 4
bakery 4
bands 4
bases 4
batt@@ 4
bean 4
bell 4
besto@@ 4
bettors 4
bi_@@ 4
bic@@ 4
bids 4
bio-fuel 4
biotic 4
bitter 4
bị 4
biế@@ 4
biến_@@ 4
biể@@ 4
biệt_@@ 4
biệt_thự 4
blocks 4
bloo@@ 4
bloodstream 4
blow 4
blowing 4
bo 4
bodily 4
bom_@@ 4
borro@@ 4
borrowed 4
bot 4
bot@@ 4
bottled 4
bounce 4
bound 4
bour@@ 4
bovis 4
bow 4
bra 4
brac@@ 4
brace 4
bracelet 4
brave 4
breath@@ 4
breeding 4
briefly 4
brigh@@ 4
brilliant 4
brink 4
broad 4
brow@@ 4
bru 4
buckwheat 4
buil@@ 4
bullying 4
bun 4
businessman 4
businesspeople 4
businesswoman 4
buyer 4
bù 4
buồn_@@ 4
bà_@@ 4
bài_tiết 4
báo_@@ 4
bã 4
bãi_@@ 4
bé_@@ 4
bình_an 4
bí_@@ 4
bóng_đèn 4
bún_bò 4
băng_@@ 4
bước_đầu 4
bạc_hà 4
bạn_đời 4
bản_chất 4
bảo_hiểm_y_tế 4
bất_công 4
bậ@@ 4
bận 4
bật_đèn_xanh 4
bắ@@ 4
bắp 4
bắt_nạt 4
bền 4
bị_@@ 4
bỏ_bê 4
bố_trí 4
bổ_dưỡng 4
bộ_đội 4
bộc_@@ 4
c_s@@ 4
c_độ 4
ca_hát 4
ca_nhạc 4
cab@@ 4
cad@@ 4
cafaria 4
caffeine 4
calendar 4
calories 4
canceling 4
cand@@ 4
cane 4
canh_@@ 4
cannabinoids 4
cao_lầu 4
cao_tốc 4
cao_độ 4
cap 4
capita 4
capped 4
cappuccino 4
caption 4
carbolic 4
carcinoma 4
cardiac 4
caro@@ 4
cashless 4
castration 4
cater 4
cautioned 4
cease 4
ceed 4
cel@@ 4
cell@@ 4
cenocepacia 4
centimeters 4
cha@@ 4
cha_anh 4
cha_ông 4
chair@@ 4
chamber 4
champion 4
chang 4
chaotic 4
characterized 4
chard 4
chart 4
chauffeur 4
che_đậy 4
cheat 4
cheating 4
checkpoint 4
checkup 4
chess 4
chil@@ 4
chips 4
cho_dù 4
choices 4
chol@@ 4
chromo@@ 4
chron@@ 4
chronology 4
chte 4
chu_kỳ 4
chung_@@ 4
chung_thân 4
chuyển_hướng 4
chuyển_tiếp 4
chục 4
chuẩn_mực 4
chào 4
chân_tay 4
châu_@@ 4
chích 4
chính_đáng 4
chót 4
chôn_cất 4
chăm_@@ 4
chưa_thể 4
chải 4
chật_chội 4
chật_hẹp 4
chật_vật 4
chớ 4
chủ_thể 4
chủng_@@ 4
chứng_thực 4
chữ_@@ 4
cian 4
cigarettes 4
cin 4
cinema 4
cir@@ 4
circuit 4
circular 4
circulated 4
circulation 4
civi@@ 4
clarify 4
classi@@ 4
classic 4
classmate 4
classroom 4
classrooms 4
cle@@ 4
clean@@ 4
cleared 4
cliff 4
climb 4
clinic@@ 4
clinically 4
clists 4
closes 4
closest 4
clues 4
co_@@ 4
coasts 4
coccus 4
cognitive 4
coin 4
cola 4
coli 4
collapse 4
colors 4
comatose 4
combating 4
combines 4
comedy 4
command 4
commence 4
communal 4
compan@@ 4
competitions 4
compl@@ 4
complain 4
complicates 4
comprises 4
compromise 4
compromised 4
conceding 4
conclusions 4
concrete 4
condi@@ 4
condolences 4
conf@@ 4
confessed 4
confined 4
conflicting 4
conflicts 4
confusion 4
connectivity 4
conservative 4
considerable 4
considerably 4
consideration 4
considerations 4
consultant 4
consultation 4
cont@@ 4
contacting 4
contam@@ 4
contingency 4
contribu@@ 4
conve@@ 4
conven@@ 4
conventional 4
convergence 4
converted 4
cooks 4
coolest 4
coordinated 4
coordination 4
cop@@ 4
coral 4
cord@@ 4
coronary 4
correction 4
couples 4
coupon 4
cousin 4
crab 4
crack 4
crackdown 4
cracks 4
crafted 4
crave 4
crazy 4
creativity 4
creators 4
creature 4
creatures 4
cred@@ 4
credited 4
crews 4
crickets 4
crip@@ 4
cro@@ 4
cross-@@ 4
crushed 4
culprits 4
cultivating 4
cumulative 4
curiosity 4
curious 4
curriculum 4
custom@@ 4
cuộn 4
cycling 4
cytokines 4
cành 4
cách_@@ 4
có_@@ 4
công_nghiệp_hoá 4
công_nghiệp_nặng 4
công_nghệ_sinh_học 4
công_sức 4
công_tố_viên 4
cúp 4
cơ_động 4
cư 4
cường 4
cải 4
cảm_@@ 4
cảm_thông 4
cảm_ứng 4
cấu_tạo 4
cầ@@ 4
cầu_thang 4
cẩn_trọng 4
cọ 4
cố@@ 4
cống_hiến 4
cốt 4
cổ_tay 4
cổ_điển 4
cộng_@@ 4
cộng_sản 4
cục_bộ 4
cứu_mạng 4
cử_nhân 4
cửa_@@ 4
cửa_hiệu 4
da_liễu 4
da_màu 4
dation 4
daycare 4
de-@@ 4
de-Marsan 4
de_@@ 4
dealer 4
deb@@ 4
debates 4
debris 4
declare 4
decor@@ 4
decorated 4
dedicated 4
deer 4
defective 4
defenses 4
defensive 4
defines 4
dehydr@@ 4
deliberately 4
delic@@ 4
delivering 4
demarcation 4
demographic 4
demonstrated 4
demonstration 4
demoted 4
dense 4
denti@@ 4
depen@@ 4
dependence 4
deposit 4
depressions 4
deri@@ 4
describing 4
deser@@ 4
despair 4
dest 4
destroying 4
destruction 4
destructive 4
detain@@ 4
detective 4
detention 4
deter@@ 4
deterior@@ 4
devastating 4
di_dời 4
di_trú 4
dia@@ 4
didn 4
dig 4
digi@@ 4
dimen@@ 4
ding_@@ 4
diocese 4
diplomat 4
directs 4
disc@@ 4
discharge 4
discussing 4
disembar@@ 4
disgu@@ 4
dismiss 4
disparity 4
dispat@@ 4
displays 4
dissemination 4
distingu@@ 4
distrac@@ 4
distribu@@ 4
distribute 4
distur@@ 4
div@@ 4
dividends 4
diễn_@@ 4
diễn_giả 4
diễn_tập 4
dle 4
dness 4
doanh 4
dol@@ 4
dom 4
domain 4
dominates 4
donor 4
dor@@ 4
downturn 4
drilling 4
drives 4
du_học 4
duck 4
ducks 4
dues 4
dulzania 4
duyên_hải 4
dàn_@@ 4
dân_chúng 4
dây_chuyền 4
dây_thần_kinh 4
dõi 4
dùng_bữa 4
dĩ_nhiên 4
dương_@@ 4
dạt 4
dấu_ấn 4
dẫn_@@ 4
dễ_chịu 4
dị 4
dời 4
dụ_dỗ 4
dự_bị 4
e-visas 4
e-wallets 4
e.l.@@ 4
e_B@@ 4
earson 4
eball 4
eco-friendly 4
ecosystems 4
ector 4
eda 4
edited 4
editor 4
edy 4
eful 4
ege 4
egypti 4
eiwes 4
elev@@ 4
elevator 4
eliminating 4
elimination 4
ell_@@ 4
ella_@@ 4
ells 4
ementary 4
emics 4
emphas@@ 4
enabling 4
ences 4
encing 4
encro@@ 4
ener@@ 4
enfor@@ 4
enforce 4
enforced 4
enforcing 4
eng 4
engaging 4
enland 4
enrichment 4
ensured 4
ent_@@ 4
entation 4
entity 4
entive 4
entrepreneurship 4
envelo@@ 4
environmentally 4
envisa@@ 4
enz@@ 4
eon_@@ 4
eong@@ 4
eping 4
equi@@ 4
erated 4
erating 4
erec@@ 4
erg@@ 4
erical 4
erupted 4
escal@@ 4
escalate 4
escu 4
espionage 4
ess_@@ 4
essentially 4
esses 4
essional 4
estyle 4
etate 4
ete 4
ethical 4
etting 4
eutenant 4
eve 4
everol 4
everyday 4
evolution 4
ex 4
exacerb@@ 4
exchanged 4
execu@@ 4
exhi@@ 4
existed 4
existential 4
expedite 4
expenditure 4
expired 4
explosive 4
expo@@ 4
expose 4
extension 4
ey_@@ 4
ez 4
ez@@ 4
f. 4
facts 4
fails 4
failures 4
fanpage 4
fantastic 4
fascinating 4
fat 4
favourite 4
fax 4
fevers 4
fiable 4
fiber 4
fibrillation 4
fiel@@ 4
fif@@ 4
fifteen 4
fights 4
filing 4
financially 4
financing 4
fingers 4
fire@@ 4
firing 4
fisherman 4
fits 4
flags 4
flashpoint 4
flashpoints 4
fleeing 4
flo@@ 4
flycam 4
foc@@ 4
fog 4
footballer 4
forestry 4
forever 4
formally 4
formation 4
fortunate 4
forums 4
fourteen 4
fraction 4
freely 4
frequented 4
friend@@ 4
friendship 4
fronts 4
fts 4
fueled 4
funerals 4
funny 4
fusion 4
gal@@ 4
gar 4
garlic 4
garnered 4
gastrointestinal 4
generous 4
geni@@ 4
genitals 4
geo@@ 4
geographic 4
gesture 4
gger 4
gh 4
ghi_hình 4
ght@@ 4
ghóp 4
gi 4
gia@@ 4
giai_điệu 4
giam_@@ 4
gible 4
gie 4
giàn 4
giường_bệnh 4
giả@@ 4
giải_ngân 4
giải_tán 4
giảm_sút 4
giấy_@@ 4
giống_hệt 4
giới_@@ 4
giới_chức 4
glasses 4
glu@@ 4
gods 4
gol@@ 4
gor@@ 4
gorilla 4
gossip 4
grab 4
grad 4
gradual 4
grant 4
gri@@ 4
gu 4
guaranteed 4
gui 4
guided 4
gun@@ 4
gut 4
gyu 4
gây_@@ 4
gạt 4
gậy 4
gặp_mặt 4
gặt_hái 4
gộp 4
gờm 4
ha_@@ 4
hacked 4
handing 4
happier 4
happily 4
hard@@ 4
hay_ho 4
hch@@ 4
head@@ 4
headache 4
headline 4
headquartered 4
heal 4
health@@ 4
heartbeat 4
hepatocellular 4
herds 4
hero 4
hi_@@ 4
hidden 4
highlight 4
historian 4
historically 4
hiểm_hoạ 4
hiểm_nghèo 4
hiện_giờ 4
hiện_sinh 4
hiện_vật 4
hiệp_@@ 4
hiệp_định 4
hoa_@@ 4
hoa_hồng 4
hoa_màu 4
hom@@ 4
homeland 4
homework 4
horrible 4
hostile 4
hotline 4
hottest 4
hou@@ 4
house@@ 4
housemaid 4
hovering 4
hoài_nghi 4
hoàng_@@ 4
hoàng_đế 4
hoá@@ 4
hoóc 4
hoại_tử 4
hoạt_hình 4
human@@ 4
hurricane 4
huyền_thoại 4
hyth@@ 4
hài 4
hài_@@ 4
hái 4
hét 4
hình_như 4
hình_vuông 4
hô 4
hôi_thối 4
hạch 4
hải_@@ 4
hậu_@@ 4
hẹp 4
hệ_@@ 4
học_trò 4
hồi_sức 4
hồng_cầu 4
hồng_ngoại 4
hỗ 4
hội_chợ 4
hội_tụ 4
hứng 4
iCheck 4
iSEE 4
iTunes 4
ials 4
ica_@@ 4
icillin 4
ida 4
ideal 4
idity 4
iello 4
iest 4
ig 4
igg@@ 4
igh 4
ight 4
ign@@ 4
ignoring 4
igo 4
igu@@ 4
ij@@ 4
ila 4
ila_@@ 4
illicit 4
illy 4
ily 4
ime 4
immunization 4
immunoassay 4
imp@@ 4
impe@@ 4
implicated 4
implied 4
impression 4
imprisonment 4
ina@@ 4
inal 4
inclusion 4
inclusive 4
incorpor@@ 4
incorrectly 4
incub@@ 4
inda 4
inda_@@ 4
indefinite 4
independently 4
indication 4
iners 4
infec@@ 4
infectees 4
infested 4
inflated 4
inflation 4
influ@@ 4
influenc@@ 4
inform@@ 4
infrared 4
infringing 4
inhabitants 4
inhabited 4
inherited 4
inhi@@ 4
ini 4
initiate 4
initiative 4
inj@@ 4
inject 4
injecting 4
insensitive 4
insisted 4
inspec@@ 4
inspections 4
institution 4
institutional 4
instruction 4
intact 4
intake 4
intentionally 4
[...]
